#version: 0.2 - Trained by `huggingface/tokenizers`
a n
Ġ t
e r
s t
Ġt h
Ġ i
a s
an t
s i
o u
Ġ a
as si
assi st
assist ant
u s
us er
Ġ w
Ġ o
Ġ h
Ġ y
a t
r e
i n
Ġ f
Ġth e
Ġy ou
Ġ s
Ġ c
Ġ p
Ġ l
a y
Ġ m
e l
Ġ b
o r
in g
Ġ an
Ġt o
Ġ d
e s
Ġ g
o n
Ġ n
e n
t h
o o
a r
Ġo k
Ġan d
Ġok ay
Ġth at
Ġw h
Ġi s
o w
k e
Ġi n
l l
Ġf or
o m
Ġo n
g h
e d
r i
v e
Ġp l
Ġl i
gh t
Ġw i
Ġi t
Ġh el
Ġ re
a l
Ġc an
i c
Ġli ke
l d
' s
Ġwh at
o t
Ġo f
a ve
Ġm e
Ġa re
er e
Ġb e
ou ld
u r
i ght
Ġn e
Ġth an
Ġhel p
Ġh ave
e t
n d
Ġh ow
c h
Ġd o
c e
l e
Ġthan k
Ġ r
i r
e a
i s
Ġa t
om e
Ġwi th
oo d
Ġ st
Ġs e
Ġm o
v i
Ġthe y
i t
Ġon e
s e
ou t
Ġw ould
Ġf l
Ġ 1
oo k
a m
i l
ou nd
Ġpl ay
i on
Ġc h
Ġh i
Ġb y
Ġ j
Ġyou r
Ġo r
Ġg ood
Ġan y
Ġ e
Ġfl ight
in d
en t
Ġh ot
Ġs u
Ġy es
' m
vi e
Ġl ook
Ġhot el
th ing
Ġ k
Ġth ere
f er
Ġ 2
Ġa b
v er
a st
l o
c t
Ġg re
ri ght
Ġf r
Ġwi ll
e st
Ġmo vie
Ġa l
Ġgre at
Ġ $
Ġ u
Ġ el
Ġf ind
Ġab out
Ġg o
Ġth is
o p
Ġs ome
i m
Ġel se
a il
c k
el l
a d
Ġlook ing
Ġj u
a ll
Ġw ant
Ġd i
d er
' d
Ġp re
Ġn o
Ġl o
Ġre st
Ġa ll
Ġfr om
Ġm u
a ce
a ur
aur ant
Ġrest aurant
Ġa m
Ġp er
Ġne ed
Ġhel lo
l y
d ay
Ġby e
Ġs o
am e
n t
u t
at ion
Ġs ound
as e
c on
Ġthe ir
Ġt im
Ġpl ace
Ġl et
Ġpl e
Ġs h
Ġl ast
' re
b le
Ġw as
Ġple ase
Ġse e
Ġ 4
Ġsu re
' ll
ou r
Ġst ar
an d
a in
on g
Ġwh o
b y
f or
0 0
Ġa r
Ġany thing
Ġs p
Ġc o
Ġp m
er s
Ġsound s
Ġ out
Ġpre fer
f e
Ġju st
Ġmu ch
Ġ en
Ġ 3
q u
x t
Ġl ea
a ke
oo m
re e
Ġp ri
Ġg ame
Ġtim e
Ġ right
Ġne xt
Ġt w
Ġh as
Ġt r
Ġn ight
Ġk n
Ġf ir
Ġr at
Ġfir st
o y
by e
Ġh ere
c o
Ġal right
Ġs ong
c ome
Ġw el
Ġtw o
th er
Ġwel come
Ġkn ow
en d
ar t
Ġ 5
Ġor der
g e
Ġd e
Ġne w
ar d
Ġf ound
Ġn ow
Ġt ell
u l
Ġdi d
ea h
Ġr oom
Ġc on
Ġh e
Ġy eah
ur n
con d
Ġgood bye
Ġse cond
al i
Ġ 7
Ġto day
Ġm an
i a
es s
ic h
s s
Ġa g
Ġsome thing
j oy
a v
Ġen joy
ke t
Ġag ain
in e
at er
Ġplay ing
Ġn ot
o s
Ġ as
Ġpri ce
Ġd ay
Ġc l
c i
Ġre t
Ġ si
Ġret urn
a k
it y
or k
Ġb ook
in k
a ck
Ġl e
Ġo p
Ġ 9
c es
Ġch e
ic e
Ġ &
Ġmo re
a ble
Ġc ould
Ġ1 0
ver y
Ġi f
Ġm in
Ġt ake
Ġm y
t t
g u
ic ket
Ġw on
Ġt icket
Ġ 6
Ġw e
Ġagain st
Ġf e
Ġm om
as s
Ġm ar
Ġg et
d e
at e
Ġg ot
Ġmom ent
Ġa d
Ġa ir
Ġu n
u m
Ġdo es
en ce
Ġc ity
n e
oo l
Ġwh en
Ġrat ing
Ġth ink
Ġlo c
Ġa v
Ġl a
fe ct
Ġc om
at ch
ion s
Ġper fect
s o
Ġ qu
ail s
all y
Ġu p
Ġc ur
r o
Ġfind ing
Ġche ck
ic an
Â ł
' t
i ve
Ġstar s
Ġ 8
Ġh o
Ġd et
Ġwh ich
er v
Ġc all
or t
re nt
Ġw ell
Ġsh ow
a ch
er n
Ġle ave
ic k
Ġb ut
Ġcur rent
Ġn on
p e
Ġ2 0
Ġa ct
Ġc a
Ġal so
Ġm ay
Ġd in
Ġcall ed
ail able
Ġplay ed
i es
Ġav ailable
ow n
Ġse at
Ġdet ails
a g
Ġf ood
Ġc ali
r y
for n
Ġst ay
Ġcali forn
Ġ very
ri p
Ġcl ass
Ġb u
n er
Ġcaliforn ia
Ġb ar
st op
Ġne ar
i d
Ġgo ing
Ġw in
Ġb o
re ct
u n
Ġ v
an s
Ġwh ere
Ġar ri
Ġf ree
Ġlea v
Ġp ar
Ġman y
Ġo ther
Ġa p
3 0
b er
at ed
Ġb re
is h
Ġcurrent ly
Ġsu nd
Ġho ld
n ight
Ġde p
Ġth ing
Ġmin ut
Ġa w
b e
Ġre c
Ġw est
en ces
m ation
Ġb ack
Ġsund ay
Ġth ree
in es
fer ence
co re
Ġdin ner
Ġo h
Ġs core
Ġam er
Ġdep art
Ġthe n
Ġp i
Ġd r
Ġw atch
Ġprefer ences
re ss
z z
Ġair l
Ġcon ference
s on
Ġto night
Ġe x
Ġad d
ar y
Ġp e
Ġs a
n ing
Ġd on
Ġwon der
Ġc ent
i st
o se
at es
Ġe m
Ġs an
a p
f t
Ġ1 1
o l
Ġamer ican
Ġthank s
gu e
vie w
Ġf i
Ġf our
f i
1 5
Ġthe ater
Ġin t
Ġy ork
Ġminut es
Ġg u
Ġhe ar
Ġf ri
t on
v en
Ġsp e
Ġticket s
Ġs erv
Ġs end
or d
n ess
Ġin for
Ġp ro
Ġh ou
Ġop t
Ġmo vi
Ġre s
es ome
Ġbre ak
Ġto m
Ġk ind
Ġaw esome
Ġpar k
Ġmovi es
Ġh our
al k
Ġinfor mation
Ġspe ci
it ed
Ġlea gue
Ġb ed
o ver
t s
Ġfr an
Ġthe m
Ġroom s
Ġl ay
Ġpi zz
Ġfl y
Ġw ork
Ġr an
Ġun ited
l i
f ast
Ġr o
Ġop en
Ġbreak fast
tt y
Ġs al
p er
Ġt rip
Ġ ea
si c
Ġpre tty
Ġlay over
Ġmar ch
Ġc or
st on
at ur
ot t
Ġth ose
Ġg ive
Ġbe ach
Ġmu sic
u re
Ġt y
Ġh ome
Ġof fer
Ġhi gh
Ġar t
Ġto o
ea d
1 0
Ġleav ing
Ġem ail
l and
Ġp os
Ġf ine
it e
Ġli st
e k
u b
Ġ -
op le
Ġpe ople
t ing
Ġrec ord
nd er
Ġsh ould
r ow
Ġcor rect
Ġju ne
ing s
Ġloc ated
Ġflight s
a re
p h
ul ar
Ġa u
Ġp ool
Ġr ound
Ġpos si
5 0
Ġd ates
r u
Ġqu est
am es
i ll
Ġarri v
Ġ vi
e m
est er
Ġd el
Ġpl us
Ġrat ed
Ġre ally
Ġart ist
Ġlo ss
t le
Ġper son
i an
ou gh
â Ģ
Ġch ea
is co
d o
Ġairl ines
Ġu nder
Ġm or
Ġt ea
a c
Ġty pe
Ġpizz a
2 0
f ic
Ġs et
Ġst op
Ġ1 2
Ġ ri
Ġj o
Ġmor ning
Ġn ice
Ġpossi ble
Ġhotel s
Ġp ick
a x
o re
Ġfran c
it es
Ġopt ions
Ġb r
Ġrestaurant s
Ġchea p
Ġit ali
Ġbo th
Ġfranc isco
al s
Ġwin s
Ġtea m
Ġp h
Ġadd ress
Ġdi f
u p
do or
Ġitali an
atur day
Ġs aturday
ation s
st ar
ri t
Ġb al
Ġwe ek
a b
Ġea st
Ġa ft
nt own
Ġseat tle
Ġe ven
Ġp art
ow ntown
Ġloss es
ad y
u ll
Ġc lo
Ġd owntown
a w
t a
Ġc ou
Ġc u
Ġb ur
u e
oo se
Ġran ge
Ġ (
Ġdif fer
Ġb l
Ġe at
Ġt e
Ġcent er
ke d
Ġch oose
Ġg ames
Ġsu ites
Ġi m
Ġtr ail
Ġc as
Ġrating s
s c
Ġlo st
el y
Ġc ar
Ġu nt
Ġdiffer ent
Ġl ater
Ġe ar
Ġon ly
Ġhou ston
Ġch ic
Ġunt il
Ġbe en
Ġ1 5
ke e
ar ch
o ther
Ġan other
g g
Ġch o
Ġk ing
on e
g ers
Ġre view
Ġre d
Ġe con
Ġecon om
Ġse arch
Ġtim es
u al
Ġpl an
4 0
Ġlook s
an ce
Ġc ool
Ġeconom y
Ġtr av
Ġwonder ing
Ġin n
Ġfe w
ant a
Ġhour s
Ġcon f
Ġre ady
a i
Ġtrail er
it ies
Ġp o
Ġbu si
c l
Ġbusi ness
Ġtr y
Ġg r
p ort
g el
f ul
ble m
Ġpro blem
w ich
Ġcheap est
Ġf c
Ġs ou
Ġ1 9
Ġnon stop
Ġeven ing
e en
' ve
Ġap p
f ri
at o
ri l
Ġcom ed
t im
Ġm i
or ry
Ġbal con
Ġap ril
l es
ere st
i re
Ġint erest
g le
Ġs orry
Ġtrav el
4 5
Ġan gel
Ġday s
Ġquest ions
al e
Ġs ame
Ġm ake
Ġwest ern
Ġconf ir
m it
Ġar ound
Ġcas ual
Ġg en
Ġto t
a z
p le
Ġju ly
g er
Ġres erv
Ġout door
i e
Ġco st
Ġclo se
Ġs w
Ġam en
Ġarri ve
Ġy e
Ġpart ic
Ġamen ities
Ġl ess
Ġtot al
âĢ Ļ
Ġpartic ular
p t
Ġm il
Ġth r
p l
Ġf ar
Ġs and
2 5
Ġthr ough
Ġst and
Ġ1 6
Ġre nt
Ġ assistant
Ġf it
m an
Ġarriv es
Ġn ation
Ġme x
ag o
Ġsal ad
r a
or s
Ġw ere
re n
Ġact ion
Ġs ay
Ġli mit
Ġchic ago
Ġs m
av is
Ġbe st
Ġseat ing
t y
Ġa h
Ġd avis
Ġreview s
Ġfe b
Ġsand wich
Ġdi rect
g o
Ġlo s
Ġspeci fic
c c
Ġlea st
Ġloc ation
u ally
Ġe very
ri ll
f fe
as on
ch ester
on t
op e
1 7
m os
Ġdo ing
Ġt alk
Ġg oo
o on
Ġat mos
Ġatmos ph
n a
Ġfi le
Ġstar ting
z e
Ġn ame
Ġc re
Ġatmosph ere
Ġl ar
Ġangel es
Ġhe ard
Ġlist en
Ġpark ing
Ġor le
Ġsi m
Ġco ach
Ġte x
Ġcomed y
Ġgoo gle
Ġshow ing
Ġorle ans
m ent
Ġdel ta
Ġw alk
Ġc our
Ġneed ed
Ġco ffe
Ġmay be
Ġli tt
at h
Ġf av
Ġlitt le
Ġp al
Ġleav es
Ġperson al
ru ary
Ġmex ican
Ġtom ato
Ġbalcon y
Ġm ind
Ġact ually
r d
at t
Ġre qu
Ġgen re
Ġfeb ruary
on d
Ġf ive
Ġch ick
Ġf ull
f f
Ġm ad
Ġthe se
Ġfav or
Ġt v
Ġh is
Ġl ong
Ġchick en
ea k
es e
i si
Ġ view
ern oon
Ġaft ernoon
Ġth ai
Ġo ver
it ch
Ġca fe
Ġtex as
Ġme al
Ġf il
n g
m i
am p
Ġb i
Ġl ou
Ġst re
si on
us h
Ġah ead
Ġg l
Ġc ome
g et
5 5
y le
Ġw ar
m er
Ġex p
Ġfil m
st in
Ġre pe
Ġrepe at
ou s
Ġs ea
Ġmo st
Ġman ag
Ġex c
Ġs c
Ġin d
n es
Ġd es
a ge
Ġre g
f in
r oom
or row
Ġd ish
in s
Ġevery thing
b o
Ġco l
er ve
Ġtom orrow
u d
Ġlo ve
Ġmanag er
t rip
Ġserv ice
3 5
Ġfit ness
Ġstay ing
Ġdr am
Ġal b
Ġgo al
0 5
l ish
Ġen g
r am
Ġpo in
re en
Ġdepart ing
Ġeast ern
Ġmin i
i p
Ġairl ine
re ci
Ġk id
Ġapp reci
Ġn um
Ġye ar
Ġp a
Ġam c
Ġnation al
oo ked
Ġ1 4
Ġ ve
Ġf in
ines e
Ġcho ice
si ve
Ġch inese
Ġau stin
Ġfavor ite
Ġd own
Ġlar ge
Ġs qu
Ġappreci ate
Ġ z
Ġad ul
w h
Ġvi de
Ġ1 8
i um
Ġs ch
Ġw ay
Ġgu ard
kee per
Ġfl at
w ay
ent o
gg est
st er
Ġse ason
re s
Ġsa c
Ġh er
Ġnum ber
Ġb ooked
ram ento
Ġvide o
Ġcou ple
Ġmil es
Ġtomato es
Ġsac ramento
1 2
ing ton
Ġhou se
Ġd ate
Ġman chester
Ġbe t
Ġg al
Ġm en
Ġpre mi
en sive
il ar
Ġcu isi
Ġcoffe e
Ġreturn ing
Ġwas h
Ġtake out
ell ent
Ġexc ellent
Ġf am
Ġch ar
Ġsp a
Ġo ce
Ġto p
gu st
Ġcuisi ne
Ġl and
Ġau gust
Ġoce an
Ġf an
Ġin cl
Ġsp end
Ġair port
Ġw om
ad o
Ġsim ilar
3 00
Ġsi de
9 9
y n
Ġwith in
Ġres ort
ur y
f ood
i le
Ġt ub
Ġalb um
Ġl ot
Ġnear by
Ġdepart s
t u
Ġgoal keeper
Ġshow tim
Ġstre et
Ġare a
Ġgal ax
Ġhe y
00 0
Ġgalax y
Ġwash ington
a ces
Ġs l
Ġinterest ed
Ġr om
it ion
ott en
Ġoffer ing
Ġfam il
Ġrequ ire
Ġm ak
Ġ1 7
d ge
w een
Ġbed s
Ġsea food
Ġstand ard
Ġdram a
Ġbet ween
Ġs ent
Ġs anta
Ġb a
Ġsm all
Ġo ld
Ġdish es
Ġqu art
ir d
am i
Ġst eak
Ġm on
Ġm ood
Ġd ri
Ġ2 4
Ġr otten
i ld
Ġwom an
Ġ1 3
1 3
as h
em ber
end ly
i ans
Ġdr aw
Ġ 0
Ġb as
m ber
Ġfri day
at i
Ġpal m
l s
sc ale
Ġconfir m
a ct
w ard
Ġmo der
wh ere
ment s
Ġcou nt
Ġmen u
Ġpremi er
Ġat l
v ent
Ġear li
Ġmi ami
Ġup scale
Ġsou th
a u
h n
Ġsch ed
Ġsp ot
Ġreserv ations
Ġwonder ful
ab ly
Ġbur rit
er ia
Ġsu ggest
Ġc ook
Ġh ead
Ġp op
or y
Ġplan ning
Ġbi g
Ġpl aces
ic es
si de
re d
f ore
g an
Ġsqu are
us e
Ġthink ing
Ġgl ad
Ġche ese
Ġdon e
Ġwh ile
Ġof f
Ġbe fore
Ġbook ing
itch en
Ġpri ces
Ġh ope
Ġcon t
ll a
ll e
Ġk itchen
Ġjo hn
Ġy ester
Ġyester day
Ġsi t
Ġquest ion
2 00
Ġt a
Ġn or
Ġw a
Ġca re
Ġexp ensive
1 6
Ġ2 5
Ġab le
Ġaft er
Ġdi st
tt er
Ġspeci al
Ġint o
id a
est s
Ġch an
Ġcom ing
Ġdes c
Ġp r
for t
Ġsandwich es
Ġatl anta
k s
Ġbe tter
Ġfl or
Ġtr ad
Ġth ird
Ġse pt
ren ch
Ġcour se
Ġs erve
Ġno thing
Ġ20 17
c ed
Ġw ine
ll s
Ġun i
Ġrequire ments
Ġflor ida
Ġch ain
Ġla gu
b all
Ġ ver
Ġwant ed
Ġprefer ence
Ġh ad
Ġwa it
r al
Ġopt ion
ush i
Ġquart er
Ġe i
Ġsept ember
ou se
Ġf rench
Ġthe at
om m
b ack
Ġ x
Ġhi m
Ġconfir mation
Ġserv ing
Ġsched ul
Ġs ushi
el d
Ġfi re
Ġst ri
Ġgo ld
Ġ "
er t
Ġpoin t
Ġp ort
Ġschedul ed
Ġind ian
Ġn ap
Ġeng lish
Ġve get
Ġv an
ond on
Ġg y
Ġg rill
Ġwh ite
Ġam az
Ġsa id
Ġh or
Ġm a
n y
si s
Ġl at
Ġp ast
av en
t er
an a
Ġl ondon
Ġtravel ing
Ġh am
p ool
Ġt en
1 4
Ġpar is
Ġweek end
vi d
Ġcent ral
Ġst ad
Ġhigh est
Ġshowtim es
Ġstad ium
is s
il ad
Ġlou is
Ġli ve
Ġme et
ak es
ant ic
Ġsp r
Ġdin ing
Ġfamil y
g n
Ġm atch
Ġd en
Ġwi fi
Ġmu st
Ġl u
ath er
Ġsu m
Ġstri k
at ure
Ġ3 0
ition al
Ġreserv ation
Ġei ther
in a
vi lle
Ġarriv ing
Ġtry ing
b ur
Ġj an
sc reen
ar k
le y
Ġsalad s
o c
ic a
Ġ2 3
Ġc rit
si ty
Ġb it
d y
Ġcol or
el s
for d
ap p
in o
Ġph one
Ġuni ver
Ġb ay
ine m
Ġnap les
1 1
Ġb and
Ġpop ular
Ġemail ed
si t
Ġst yle
Ġas k
Ġgu ess
u de
k i
at ely
Ġsal t
Ġtheat ers
c a
Ġdo g
Ġro ck
e go
Ġ2 8
Ġ user
el f
Ġadul ts
ar ian
al f
Ġearli est
Ġt er
Ġl ake
Ġsome where
Ġw ood
Ġg i
a h
a ir
is e
Ġmoder n
si ng
Ġs yn
Ġe ater
h ouse
p ers
for m
Ġgold en
Ġcu st
. ,
Ġv ac
assi c
Ġd all
Ġcho ices
Ġuniver sity
Ġcust om
Ġdall as
Ġjo lla
Ġrom antic
ck t
Ġact or
Ġvac ation
t ers
Ġincl ude
Ġ2 2
Ġco ckt
Ġe ver
Ġdepart ure
Ġveget arian
Ġdi ego
ph ia
Ġdri ve
w n
el phia
Ġminut e
ilad elphia
4 9
Ġc inem
h am
il ton
Ġph iladelphia
Ġlagu na
u ary
Ġact ors
Ġsyn op
v ing
Ġm ain
Ġor land
Ġdist ance
d g
Ġ us
Ġa c
Ġsynop sis
Ġaw ay
Ġorland o
Ġre l
fi eld
Ġbur gers
t o
Ġwork s
Ġmad e
Ġeater y
Ġh ilton
our ne
Ġcl assic
Ġh alf
ott e
Ġsp ort
ci al
b ad
Ġyou tu
Ġc ru
ri s
Ġde ce
Ġamaz on
Ġyoutu be
Ġdr ink
Ġchar l
Ġw or
Ġserv es
Ġqu een
Ġcharl otte
Ġgu ests
Ġport land
Ġb ad
Ġguard ians
Ġtrad itional
Ġjan uary
1 8
Ġdece mber
Ġth rill
Ġp ur
Ġst ill
Ġsou p
Ġfri es
Ġcent ury
amp ton
Ġc r
Ġsp ace
Ġsa fe
Ġea ch
Ġ ed
Ġf are
Ġfly ing
el e
Ġear ly
Ġstrik er
at or
Ġcom p
g in
Ġ2 1
Ġden ver
Ġ assist
Ġd ress
Ġst e
Ġlat est
Ġpe p
Ġwalk ing
atur ing
Ġinterest ing
Ġdesc ri
Ġo ri
Ġfe aturing
Ġde fin
Ġlayover s
Ġch ild
Ġim port
s elf
Ġh op
Ġ2 6
Ġfe ature
m in
en i
un ch
Ġspecific ations
Ġw ater
m al
Ġbe at
Ġdoes n
Ġnor th
Ġneed s
Ġin door
Ġco de
ls bad
Ġh app
Ġn ash
ot a
Ġclose st
f k
Ġb urn
Ġso cc
Ġsocc er
Ġsi n
Ġsi ze
Ġho li
Ġcar lsbad
Ġholi day
c ast
Ġp ir
Ġdirect or
Ġm ic
Ġj fk
Ġnash ville
c le
Ġsa u
e ver
fri ger
Ġimport ant
Ġm att
Ġb el
Ġ2 7
Ġcolor ado
f c
lo ss
av es
Ġrec ent
Ġa cc
Ġl ate
r or
Ġd ess
un g
Ġcustom er
Ġfe el
Ġba by
Ġt i
Ġt or
Ġf ant
ic s
Ġcom mer
Ġim ax
Ġw at
Ġse c
Ġdel i
âĢ ĭ
it ely
Ġsh e
Ġdefin itely
Ġco ver
Ġbre w
vent ure
ou nt
oo t
omm end
v el
ant s
Ġm er
Ġoffer s
st yle
Ġsu n
Ġrec ommend
friger ator
i z
ish ed
Ġcommer cial
Ġfor ward
Ġsearch ing
Ġe xt
Ġspeci als
un es
Ġcockt ails
Ġmar ri
nes ota
Ġreg al
Ġsong s
Ġmin nesota
Ġmak er
en ue
Ġsh op
ci fic
Ġpir ates
si ze
ad e
Ġspr ings
e f
Ġpa cific
Ġw ind
Ġdraw s
Ġp ati
Ġloc al
ont o
h er
Ġbur ger
v es
Ġwin ters
Ġstop s
Ġit s
Ġthrill er
ic t
Ġsu per
Ġbo ston
Ġcl ub
Ġbar be
15 0
l in
Ġb ri
Ġb right
Ġit unes
Ġstar t
Ġsum mer
Ġpur ch
1 9
Ġc le
der s
Ġbl ack
Ġhor ror
th e
1 00
Ġc atch
Ġc ry
Ġli ver
o d
Ġcount er
Ġp ull
Ġl ow
Ġl unch
Ġtor onto
Ġliver pool
Ġme t
ir l
Ġgr ound
si d
Ġc ard
fri endly
l et
Ġab o
ar a
ut e
Ġburrit os
Ġpast a
c ue
Ġper form
Ġr un
Ġdescri be
ar s
Ġre le
vi sion
Ġ ke
Ġd c
cl ass
Ġb lo
pl ace
Ġabo ve
l or
r os
Ġne t
et s
Ġun fort
Ġunfort un
Ġo ct
Ġseason s
ard en
Ġh ar
is on
Ġprefer ably
5 00
Ġf un
Ġset ting
Ġb at
Ġme an
am s
Ġget ting
li x
Ġunfortun ately
st al
Ġserv ed
Ġri ce
f lix
Ġw ow
Ġm ed
Ġsc reen
bo x
Ġnet flix
Ġf o
Ġst ory
ick s
Ġadul t
Ġsport ing
Ġmic row
Ġmarri ott
Ġbarbe cue
Ġcl ip
Ġold er
m e
em p
Ġwe ather
Ġcom pl
Ġtv s
f o
Ġear th
Ġcry stal
Ġre frigerator
Ġfri endly
o k
Ġcre am
s w
Ġfor mal
Ġ2 9
Ġsi x
Ġ9 5
Ġav enue
Ġn ope
ck s
Ġh u
Ġp it
Ġg arden
Ġso x
Ġde c
Ġsunday s
l f
Ġse ver
Ġv al
Ġf air
Ġgo lf
Ġwor ld
Ġp et
Ġbu d
Ġye p
Ġsau ce
Ġs n
Ġs our
ar row
Ġre al
ul u
Ġsw ans
Ġsever al
Ġnight s
Ġpal ace
Ġswans ea
i al
Ġs ci
Ġta co
Ġwind ow
Ġclip pers
er o
Ġred box
k a
ay s
f th
Ġh aven
Ġf oot
Ġj ack
b a
Ġo ak
Ġd ou
Ġsteak house
Ġchild ren
i o
m on
o ber
Ġm id
Ġthing s
nes se
Ġoct ober
ic al
Ġlea d
Ġbe ca
Ġse ven
Ġsp i
Ġsw e
Ġbeca use
Ġel e
Ġdi vision
Ġorder s
Ġpoin ts
Ġwat ford
f r
Ġ er
Ġa ver
Ġor gan
Ġsl ice
min ute
Ġs ur
Ġbu lls
ak ers
p es
an y
Ġbl ue
d b
in c
Ġre m
Ġhapp y
Ġto wn
Ġcinem as
Ġan sw
Ġme at
ent ary
kee p
ans as
Ġph o
Ġim db
Ġh ulu
Ġp ut
Ġb ourne
Ġj a
Ġsi gn
Ġclo s
Ġbe ef
et t
Ġbas ed
Ġten nesse
Ġk ansas
Ġ ent
Ġ keep
re es
Ġn arrow
Ġk ings
Ġen d
Ġbo x
Ġext ra
m y
z y
Ġburrit o
dg es
Ġtennesse e
an e
Ġt able
st or
Ġj ose
Ġcheck ing
Ġbe er
Ġmo ther
tt en
Ġgy m
Ġever ton
Ġrel ax
Ġp ad
Ġbu y
Ġincl ud
Ġmon day
Ġth ough
Ġr oy
way s
Ġpati o
Ġf ore
Ġgre en
Ġro chester
Ġstand ings
Ġfoot ball
Ġi ce
Ġb ill
Ġeng land
Ġver s
Ġpho eni
Ġh ung
on a
ast ic
Ġfin ished
Ġswe et
Ġphoeni x
) ,
2 2
Ġat t
Ġbal tim
Ġquarter back
Ġb ow
Ġj ap
Ġview s
Ġbaltim ore
3 7
c ked
h o
an ese
Ġy an
Ġnew er
Ġbr om
Ġwar s
Ġple as
Ġmer c
Ġground s
Ġh it
Ġb ro
ent al
Ġbu ff
Ġcru z
b l
Ġd a
Ġdo ll
Ġvers us
b ably
fin ity
Ġhung ry
o ke
Ġf u
Ġto tten
Ġad venture
Ġpro bably
Ġbr own
) .
m et
en al
ll ow
vi l
Ġla x
Ġfri end
Ġbright on
Ġoak land
Ġtotten ham
c ing
d own
Â ´
am o
Ġhigh er
Ġdirect ed
Ġx finity
sit e
Ġearth qu
Ġorgan ic
2 50
c om
p ar
Ġm iss
a el
Ġb er
Ġsu ite
Ġco ke
ro it
Ġdet roit
Ġhop ing
Ġbrew ers
in als
Ġs ki
Ġl ink
ay lor
Ġd ur
Ġma j
n i
Ġin side
Ġcard inals
Ġc ub
Ġb b
Ġli ving
Âł and
Ġkid s
Ġjap anese
Ġh an
ke es
Ġli fe
av ing
ele ct
fr ont
d en
Ġs elect
emp or
Ġpleas ure
s p
Ġa ve
s h
Ġp ol
Ġsa us
Ġbb q
empor ary
Ġt aylor
Ġst ate
Ġle g
Ġwar ri
Ġh ud
Ġdid n
Ġgr and
Ġfant astic
Ġearthqu akes
Ġteam s
Ġred s
Ġgi ants
Ġar s
Ġyan kees
Ġwh om
Ġtim ings
Ġex act
Ġpurch ase
i ous
Ġf ish
om in
op ol
2 8
Ġt it
Ġm ont
Ġdo d
Ġal ong
Ġfran ce
Ġcont emporary
Ġval et
ar l
Ġfour th
Ġburn ley
Ġmaj or
Ġh and
Ġf ast
Ġsouth ampton
Ġmerc ado
Ġi d
Ġgre ek
Ġint ern
Ġblo cked
Ġp ay
Ġm ich
on i
Ġmy self
Ġpro vid
Ġbalcon ies
Ġcrit eria
Ġdrink s
Ġaver age
3 4
Ġph ill
r ing
Ġreg ular
Ġcub s
2 9
i k
in n
on es
Ġbre ad
ap s
e y
Ġal as
Ġbu ild
Ġdec or
Ġars enal
Ġse par
Ġsee ing
our met
vel and
b ast
Ġt ill
Ġg ourmet
Ġpri v
Ġcle veland
ders field
% .
2 7
Ġd ead
Ġrelax ed
Ġhud dersfield
Ġso f
Ġcom fort
Ġamer ica
Ġhigh ly
Ġarriv al
Ġri ver
Ġdog s
as y
Ġw ed
Ġs er
or der
Ġr u
Ġse bast
Ġbas ket
Ġperform ing
Ġnation als
ou th
Ġp ic
Ġb oy
Ġv ol
Ġim p
Ġrock ies
Ġfo llow
Ġwarri ors
Ġdod gers
a ut
Ġyou ng
Ġper ry
Ġdirect ions
Ġoff ice
Ġbud get
g r
Ġsh ort
Ġca p
Ġcar ol
u ff
Ġa st
in er
Ġp itch
am ed
Ġso on
Ġcom es
Ġfri dge
e p
ow er
Ġ5 0
Ġfi gu
Ġpep per
Ġpriv ate
m s
n ge
Ġan im
Ġbe h
Ġfi fth
âĢ ĵ
Ġmeet ing
3 9
6 0
m p
o lo
ou ri
at ive
Ġc ir
Ġco zy
Ġtw ins
Ġnew cast
Ġda vid
Ġsepar ate
Ġcarol ina
Ġnewcast le
Ġlike d
Ġne ver
Ġbr aves
Ġs le
Ġmad ison
Ġyear s
Ġf ight
Ġd ark
Ġg e
Ġr ap
Ġe gg
Ġ3 1
v in
w au
st and
Ġa fc
Ġun ion
ta h
Ġmil wau
Ġcont in
ount ain
Ġmilwau kee
d am
Ġt ur
Ġr y
Ġu tah
Ġele g
v al
Ġa ri
ve mber
Ġbe aut
Ġact ress
Ġran gers
Ġp ot
Ġst oke
vi de
Ġk at
Ġno vember
so l
Ġpro vide
Ġmatch es
v d
Ġre sid
Ġprefer red
Ġcomed ies
ert ain
as ed
Ġpri cing
az a
Ġlou nge
Ġexp ress
f l
l ing
ar i
Ġe y
Ġab sol
Ġca pt
ol a
Ġfri ed
ster dam
Ġp ork
Ġb rit
ri d
Ġne are
Ġch els
Ġfilm s
Ġmatt er
Ġalas ka
Ġeleg ant
Ġneare st
n ic
an ge
Ġl as
Ġb an
Ġr os
Ġpossi b
Ġchels ea
c ou
m outh
Ġc inc
Ġd is
ut ely
Ġknow n
ge ther
inn ati
Ġabsol utely
Ġcinc innati
Ġpl aza
Ġam sterdam
Ġjo in
Ġapp et
2 4
b s
s y
si n
Ġst r
Ġmar in
ag es
Ġ '
Ġm ush
Ġdo c
amp a
Ġvan cou
Ġsin ce
Ġbeh ind
Ġvancou ver
g on
v ely
Ġh y
Ġm ountain
Ġn ood
tim e
Ġcoffe em
Ġfin al
Ġkat y
2 6
Ġto gether
Ġn ess
Ġch ri
co li
ire d
Ġmed ium
Ġbourne mouth
Ġmich ael
Ġmush room
b r
b ers
k y
Ġv ir
Ġbed room
Ġsebast opol
Ġj ames
âĢĭ âĢĭ
Ġast ros
Ġt ampa
Ġa th
Ġin st
ur s
Ġj et
qu e
Ġchan ge
Ġmust ard
Ġber lin
i b
l it
v ol
Ġm ag
Ġch ris
Ġro gue
Ġver sion
Ġdou ble
w ood
z ed
er ts
Ġp an
op h
Ġen ough
Ġshowtim e
Ġme ts
ation al
ol es
Ġchic o
olo g
Ġappet iz
m a
u es
Ġb en
Ġg irl
Ġsh ut
Âł i
ac y
Ġdess ert
Ġn ba
Ġplay ers
Ġde g
Ġhe at
Ġvi a
Ġdess erts
Ġpossib ly
er y
Ġm is
Ġon es
Ġli ght
Ġwi ck
Ġstar ts
Ġdel ic
Ġmad rid
Ġfin ally
Ġbat man
Ġtaco s
Ġmiss ouri
Ġcir cle
b ed
Ġh ard
Ġh aw
ke y
Ġbe ans
Ġphill ies
d es
l ins
Ġis land
Ġansw er
c y
i ft
o ff
Ġ our
Ġtr ue
Ġpizz as
Ġdoll ar
n is
Ġm ight
Ġn omin
Ġk c
Ġmak ing
Ġfollow ing
Ġintern ational
Ġvir gin
4 7
Ġstar ring
um b
Ġunder stand
Ġmi x
Ġpic nic
re al
Ġd an
Ġbe ing
ut ion
Ġrom ance
ce pt
rip t
Ġind ians
Ġfeature s
Ġmicrow ave
Ġmont real
d den
st ic
Ġb on
th ers
Ġst uff
Ġla u
ist ro
ip s
Ġter r
Ġori oles
0 1
k es
Ġl am
Ġn ick
Ġst ra
Ġmar lins
ra ft
Ġsim ple
bo dy
Ġti ed
i th
i ar
p m
Ġth u
re am
Ġin fo
Ġit iner
Ġhow ever
be an
Ġfire place
Ġcatch er
Ġhy att
Ġitiner ary
p p
Ġf all
Ġdeg rees
d i
Ġo re
ri c
star s
Ġfamil iar
Ġsuggest ions
Ġta qu
Ġja zz
Ġexact ly
Ġmarin ers
5 9
Ġr oo
Ġ3 5
Ġty pes
Ġcar ib
Ġtaqu eria
Ġcarib bean
8 7
s a
Ġb istro
al ity
Ġplay s
Ġdi am
Ġle go
Ġcost s
Ġcapt ain
Ġbrit ish
8 0
Ġw all
Ġmar ket
Ġz ero
e x
Ġb ase
Ġpl ate
Ġr a
ent y
Ġpri ced
Ġbrom wich
Ġfigu res
Ġry an
Ġ ket
Ġare as
Ġco ast
ake d
Ġpizz eria
Ġham bur
Ġpot ato
Ġdiam ond
st e
Ġb ott
Ġn amed
ri ous
Ġmo on
Ġch ance
im e
Ġbar s
Ġappetiz ers
Ġore gon
Ġc row
vi t
Ġvi ll
ty ard
Ġcol umb
Ġbuff et
Ġcoffeem akers
Ġath let
Ġterr ace
c ket
r ated
s erve
Ġs om
Ġd isco
on s
ic ester
Ġhi dden
Ġcour tyard
Ġten nis
Ġari z
j i
Ġp ass
Ġle icester
Ġsw ift
Ġz oc
Ġba con
Ġjack son
Ġm ax
ri es
al a
ent s
Ġv s
Ġchea per
Ġroy als
Ġdoc um
Ġshut tle
b ound
at ing
Ġd est
Ġst ud
Ġlet tu
Ġshow ings
Ġdr ury
Ġd am
bur gh
Ġcompl et
Ġ ant
Ġs oph
Ġg ave
Ġsu ch
ut en
Ġbo ard
ts burgh
Ġcrit ic
Ġsign s
Ġcontin ental
Ġcolumb us
e z
Ġh aving
Ġp at
om a
Ġme m
Ġplay er
ent ion
Ġmu m
Ġgl uten
Ġearli er
Ġpit tsburgh
Ġer ik
Ġge or
Ġariz ona
2 3
Ġh ampton
Ġc able
Ġwi fe
Ġe st
Ġbi ggest
Ġpr op
Ġpad res
h our
Ġt our
Ġo sc
Ġd yn
Ġn fc
Ġe ight
Ġe vil
Ġloc ally
omm od
Ġacc ommod
Ġathlet ics
an o
Ġo wn
Ġp ac
en s
Ġtr ack
Ġpi e
Ġbr ing
Ġsun ny
Ġany where
im um
Ġ9 0
pe ct
res sing
Ġstra ight
Ġg ri
Ġsound ers
Ġrat her
Ġpepper oni
4 00
Ġt re
Ġb ath
en se
Ġre vol
Ġal i
Ġhe art
Ġloc ate
Ġfran k
Ġdesc ript
" .
Ġj ourne
Ġmy ster
Ġair ways
be at
nes day
Ġwed nesday
Ġlettu ce
Ġjourne y
5 8
Ġc ri
Ġj am
Ġsp lit
Ġtr u
Ġsi ng
ne y
Ġem b
ste in
Ġc ree
Ġpl enty
Ġwi s
Ġhi stor
Ġdi et
Ġwho le
Ġro cket
Ġartist s
one y
Ġkitchen s
Ġori gin
Ġdur ing
Ġc ott
Ġhi p
Ġsend ing
Ġsal em
back s
Ġsaus age
Ġs am
Ġpl ates
Ġro lls
ict ion
Ġfore cast
Ġc raft
Ġm ater
Ġd u
Ġhelp ing
Ġbo ss
fri dges
fin ed
Ġbel ow
Ġbuild ing
Ġzoc coli
4 6
o st
it o
Ġv all
Ġdiamond backs
Ġprop er
Ġc ertain
ch up
Ġsh all
Ġ4 0
Ġket chup
Ġbe au
Ġplay off
ct ion
Ġun cle
dg ing
Ġbow l
Ġ es
Ġd ressing
Ġon ce
Ġr ome
Ġtim ing
ack s
Ġup beat
Ġmi le
Ġdri ver
Ġclos ed
Ġsom et
Ġrocket s
Ġproper ty
2 1
ou p
Ġm ur
ad ed
Ġ7 6
Ġpool s
Ġplan e
Ġbel ie
Ġlink in
4 8
Ġr ays
Ġst y
Ġch ap
Ġadd ed
Ġgu est
Ġran ch
Ġro b
Ġbl vd
Ġfair field
Ġrevol ution
Ġwis con
Ġvall ey
b or
Ġ âĢĵ
Ġy et
Ġ4 5
Ġau th
Ġcomp any
Ġcompl im
Ġinclud ing
f ree
m ade
p in
Ġb aked
Ġwh y
ll y
Ġst one
Ġlo dging
ess en
isi ana
Ġbill y
Ġthu nder
Ġwiscon sin
Ġcomplim entary
i er
Ġo y
Ġo thers
Ġlou isiana
Ġacc ess
bl ue
Ġhan ks
Ġjet blue
Ġc av
al y
Ġfe m
Ġqu ality
Ġri val
Ġgr oup
Ġcomp are
Ġrecent ly
Ġmicrow aves
o v
p ing
Ġt urn
Ġsh ri
Ġco ld
Ġtr acy
Ġgen er
Ġrequ ests
Ġpa id
Ġrele ase
Ġdocum entary
Ġosc ar
Ġdescript ion
Ġcree k
Ġfem ale
o or
Ġm ention
Ġre y
Ġtr ans
Ġcon d
Ġmoment s
id s
ist ic
per t
Ġshri mp
3 3
c el
h ol
j un
l ine
o ck
Ġf t
Ġn ames
Ġare n
ad a
Ġshow s
Ġsour ced
Ġser ies
Ġwhat ever
Ġwant ing
Ġout side
Ġint er
Ġwood land
k ins
Ġm c
en gers
Ġr ams
Ġsu it
Ġsi r
Ġoffer ed
Ġgr aven
Ġcount ry
Ġcap it
Ġdisco ver
Ġmater ial
Ġcav ali
j ola
l er
at a
at essen
Ġp eak
Ġsee ms
Ġsit e
Ġchan ces
Ġdelic atessen
Ġbeau jola
. ?
0 7
st ers
ou ght
Ġp g
Ġp ower
ic y
Ġpa ul
Ġcinem a
Ġbase ball
Ġbeaujola is
an der
Ġth urs
Ġj ays
Ġca jun
ft op
Ġfant asy
Ġsci ence
Ġspi der
com ing
Ġroo ftop
Ġplayoff s
Ġgraven stein
Ġthurs day
3 8
Ġ use
Ġon ions
co l
Ġup gr
ru pin
Ġros a
9 5
es ar
ot s
Ġse en
Ġco kes
Ġcur ry
Ġsay ing
Ġdram as
Ġcavali ers
Ġt ri
er ry
Ġo m
in ation
Ġf iction
Ġm r
Ġre ci
il y
il ity
Ġju man
Ġlar rupin
Ġrequ est
Ġrele ased
Ġinst ead
pert ino
Ġjuman ji
l ight
Ġp u
Ġp el
Ġp ub
et y
Ġsi des
Ġcu pertino
Ġchan g
Ġmeet s
Ġspr ing
Ġorigin al
l ed
s u
Ġwh irl
Ġma ver
Ġsun s
Ġimp act
Ġcott ages
Ġchap ter
x x
er man
Ġh um
Ġst ation
Ġch ips
Âł the
Ġeat s
Ġangel s
Ġcre w
Ġgy ros
Ġresid ent
ex p
Ġpac ers
an g
gh ett
Ġbe ast
Ġall ow
Ġtim ber
Ġde al
Ġcon si
Ġsi tt
Ġcour t
Ġsqu aw
Ġburn s
Ġali en
Ġsomet ime
istic ated
Ġupgr aded
ghett i
c an
g ar
Ġp ies
Ġb row
Ġj ason
ent ic
Ġhot sp
Ġ20 16
az ers
Ġwhite c
Ġti gers
Ġlead ing
Ġfriend s
Ġdam on
Ġsoph isticated
Ġmum my
Ġdyn amo
exp ensive
7 5
b ri
o le
Ġt akes
Ġw al
Ġkn icks
ther n
Ġstre am
Ġspa ghetti
Ġauth entic
Ġsitt ing
4 2
r on
Ġf ac
Ġin expensive
Ġas ian
Ġop er
Ġ6 0
Ġvi to
Ġcar s
Ġcre ative
Ġjoin t
Ġmaver icks
3 6
b on
l t
si zed
Ġm ill
Ġcan n
Ġne ts
Ġnon e
Ġca esar
Ġbar b
Ġv o
Ġem p
Ġpart y
Ġte as
Ġkings man
Ġpitch ers
Ġgri zz
Ġpeak s
Ġom ni
u g
Ġm at
il i
Ġj ones
Ġbeach front
Ġquart ers
Ġfu rious
Ġgeor ge
Ġwhitec aps
w est
st ory
Ġf act
Ġs eni
en a
th ur
Ġr d
Ġtr ain
Ġde ci
Ġsi l
Ġfri dges
Ġwhirl pool
c ent
c lo
h e
l ies
m ing
Ġf ur
Ġf ate
Ġc ame
or n
Ġar thur
ard s
Ġact i
Ġca b
Ġv ari
Ġgu y
Ġplan et
Ġshort est
Ġchri st
Ġmag ic
Ġaccommod ations
Ġto go
Ġwi ld
ea p
ad venture
Ġ4 9
ak ing
Ġri ch
Ġhor n
Ġsty lish
Ġlo gan
Ġtim bers
Ġro ad
Ġsal sa
Ġmon th
b ar
i g
p ed
u gg
Ġg lo
ic o
nd ry
for ward
Ġar c
Ġwar m
Ġway s
Ġseason al
res h
Ġpet er
Ġhand ful
Ġey es
Ġlau ndry
w alk
Ġt x
Ġm all
Ġm ls
es an
Ġis n
al ito
Ġany one
ard ia
ul t
Âł h
Ġfavor ites
Ġpremi um
Ġlagu ardia
Ġed ge
Ġmis sion
Ġbelie ve
Ġ #
Ġa le
Ġe ur
Ġlo ver
Ġ3 2
ass y
Ġmar y
na iss
Ġsc or
Ġrap ids
Ġstraight forward
p ic
r ound
Ġs fo
en n
Ġany time
Ġsu b
ain t
Ġorder ing
Ġloc ations
Ġqu ite
Ġca ge
Ġwatch ing
Ġro ll
Ġmoder ate
Ġsuggest ion
Ġgy ro
Ġ95 6
Ġsof a
Ġnood le
Ġpass engers
Ġemb assy
Ġhotsp ur
naiss ance
g a
g en
Ġt ues
at on
Ġm end
Ġpl ac
Ġst ore
Ġk ill
co hol
ab lish
Ġbeaut i
Ġest ablish
Ġreci pe
Ġtues day
Ġc amp
Ġal cohol
ell ow
Ġsh er
Ġpi ston
Ġsof as
Ġcomplet e
t own
Ġt ree
re t
Ġp ant
ri ct
Ġwe b
Ġmar s
Ġbo ise
ber g
Ġdes ks
Ġcri me
Ġpel ican
Ġpiston s
0 8
p ants
re ady
Ġl ady
Ġn y
ion al
Ġch ili
Ġal ready
Âł is
Ġap art
Ġfit s
Ġlu x
Ġlas ag
Ġl akers
Ġmo ana
Ġ1 00
Ġ2 00
Ġ3 7
Ġas s
li e
Ġfar m
Ġsum mit
Ġgrizz lies
Ġfur ther
Ġbeauti ful
6 00
o bo
er a
el le
Ġd y
oo th
Ġre ason
Ġre fined
Ġr ad
Ġj e
Ġbr ook
Ġsur round
Ġrem ember
Ġpat ri
Ġgener al
4 4
5 7
w or
Ġth or
Ġn ugg
ri se
Ġre ce
al o
Ġso l
Ġsp icy
Ġout bound
Ġbu cks
Ġunder pants
Ġjo e
Ġbon obo
Ġvill age
Ġth ought
or ia
Ġfr ont
Ġal ways
Ġmu lt
Ġ4 7
Ġde si
Ġbo b
Ġres erve
Ġmini fridges
red i
Ġleg end
Ġbeaut y
Ġmur der
Ġbarb ara
3 2
9 0
h ip
Ġs k
Ġs ort
Ġc ast
Ġre naissance
ur t
Ġr ose
Ġhi story
Ġlo b
Ġbut ter
Ġap olog
Ġri bs
Ġindian a
Ġmoon light
Ġmention ed
Ġsher aton
Ġpelican s
5 1
Ġf resh
Ġc al
Ġp in
Ġne i
ir k
Ġdest ination
Ġm ot
Ġg arl
Ġr ag
ast ed
ell ing
all ica
Ġorder ed
Ġ7 87
Ġv in
Ġlist ed
ull y
fri end
Ġsm ith
Ġsport s
Ġsoup s
Ġsix th
Ġnugg ets
5 6
v ed
Ġl ub
Ġ4 2
Ġfi ll
Ġtub s
Ġac qu
Ġmet allica
Ġhar ry
Ġvari ety
Ġgarl ic
f y
w atch
Ġs on
Ġm as
Ġg ir
Ġme als
Ġr ough
Ġch ina
Ġu c
Ġgo es
Ġlast ly
Ġca pe
Ġsin gle
Ġbri dge
vit ies
Ġacti vities
Ġhorn ets
c as
as is
Ġa f
re at
Ġs us
Ġre ad
Ġco ll
un o
wh at
Ġchan n
Ġx xx
Ġpep si
Ġanim ated
Ġmyster y
Ġlasag na
d u
Ġt ort
Ġh ea
Ġf re
Ġm art
Ġgo als
Ġlo dge
bo ck
Ġx ander
Ġmain st
Ġansw ers
Ġprovid ence
ric s
Ġemp ire
Ġlub bock
l ess
Ġl ed
Ġb ell
Ġb all
Ġ3 3
Ġseat s
Ġclass y
Ġeat ing
Ġsou thern
Ġwait ing
Ġamaz ing
Ġste ven
Ġrun ner
Ġhambur gers
Ġmult i
f ully
Ġf et
Ġs lo
ly n
Ġ3 4
Ġtr in
Ġ5 5
ne ct
Âł th
Âł it
un a
ol ves
Ġpos h
vent ion
Ġlu ck
Ġask ing
Ġspi rit
Ġplac ed
0 4
Ġth in
Ġb our
Ġmar k
un k
Ġvi sit
Ġdist rict
Ġsaus alito
Ġban k
Ġhaw ks
Ġbath room
Ġhistor ic
n s
er r
Ġs ky
Ġm ac
on na
Ġwith out
Ġau di
Ġbr uno
Ġbl azers
Ġmex ico
au ght
bri dge
Ġcann ot
clo ck
4 3
i et
i ze
Ġh all
Ġl ine
Ġm ach
Ġm use
on y
Ġli vely
Ġbe y
Ġhi ll
Ġde ep
Ġ7 0
Ġwin es
Ġwork ing
Ġrecord s
Ġbr ad
Ġte ch
Ġcas a
Ġpo sit
Ġrent al
Ġcre ole
Ġnood les
Ġbott le
Ġeur ope
n ut
Ġt ast
ant e
Ġw r
Ġin g
Ġhelp ful
is le
Ġch op
end ing
Ġap es
ber t
Ġcheese bur
Ġbro ad
Ġseni ors
f s
Ġd om
Ġar ch
Ġpri me
Ġtr att
Ġmin imum
Ġqu ick
Âł w
Ġran ked
ab les
Ġmak es
Ġsouth west
Ġbeat les
Ġclos er
Ġtit ans
Ġru stic
Ġbrook lyn
m ar
u le
er c
us s
Ġo asis
Ġk ab
im ate
Ġstay bridge
ven ant
Ġdif ference
Ġsm ooth
Ġke vin
wor ld
Ġtratt oria
c ess
i que
Ã ©
Ġd re
Ġle e
Ġ9 3
Ġgu ad
ph is
Ġmi ke
Ġsc ott
Ġdou b
Ġconsi der
e ct
l an
m ore
v an
Ġw ent
Ġd ine
Ġin c
ed d
Ġch amp
Ġno on
Ġbl ade
Ġpo ke
Ġalb any
oc ino
Ġcockt ail
Ġsn acks
Ġpol it
Ġvo ice
Ġchann els
Ġbour bon
5 4
j u
Ġi ced
in th
Ġc i
Ġp ack
Ġp sy
Ġm ail
ed i
Ġor ange
Ġqu iet
ro ss
Âł s
id ad
ol is
fri dge
Ġjohn son
Ġcolor ful
Ġbay watch
Ġmeat ball
Ġgrand e
Ġtur key
Ġnomin ated
Ġmend ocino
7 7
i de
z en
an na
Ġs y
Ġc am
Ġd ar
ent ed
Ġcre ed
Ġsl ices
Ġsched ule
Ġcook ing
Ġpr in
Ġcover s
Ġsle ep
Ġtur k
Ġtrin idad
0 2
c ar
l ah
n ar
t z
Ġl y
Ġm oney
Ġd j
Ġn ine
ers on
Ġcon vention
os ed
Ġte en
att er
Ġstre ak
Ġve gan
Ġlat in
Ġac cept
Ġtour s
Ġglo be
Ġrece i
Ġaudi ence
Ġpsy ch
Ġturk ish
lah oma
m ark
w y
Ġ ?
Ġok lahoma
Ġon line
Ġli ter
Ġj im
Ġj ac
Ġgreat est
Ġgo d
Ġsome one
Ġ4 8
Ġde fe
Ġhe ated
Ġche f
um e
Ġex pect
Ġpo st
Ġcre pe
Ġwood st
Ġfun ny
Ġweb site
l a
p ings
s es
u ki
w ater
Ġt al
in i
Ġb out
Ġg un
Ġsome body
Ġ3 9
Ġcom m
Ġv ict
Ġint imate
Ġran g
li ft
Ġspecific ally
Ġreg ional
Ġent rees
Ġbuff alo
Ġanim ation
Ġlam b
Ġcrow s
Ġing redi
8 00
p ired
Ġa isle
en ny
Ġe asy
Ġam b
ak i
Ġwin ning
Ġpi er
Ġvi lla
pl aces
ins pired
Ġtop pings
Ġmon ster
Ġmid night
Ġselect ion
Ġresid ence
Ġstr ong
Ġmainst ream
Ġmuse um
. "
8 8
j o
m o
s erv
w olves
Ġwh e
Ġr am
ver n
Ġde ath
Ġ9 4
Ġex erc
Ġfi eld
Ġhead s
Ġprovid ing
Ġboard walk
Ġrag nar
Ġragnar ok
% ,
Ġt ap
Ġg erman
Ġwi l
ot es
Ġdo l
Ġch ow
Ġch edd
Ġj oy
Ġwill i
Ġgo s
Ġdi es
Ġ4 3
Ġgr ub
Ġlu cas
Ġassist ance
Ġbat tle
mon y
Ġsur vi
Ġsle ek
Ġnomin ations
Ġingredi ents
Ġchedd ar
a vi
d ing
k ing
z el
ou ch
Ġh en
Ġf le
Ġp ap
Ġit em
il ities
Ġsh ack
Ġsp ain
Ġco lle
Ġjust ice
Ġ7 5
Ġup lift
Ġsund ance
Ġsch ool
Ġland s
Ġcount ing
Ġed ward
Ġmid town
Ġroy al
Ġtimber wolves
Ġale x
Ġpatri ots
Ġacqu ired
Ġgir ls
Ġdefe ated
Ġwoodst ock
Ġexerc ise
3 1
Ġth reat
Ġs ave
Ġg ar
Ġg ate
Ġdo s
Ġr ain
Ġco venant
ate g
Ġgu ac
Ġsal mon
Ġjo el
Ġ15 34
fri ed
Ġsl ow
Ġcrit ics
Ġhapp en
Ġhu nt
amo le
Ġselect ing
Ġestablish ed
Ġcamp us
Ġslo pes
Ġbroad way
Ġkab uki
Ġgos ling
Ġuplift ing
Ġguac amole
m as
o ld
p y
Ġ ,
Ġw ale
Ġs aving
el t
or i
Ġn ir
Ġfor g
Ġal m
Ġsp eak
Ġjust in
Ġ5 7
Ġex per
Ġadd itional
Ġhigh way
Ġlimit s
Ġz oo
Ġspecial ty
Ġpr om
Ġfire places
Ġshop ping
Ġpull ed
sid es
Ġinclud ed
Ġguy s
aught er
Ġvict or
0 3
h aps
Ġ .
Ġf erry
Ġc ateg
Ġon ion
Ġe pl
Ġe vent
Ġju n
co s
Ġ8 0
Ġhome coming
Ġim ag
Ġ19 7
Ġexc use
ah o
Ġste ve
Ġid aho
Ġmem phis
Ġtrans form
$ .
d a
u x
z ing
Ġh on
Ġof fic
Ġj on
Ġam ount
Ġper haps
Ġkn ight
Ġro asted
Ġcour ts
Ġover all
Ġhouse made
Ġland ing
Ġsteak s
Ġbas ic
Ġter ri
let ree
Ġbrown s
Ġoy ster
Ġcapit ol
Ġapolog ize
Ġdoub letree
Ġmeatball s
serv ice
4 1
9 7
d le
Ġw ings
Ġo w
Ġs ally
Ġc ase
Ġand re
Ġre lish
Ġgood s
Ġco y
Ġde f
Ġho st
Ġap pe
Ġri dge
Ġjo b
Ġsw im
pl ay
Ġcru st
Ġdescri bed
Ġfeel ing
Ġseven th
Ġdoll ars
Ġbrown ie
Ġstr ange
Ġmax imum
su ite
Ġchrist mas
Ġscor er
Ġprin ce
d ed
v a
Ġc ow
Ġc up
Ġto ld
Ġd ance
Ġd ream
Ġli ons
Ġit aly
Ġsu p
ct or
Ġ3 6
ak er
ill a
Ġvi be
Ġlisten ing
Ġjohn ny
Ġcr ab
Ġlow est
Ġrun ning
Ġpol ice
Ġid ea
Ġboy s
Ġoper ation
Ġdeci de
Ġbout ique
Ġcoy otes
b oy
d ie
e w
l ic
v ana
y ou
y our
an k
Ġt and
Ġf ace
Ġl ing
Ġd ub
ke st
al th
Ġsh ad
Ġnew est
Ġenjoy ed
fi ed
Ġcre ation
Ġfan cy
oc ado
Ġrem ind
stor ante
Ġpol ished
Ġoy sters
Ġwal nut
Ġmary land
Ġnei gh
Ġmach ine
Ġbey ond
Ġtech n
Ġchamp ions
Ġtand oor
a f
a pe
b re
d in
g s
h ood
j ara
s m
in t
Ġb ris
Ġto ny
Ġre ach
Ġbe sides
Ġu nd
Ġde v
Ġcon nect
Ġad ele
Ġun able
Âł pm
Ġbar cel
Ġdr a
Ġspeci ali
Ġri storante
Ġ15 5
Ġcru ise
Ġhar mony
Ġcab in
Ġarc ata
Ġbathroom s
Ġly rics
0 6
g th
n ie
v ale
y nd
as ing
Ġf ut
Ġp ow
Ġd vd
ar ing
Ġbe gin
Ġfl oor
Ġ4 6
Ġle ft
Ġround trip
Ġbr on
aw ay
ra ct
Ġstrik ers
Ġbow ie
ala jara
Ġsunny vale
Ġjam a
Ġsus p
Ġguad alajara
Ġdol ph
Ġbarcel ona
' .
p od
Ġi pod
Ġc ut
Ġre un
ir on
Ġj os
Ġwill ing
Ġ4 1
Ġnew ark
Ġcon c
Ġle ar
Ġ9 7
Ġfe e
Ġscore d
Ġdr ag
zz i
Ġtrav elling
Ġsw iss
Ġchar les
Ġocean front
Ġmoder ately
Ġsec ret
Ġtit le
Ġros es
unk irk
Ġposit ion
Ġgerman y
Ġjama ica
8 9
g les
u el
Ġth ous
Ġc op
Ġp ict
Ġd unkirk
Ġg ho
il t
Ġch ill
Ġhi lls
Ġfind s
ail y
Ġam ong
ard ing
Ġdep ending
Ġdr ake
ru st
Ġweek s
Ġchar lie
Ġwom en
ati vely
Ġhim self
Ġhop kins
Ġrecommend ed
Ġatt ire
olog y
Ġbrow sing
Ġfac ilities
Ġgun s
Ġtransform ers
Ġdolph ins
Ġthous and
Ġgho st
v y
as es
Ġm and
Ġd aughter
Ġd aily
Ġn c
Ġfor m
Ġli ves
Ġbe an
Ġbe ers
nd y
Ġdo cks
Ġco co
Ġas ked
Ġmar ble
Ġdel ight
Ġve g
act ress
Ġcount y
Ġkitchen ett
Ġpati os
Ġcapit al
Ġnir vana
Ġdub lin
Ġfut ure
Ġpict ure
7 00
i os
m en
p ost
Ġt u
Ġt em
Ġt aking
Ġa er
Ġf ather
Ġs es
Ġb ou
Ġd ave
Ġg ather
le v
Ġr ho
Ġse th
Ġsu pp
Ġsp an
Ġsp ell
15 9
em y
Ġdiffer ences
Ġstand ing
Ġreg arding
Ġba ham
Ġpep pers
Ġpurch ased
Ġke y
Ġgarden s
Ġfore st
Ġgirl friend
Ġ90 2
Ġchang ed
Ġ956 16
Ġjun gle
Ġrho de
Ġbaham as
d d
g ner
Ġto w
Ġin vent
Ġne cess
Ġr ai
Ġj edi
Ġ5 2
Ġcl ou
Ġ9 2
um p
Ġdin er
Ġea gles
em ed
ian ce
Ġri tz
Ġtalk ing
Ġve gg
Ġpast as
Ġden zel
Ġbri ck
Ġperform ed
ane an
bed room
Ġdesi gner
Ġsusp ense
h a
m esan
p on
r ay
Ġt una
Ġi ron
Ġh a
Ġy o
in ch
Ġl in
Ġm cc
Ġg all
th emed
Ġr ace
it a
Ġj es
Ġj ord
Ġe qu
Ġwas n
Ġco le
Ġen v
Ġen ch
Ġsi zed
Ġ10 10
Ġ20 14
Ġpar mesan
Ġpick les
Ġlisten ed
Ġsn atch
Ġanswer ed
Ġlam ar
Ġhambur ger
Ġhistor ical
Ġass assi
Ġreason able
Ġtast e
Ġswim ming
3 50
6 7
k ings
u ri
w ork
Ġi ll
re st
Ġc e
Ġb ag
ed y
Ġk ung
ast er
Ġprefer able
Ġnew s
Ġhe alth
ci o
Ġla id
Ġ20 15
are d
Ġunder world
ac oma
Ġ12 5
Ġher o
Ġrel atively
Ġrele ases
Ġ95 8
Ġhu ge
Ġwindow s
Ġent ertain
Ġdecor ated
Ġmulti ple
Ġdies el
Ġtechn ology
Ġveg as
Ġkitchenett es
Ġjord an
5 2
5 3
a ff
m are
an go
Ġs ell
Ġb ird
oo p
om b
ri son
Ġwould n
am a
Ġyour self
Ġany more
Ġal f
Ġtr op
Ġcl ay
Ġfe els
Ġla w
Ġpe arl
Ġem ma
Ġsou l
Ġuni que
Ġtheat re
Ġrecommend ation
Ġrecommend ations
inc ess
Ġinclud es
Ġhit s
Ġriver s
Ġey ez
Ġcond ition
Ġsil ver
Ġpolit ical
Ġbron cos
Ġinvent ive
Ġench ilad
. âĢĭâĢĭ
b ul
i ence
l b
w e
si ble
re frigerator
Ġc ant
Ġc elt
Ġn l
Ġfor mer
Ġwi sh
ur ing
il ing
Ġ2 000
Ġnight mare
Ġwhich ever
Ġbo dy
Ġri se
Ġcas h
Ġover night
Ġind ia
Ġpr incess
gn ed
Ġmed it
Ġfair ly
Ġmushroom s
Ġvill as
Ġcond os
he it
Ġjoy ner
Ġitem s
lev ard
Ġclou dy
0 9
e ar
p it
p ub
Ġ ze
Ġ keeper
Ġh wy
Ġs ense
Ġp il
Ġm ass
or ies
Ġg ro
Ġpl atter
Ġbe ars
Ġch ie
Ġj en
Ġfound ed
ci ous
Ġmar vel
Ġbu ble
Ġex cept
Ġro gen
ab ility
ta ct
Ġreview ed
Ġste el
Ġhu nd
Ġpit t
Ġrem ain
Ġdelic ious
Ġpant her
Ġmas ala
err anean
Ġdar kest
Ġcateg ory
Ġtandoor i
Ġcelt ics
1 25
c rust
g ins
v o
w in
Ġi st
in ta
Ġf ah
Ġp as
Ġm al
Ġm lb
Ġb are
Ġn a
en cy
ri st
Ġli br
Ġe pic
Ġk ore
Ġu sing
Ġju ice
Ġpre s
con s
Ġ5 1
Ġcon tact
Ġget s
Ġperfect ly
Ġpar lor
ore d
Ġshop s
19 7
Ġsn ow
Ġspi el
Ġbasket ball
Ġsurround ings
Ġfill ing
Ġterri fic
Ġmedit erranean
Ġhund red
Ġlibr ary
g y
an u
re on
Ġn fl
om ic
Ġwi z
Ġbe gins
Ġdo ctor
Ġr h
Ġmo sc
it as
se y
ck er
Ġde w
Ġbar ry
Ġspeci fied
Ġbl ood
kee pers
Ġcho col
ren heit
Ġrepeat ing
Ġsl ower
au ri
Ġgrill ed
Ġpotato es
Ġmyster ious
Ġdu ck
Ġdy lan
Ġfet tu
Ġneigh bor
Ġbou levard
Ġfah renheit
Ġspiel berg
e th
g ian
an bul
ay a
Ġb ir
Ġb order
Ġbe et
ur b
ch e
Ġr out
Ġst ates
Ġal one
Ġsh ape
Ġ6 1
Ġqu aint
Ġqu inta
Ġshow man
Ġv en
rit e
ta ge
Ġsw itch
Ġmost ly
Ġhope fully
Ġac ou
Ġed die
Ġstart ed
Ġmet reon
ok ing
Ġlob by
Ġaf ford
Ġentertain ment
Ġist anbul
Ġmosc ow
6 9
c ount
l ook
t r
Ġt ables
Ġa ge
Ġf al
Ġf est
Ġs li
Ġc at
or a
ar f
Ġst ick
vi ous
Ġk ra
ain ts
Ġ3 8
Ġche ek
Ġmar gar
stop her
Ġri co
cc ine
Ġway ne
Ġmak ers
Ġwood s
Ġclassic s
Ġja gu
Ġdead pool
Ġmix ed
Ġcertain ly
esan os
Ġsol id
Ġcheesebur ger
Ġdre ams
Ġjac u
Ġfettu ccine
k n
p a
Ġw ord
Ġy ellow
re do
Ġs aints
Ġc oo
Ġbe ar
Ġr aw
Ġst ren
Ġch and
Ġk iss
ut s
qu il
Ġrat e
Ġ5 3
Ġ5 9
Ġmin n
Ġpar am
aw n
Ġpa esanos
Ġfin als
Ġairport s
ert o
Ġbro c
Ġdiscover s
Ġstream ing
Ġpack ers
Ġcomm un
Ġwhe ther
Ġalm ost
Ġvegg ie
Ġcheek ily
Ġstren gth
n ce
u ck
Ġt ie
Ġt ele
Ġs ake
Ġj ay
ct ic
Ġwho se
Ġ5 4
Ġfound er
Ġle mon
Ġ9 8
Ġho g
Ġaw ards
ft y
ol i
Ġvi kings
Ġdri ving
Ġcont ain
Ġveget able
Ġgi ven
Ġori ent
Ġblo ck
Ġbat ting
Ġcrow d
Ġstud ios
Ġant h
Ġpu erto
Ġwilli ams
Ġvictor ian
ux e
Ġreun ion
iron ment
Ġenv ironment
Ġsnatch ed
Ġchocol ate
Ġjagu ars
1 10
b ell
c arl
d on
e ves
j ect
n o
o f
p o
p ark
Ġt acoma
Ġh ur
Ġf a
Ġf urn
Ġc art
Ġb ak
Ġb ry
ar in
Ġwh it
ri ck
Ġli ft
Ġre bound
Ġre eves
Ġr ings
Ġj r
Ġal amo
co ver
end ed
ard o
ali e
ak a
Ġ6 3
Ġad am
Ġcom b
so ci
fi red
Ġpro du
Ġdel uxe
20 9
Ġri v
Ġte quil
Ġparticular ly
Ġdes ert
Ġreg ency
Ġsin ger
Ġdeli very
Ġmid dle
Ġbill s
Ġintern et
fl ight
Ġchri stopher
eap olis
Ġroll ing
Ġtort as
Ġrai ders
Ġassassi n
Ġalf redo
Ġacou stic
Ġbroc coli
carl ton
c ut
h ow
h ead
m ond
p ri
r op
Ġf ab
Ġs ail
Ġs av
Ġc ure
Ġp ea
Ġl ines
Ġm auri
Ġb us
Ġg as
Ġwh arf
ow s
Ġfor t
Ġfor get
Ġpl ans
Ġdo or
Ġst rip
Ġsome place
Ġlo sing
and a
Ġ3 00
Ġag ree
Ġcl am
ci d
Âł m
Ġ20 49
Ġv enue
20 2
aw ks
Ġdes pic
Ġmon ica
14 9
Ġus ed
18 2
min al
ok ay
Ġend ed
acks aw
Ġjos h
Ġneighbor hood
Ġjacu zzi
Ġminn eapolis
Ġdespic able
. .
a im
n ed
r un
z i
an i
Ġt ouch
er an
Ġs q
Ġc ris
Ġb ru
Ġan n
Ġn inth
am er
Ġal amed
Ġsh akes
Ġco loss
Ġ5 6
Ġ8 5
Ġwest in
Ġte xt
Ġcar ry
Ġalbum s
tu ne
Ġsl ight
Ġpr att
air s
Ġcr own
Ġste ph
Ġbri an
Ġke anu
Ġdec ent
Ġvol ume
Ġpower ful
Ġhum an
Ġfront ier
Ġlob ster
Ġmart in
Ġexpect ed
Ġkore an
Ġriv als
Ġalamed a
9 8
9 00
b ilt
i or
l ake
l aw
m ont
t able
Ġo l
Ġh acksaw
Ġy el
re l
Ġf oo
Ġs ar
Ġs ara
Ġm el
el in
Ġb ould
ing er
en e
ar on
ri e
Ġli l
Ġr ow
ell y
ad ded
Ġju an
Ġtw ist
Ġhas h
Ġman h
av ailable
Ġ9 20
Ġ6 4
Ġair y
ort on
ach el
Ġaw ard
Ġbl ues
Ġmil k
17 9
Ġtex ans
Ġcour ses
Ġgoal keepers
Ġcr az
Ġwater side
Ġshe eran
Ġmeat s
Ġatt ract
Ġfu sion
Ġban ks
Ġmarket place
Ġrad io
Ġje ff
Ġamb iance
Ġwil son
Ġtow er
Ġnecess ary
Ġze pp
kn own
Ġcoloss al
c ake
d om
i od
s ch
w ell
Ġt us
Ġw eak
Ġf ol
Ġs eah
Ġd er
Ġd ad
Ġin sp
Ġre f
ch ic
ch ez
Ġr aven
Ġse an
it an
ail ability
Ġper iod
con t
Ġde vil
Ġsi ster
Ġreturn s
Ġ10 1
gu ard
Ġav ailability
Ġup on
li ke
Ġopen s
Ġau d
ab b
Ġpart ly
Ġsim on
Ġland mark
Ġnor mal
Ġgi ft
Ġac ross
Ġrel ations
Ġer ic
Ġsur f
Ġtit les
Ġid ent
Ġdan ger
Ġstud ent
Ġtre ndy
Ġsuit s
Ġlux ury
Ġhea vy
Ġluck y
Ġcolle ge
Ġow ner
Ġrout e
Ġzepp elin
a e
c our
j a
y a
Ġi de
si gned
Ġo b
Ġh ut
Ġs ad
Ġm d
Ġm ine
Ġm ale
Ġd ating
Ġg ary
Ġfor ces
Ġit self
Ġr ot
Ġmo ve
Ġmo lly
it z
Ġj er
Ġj ets
Ġfr o
ad ena
Ġlet s
Ġsh ell
Ġco ca
Ġ5 8
de signed
own ed
Ġwin ter
Ġv ud
Ġserv ices
Ġro bert
Ġmusic al
Ġbl ink
Ġapp ro
att an
Ġview ing
Ġweekend s
ca pe
Ġwat ers
Ġcover ed
iz ed
Ġcomfort able
Ġsle e
Ġben g
47 2
Ġmem bers
Ġheads et
Ġchampions hip
Ġund e
Ġsupp osed
Ġspan ish
Ġchie fs
Ġsteel ers
Ġpas adena
Ġfal cons
Ġmauri cio
Ġcris py
Ġbould er
Ġseah awks
3 49
Ġw et
Ġw ol
Ġo cc
Ġh un
Ġf and
es h
ar ies
Ġin de
Ġare na
Ġhelp ed
Ġdo zen
Ġu m
Ġso ld
Ġsh ot
Ġde als
ine e
Ġ9 50
Ġ6 6
Ġcom ic
Ġho lly
ans a
Ġhear ing
Ġcou sin
Ġcu z
Ġz ac
Ġguard ia
Ġlot s
Ġatl antic
Ġblo cks
Ġ95 472
Ġfast er
Ġwed ding
Ġanswer ing
Ġtre at
Ġrecei pt
Ġrang ing
Ġoffic ial
Ġfest ive
Ġcoo per
Ġmanh attan
Ġrelations hip
Ġvud u
Ġbeng als
6 6
b ook
b and
c er
Ġa qu
Ġw es
Ġy um
at ic
in y
Ġs ons
Ġc it
Ġp en
Ġm ellow
Ġb orn
Ġg one
Ġg ang
gh th
Ġli on
Ġre fried
Ġhow ard
Ġst an
Ġk ong
Ġ4 4
Ġman il
gu el
Ġun available
Ġbu st
Ġsan chez
Ġhome made
Ġvi si
Ġcas ino
Ġsw an
Ġgl ass
Ġcol ts
Ġguard ian
Ġvan der
Ġlu fth
app ed
Ġwater front
Ġpurch asing
Ġcle ar
Ġleg s
Ġfish erman
vit z
Ġtru cks
Ġeurope an
Ġteen age
Ġpsych o
Ġforg ot
Ġcow boy
Ġenchilad as
Ġkra vitz
Ġyel p
Ġunde fined
1 45
h ers
l ou
z es
an c
us band
Ġh os
Ġh urt
Ġh usband
re y
Ġs elf
Ġl amp
Ġb ern
on de
al ing
ot e
Ġme ant
ch i
ea u
Ġany way
Ġu t
Ġso da
Ġar my
Ġout post
Ġas soci
Ġcl ams
Ġcould n
Ġ6 2
Ġ6 5
Âł at
ag ed
Ġbu zz
Ġri b
pl ess
Ġsay s
Ġlong er
12 9
Ġrequire d
Ġbas il
gn on
her o
Ġcle an
Ġlow er
Ġmet ro
Ġdur an
Ġpie ces
Ġes cape
Ġrequest ed
eap ple
Ġrich ard
Ġpin eapple
Ġhon or
Ġshad es
Ġconc ern
Ġdrag on
Ġcraz y
Ġtus can
Ġweak ness
Ġvander bilt
. âĢĭ
c us
g io
n ers
n ich
u sion
w ise
Ġt emp
el lo
Ġd omin
Ġand y
Ġfor ced
ve st
Ġbe come
Ġst ones
Ġst aff
Ġam id
Ġsp y
Ġhe ath
Ġget away
Ġcur ries
Ġwork out
Ġbr ings
Ġbl ond
Ġbl onde
Ġapp ly
Ġover look
Ġpa rent
Ġchar gers
Ġtrad es
oc ked
Ġuser s
Ġwat son
Ġsuper hero
Ġlead s
Ġkings men
Ġhan g
Ġpitch er
Ġrob in
Ġchrist ian
Ġ956 95
Ġbir th
Ġslee pless
Ġvisi ting
Ġlufth ansa
7 9
f urt
g i
k ely
r um
t ed
si a
Ġw ag
Ġh d
Ġf ist
Ġp up
Ġfor tune
al d
Ġme gan
is ed
Ġst ru
Ġst icks
it ing
Ġfl ore
ell i
Ġdi ana
Ġpre d
Ġmu nich
Ġam y
Ġsh are
Ġar ts
Ġco les
Ġtr af
ali ze
Ġcl ar
Ġsi a
Ġop pon
Ġmar oon
Ġav ocado
Âł f
ag a
Ġclass es
Ġbu ll
ist er
Ġgu it
Ġopen ing
Ġbr unch
Ġbl ake
Ġking ston
Ġmi guel
Ġsm ur
Ġcol on
Ġei ghth
Ġlu ke
11 9
Ġter ms
Ġus ually
Ġthrill ers
Ġed ison
Ġprovid ed
Ġdead ly
Ġfigu re
Ġegg s
Ġmountain side
Ġbedroom s
cept ion
di rect
Ġant on
Ġgeor g
Ġfrank furt
Ġtru th
Ġconsi st
Ġmill ion
Ġpant hers
Ġny c
Ġlegend ary
Ġsmooth ies
ju st
ori ented
Ġmand arin
cid ent
Ġattract ions
Ġfro zen
Ġappro x
Ġcoles law
1 20
d ale
i ent
i ff
r opol
r ange
r inth
Ġo il
om as
Ġwi de
Ġhel l
Ġre n
Ġcan y
et ers
Ġfl av
il ian
Ġe cle
Ġk os
Ġal an
Ġgo vern
Ġju li
Ġall en
Ġsh el
by rinth
Ġsp in
Ġ7 1
Ġag o
ak en
Ġla byrinth
Ġbu cc
Ġpi ano
Ġpro f
10 1
10 9
Ġstop over
Ġbr and
Ġitali a
Ġcar r
ren ce
Ġah i
Ġfam ous
13 9
ash ion
Ġcheese cake
16 9
bur g
Ġmain e
Ġbri ef
the w
Ġend uring
ane ers
Ġdur ation
Ġfast est
27 9
Ġwall s
Ġcoast al
Ġapart ments
Ġfre ed
Ġcheesebur gers
Âłw ith
uss els
Ġedward es
Ġna an
Ġtele vision
amer ican
cont in
Ġfand ango
Ġbust ling
direct or
Ġecle ctic
Ġkos her
Ġbucc aneers
p ose
r oy
t ies
Ġt am
Ġi i
Ġw ynd
Ġo dd
Ġf el
Ġs el
Ġs aint
Ġp ink
Ġl or
Ġl ord
Ġin ch
Ġre order
Ġk l
Ġal ice
Ġu h
Ġcon st
Ġ7 2
ia h
Ġ9 26
Ġadd ition
Ġfi fty
Ġpro g
10 2
Ġri ck
Ġking dom
ai g
Ġsw ord
Ġevery body
17 2
Ġcoach es
Ġfin ish
ward s
Ġcare er
Ġgi ving
ah e
Ġclos es
Ġjoin ing
Ġmum ford
col a
Ġchang es
cent er
onna ise
Ġrang es
Ġimag in
Ġling u
Ġdev ice
Ġpow ers
Ġtu ne
Ġafford able
Ġmargar itas
Ġpea ce
Ġbru ce
Ġjer sey
Ġmanil ow
Ġcany on
6 5
b b
b al
i y
t en
y ear
si zing
Ġa aron
Ġf at
Ġs f
Ġp enn
Ġl enny
Ġan ahe
Ġg ad
Ġg ab
en ced
Ġpl ot
Ġli sa
ur a
Ġr ay
Ġr achel
Ġst at
Ġmo d
il es
Ġk ate
Ġ2 12
ver se
Ġel m
ut es
co b
ul f
Ġ7 7
Ġsi ck
Ġ9 1
Ġad ams
Âł c
Âł in
Ġmay onnaise
ag ing
Ġex pl
Ġem inem
ston e
Ġph y
Ġapp le
go ing
Ġevery one
Ġdown sizing
Ġchar ge
Ġta vern
Ġtrad ed
Ġter ra
Ġbel ong
ho ld
gr ound
Ġdark er
Ġtimber lake
Ġfac ility
Ġmat inee
cent ury
Ġhea ven
Ġinc re
Ġbris ket
Ġgather ing
Ġill ino
Ġanth ony
Ġsteph en
Ġhos pit
Ġconcern ed
Ġheath row
Ġflore nce
Ġwynd ham
Ġanahe im
8 6
m and
t e
t om
Ġc ong
Ġc ake
Ġc ooked
Ġm our
Ġg aga
Ġn at
en ger
Ġcan ada
Ġbe e
Ġhelp s
Ġany body
Ġe v
Ġsu gar
Ġk end
Ġk ale
est a
Ġal th
op s
Ġwant s
Ġpre p
Ġsee m
Ġcon ver
Ġ6 7
Ġcom mon
Âł a
Ġ20 13
Ġcaliforn ian
Ġbre ath
Ġdepart ed
Ġbreak ing
atur al
Ġplus h
20 5
cc ess
Ġcre d
Ġmad onna
mi x
Ġind i
Ġstandard s
Ġhead ed
Ġspecial ties
Ġwor ries
Ġcr aven
fth ouse
ett e
ni fer
Ġban g
Ġhaw ai
Ġvirgin ia
Ġjackson ville
Ġbath s
Ġpu get
Ġbrow se
Ġlux e
Ġsurvi v
Ġevent s
Ġdra fthouse
Ġremain ing
Ġbak ery
Ġtequil a
Ġslight ly
Ġraven s
Ġ926 51
Ġillino is
1 000
4 15
h an
h ill
i gn
k ra
m el
m ine
m ary
o ked
Ġi r
Ġa z
Ġw ri
Ġs at
Ġl ane
Ġn ic
Ġfor k
ri x
Ġpl ain
Ġli f
ir ing
Ġat omic
Ġmo b
Ġe th
ent ial
Ġsu ccess
im ately
ell a
ad ia
Ġpre vious
Ġlast s
Ġsp ice
Ġde ck
Ġup d
Âł p
Âł are
Ġv ar
Ġex e
li fe
Ġtrip le
Ġhome y
are lla
ab s
Ġtrail bl
cl aim
Ġgr ad
att i
stin a
ous es
ip ped
Ġher es
Ġter ry
Ġste p
Ġrun s
Ġreds kins
Ġru th
fl u
Ġey e
Ġbott om
Ġhip ster
Ġturn s
Ġwr ong
Ġrecei ved
Ġchow der
Ġdra ft
Ġses sion
Ġyo ga
Ġtrop ical
Ġlaw rence
Ġjen nifer
Ġparam eters
Ġident ity
Ġdanger ous
Ġholly wood
Ġswan ky
Ġtraf fic
Ġclar ion
Ġsmur fs
Ġgeorg ia
Ġapprox imately
Ġhospit al
kra ut
1 30
h l
h anna
i f
i us
r av
u it
an ia
Ġa fri
Ġa ero
Ġw age
Ġh al
Ġh oney
Ġf oc
Ġs ant
Ġp ine
Ġb ass
Ġd im
Ġre iner
Ġme in
Ġbe ck
is y
Ġfl o
Ġk enn
Ġmu si
Ġso ci
Ġsh ake
fe e
Ġen emy
ate ful
Âł what
Ġwin ner
Ġfi x
Ġres ul
Ġcor n
Ġri hanna
Ġjo ins
Ġbr ussels
Ġsm oked
Ġexp lo
ster ia
Ġter iy
Ġac claim
Ġclassic al
18 0
Ġcr ash
Ġmet ropol
Ġke b
Ġhar bor
Ġput ting
Ġbow ls
Ġchri stina
Ġinst rum
Ġdan i
Ġra e
Ġinter contin
Ġmat thew
Ġdeci sion
Ġnei ther
Ġchop ped
Ġdom ino
Ġjim my
Ġtal es
Ġfle et
Ġremind s
Ġcondition ing
Ġpil ot
Ġwiz ards
Ġsar ah
Ġdad dy
Ġtemp o
Ġblond ies
Ġkend rick
Ġalth ough
Ġcred it
Ġtrailbl azers
Ġteriy aki
Ġintercontin ental
b el
f are
g al
m is
s er
y l
er kraut
st ed
Ġw ok
Ġw anna
Ġo steria
Ġh om
in ho
Ġf red
Ġc ia
Ġc akes
ar let
Ġand erson
it i
Ġch in
Ġj ake
Ġk elly
im ent
Ġlo ving
Ġsh ak
Ġsp urs
Ġlea der
Ġkn ocked
Ġde an
Ġtell s
cond ition
Ġ7 01
Ġas ada
Ġle br
Ġ10 4
um ing
ro ll
Âł b
Ġbu n
Ġdr ug
Ġpe an
Ġ11 2
Ġinfor mal
Ġres ur
Ġoffer ings
land s
Ġvi br
Ġph il
Ġbl anc
Ġcar l
Ġcar ne
Ġcoffe es
Ġsea red
Ġve vo
Ġmon sters
11 1
Ġter minal
Ġpur pose
Ġcontin ue
Ġlight s
Ġcomplet es
Ġbring ing
ov an
Ġpub lic
Ġsil ence
Ġestablish ment
Ġsurvi val
Ġforg otten
Ġandre w
Ġappe aling
Ġbris as
Ġrebound er
cut ive
Ġradio head
Ġstru gg
Ġoppon ent
Ġguit ar
Ġflav ors
Ġlor de
Ġkl m
Ġmour inho
Ġkenn edy
Ġresul ts
Ġacclaim ed
Ġlebr on
9 6
: (
i ant
i ed
p end
u st
Ġ ush
Ġt n
Ġa ff
us et
Ġw oo
at zi
Ġc ynd
Ġm oo
Ġm ir
Ġm ia
Ġd ir
Ġg or
Ġg row
Ġn w
en ed
ar ium
ri al
Ġli es
Ġr on
Ġr uss
Ġst ap
Ġj ur
Ġj ol
Ġk err
Ġper ks
Ġsh u
Ġsp rite
Ġcon ven
Ġcon vin
av ocado
um a
Ġloc als
Âł or
Âł am
Âł you
Ġ8 9
ach uset
Ġdr um
Ġspe ed
Ġvi et
Ġri vi
Ġpick up
Ġbal d
cl ub
Ġfav ored
way ne
Ġchar act
Ġtrad e
Ġnap a
Ġac cident
Ġsau erkraut
Ġext ensive
Ġwind s
Ġperform ance
Ġcream ery
Ġ95 37
Ġele ct
Ġaver aging
Ġru by
Ġshort er
Ġge es
fl ot
Ġdis aster
Ġlau per
Ġra vi
Ġdyn am
Ġjam ie
Ġ787 01
Âłth is
Ġedward s
Ġjes se
Ġhealth y
Ġmass achuset
Ġsli de
Ġchand ler
Ġanton io
Ġterra ces
Ġexe cutive
Ġvibr ant
atzi ki
Ġcynd i
Ġruss ell
Ġmassachuset ts
7 6
c ity
c raft
g es
h ome
n am
o stor
p or
u c
Ġ âĢ
Ġt z
st een
as era
Ġa ut
assi on
Ġc ross
ay er
Ġm am
Ġm ap
Ġto n
Ġd um
Ġin vest
ri el
Ġpl ug
et ta
Ġr abb
ea st
Ġst ock
Ġe van
Ġsu bs
Ġgreat er
ain e
qu ent
Ġcon do
os sible
Ġair fare
Ġun f
Âł sh
Ġdet er
Ġca ffe
ol et
ph one
Ġri de
up ac
Ġrent als
17 5
mi le
Ġvide os
Ġwash ed
Ġhor se
pers on
Ġrel ated
Ġwor ked
Ġcr aig
19 0
Ġja cob
sh ip
Ġanim als
Ġari ana
Ġcoffeem aker
Ġdan cing
Ġstud y
Ġtru ck
Ġsam os
Ġrival ry
Ġapolog ies
Ġbell asera
Ġhen ry
Ġimag ine
sm oking
Ġtony a
Ġses ame
Ġbody guard
Ġol ive
Ġ920 37
Ġrot ating
Ġcowboy s
Ġassoci ation
Ġgovern ment
Ġhawai ian
Ġdani el
Ġush er
Ġrivi era
Ġbald win
2 39
8 2
8 4
f ish
g ed
i gh
j avi
k in
l tim
p ac
Ġ :
st ate
st em
si an
ou d
us sy
Ġo ven
at ors
Ġf ury
Ġb omb
Ġto ol
Ġd wayne
es sion
Ġin f
Ġfor d
ed s
Ġre gg
al u
Ġcan cel
ic ide
Ġme ga
Ġr ush
out s
am b
Ġch ose
Ġch erry
Ġk y
Ġk ay
Ġk im
Ġk rist
Ġal ive
Ġel l
Ġgo alie
Ġdi gs
Ġno body
Ġ4 00
Ġtw in
art ney
ard on
ul a
Ġag u
Ġcl ara
Ġle v
Ġwon ton
Ġ6 9
Ġun for
Ġqu es
Âł to
Ġ8 6
Ġleave y
Ġfree way
Ġrec ru
Ġpe ar
Ġdon nie
fi ll
Ġkind s
Ġopen ed
Ġhome wood
Ġbr az
Ġgen e
az e
25 4
Ġind ie
Ġkid n
Ġfin est
Ġspa cious
16 0
Ġgrill e
Ġwor th
18 9
Ġsur p
Ġhit man
Ġboy friend
Ġheart y
Ġspring steen
Ġedge water
Ġcast le
Ġmcc artney
Ġfol k
Ġinde pend
Ġ950 60
Ġaqu arium
Ġcit iz
lou is
Ġodd s
Ġgad ot
Ġcong ress
Ġresur rect
Ġravi oli
Ġrabb it
5 12
7 0
b ies
f ather
h u
h ouses
k an
o ll
t op
z o
Ġ rip
Ġt ouri
Ġt upac
st r
Ġi re
Ġa ce
Ġa vi
Ġo s
re me
Ġf ame
Ġp ra
Ġm ath
Ġb art
Ġb ush
or m
Ġan ch
Ġg ord
Ġn as
Ġn ut
Ġfor ce
ri o
ve y
Ġre mix
ic ed
Ġme ters
Ġbe ver
ch u
ch er
Ġr um
is a
Ġmo zz
Ġch az
ent e
Ġk enny
est o
Ġu ltim
Ġso cial
ci ally
Ġun rav
Âł do
Ġex ist
Ġsa w
Ġdon ovan
Ġcent ric
Ġ11 8
Ġro ast
ure d
ure s
ac ity
Ġtrail ers
ai re
Ġangel ina
Ġlou d
Ġsc arlet
Ġsqu ad
Ġhead ing
Ġ21 9
Ġti k
Ġext ended
Ġpet erson
Ġsn ug
Ġer a
Ġgreen s
Ġbro thers
Ġsebast ian
mp y
Ġhaw th
Ġfall s
Ġroo f
Ġdocum ent
Ġsoph ia
Ġpie ce
Ġhum ble
Ġallow ed
Ġseni or
Âłh ere
Ġlover s
Ġmot els
mar ket
Ġsmooth ie
Ġscott ish
Ġsy stem
Ġwilli am
Ġthreat en
Ġling us
din ing
Ġtem per
Ġequ ipped
we gian
pub lic
Ġoverlook ing
Ġfreed om
Ġgab riel
Ġafri can
Ġfleet wood
Ġjol ie
Ġtz atziki
Ġtouri st
Ġchaz elle
Ġunrav el
1 99
2 12
2 49
g ie
i ola
j am
k javi
l aki
m ich
o ven
p s
v is
v laki
w is
Ġ assi
an aly
Ġh art
Ġf er
Ġf ashion
Ġc ell
Ġc ult
Ġl av
Ġl yn
Ġm ck
Ġd ami
en na
th m
th ank
Ġli s
Ġli kely
Ġwi mpy
ic ity
ot o
ot ect
ch ett
is son
Ġst ur
vi er
vi gnon
Ġj ere
Ġgre y
ad emy
Ġlo v
Ġper cent
con ut
Ġtheir s
Ġsh y
Ġsh oo
Ġsh ip
Ġar cl
Ġco conut
Ġnight club
Ġrat es
Ġ5 00
ge on
Ġde mi
ess a
Ġle an
Ġmar ina
Ġun p
Âł $
Âł l
Âł on
Ġfree bies
Ġ11 0
15 00
10 7
ub on
Ġperson s
Ġunder st
20 3
fic ult
Ġph en
Ġcu rious
Ġsou vlaki
fri lls
Ġsw ish
Ġrent ing
rill iant
Ġsc r
bo ard
Ġguard iola
res sive
au nt
Ġhead l
Ġcont ro
Ġnor wegian
16 4
Ġeater ies
Ġke ith
Ġfo ster
Ġjack ie
Ġbro ther
Ġprovid es
Ġalas kan
Ġimp ostor
Ġrap t
Ġnomin ation
Ġstud io
ov ich
Ġturn er
Ġarc adia
Ġmot el
Ġball park
jo hn
Ġgate way
Ġexper ience
Ġspeciali zing
Ġce iling
Ġcommun ity
Ġwhit ney
Ġinsp ired
Ġaud ubon
Ġlingu ine
Ġmod est
Ġaero flot
Ġlev els
Ġques ad
Ġmozz arella
kjavi k
Ġdami en
Ġarcl ight
1 40
1 35
1 13
c ci
e ing
s el
s ome
t ch
u rious
z er
st re
at own
in ing
Ġf ans
Ġp ul
Ġm aster
Ġb oo
Ġan na
Ġg el
Ġg ea
Ġn av
Ġli m
Ġme ans
ch ris
Ġr and
ir a
is an
Ġst ree
it led
Ġch ip
Ġch esh
ent ious
Ġk yle
Ġfr ame
Ġfr uit
Ġpre sid
Ġlo vely
Ġlo cker
Ġsh ar
Ġco dy
qu es
Ġ7 3
ia c
av oy
Ġmar cus
Ġun ch
Âł 7
Âł for
pe cially
ag en
Ġfood s
ry an
Ġv ast
Ġsa p
Ġres ult
Ġtoo k
10 3
10 5
Ġri s
ab elle
Ġgr ay
Ġmi ld
ra h
Ġsm oke
Ġdirect ly
Ġdirect ors
17 0
17 4
Ġlar ry
Ġbi ke
Ġbi gg
Ġcol ors
Ġz oot
Ġrequire ment
13 4
Ġpr os
Ġlu k
Ġqueen s
Ġcr an
Ġsau vignon
Ġmer yl
Ġfun ky
Ġfo x
Ġhu gh
Ġval ue
Ġsign ature
Ġent ry
Ġent ire
Ġrelax ing
Ġfore ver
ho le
com es
Ġphill y
Ġcap acity
Ġfight s
Ġfight ers
sy l
Ġpan ic
Ġmis sing
Ġra f
Ġcrow ne
Ġmax well
Ġmem ories
Ġes pecially
Ġrey kjavik
Ġpu th
Ġfact ory
Âłh ow
Ġkill er
Ġkill ed
Ġlux urious
Ġfarm house
Ġrad isson
Ġsk ill
Âłth ere
van ia
Ġcam ino
Ġpap a
Ġlear ns
.âĢĭâĢĭ âĢĭâĢĭ
Ġder by
cour se
Ġpsycho analy
Ġpup p
Ġmob ile
Ġchin atown
Ġ9537 6
Ġinvest ig
Ġunf ussy
fill ed
Ġbraz ilian
Ġire land
Ġdocument aries
Ġtemper ature
Ġphen om
Ġheadl ines
Ġrapt ors
stre et
Ġchesh ire
8 1
b i
b u
c u
c al
h il
i ble
i fic
m ed
m ax
n ames
o h
v ic
Ã ¼
Ġ +
Ġt est
Ġt art
Ġt ies
Ġt ough
Ġt ax
as ian
us ual
Ġf ond
Ġm es
Ġm itch
Ġm ental
Ġb ing
Ġb ot
Ġb rilliant
Ġan ne
Ġto y
Ġd or
Ġg ome
Ġn ich
en der
Ġwh is
gh an
Ġre se
al an
Ġne il
ch es
ch ar
is m
is u
Ġse x
Ġse as
am alan
Ġch a
Ġch uck
Ġch airs
ent ist
ad es
Ġdi ary
Ġlo se
Ġall an
ly rics
ut er
Ġ4 40
Ġtr ou
Ġtr oy
ul es
Ġag ent
Ġcl int
Ġcl iff
ci an
Ġle vel
Ġ9 6
Ġun usual
Âł play
Ġv ine
Ġv oc
Ġpar ad
Ġap r
Ġpi atti
Ġex am
ord ing
Ġpro cess
Ġro le
Ġjo vi
Ġpick ing
Ġdif ficult
Ġitalian o
Ġpo chett
Ġgr ab
Ġgr ateful
Ġmil ano
Ġcre ature
Ġexc iting
Ġland ed
Ġrom an
Ġsteak houses
13 6
Ġnor man
Ġnor thern
14 6
Ġlu cy
Ġac res
Ġac ademy
Ġste w
Ġacc ording
Ġbrew s
Ġbrew pub
ict ed
Ġsuper bad
Ġhar rison
Ġhu h
Ġhu go
Ġpet ty
Ġorgan iz
22 2
Ġwarri or
Ġtit an
Ġimp ossible
stand ing
Ġbott les
Ġdest roy
Ġmc avoy
Ġbeast s
Ġrich mond
Ġdy ing
Ġfre quent
Ġhon est
Ġoffic er
Ġconnect ed
Ġcant een
Ġrh y
Ġstrength s
Ġfoo tage
sch ool
Ġgift ed
Ġwol f
Ġum bre
Ġbuzz y
Ġsel ena
Ġpenn syl
Ġindi vid
Ġviet names
Âłsh ow
Ġregg ae
Ġresurrect ion
Ġshy amalan
Ġgel ato
Ġstree p
Ġgome z
Ġnich ol
Ġpochett ino
Ġpennsyl vania
Ġvietnames e
2 10
i gan
m m
n ay
t ern
Ġ [
Ġ ou
Ġ urb
Ġt ed
er ie
st ay
Ġh ab
at form
Ġp or
Ġl an
Ġl enn
Ġm ist
Ġb or
Ġb ie
Ġb ond
Ġg ould
Ġn ach
ri dge
Ġpl atform
Ġli king
Ġre fer
Ġbe comes
il ed
Ġch ur
Ġch ardon
Ġe f
Ġe as
Ġsu ng
Ġsu icide
Ġk lo
ct us
Ġgo at
op us
Ġdi e
Ġsound ed
Ġsh aw
Ġman sion
av o
Ġnot e
ack ers
tt e
Ġfe ed
Ġfe et
Ġfe ars
Ġad v
Ġun known
Ġav engers
Ġup coming
Âł d
Ġ8 37
Ġ20 10
Ġca ctus
Ġdep end
Ġro oney
Ġro aring
ill es
em ma
ac co
Ġweek day
ab or
Ġbur r
Ġoutdoor s
Ġfull y
Ġsc all
Ġsc ary
Ġdes per
Ġalb ion
Ġnum b
Ġstreet s
Ġstreet car
Ġpr otect
Ġgi ant
Ġcinem ark
18 4
min utes
Ġdeli ver
Ġbri de
Ġoct opus
Ġent ree
Ġjose ph
Ġath ens
Ġnick el
Ġsing ing
Ġtrans fer
Ġsuit able
Ġscor ing
Ġsurround s
redi ble
Ġpin ot
Ġvin ce
Ġinc redible
Ġci vil
Ġgod father
Ġpow ell
Ġbry an
Ġbern ardo
Ġruth less
Ġconvin ced
Ġdum pl
Ġdeter mine
chu an
Ġlis bon
Ġfrequent ly
Ġrhy thm
Ġklo pp
4 50
a is
b urn
h alf
l ict
m ill
o b
r oph
s ue
v ada
Ġ /
Ġ Â
Ġ et
Ġa in
Ġo x
Ġh aunt
at s
re ll
Ġp ush
Ġp assion
el ess
el ine
Ġb ites
Ġb ones
Ġg a
Ġn ar
ke vin
Ġin vit
om p
ri ed
ri um
Ġre bel
Ġre public
al uma
Ġme g
Ġne vada
le e
Ġr ail
Ġst ir
Ġst ori
it s
Ġ1 000
Ġor ch
Ġe p
Ġk i
Ġwill ie
im es
Ġrest ored
Ġsh ore
Ġstar ters
Ġsp arrow
Ġ5 24
Ġcon cl
Ġman e
Ġman go
ss on
av in
Ġas h
Ġop eth
Ġ9 55
Ġ10 9
Ġmar co
Ġup market
Âł j
Ġ8 4
Ġho ll
Ġca u
30 4
ber ts
Ġem ot
Ġem ily
ap olis
Ġgu id
Ġsal oon
sic al
Ġvi sion
20 1
Ġri d
Ġjo han
Ġbr ave
aw ns
Ġbl t
Ġim m
Ġcar mel
Ġconf lict
ai o
Ġtravel s
Ġcost a
Ġsw ay
Ġsm oking
Ġexp osed
Ġpa o
Ġsqu ash
Ġspend ing
Ġcook ies
Ġoption al
Ġport ions
Ġma ison
oc aly
11 8
Ġter ror
Ġwood sy
Ġgi ves
Ġhop ping
Ġmarri ed
Ġcle ment
Ġcatch ers
Ġmet al
sid ious
let on
Ġpet aluma
Ġbud dy
Ġsign ed
22 9
Ġatt ention
Ġadventure s
Ġselect ed
Ġselect ions
Ġmont ego
26 9
Ġappetiz er
Ġben jam
Ġfall ing
Ġra ise
Ġant e
Ġemb ar
Ġsomet imes
Ġcold play
Ġtrans port
Ġinter view
Ġinter ior
Ġmr az
Ġroad house
Ġsub ject
Ġsk ull
Ġcoll ide
Ġbell a
Ġsky line
Ġbey on
Ġaccept able
Ġram en
Ġfle x
Ġbasic ally
Ġreach es
Ġpicture s
Ġsell s
Ġcant ina
Ġbare illes
Ġbus y
Ġspin ach
Ġgrad u
Ġpra gue
Ġunderst ated
Ġraf ael
Ġparad ise
Ġurb an
Ġbie ber
Ġchardon nay
Ġstori ed
Ġjohan sson
Ġbenjam in
1 16
2 000
6 39
c ia
e e
h ar
p art
r ano
s man
u sive
w el
Ġt ale
Ġt iny
st icks
Ġth omas
Ġw are
Ġw rit
Ġo li
Ġf ul
Ġf ences
Ġc ele
Ġp anda
Ġm us
Ġm ess
Ġm orton
Ġb amb
Ġan ni
Ġg onna
Ġn i
Ġn atural
ar ri
Ġin j
Ġin sidious
Ġli ly
Ġre port
al ap
nd ers
Ġat rium
Ġse mi
it ary
ound s
Ġj alap
lo y
Ġal ab
Ġal ter
Ġpre view
Ġso ft
Ġsh awn
and re
ain ed
Ġsp o
Ġsp ies
Ġwel coming
end a
Ġcon des
Ġman uel
Ġle on
Ġle wis
Ġwe ird
Ġwe ez
Ġun less
ro asted
Âł by
Âł okay
Ġcall um
Ġshow er
ach i
Ġ20 18
Ġbu bl
Ġap ocaly
Ġrec all
Ġback up
Ġscore s
Ġpi st
Ġem er
ap ed
Ġ11 1
Ġ11 9
Ġfran co
Ġbreakfast s
Ġsal e
Ġsal v
Ġcor ner
ott ing
Ġart isan
50 4
20 8
fic ent
fic ial
Ġbl u
Ġcar ly
Ġreserv ed
ie ce
Ġdirect ion
Ġspecific s
Ġcol ony
ram i
Ġve al
12 7
Ġmon a
Ġ0 29
Ġpast rami
14 7
Ġlu is
Ġsalt water
Ġus ual
Ġmic key
Ġpet e
Ġsci entist
Ġele v
22 8
sp ace
Ġfish ing
Ġmajor ity
Ġpay ing
Ġmich igan
Ġphill ips
Ġpic ked
Ġmarin ara
Ġmag n
Ġpass enger
Ġdam n
Ġboard ing
Ġown ed
Ġcott age
Ġcraft sman
bor n
col n
Ġtri o
ret entious
Ġreason ably
Ġrece ive
Ġson esta
Ġcolle ction
Ġalm ond
Ġexper iment
Ġsup port
Ġlin coln
bell um
Ġfurn ish
Ġann abelle
Ġide al
Ġyum my
Ġwag ner
Ġprof ession
Ġimagin ative
Ġupd ated
Ġvar sity
Ġkeb abs
Ġstudy ing
Ġindepend ent
Ġexist ence
Ġtik ka
mich ael
Ġunp retentious
Ġquesad illa
Ġwhis key
Ġrese arch
Ġexam ple
Ġlenn on
Ġ955 21
Ġcarmel o
Ġante bellum
Ġware house
Ġjalap en
Ġalab ama
Ġcondes a
Ġweez er
Ġbubl Ã©
" ,
' ,
1 12
5 30
9 2
c ot
f ell
f ol
f oot
g ium
h ips
i as
i ers
j ac
k er
k en
n or
o id
p ent
s ed
s al
t ain
Ã ¡
an ical
Ġt so
st ra
Ġth i
Ġth ir
Ġth row
Ġw eap
Ġw rite
Ġh ong
at ow
at eau
in ary
Ġs ak
Ġc y
Ġp ets
Ġl on
Ġl ad
Ġm ou
Ġb ound
Ġb ab
Ġd ic
Ġg ent
Ġg um
Ġg avin
Ġn ate
en ess
Ġin vi
Ġon site
ri b
Ġli ters
ght on
Ġre ali
Ġcan s
ot ts
Ġdo ors
am isu
il et
Ġch or
Ġsu f
Ġk o
Ġfr y
op ia
Ġju dd
Ġno isy
Ġlo ew
Ġso y
con nect
Ġco in
Ġen er
Ġtw enty
Ġtr a
Ġde b
ard i
Ġag ed
Ġ9 9
Ġ10 3
Ġ10 5
Ġmin s
tt a
ass uming
Ġad jac
ne ction
Ġcom ple
Ġqu ill
Âł g
Ġ8 40
Ġcall ing
Ġ20 12
Ġbu ck
Ġap oll
Ġap atow
Ġback street
ress es
Ġ11 5
Ġspe ct
Ġpro ject
Ġtom my
Ġkind ly
Ġro ss
sic a
10 4
em pt
ab i
Ġmil itary
ra id
Ġover ly
Ġgl en
Ġdes p
Ġdram atic
12 1
Ġmen us
300 0
Ġsl aw
Ġdist urb
screen s
Ġ28 202
Ġdeparture s
18 8
Ġholiday s
Ġmic roph
Ġmatt ers
Ġbel gium
iz es
Ġbarbe que
19 5
Ġcard i
emp ts
fr om
Ġaver ages
Ġent itled
Ġend s
Ġfore ig
Ġatt empts
37 9
ious ly
Ġser gio
Ġactress es
Ġdis count
olog ical
Ġdan ny
Ġmoon rise
Ġosc ars
pect s
Ġfrank lin
Ġcompare d
Ġbrow ser
Ġmill er
Ġale c
Ġcamp bell
Ġrad ius
Ġaf raid
Ġcoll ins
Ġsteven s
Ġhall mark
Ġposit ive
Ġhappen ed
Ġdef ense
Ġlear n
Ġlin ens
Ġbag s
Ġclay ton
Ġpres ent
Ġven ge
Ġcat ania
of ficial
Ġcomb ination
Ġpen th
Ġlamp post
Ġweakness es
Ġparent s
Ġren ov
Ġphy sical
Ġconver ted
Ġbreath e
Ġsuccess ful
Ġfoc us
Ġflo ors
Ġmetropol itan
condition ed
Ġpean uts
Ġavi ara
Ġshoo ting
Ġbigg er
Ġphenom enal
hil ation
Ġorganiz ation
Ġdesper ate
Ġdumpl ings
Ġbamb oo
Ġfurnish ings
Ġprofession al
Ġloew s
Ġadjac ent
Ġdisturb ing
Ġmicroph one
Ġforeig ner
1 15
1 17
7 07
8 3
9 4
a j
b ars
c akes
f all
h agen
i fy
i rie
i ques
m end
n on
p se
s ki
t les
v ovich
z a
Ġt as
Ġt ar
Ġt ir
Ġa y
Ġw ave
Ġw aves
Ġo z
Ġh ay
Ġh ate
re m
Ġc ath
Ġl una
Ġb ere
Ġb ul
Ġb one
Ġb loss
Ġg on
Ġg inger
Ġn ik
th rill
Ġin flu
ll i
Ġon to
Ġli kes
ot ed
Ġme ta
Ġhow e
le gr
Ġr ing
Ġst ately
Ġj erry
Ġj ared
Ġe vid
Ġk ane
fer son
ell s
Ġdi p
Ġper ri
Ġsh i
Ġ4 15
Ġsp are
Ġout standing
ge ous
Ġde andre
Ġnew ly
Ġhe irl
Ġsi zes
Ġop ry
Ġche m
icket s
Ġwe ar
Ġun assuming
Ġup town
Âł t
Âł can
ach ed
Ġact ual
Ġdin ners
ag on
id ian
Ġbre tt
Ġpi llow
ap ol
15 4
Ġgu cci
Ġres our
Ġpark er
Ġthem e
Ġran king
Ġea gle
Ġcor por
Ġhome style
10 6
ub ali
Ġshould n
Ġvi ol
Ġmor gan
Ġjo vovich
Ġfranc is
Ġbr avo
Ġclo sing
Ġcu c
Ġcu be
ors ese
Ġgenre s
Ġlong time
stin ct
Ġsc ream
Ġsc orsese
Ġappreci ated
Ġpa ir
Ġz o
Ġz uri
Ġsch ind
12 3
ash ed
Ġta h
Ġchain s
Ġten der
14 4
14 8
ather ine
Ġband s
Ġcr ush
Ġcomp os
Ġhu ghton
Ġbud den
Ġatt ack
Ġski ing
sh ine
Ġleg acy
Ġriver side
Ġwed ge
Ġfollow s
60 7
Ġdisco very
Ġcritic ally
Ġtre mend
Ġtru st
Ġdu et
ction al
cel lo
Ġreci pes
Ġpel legr
Ġmend es
du ct
Ġmac ar
Ġchop s
Ġdom en
Ġsouthwest ern
Ġteen ag
Ġcase y
Ġshad ow
Ġtem ple
ear th
Ġpil ots
po int
Ġprodu ce
pri ce
Ġsold ier
Ġshel ter
Ġexpl or
Ġincre asing
Ġev ans
Ġsurviv ors
Ġsoci ety
mis es
Ġell en
Ġcitiz en
Ġbever ages
Ġlov ato
Ġzoot opia
Ġcha os
Ġtrou ble
Ġgould ing
Ġnach os
Ġchur ch
Ġdepend s
Ġnickel back
Ġflex ible
Ġanni hilation
Ġtir amisu
Ġbloss om
Ġmeta irie
Ġheirl oom
Ġzuri ch
Ġtremend ous
Ġpellegr ino
" ?
? "
b son
b ill
d ington
e at
g m
g ame
k o
r ang
s yn
t ub
an ist
an gle
Ġt all
st y
Ġi l
Ġi cel
si st
Ġw u
Ġh ush
Ġh ilar
Ġy en
Ġf as
Ġs en
Ġl oop
el ve
el and
Ġb ree
Ġb um
Ġb ai
or ity
Ġan ci
Ġto ilet
Ġd oom
Ġg ulf
Ġn syn
en hagen
ar io
Ġin vol
Ġin iti
Ġwi re
Ġre p
ic as
Ġne apol
Ġdo ling
le ston
Ġr ack
Ġr ub
Ġr ules
Ġst ated
Ġhi b
Ġj w
ent ine
Ġsu person
Ġk h
Ġk r
Ġab duct
Ġfr ost
Ġel ite
der dale
Ġpre ss
Ġlo an
Ġlo ved
Ġso aking
nt ime
con e
Ġ4 28
Ġar k
Ġar den
Ġen count
oy d
Ġknow ing
art ed
av a
Ġas p
ak u
Ġche es
Ġ10 2
Ġmy stic
Ġmar ley
Ġmar sh
Ġmar cello
Ġav at
Âł 8
Âł re
Âł 10
Ġ8 8
Ġho le
Ġmay o
Ġbu ng
Ġbo ld
Ġv ic
Ġv isa
30 9
Ġamer icas
Ġcent ers
Ġ11 4
Ġ11 7
15 7
Ġres pect
Ġres pon
Ġro d
ott o
Ġty son
Ġty ler
ac le
20 6
Ġ12 3
Ġ12 7
Ġpick le
Ġbr a
Ġbr ut
Ġpart s
Ġeconom ic
Ġplan ned
Ġtrav is
Ġgr as
Ġtot ally
Ġsand y
cc a
Ġfil et
mi th
Ġsc en
Ġind ust
Ġmini bars
ks h
Ġtrad ition
Ġindian apolis
Ġma id
sis si
14 2
Ġmatch ing
Ġjan e
Ġcru e
Ġcr aw
Ġcr ackers
Ġste vie
Ġdefin ition
Ġacc ount
Ġmer idian
Ġval entine
mon s
Ġatt end
Ġru ntime
Ġrap per
ari us
Ġbrit ain
Ġdis p
24 4
Ġmis sissi
Ġlau derdale
pp i
Ġhambur g
Ġdest iny
Ġtour nam
Ġaccommod ating
Ġgri ff
Ġali ens
Ġsam ple
Ġranch o
Ġspring hill
Ġimpact s
ron ic
Ġacti vi
Ġcast ro
Ġmot ley
Ġmas cot
Ġram ada
Ġthreat ens
Ġappe ar
Ġjos Ã©
Ġcop enhagen
Ġ958 14
Ġven ice
tr ack
Ġide as
Ġob vious
Ġocc up
Ġpred icted
Ġfel icity
Ġstat us
Ġprep ared
Ġwri ting
Ġbeck y
Ġmusi cian
Ġwinds or
Ġdynam os
hu ed
Ġscarlet t
sel ves
Ġskill s
Ġpupp ies
Ġtax i
Ġbing ham
Ġburr ata
Ġconcl usion
Ġweap on
thrill er
Ġschind ler
Ġmacar oni
Ġincreasing ly
Ġicel and
Ġanci ent
Ġtoilet ries
Ġnsyn c
Ġneapol itan
- $
1 14
2 19
8 5
9 3
b es
b ender
c ame
c ery
d ome
g ic
m aker
n ger
o ath
p al
w ind
Ã Ń
Ä ĩ
Ġ q
Ġt ul
Ġt res
Ġt aken
as ion
ant ly
si e
Ġa ur
Ġw right
Ġo ly
re ck
Ġyou nger
Ġc ater
Ġp ard
Ġl en
Ġm ai
Ġm ama
el stra
Ġb ump
Ġd ry
Ġd awn
es on
Ġn in
Ġn ed
Ġn erv
Ġin v
Ġin fer
Ġin ception
ed ral
Ġpl ant
Ġli e
Ġwi ts
Ġre ception
Ġcan d
Ġne g
et ic
et ickets
ch ise
Ġr us
Ġst ea
Ġst orm
Ġse ed
vi es
it ive
il o
Ġch os
Ġe vol
Ġe gy
Ġhot do
Ġk irk
Ġu k
Ġu chi
Ġel li
Ġel lie
Ġel vis
im i
ell ite
Ġju de
Ġju mp
Ġpre ston
Ġpre mises
Ġno v
Ġall ies
Ġsound track
Ġsh oot
Ġsp l
art ers
Ġde er
Ġde mand
ard y
ul ous
Ġcon nection
Ġhe ist
Ġsecond s
ali st
ket s
Ġcl ap
Ġcl ari
ci enda
Ġsi sters
Ġsi chuan
Ġ10 7
Ġmin aj
Ġfe at
ass bender
Ġmar ine
ne w
Ġav en
Ġla ure
Âł one
Ġ8 2
Ġ8 7
ern and
ag an
stop s
Ġbo eing
Ġwhere ab
Ġback space
ap rio
Ġ11 6
Ġhou ses
Ġmovi etickets
Ġspeci fy
Ġfran chise
Ġtrip s
Ġart work
10 8
Ġlist ing
ru ct
ru ction
Ġunder oath
20 17
Ġ12 1
Ġri gg
Ġsaturday s
sc ript
Ġcar pent
Ġinn ov
Ġmi ka
pl an
pl ant
17 8
att ers
Ġlong est
Ġbi ba
ud io
Ġmini bar
Ġz one
Ġflat screen
Ġseason ality
12 2
12 8
Ġbet ray
Ġchar leston
Ġspa ces
Ġresort s
13 3
13 7
Ġdraw ers
Ġsouth east
Ġjohn s
Ġnor fol
Ġveget ables
Ġlat ely
Ġgi bson
ah ubali
Ġcustom ers
18 6
Ġtor o
Ġsuper ior
Ġsuper dome
Ġke uri
Ġmed ic
Ġpet r
Ġdivision s
Ġpad dington
Ġber ry
Ġdur ant
Ġser rano
Ġfight ing
Ġry e
Ġlam bert
Ġnick i
Ġstra it
Ġdam ian
Ġbath tub
Ġheart s
58 5
Ġturn ed
Ġchang ing
Ġhum ans
Ġoper ations
Ġmat rix
Ġsil va
Ġsub script
Ġplac ing
Ġstore front
Ġdy che
Ġsurround ed
Ġcal m
Ġsus pects
Ġcoll ard
Ġfet a
Ġwr ap
Ġpolit ic
Ġsy m
Ġdj ango
Ġtal ent
Ġtal ented
Ġfle ming
Ġexper i
Ġ197 0
Ġjon as
Ġidea lly
Ġha cienda
rest aurant
Ġhero es
Ġenchilad a
Ġgro cery
Ġwiz ard
Ġlemon ade
Ġcolon el
Ġcolon ial
Ġconsist s
Ġhal en
Ġsant ana
Ġshak ur
Ġdir ty
Ġjur assic
Ġconven ience
Ġcharact ers
Ġaccident ally
Ġsurp rise
Ġhawth orn
Ġpros pect
Ġbot anical
Ġtitan ic
Ġcele br
Ġspo elstra
Ġartisan al
Ġlad ies
Ġdic aprio
Ġtra verse
Ġ840 60
Ġdesp ite
Ġcath edral
Ġsuperson ic
Ġasp iring
Ġmississi ppi
Ġobvious ly
Ġaur ora
Ġoly mp
Ġpard ew
Ġegy pt
Ġclap ton
Ġwhereab outs
Ġnorfol k
Ġkeuri g
Ġsubscript ion
4 99
9 49
b ull
c re
d ough
e ck
f ly
g urt
j ames
m us
r s
r as
s co
u k
u nt
v ere
y si
Ã ±
Ġ |
Ġt rees
st a
st airs
ant is
ou n
assi ve
Ġw olves
Ġo bs
Ġh ers
Ġy up
Ġf ed
Ġf ai
Ġf assbender
Ġc ine
Ġc ass
Ġp un
Ġp ott
Ġp att
Ġl ope
Ġm ong
Ġm assive
Ġb is
Ġto ni
Ġto wards
Ġg ill
Ġg ump
Ġn ass
Ġn ails
Ġn orton
en cer
ar ians
ar ily
Ġin s
Ġin ju
ri z
Ġli qu
Ġhel d
Ġre vi
Ġre li
Ġre yn
Ġre sist
ot le
Ġbe eth
Ġbe came
ur al
et ime
ch ie
ce iling
le vel
Ġmo di
it ure
Ġfl air
Ġ1 50
Ġch am
Ġch ateau
Ġj ame
Ġab ility
ver s
lo s
lo st
lo ck
est yle
Ġal es
Ġel i
Ġel ysi
Ġgo ff
op a
ell ed
ell ini
ad ero
Ġpre par
Ġno b
Ġno ir
Ġlo ves
Ġrest rict
Ġall iance
Ġso d
ut ch
Ġsh ared
Ġsp encer
qu er
Ġpri son
Ġpri mar
Ġtr ag
Ġkn ew
art s
Ġde vel
Ġde vin
Ġtell ing
Ġcon way
Ġhe ight
Ġnot able
Ġprice y
Ġsi ght
Ġ10 6
Ġmy th
Ġ6 8
Ġ6 18
Ġ6 01
Ġmar iah
um ber
Ġav oid
Ġcom bo
so on
Âł 9
Âł ca
Ġ8 1
Ġ8 3
Ġho llow
Ġmay er
Ġbu ns
Ġbo l
Ġv inc
Ġwhere as
Ġother wise
Ġhold s
Ġdep p
Ġpi anist
Ġdr ac
Ġpe as
ap h
Ġint ro
Ġfran sis
Ġ- -
50 5
Ġmor rison
ac re
ac ing
20 4
20 7
Ġcou ch
Ġbl ind
Ġcar son
Ġcar roll
gg y
Ġinn oc
Ġconf id
az u
ra ction
Ġpersonal ities
isi ng
Ġgl ory
Ġnum bers
Ġve ter
Ġchar ming
13 1
au gh
Ġsuggest ed
Ġcont e
Ġwa hl
16 6
Ġpast ries
ah a
Ġmain tain
Ġcomp elled
âĢĭ .
Ġbri des
Ġpet ers
Ġsour dough
Ġer gon
Ġsign ific
Ġbuy ing
Ġbro ke
com b
Ġmiss ed
Ġdis ney
ma ids
Ġlau gh
Ġthu g
Ġest ate
Ġpac kets
pect ed
Ġcri minal
Ġorigin ally
Ġmater i
Ġes p
Ġmc mill
Ġje an
wor th
Ġread ing
Ġtort ellini
Ġmart ian
Âłth at
Ġbrad ley
Ġtast y
Ġconsider ed
Âłs ounds
Ġpap as
Ġprom pt
Ġow l
Ġremind er
Ġchampions hips
din and
Ġspeciali st
Ġyo gurt
Ġ958 11
Ġ2000 3
Ġremain s
Ġsli ders
Ġcontain er
Ġhur on
Ġfa j
Ġfurn iture
Ġsail ing
Ġhun an
Ġhun ger
Ġrichard son
Ġrobin son
Âłf ound
Ġexpl ain
Ġnat alie
Ġsat ellite
Ġstrugg ling
Ġmoo re
Ġstap leton
Ġsamos a
Ġfer dinand
Ġlav ish
Ġpercent age
Ġscr atch
Ġlim ited
Ġchip otle
Ġpresid ent
Ġseas ide
Ġfeed back
abor ate
Ġwrit er
Ġjalapen os
Ġgum bo
Ġgon z
Ġchem ical
Ġdomen ica
Ġbai ley
Ġavat ar
Ġbung al
Ġtournam ent
Ġgriff in
Ġnerv ous
Ġfai th
Ġlope z
Ġnass au
Ġinju ries
Ġresist ance
Ġbeeth oven
Ġelysi um
Ġprimar ily
Ġdrac ula
Ġfransis co
Ġwahl berg
Ġergon omic
Ġmcmill an
2 30
2 20
2 25
2 99
3 99
b an
b ing
b ie
b ird
c r
c in
c ott
d owntown
g t
g ly
g ate
m ind
m att
p ical
u lo
v or
v ine
w w
w ick
w agon
y es
z ation
Ġt ab
st ain
Ġi z
Ġi con
as per
Ġa k
us c
us ed
Ġw ake
Ġw ard
Ġw orry
Ġh ans
at ta
re ad
in flu
Ġf ellow
Ġs ash
Ġc ro
Ġp our
Ġp ain
Ġp ru
Ġp unk
Ġm ast
el u
el ed
Ġb icy
Ġb ooth
Ġan a
Ġd ick
Ġd arius
Ġg le
Ġg il
Ġg ast
on er
Ġn ature
en g
ar o
ar th
Ġin ner
Ġfor rest
ri a
Ġwi d
Ġre o
Ġre ve
Ġre friger
Ġre place
Ġre alize
al ine
Ġcan al
ic elli
ot ic
Ġme mber
Ġbe coming
nd a
Ġr ash
Ġst otts
Ġse es
vi li
it ty
Ġfl ag
Ġ1 30
am ic
Ġch es
Ġch im
Ġj ar
Ġgood fell
Ġany ways
Ġk it
Ġk um
Ġk ris
Ġ2 50
Ġal k
Ġu gly
Ġel aborate
ell an
Ġdi verse
Ġneed ing
Ġso le
Ġsh an
Ġar range
Ġco h
qu el
qu arters
Ġtr an
Ġtr uff
co ck
Ġman or
ess or
Ġag es
Ġsi tu
Ġop ul
Ġop port
Ġ10 8
Ġad ap
Ġun it
Ġun ex
Ġqu e
Ġcheck out
Âł r
Âł wh
Âł just
Ġ8 00
Ġwell ness
Ġshow n
Ġshow ed
Ġshow ers
ern et
Ġbo g
Ġv ino
Ġfree man
ber ry
Ġback ground
Ġsan ders
Ġ11 3
ol ia
15 6
Ġpark s
Ġthem selves
Ġro ar
Ġart ful
ru pt
ill e
ill as
Ġvi enna
20 16
Ġstop ping
Ġri g
Ġpart ner
ull e
Ġbl ow
Ġbl end
Ġbl uel
Ġ19 50
Ġmi gnon
az i
Ġmil ksh
25 6
Ġsm art
ty pe
Ġlos es
Ġwalk er
ath an
amp les
Ġbi kes
get table
Ġexc ited
Ġreg is
Ġdish ing
bo d
ud ed
Ġz ach
Ġz ip
Ġz azu
Ġher man
Ġsl ayer
Ġfamil ies
Ġba ahubali
13 2
Ġconfirm ed
Ġatl antis
Ġnor ah
Ġcare y
Ġpr oud
Ġsept ic
Ġstri ke
Ġstri ct
Ġport man
Ġveget arians
Ġhor ri
Ġuniver se
Ġpur ple
Ġed ition
Ġcomp ar
Ġdress y
Ġste al
Ġbeat riz
Ġsun shine
iz a
iz o
lin ed
Ġhar vey
Ġfun ctional
me x
ok es
Ġpet ite
Ġkeep ing
Ġatt raction
Ġbro ck
Ġmiss y
28 9
Ġbread sticks
27 5
Ġru cker
Ġbeh avi
Ġheat on
Ġroo ts
Ġket mo
Ġstud ents
Ġes c
Ġdiscover ing
led ge
Ġ60 6
ug al
Ġglo bal
Ġkill ers
Ġass ume
Ġread s
Ġwr aps
Ġguad alu
Ġci vic
Ġci vili
77 0
Ġwhe el
Ġtap as
Ġhappen ing
Ġhunt ing
old s
Ġspeak er
Ġterri ble
Ġsup reme
Ġneigh b
Ġconc ert
Ġnecess arily
Ġha ute
Ġbird s
Ġmal one
Ġcontain ed
Ġtequil as
Ġhuman ity
Ġ920 11
Ġpred iction
Ġphy si
Ġbelong s
Ġsurviv or
Ġcrash ing
Ġinstrum ental
Ġstap les
Ġspeed wagon
Ġbomb ay
Ġunfor gi
Ġgene sis
Ġunch arted
Ã¼ r
Ġtart are
Ġvoc als
Ġdeliver ed
Ġox ford
Ġga ulle
Ġnar r
Ġcau ght
Ġimm edi
Ġtransport ation
Ġbeyon ce
Ġapocaly pse
Ġgent ry
Ġchor izo
Ġsuf fer
Ġapoll o
Ġresour ces
Ġcompos ure
Ġbree zy
Ġiniti ate
Ġindust rial
Ġinfer no
Ġinnov ative
Ġmodi fy
Ġheight s
Ġbrides maids
Ġprompt ly
influ enced
Ġgoodfell as
Ġopport un
Ġunex pected
Ġbluel ight
Ġbehavi or
Ġketmo ree
Ġguadalu pe
2 17
5 000
7 50
b uri
c son
d dy
f lo
f les
g ard
g na
i i
l ist
l ava
o ir
u ya
w on
x on
x ie
y er
Ġ ern
an as
an cy
er land
as z
ant on
Ġa stor
Ġw o
Ġw enger
Ġo oh
Ġh air
Ġh mm
re ts
in ed
in ess
in ations
Ġf ountain
Ġf bi
Ġs ke
Ġc in
Ġc ord
Ġc ull
Ġp ase
Ġp ale
Ġp age
Ġp aint
Ġp enny
Ġl ut
Ġm ack
Ġm are
Ġm ason
Ġm gm
Ġb le
Ġb rent
ing o
Ġd ow
Ġd un
Ġd are
Ġd ung
Ġd irk
Ġn ue
en stein
th at
ow ers
ll ard
Ġfor n
Ġpl atters
Ġli t
Ġwi se
Ġre ub
ch ild
is o
Ġat om
Ġmo s
vi an
vi ll
Ġfl ame
Ġ1 20
am ma
Ġch est
Ġj op
Ġj ess
Ġj oni
Ġj Ã¼r
Ġyour s
Ġsu bur
Ġsu lli
Ġsu stain
Ġk any
Ġk alu
Ġal vin
Ġel g
im mer
Ġno ise
Ġno vel
Ġam ne
Ġsh ady
Ġar m
Ġco ve
Ġco gn
ers p
Ġout let
Ġout going
xt on
Ġtr ulu
Ġnow itz
Ġcon s
Ġ7 8
Ġ7 9
Ġman if
ess es
os mith
Ġcl ark
Ġcl aim
ci st
Ġwe ight
Ġwe ars
Ġun cover
um er
Ġla p
Ġup stairs
Ġcur se
Âł e
Âł all
Âł co
Âł mo
Ġcall s
Ġbut land
Ġbut ler
ag ne
ag gio
Ġbar rel
Ġbo at
Ġv elve
Ġsund eck
Ġaw ful
Ġpi g
Ġsa f
Ġsa una
Ġcent re
ap es
ol and
15 5
Ġinfor m
Ġsal es
Ġty pical
ph ant
Ġpool side
âĢ Ŀ
Ġset s
Ġpick led
ore s
Ġbr ought
rit es
Ġclo ck
Ġunt old
Ġplan ing
Ġplan es
40 1
Ġgr ah
Ġ19 20
Ġmil an
Ġsm ash
17 6
Ġcre ating
Ġsim p
Ġsim one
Ġpersonal ity
Ġfil ter
Ġbi el
35 9
Ġnum ero
Ġz od
12 4
Ġside walk
Ġsl c
Ġsl ave
Ġmon soon
Ġbas ics
Ġpalm s
act ion
Ġsit es
Ġnor m
Ġpr awns
Ġport ugal
Ġham id
14 3
Ġ21 202
Ġsin ister
cast er
Ġsec rets
Ġmer ry
ef ferson
Ġpati ence
Ġclub by
19 2
Ġhar ris
Ġhar rel
Ġdec ade
Ġsn ap
nesse y
Ġent er
Ġatt ached
Ġwars aw
Ġbro ken
bl ing
bl ed
Ġfriend ship
sh ire
29 0
Ġbuild ings
Ġegg plant
Ġpot ential
Ġdis connect
Ġbott led
Ġdest ruction
Ġown s
Ġfrank ie
Ġfrank enstein
Ġtru ly
Ġbelie ved
ov ed
Ġtri angle
Ġmr s
su ites
Ġsuns et
Ġoper ative
he art
orn ed
Âłh ave
Ġsub way
Ġje wel
Ġdesi gn
Ġrag ing
Ġvin tage
Ġfill ed
Ġtort illa
Ġhea vier
Ġmainst ay
Ġquick ly
Ġamb ience
Ġpier re
Ġstrong er
Ġwil fried
Ġhen nessey
Ġalex is
Ġgar age
Ġspeak ing
Ġprom ising
Ġund ead
Ġcut s
Ġdrag ons
Ġcop y
Ġdelight s
Ġaer osmith
work s
Ġjen kins
Ġexcept ion
Ġmargar ita
Ġword s
Ġchand el
Ġparam ore
Ġbak lava
pri ced
Ġtouch es
Ġtwist s
Ġstan ford
Ġclear ly
Ġparent age
Ġprof essor
Ġcarr ots
Ġprog ram
Ġimagin ed
Ġincre ase
Ġconver s
Ġlif etime
Ġrae es
Ġfred dy
Ġ701 30
Ġaff air
Ġcharact er
craft ed
ĠâĢ ĺ
ĠâĢ ľ
Ġaut o
Ġmam as
Ġsamos as
Ġgord on
Ġnas a
Ġassi gn
Ġstur geon
Ġjere my
Ġluk aku
Ġhugh es
Ġfond a
Ġnichol son
Ġeas ier
Ġnote book
Ġinvit es
Ġgradu ate
Ġinj ured
Ġelev ated
Ġmagn olia
Ġthir ty
Ġinvi sible
Ġpenth ouse
Ġbere tta
Ġbul worth
rang ed
Ġhilar iously
Ġloan er
Ġlen gth
Ġchos en
Ġclari fy
ernand ez
Ġrigg s
Ġpolitic ian
Ġexperi ences
Ġolymp ic
Ġhers elf
Ġmong ol
Ġrevi val
Ġreyn olds
Ġsod as
Ġvinc ent
Ġinnoc ent
Ġrefriger ators
Ġkum ail
Ġtruff le
Ġopul ent
Ġseptic fles
Ġcull um
Ġpase o
Ġdung eness
Ġnue vo
ĠjÃ¼r gen
Ġkany e
Ġkalu uya
Ġamne sia
Ġnowitz ki
Ġvelve t
Ġzod iac
Ġharrel son
Ġsepticfles h
2 40
3 19
4 000
4 37
6 2
6 3
6 12
a udio
b c
b ea
c adero
d c
d or
d ani
e ch
g l
g ood
g est
h r
h al
h ave
i at
j es
j uring
l ot
l im
m ble
m ans
m iles
o vies
p r
p x
r us
r ors
s an
s pe
u nder
w ar
w ith
y ard
y ah
Ġ âĢĭ
an n
an ch
er ger
er ias
Ġth er
Ġth ri
Ġth omp
ant oni
ou l
Ġa ali
us o
at ory
at oni
re se
in f
Ġc c
Ġp ere
Ġp ound
Ġp ane
Ġp ump
Ġm ardi
Ġm ashed
Ġb om
Ġb atch
or o
Ġan ger
Ġan aly
Ġto ward
Ġto ky
Ġg er
Ġg ay
on ia
Ġn op
Ġn erve
Ġn ah
en joy
Ġis sue
ri an
ri gu
ri ate
Ġpl um
Ġwi t
Ġwi tch
Ġre con
Ġre co
Ġre ese
Ġre venant
al ed
et er
et cher
Ġr are
Ġr px
Ġat kin
Ġmo thers
it or
se ek
out door
Ġfl etcher
ion aire
Ġch all
Ġhi red
Ġj our
Ġj ill
Ġj yn
Ġor acle
Ġe ure
Ġsu dden
Ġk a
Ġk en
Ġk arl
Ġwill ful
est ic
op en
im ental
Ġju pit
Ġdi ed
Ġdi zz
Ġpre serve
Ġno va
Ġam or
Ġam ple
Ġper u
Ġso lo
Ġso vere
Ġsh ining
Ġar row
Ġar ms
Ġar ray
Ġsp ouse
Ġsp ark
Ġsp rites
xt ure
Ġtw itty
Ġtr o
Ġtr ay
Ġtr out
Ġnight ly
Ġnight life
Ġde m
Ġcon juring
ali a
ali an
Ġ7 4
ia ble
ss ed
ak aya
Ġle ather
Ġ9 00
Ġmy ers
Ġ6 00
Ġfe ver
Ġmom s
Ġmar i
Ġmar ian
Ġad jo
Ġair pl
Ġun li
Ġup wards
Ġup state
ro l
Âł 6
Âł go
Âł bar
Âł hold
Âł arri
Ġho ve
rent s
forn ia
id ate
Ġv amp
Ġv okes
Ġpar mi
30 7
Ġaw aken
be y
Ġdepart ment
Ġdr op
son s
Ġex cl
Ġfi red
Ġfi esta
Ġserv ings
Ġran k
Ġro ster
ph er
Ġdel fin
Ġri ot
Ġjo erger
Ġmorning s
up scale
Ġcu ff
Ġbl ur
Ġbl aze
Ġte ars
Ġcar ri
Ġcar uso
Ġconf esses
Ġpo et
cl ing
ra cial
17 7
Ġlar gest
Ġpal mer
Ġsea point
Ġreg ion
Ġ14 607
Ġfin an
Ġz immer
Ġgal en
Ġcuisi nes
Ġlot us
Ġrom elu
Ġmon key
13 49
Ġcont ent
Ġta ho
16 1
Ġver mont
Ġx d
Ġgold berg
Ġport ra
Ġvan essa
Ġma e
Ġstadium s
Ġden nis
Ġ30 1
Ġjan is
Ġjan elle
Ġbay side
Ġmain ly
Ġwor ried
18 7
Ġimport ed
Ġhapp ens
Ġacc om
Ġcover t
Ġmarri age
Ġmed ia
ok o
Ġpit s
Ġele phant
Ġrem o
Ġrem ote
Ġsweet ened
22 7
Ġatt rib
Ġmaj estic
ni ficent
Ġcub an
Ġhan k
sp otting
Ġleg oland
28 0
Ġtit led
Ġbread s
Ġboy ce
Ġimp ro
Ġtur f
Ġban ana
Ġpossib ility
24 6
Ġmountain s
br ook
Ġmag nificent
Ġpan ini
Ġstuff ed
ric ane
Ġra ised
Ġzoc alo
Ġcomplet ely
Ġant ique
Ġaccommod ation
Ġaccommod ate
Ġtre k
Ġdescript ions
Ġtru sted
Ġes an
Ġmile stone
Ġrob les
Ġrevolution ary
Ġinter racial
Ġmc don
Ġdiscover ies
38 8
Ġtri ed
Ġhum mus
Ġhotsp urs
Ġwal ton
Ġmill a
Ġfact s
Ġfact or
Ġtrain spotting
Ġcab ernet
Ġeur opa
Ġkill ing
Ġpin to
Ġspirit ed
Ġdre w
Ġaccept ed
Ġpsych iat
Ġcomm uter
Ġhunt er
Ġprom ise
Ġhost el
Ġappe ars
Ġreach ed
Ġconnect ions
Ġtu cson
Ġkey s
.âĢĭâĢĭ âĢĭ
Ġmass age
Ġgro ve
Ġchie f
Ġpres ley
Ġpres ented
gian o
Ġfurn ished
Ġcart er
Ġrebound s
rop riate
guard ians
Ġinde ed
Ġum g
Ġdomin ate
Ġhang over
Ġbirth day
Ġjuli o
Ġconst ance
Ġprog resses
Ġwri tten
Ġlif estyle
Ġfix ed
Ġmetropol is
Ġinstrum ents
Ġbun ch
Ġcarl ton
Ġdir t
Ġgor geous
Ġjur gen
Ġunfor gettable
Ġrecru ited
Ġkidn apped
Ġanch or
Ġanch ovies
Ġmck in
Ġpul p
.âĢĭâĢĭâĢĭâĢĭ âĢĭâĢĭ
Ġpsychoanaly st
Ġpsychoanaly sis
Ġdestroy ed
Ġumbre lla
Ġindivid ual
Ġou sted
Ġlan gu
Ġemot ional
Ġembar cadero
Ġoli ves
Ġ029 03
Ġener gy
Ġcomple x
Ġrenov ated
Ġnik ola
Ġfas cin
Ġelli ott
Ġsym ph
Ġobs erv
Ġpott er
Ġbol ton
Ġmateri alize
Ġiz akaya
Ġsash imi
Ġgle eson
Ġrig atoni
Ġherman as
Ġunforgi ven
Ġimmedi ately
Ġopportun ity
Ġlut on
Ġjop lin
Ġsulli van
Ġelg ort
Ġtrulu ck
Ġmanif est
Ġgrah am
Ġconvers ation
dani el
jes sica
Ġthomp son
Ġaali yah
Ġanaly ze
Ġtoky o
Ġreco gn
Ġatkin son
seek ing
Ġeure ka
Ġsudden ly
Ġjupit er
Ġsovere ign
Ġadjo ining
Ġairpl ane
Ġunli kely
Ġvamp ire
Ġtaho e
Ġattrib utes
Ġpsychiat rist
4 35
6 8
6 95
7 8
b ra
b ruary
f ashion
h ab
h ampton
k ok
l ong
l ia
n aked
o zzi
p an
r ona
s our
t i
u ous
w all
Ã ¨
Ġ âĢĭâĢĭ
Ġt il
Ġt ina
Ġt unes
Ġt ries
er al
er ian
Ġth ick
as er
ou ille
Ġw ander
Ġw aka
Ġh oy
Ġh end
Ġh ick
Ġh arden
re tt
in to
in ari
Ġf ren
Ġf res
Ġf inger
Ġs ed
Ġc ute
Ġp y
Ġp ing
Ġp ose
Ġp ure
Ġl ance
Ġl akes
Ġm ent
Ġm ouse
Ġm aps
Ġm outh
Ġm aze
el i
el ic
el ux
Ġan g
Ġto ve
Ġto ng
Ġd ame
Ġd ut
Ġd ax
Ġd au
Ġd ory
Ġg h
Ġg em
Ġg ai
Ġn om
Ġn icks
Ġn aut
Ġn iece
en ville
Ġis a
Ġin qu
ll as
ll en
Ġli llard
Ġre ven
Ġre cover
ic kest
Ġof ten
Ġbe a
Ġbe gan
Ġne mo
ch ed
ir o
ea red
Ġmo ving
Ġmo ves
it ation
it ude
Ġfl oyd
Ġch en
Ġch ut
Ġch ester
Ġe ve
Ġe co
ind a
ind er
Ġsu lly
Ġk er
Ġk ick
Ġk ath
ver na
lo ad
Ġfr ay
Ġal c
Ġal ph
Ġgreat ly
Ġel le
op ita
im o
im ore
ad ian
Ġdi xie
Ġpre f
Ġall ey
ace k
Ġper su
Ġstar bu
and y
and ora
Ġsp it
Ġco va
fe bruary
Ġpri sm
Ġhas san
Ġtr apped
Ġrat at
Ġrat io
co lo
art ments
Ġde en
Ġde ar
Ġde mar
Ġnew port
Ġroom y
ss aka
Ġnot ed
Ġas ia
Ġret reat
Ġsi zz
Ġop in
Ġ9 100
Ġche er
Ġ6 10
Ġwe aring
Ġad just
Ġun con
Ġcom ida
Ġqu ickest
Âł 5
Âł ne
Âł so
Âł from
Âł february
Ġbut tern
Ġ20 1
Ġca use
Ġdin os
Ġbu ena
Ġbar on
un i
30 3
ber ger
be cue
Ġwest ham
Ġdr aught
ress ed
Ġex it
Ġex otic
Ġpe king
Ġem o
ap est
ol ito
Ġint rigu
Ġspe ars
Ġbreak s
Ġpark way
Ġart ur
10 49
ph ine
Ġau nt
ill o
em ent
Ġunder water
Ġunder ground
Ġri ses
Ġbr ain
ab ba
Ġclo ver
aw are
Ġim itation
Ġcas ita
Ġcar n
Ġreview ers
40 6
Ġgr an
Ġgr ace
Ġ19 90
Ġ19 06
Ġapp lies
ale z
Ġsm ile
Ġevery day
17 1
Ġcre ated
Ġmind s
Ġchick s
Ġbi enville
Ġgl or
55 6
mer ged
Ġexp ed
Ġfilm maker
Ġz omb
Ġsch umer
Ġher bs
Ġba o
Ġba ja
Ġmon ae
Ġdri sco
Ġcook ie
Ġta verna
16 2
16 5
16 8
Ġpr ayer
Ġchain sm
Ġtheat res
Ġwhite side
Ġten th
Ġmatch box
app ing
Ġuniver sal
Ġrock y
Ġus es
Ġspace y
Ġcomp uter
Ġcomp artments
Ġassist s
Ġfeature d
Ġindoor s
Ġbel oved
Ġbrew ery
Ġmer lot
Ġsuper man
Ġclub s
Ġlow ell
Ġlunch time
Ġke m
Ġscreen ing
ok ers
Ġgolf ing
Ġbud apest
Ġput s
Ġbox es
22 4
Ġbuff ets
Ġfu nd
Ġearthqu ake
Ġhan na
Ġleg room
Ġhud son
28 2
Ġhand crafted
27 0
gr aph
Ġcap rese
Ġsoon est
Ġdark o
Ġcontin ues
Ġbrit ney
Ġdis app
Ġdis order
lit er
Ġshut tles
Ġhaw k
Ġdan ilo
Ġant iques
Ġmem or
Ġsty x
Ġrival ries
Ġinter state
Âłthe y
Ġwal tz
Ġfac ed
Ġgrizz ly
clo th
Ġvari ed
Ġwild ly
Ġhorn acek
Âłh as
Âłh ot
Ġsub merged
Ġstore s
Ġalcohol ic
Ġass uming
Ġdesi re
Ġdesi red
Ġrose mary
Ġfill et
Ġson oma
Ġchann el
Ġfet us
Âłw ill
Ġdoub t
Ġeasy going
Ġamb ient
Ġpap er
Ġgar cia
Ġhunt ington
Ġhost age
Ġhost ile
Ġdev oted
Ġspeciali ze
Ġspeciali zes
Ġbegin ning
Ġlear ned
Ġchill i
Ġgall inari
Ġjes sie
Ġequ al
Ġassassi ns
pa rents
Ġcommun ist
Ġhur ricane
Ġfa ult
pri sing
Ġfab ulous
Ġsav age
Ġbus ch
run ning
Ġbuzz ing
Ġpup py
Ġfel i
Ġpeace ful
Ġnat omas
Ġbang kok
Ġir ving
Ġaz ul
Ġvar ious
Ġexplo re
Ġkeb ab
Ġpean ut
Ġgrow ing
Ġconven ient
Ġton gue
Ġkay aking
Ġkidn ap
Ġsurp ris
Ġos lo
Ġrum ari
Ġultim ately
Ġcontro l
Ġmitch ell
Ġumbre llas
Ġbor uc
Ġef fect
ĠÂ £
Ġmeg ade
Ġki ara
Ġrid ley
Ġmess age
Ġthi bod
Ġsak ura
Ġmou ssaka
Ġevid enced
Ġteenag er
bill y
Ġkh ali
Ġactivi st
Ġcand idate
cre ole
Ġjame y
Ġtrag edy
Ġsignific ant
Ġfaj itas
Ġgonz alez
Ġpru d
Ġkit sch
Ġalk aline
Ġadap t
Âłwh ich
rupt ed
Ġstrict ly
Ġcompar ison
Ġneighb ors
buri ed
Ġdow ney
Ġreub en
Ġchest nut
Ġnop alito
Ġchall en
Ġfinan cial
Ġmcdon ald
Ġfascin ated
Ġsymph ony
Ġobserv ant
Ġfren zy
Ġfres no
Ġdau phine
Ġreven ge
Ġchut ney
Ġstarbu cks
Ġsizz ling
Ġbuttern ut
Ġchainsm okers
Ġthibod eau
. ".
2 37
4 29
4 60
6 30
6 33
7 60
? .
b ute
b ased
c ke
d ry
f ound
g om
h ere
h op
h omm
i v
i ggy
j an
j on
k is
k ind
l ive
m or
m ight
m ad
m all
m ath
m iah
n oc
n atural
o x
o int
p i
p ton
p sy
p osed
r ad
s ure
u nd
w ight
x ious
z ones
Â ¨
Ã ¶
Ġ ur
Ġ ers
an gel
an ger
an ha
Ġt ank
er ated
st aff
Ġi ver
Ġi ris
ant h
Ġa lo
Ġa id
Ġa vil
Ġw inger
Ġh ood
Ġy a
Ġy ak
Ġy olo
at ical
in able
Ġs elling
Ġp ong
Ġp ans
Ġp ud
Ġp onto
Ġm im
Ġb ind
Ġb att
Ġb aker
Ġb achel
or ge
or ne
Ġan ce
Ġan gie
Ġto ast
Ġto by
Ġto ne
Ġto ns
Ġd at
Ġd ome
Ġd ue
Ġd na
Ġd arl
Ġd wight
on ardo
Ġn an
Ġn am
Ġn ak
Ġn aked
Ġn uts
en y
en si
en hol
Ġok c
Ġthat s
Ġwh ites
Ġin stinct
om y
om on
Ġon board
Ġli cks
Ġcan dle
ic ate
Ġbe ets
Ġne ut
ch an
ch air
le ck
le onardo
Ġr ou
Ġr oose
Ġr amp
ir ky
ir acy
ir ons
ea re
is ano
Ġst age
Ġst iles
Ġst oner
Ġmo z
it ions
se ason
Ġ1 40
am el
il ings
il era
Ġch oo
Ġch ile
Ġj aw
Ġk ru
Ġk asper
ver t
est r
Ġal essa
Ġal tern
Ġu ter
Ġu lt
Ġel uded
op ian
Ġsome what
im ag
ell ar
ad orned
Ġju ices
Ġju dy
Ġju ni
all ison
Ġpre ach
Ġno ah
Ġno la
Ġlo y
Ġlo ft
Ġlet ter
Ġsh a
Ġsh ock
Ġsh aring
Ġsee king
Ġstar k
Ġout back
Ġ3 14
Ġ3 111
qu ite
qu ely
Ġpri or
Ġtw ice
Ġhas n
Ġkn ack
Ġkn ock
Ġde e
Ġnew found
Ġcon v
Ġcon sp
ich el
Ġag ents
ater y
os h
Ġday ton
ci er
ak ens
ak opita
Ġ9 16
ces sible
Ġche ery
Ġmar io
Ġad van
Ġun c
Ġun earth
Ġun imag
Ġla ird
Ġcom mit
Ġqu irky
Ġup to
Âł k
Âł as
Âł restaurant
Ġho ff
Ġwell s
ach o
ick er
Ġcali ente
Ġbar nes
Ġbo iled
Ġv ary
30 1
ber ries
Ġhold ing
Ġdep ressing
Ġaw akens
Ġwest brook
Ġdr unk
Ġpe ep
ol f
Ġfi xture
15 1
ord inary
Ġres p
Ġpizz erias
Ġro de
Ġro ger
Ġsal ary
Ġpos ner
ph ones
50 3
Ġvi t
Ġvi olet
ian o
Ġ12 9
Ġri ff
Ġri mand
Ġri cott
Ġpick y
Ġbr anch
Ġbl es
Ġcar los
Ġgr av
Ġ19 40
Ġ19 39
Ġ19 75
Ġnonstop s
Ġapp ropriate
fri es
Ġmi k
Ġmi gn
az er
Ġsw itz
Ġfar olito
ren ces
Ġsm ells
Ġlar k
Ġexp an
Ġcol tr
Ġpa vil
Ġpa isano
Ġz iggy
Ġsch me
12 6
12 00
Ġtop ping
Ġsl amma
ash i
Ġspot s
Ġhead phones
Ġdist ant
Ġuni quely
Ġvan illa
Ġlat imore
Ġsum mary
Ġjan et
Ġ23 4
Ġ23 46
Ġcrit ical
Ġbit s
Ġus a
Ġac cessible
Ġamazon s
Ġwor se
Ġthrill ing
Ġcr out
Ġcomp et
Ġdefin ing
Ġwater ston
Ġhapp iness
Ġpir anha
Ġti de
Ġbrew ing
vel t
Ġsun rise
Ġmarri ot
Ġbri e
19 4
19 6
Ġcard s
lor is
Ġmean ing
Ġval erian
Ġfair y
Ġfair mont
Ġbud enhol
Ġjack man
Ġer ror
Ġsur prising
Ġextra ordinary
Ġpleas ant
Ġmerc en
Ġda isy
Ġfu ji
Ġbrown ies
met al
sh elf
Ġpol and
Ġgrand view
Ġmont gom
Ġalong side
Ġhand s
Ġid ol
27 3
Ġfollow ed
Ġ50 4
fl ower
Ġdis like
Ġstr aw
Ġinst ruct
Ġmag gie
Ġhard y
47 5
59 5
Ġpass es
Ġlettu ces
Ġcomplet ed
Ġpat rol
23 3
Ġpac ked
Ġtre vor
Ġjam ma
Ġemb ark
46 5
Ġmur ray
Ġchap ters
Ġrob ot
ov ic
Ġmc con
Ġmc bri
Ġdiscover ed
38 5
Ġtri bute
Ġhum or
Ġcourt ney
Ġcann olis
Ġvo ices
Ġdeci des
Ġcab anas
Ġrich ie
ult z
Ġtree house
Ġlasag ne
Ġ200 3
Ġ200 6
Ġ200 9
Ġpatri ck
Ġsk ip
Ġcal ories
Ġcal zones
Ġ787 05
Ġ787 04
Ġball s
Ġtrin ity
Ġdom ain
Âłw ould
Ġwent z
Ġchamp agne
Ġpolit ics
Ġci pher
Ġpack age
Ġcam era
Ġsleep ing
Ġjac into
Ġwhe at
Ġram ones
Ġ94 133
avi a
Ġhen ri
Ġhen son
Ġalex ander
Ġslow ly
Ġnir o
Ġzoo keeper
Ġprom is
Ġ197 6
Ġdef ending
Ġsup rem
bre w
bre ak
bre aking
Ġconnect ing
Ġspan akopita
Ġvegg ies
Ġgall eria
Ġjes us
Ġenv irons
rest rial
Ġce ilings
Ġtrop ics
Ġsoul child
Ġgro ban
cons cious
gian a
Ġstick y
pa ul
Ġbry ant
Ġsav ed
Ġol ad
Ġhut ton
Ġsold iers
Ġtreat s
Ġtreat ments
Ġlion el
Ġstan ley
lou nge
Ġlamp son
Ġcarr abba
Ġinch es
Ġfinish ing
Ġindi go
Ġir win
Ġeth i
Ġmusi q
Ġhom es
Ġcarl isle
Ġstrugg le
Ġaff leck
Ġdrum s
Ġagu ero
Ġagu ilera
str ong
Ġmath eny
Ġhawth orne
Ġassi gned
Ġcell ar
Ġcult ure
Ġjere miah
Ġshar ona
Ġunch ained
Ġmes quite
Âłplay ing
Ġindivid ually
Ġ837 02
Ġholl and
Ġvenge ful
Ġzo e
Ġrub io
Ġhib achi
Ġtradition ally
Ġinv ad
Ġevol ution
Ġmedic ine
Ġpetr ale
Ġpatt ies
Ġliqu or
Ġbungal ow
Ġwid ow
Ġchim ich
Ġmilksh akes
Ġcivili zation
Ġphysi ological
Ġcin elux
Ġforn aio
Ġcogn itive
Ġnorm ally
Ġamor phis
Ġtro lls
Âłbar becue
Ġparmi giana
Ġexcl usive
Ġdelfin a
Ġseapoint e
Ġportra it
Ġaccom pl
fashion ed
sour ced
Ġpref rences
Ġratat ouille
Ġdeen ey
Ġuncon quer
Ġemo ji
Ġmegade th
Ġprud homm
Ġkitsch y
Ġadapt ation
Ġavil a
Ġroose velt
Ġuter o
Ġjuni or
Ġconsp iracy
Ġunearth s
Ġunimag inable
Ġrimand o
Ġricott a
Ġswitz erland
Ġcoltr ane
Ġschme ichel
Ġbudenhol zer
Ġmontgom ery
Ġinstruct ions
Ġmcbri de
Ġprudhomm e
2 15
2 14
3 17
4 20
4 34
6 50
6 17
7 4
7 40
8 42
9 28
b our
b ones
c ell
c ul
c orn
d s
d rop
e ga
f our
f ax
f usion
g reen
h ef
h igh
i vely
j as
k ic
l ave
l ery
n omin
o sit
o cks
p re
p op
p ull
p oke
p iece
p eare
r ating
s mo
t v
t ion
t ower
t acoma
u a
u sing
v ous
w ine
w ill
y eah
Ġ vie
Ġ ess
Ġ zz
Ġt an
Ġt ight
Ġt ag
Ġt ests
Ġt ung
er ic
er ra
er ba
st ore
st hef
Ġth read
Ġi ow
Ġi ra
Ġi dy
as ure
ant om
Ġw ing
Ġw ast
Ġw ade
Ġw rest
Ġw reck
Ġo tt
Ġo ops
Ġh ed
Ġh ook
Ġh ul
Ġh av
Ġh ack
Ġh amp
Ġh bo
Ġh ula
Ġy erba
at ello
Ġs or
Ġc ities
Ġc eline
Ġp ak
Ġp ond
Ġp uff
Ġp ony
Ġp andora
Ġl n
Ġl es
Ġl um
Ġl ue
Ġl ooked
Ġm az
Ġm ount
el der
el son
Ġb oom
Ġb ente
Ġan nie
Ġto nes
Ġd ion
Ġd umb
es ha
Ġg w
Ġg ain
Ġg are
Ġg noc
Ġn ur
Ġn ina
Ġn elson
th a
th an
th od
ar ro
Ġwh oop
Ġis le
Ġis lan
ll ic
Ġfor mation
ve get
Ġli ved
Ġli ps
Ġhel en
Ġre x
Ġre nd
Ġre ver
al and
Ġcan dy
ic on
ic ally
ic ated
Ġme thod
Ġbe tty
ur bed
Ġne o
Ġne ther
et a
et own
ch burg
Ġdo lls
Ġr acco
ir t
ir ard
ood oo
Ġst ring
Ġse m
Ġse al
Ġse vent
Ġse izes
it age
Ġfl ash
Ġj p
Ġj ad
Ġj ag
Ġj efferson
Ġany a
Ġe ug
ent able
Ġk u
Ġk ar
Ġk atherine
Ġ2 11
Ġab y
lo ve
lo gy
ct urn
ct ure
ct uary
Ġwill ows
Ġal y
Ġal oo
op p
ck ing
ell in
ad or
Ġju icy
Ġdi g
Ġno cturn
Ġlo ad
Ġall ied
aur a
Ġper for
Ġper sian
ut to
con vention
Ġsh o
Ġsh atter
Ġsee ming
Ġ4 20
Ġar n
Ġar go
Ġar bor
Ġar ctic
Ġout er
Ġen cour
qu ality
qu itz
Ġpri de
Ġpri ya
Ġtw a
Ġnight cr
Ġknow ledge
art er
Ġde co
Ġde utch
Ġnew ton
ul ation
Ġcon ey
Ġhe fty
Ġ7 00
Ġenjoy ing
Ġnot es
os al
Ġday time
Ġcl ash
ci ano
Ġret ro
Ġsi car
Ġmin ions
Ġmin estr
gu ndy
Ġwe alth
Ġfe ar
Ġmar ais
Ġgot ten
Ġun rel
Ġwhen ever
Ġloc ale
Ġla unch
Ġcom fy
so dy
ro d
Âł any
Âł la
Ġho dg
Ġdet ail
Ġdet ect
Ġcall er
rent ly
Ġca f
Ġca us
Ġbu cket
Ġbu ilt
Ġbar n
Ġbar ren
Ġbar ley
Ġbo d
Ġv u
Ġv ent
Ġv ad
Ġbre nda
be th
Ġback drop
zz ott
Ġex or
Ġex ce
Ġex amples
ist s
Ġsan g
Ġsan ctuary
fi re
15 2
Ġgu ndy
Ġpro ve
Ġpro li
Ġpro di
Ġtrip p
Ġbeach es
Ġty ron
ite z
Ġlist ings
Ġrecord ed
Ġau st
50 2
Ġdel ay
Ġdel aware
ian g
do ddy
fic tion
Ġset up
Ġstop ped
Ġjo ey
Ġph antom
rit y
ab il
Ġclo oney
aw ler
Ġbur gundy
Ġ( "
Ġbl air
Ġeat ers
Ġeat usc
Ġcas ab
Ġcar a
Ġplan ets
40 3
40 5
40 8
Ġpo ison
cl es
cl ellan
Ġ19 00
Ġ19 10
Ġ19 37
Ġ19 60
Ġ19 97
Ġ19 69
ato ga
az ed
Ġcost ing
pl ic
Ġfar rell
25 9
Ġrent ed
Ġfit chburg
rill ex
ze ch
Ġcre pes
Ġsim mons
Ġmad don
Ġlou der
55 1
room s
Ġcol fax
35 6
Ġkid d
Ġ14 1
Ġfin alize
Ġsqu id
Ġz h
Ġz ay
wh en
wh ile
Ġ18 00
Ġsch em
Ġchar m
Ġtop ped
99 9
Ġsl aven
Ġsouth lake
Ġhead quarters
Ġpop corn
Ġsit ar
Ġta j
Ġdist urbed
Ġpr on
Ġconfirmation s
Ġfire fly
Ġnap olet
Ġgy psy
Ġma zzott
Ġlu gg
Ġlu cca
Ġsum s
Ġstrik ing
Ġstrik es
18 3
Ġcr um
Ġed en
Ġed erson
Ġcomp act
Ġdress ed
Ġhop doddy
min i
Ġwater park
Ġbeat s
Ġnorth west
Ġpir ozzi
Ġsau nders
Ġacc ents
Ġbaby metal
Ġti ki
Ġcover ing
Ġext reme
Ġbri d
Ġbright ly
19 8
Ġblack ened
Ġground breaking
ara ji
Ġhar vest
Ġhar rah
Ġmean while
Ġmed ellin
Ġfo xx
Ġ95 304
Ġhu ston
Ġspi ke
Ġtown s
Ġbill ie
Ġbill ionaire
Ġatt empt
Ġmerc y
Ġmiss poke
Ġmont ana
Ġhand lery
Ġpriv acy
Ġser kis
Ġru le
Ġboy ega
Ġshort ly
ep s
Ġfigu red
39 2
39 7
Ġsle ight
Ġdark ness
24 1
br ad
Ġinst all
wood y
Ġpan cakes
Ġben itez
Ġlight ing
Ġhaw n
Ġbon eless
Ġbott icelli
Ġsoph ie
Ġpat ty
Ġmem ory
Ġest ranged
Ġjam ba
Ġbeau x
Ġes plan
Ġrob bed
bor ough
33 2
hol m
Ġinter rupted
Ġmc clellan
38 3
Ġtri logy
Ġpu esto
Ġstream lined
Ġmill s
Ġtrain ing
Ġtrain ed
he arth
Ġwild e
Ġrich ards
Ġscor ers
Ġ956 18
Ġapart ment
Ġ200 7
57 7
Ġsol ve
Ġsol ace
Ġthought s
Ġsk rillex
Ġpin t
Ġmot iv
Ġ787 02
Ġacqu a
Ġgir ard
Ġaf ghan
Ġfre ak
Ġmart ini
Ġ34 102
Âłth en
Ġhall ow
Ġtast ing
Ġwr apped
Ġwr ote
Ġchop house
Ġarch ite
Ġmail ed
Âłs an
77 6
Ġdar ing
wy er
Ġliter ally
Ġjim i
Ġgod s
Ġexpect ing
Ġtal ked
Ġstrong ly
Ġpap aya
Ġhunt ress
Ġexper imental
Ġcateg ories
Ġevent ually
Ġ197 2
Ġ197 3
Ġ197 9
Ġjon athan
Ġknight s
Ġcrust y
Ġdream in
Ġshad ows
Ġsupp ly
Ġrai sing
ump s
Ġcondition ed
win ning
Ġbare ly
Ġbare naked
Ġsnow den
urb ished
Ġstates man
Ġtele phone
110 1
po ster
Ġcart el
Ġcart oon
Ġwhit comb
Ġprodu cer
rop ub
Ġsav ory
Ġshakes peare
Ġsar atoga
Ġrow e
Ġinsp ir
Ġref urbished
Ġaud io
Ġcousin s
Ġtreat ment
Ġamid st
Ġbull et
Ġshel ton
Ġprep are
Ġnic er
Ġeth an
Ġdean ie
condition ing
Âłb ut
Ġron cone
Ġdrum mond
Ġelect ric
Ġelect ronic
Ġstock holm
pac ked
Ġkim pton
Ġcitiz ens
top ped
Ġos aka
Ġmath em
Ġlyn n
Ġstur ridge
Âłl ast
Ġcontro ver
Ġnav y
Ġcran ston
Ġvine gar
Ġhonest ly
Ġhab it
Ġmist ake
Ġrefer ring
ĠÂ ¨
Ġet c
Ġpush es
Ġorch id
Ġembar ks
Ġmus lim
Ġpist os
Ġcy rus
Ġlon ely
Ġbuck ley
empt y
Ġvenge ance
Ġtar get
Ġviol ence
Ġcuc umber
Ġtah quitz
Ġshelter ed
Ġencount er
Ġchees y
Ġmarsh all
Ġscen ic
Ġrus sian
Ġhotdo gs
Ġcarpent er
Ġcine arts
Ġales sia
Ġprepar ing
Ġrestrict ions
Ġdevel op
Ġmyth ic
Âłca fe
Ġveter an
mind ed
Ġgast ropub
Ġsitu ation
Ġnarr ator
Ġclark son
Ġchandel ier
Ġmongol ian
spe ed
Ġcc bc
Ġpere z
Ġrecon naissance
Ġjour n
Ġperu vian
Ġmckin ley
pan eled
Ġhend rix
Ġment or
Ġgh irard
Ġnaut ical
Ġdinos aur
Ġcarn ation
Ġgran ite
Ġkem ba
Ġsurpris ed
Ġkhali d
Ġnak orn
Ġchoo sing
Ġjaw s
Ġadvan ced
Ġbles sthef
Ġmign olet
Ġethi opian
nomin ated
pull ed
smo ked
Ġiow a
Ġidy llic
Ġpak ist
Ġmaz arin
Ġbente ke
Ġgnoc chi
veget arian
Ġnether lands
Ġracco on
Ġseeming ly
Ġnightcr awler
Ġsicar io
Ġminestr one
Ġwealth y
Ġunrel iable
Ġhodg son
Ġdetect ive
Ġproli fic
Ġtyron n
Ġeatusc any
Ġnapolet ana
Ġesplan ade
Ġghirard elli
Ġblessthef all
3 25
3 29
5 99
6 4
6 55
7 30
7 24
7 47
b et
b id
c d
d an
d el
d ish
e er
e ce
e oni
f u
f an
f rench
g ne
h all
h em
i est
j ack
j abi
k ah
l is
l uck
m bo
o cc
o dy
p ine
p ions
r ation
s ea
s ues
t as
t ez
w a
w ii
y rd
y gen
z an
z ar
Ġ ouch
an ca
Ġt ail
Ġt att
Ġt aio
er ce
er ies
st ellar
Ġi ber
Ġi lle
Ġi vy
as co
ant ha
Ġa de
Ġa ura
Ġw end
Ġw wii
Ġo bl
Ġh oo
Ġh ub
Ġh itch
Ġh ateful
Ġy u
Ġy am
Ġy ung
at um
in son
Ġf ay
Ġthe o
Ġs ow
Ġs otto
Ġc ot
Ġc il
Ġc ain
Ġc ale
Ġc zech
Ġp ed
Ġp ract
Ġp ya
Ġp esto
Ġl l
Ġl ent
Ġl oose
Ġl loy
Ġl loris
Ġm essen
Ġm elt
el a
el en
Ġb ent
Ġb end
Ġb id
Ġb esh
Ġb icker
or th
Ġd m
Ġd itch
Ġd aly
Ġg ere
Ġg oose
Ġn u
Ġn er
Ġn ag
en ch
en berg
th es
th ia
ar m
Ġis sues
Ġin hab
Ġfor ms
ri ch
Ġli ber
Ġwi cked
Ġhel ms
Ġre ign
Ġre agan
ic ut
ic ked
ur ring
Ġne on
Ġne ph
Ġr age
is sion
ome x
ome the
Ġst ories
Ġst ained
Ġse ction
Ġmo le
vi or
it t
it ution
se th
Ġfl ies
Ġ1 35
am ent
am ental
il a
Ġplay a
Ġch ronic
Ġj as
Ġj ala
Ġj orge
Ġor n
Ġgood ness
Ġsu z
Ġk ub
Ġk ai
Ġk ip
Ġab s
ver hampton
ast y
lo in
lo gn
lo af
Ġgre ece
Ġfr ag
Ġal v
Ġel fri
Ġelse where
ell ig
ad as
Ġdi stinct
der ick
Ġpre cious
Ġlo aded
Ġall er
Ġall right
nt on
ut y
ut ter
ut ious
Ġlet ting
Ġwas abi
ain st
Ġar b
Ġar roy
Ġsp ok
Ġsp awns
Ġco c
Ġout ersp
Ġ3 13
Ġpri mary
Ġkn i
end ar
Ġ5 05
ge e
Ġde mons
Ġcon ley
ali bur
Ġman ner
ich e
ine ers
Ġnot ice
Ġas c
ci pl
Ġret ire
Ġsi c
Ġsi xt
Ġbook s
Ġop p
Ġop po
Ġop entable
Ġ9 49
Ġtake away
Ġ6 49
Ġwe mble
de vil
Ġad rian
Ġla bel
ro c
Âł 1
Âł 3
Âł 4
Âł se
Âł de
Âł 25
Âł let
Âł count
Âł enjoy
ach a
ach e
pe Ã±
Ġ20 11
Ġca ill
Ġseat ed
ry n
Ġnear ly
Ġbo se
Ġbo ca
Ġbo logn
un ning
Ġv ort
Ġv ows
ans el
30 2
ber to
Ġpi ll
Ġdr ops
Ġex od
Ġadd s
Ġsa vior
ning s
Ġwonder fully
Ġamerican ized
Ġfi erce
Ġint ellig
Ġspe ech
Ġhou sing
Ġhou sed
Ġbreak ers
Ġspeci es
Ġran ks
li o
Ġro berts
Ġsal omon
Ġhigh land
ph y
ph asis
50 6
50 7
Ġvi ta
Ġdel tas
ian a
Ġmor ris
Ġtea cher
ac u
ac ed
Ġ12 4
Ġ12 00
Ġjo kes
ore tte
Ġbr oom
Ġph eoni
Ġbur geon
Ġbl ank
Ġte ar
Ġte gel
sc r
Ġcar rie
Ġcar amel
Ġear ned
Ġecon o
Ġgr ant
Ġgr own
gel ow
Ġ19 9
Ġ19 01
Ġ19 88
Ġmi ley
Ġinterest s
Ġgen ius
az ar
az ine
ple ase
Ġreserv oir
Ġamen ity
Ġless er
pt ic
pt ion
Ġmil ana
pl ing
pl it
25 3
Ġthrough out
Ġdirect ing
Ġcre ate
Ġcoach ing
Ġcour age
Ġcour to
Ġcoffe y
ath am
att uck
Ġover ton
Ġbi gelow
Ġwar ner
mer ic
Ġmanag ing
Ġexc alibur
Ġsc ale
Ġsc ene
Ġreg ents
bo ards
Ġcol a
Ġcol in
Ġcol bie
Ġmini ature
ip o
Ġkid ding
Ġsqu ee
Ġland sc
Ġaugust a
Ġocean a
yn thia
Ġsl im
Ġsl iced
Ġmon tage
13 8
Ġdraw n
Ġpalm as
act ions
Ġpop py
Ġpop ulation
red ib
Ġcont r
Ġwa ff
Ġafter math
Ġpr ote
Ġpr omethe
Ġver ge
Ġfire house
Ġgold ie
Ġport er
Ġma h
Ġma ud
iss erie
Ġspr outs
Ġlu c
Ġlu ciano
49 7
Ġrel ies
Ġrel ative
to ssed
Ġcru d
Ġpur su
Ġpur sue
ele y
Ġste fan
Ġacc omp
Ġti ger
Ġmer i
Ġpati ent
Ġsuper b
lin ers
Ġbri o
Ġbri dges
Ġcatch y
od on
Ġlow e
Ġcard iff
Ġabo ard
Ġoct avia
Ġclip per
me al
sw e
Ġ95 776
Ġpit a
Ġsn eak
ero le
ba ut
Ġdou ce
Ġele ction
Ġmeat loaf
Ġend ing
37 1
Ġyan kee
bl ack
Ġda ft
com edy
sh ell
Ġars ene
Ġfish er
28 1
28 3
Ġhand le
Ġhand made
Ġpay ton
Ġmich elle
29 7
inn on
Ġsepar ated
27 4
Ġser vers
Ġimp rison
Ġpitch ing
Ġsoon er
Ġdis play
Ġdis soci
Ġjoin ts
Ġstr ings
lit ers
Ġmag giano
Ġmag azine
Ġben ÃŃ
Ġheat s
Ġwick er
Ġmight y
Ġlam berts
Ġbase man
Ġpat sy
Ġpat isserie
23 1
23 2
23 6
Ġcri sis
Ġcree p
Ġsam antha
Ġdu per
Ġes cal
Ġmur phy
bor o
Ġauth ors
Ġgener ally
Ġgener ations
Ġtrans actions
Ġinter stellar
Ġmc gee
Ġwhirl wind
Ġallow ing
Ġdeal ing
75 7
36 7
Ġcann on
Ġcann oli
Ġemp loy
Ġglo bes
Ġscor pions
Ġpant ry
Ġpatri zi
44 1
Ġmurder ed
Ġcal endar
Ġson ny
cas ual
Ġtort illas
Ġfre i
Ġled isi
Ġfet ch
Ġinc redib
Âłs ong
anna h
Ġpsych ic
Ġpsych ological
Ġjac ket
Ġram os
Ġ94 109
Ġ94 102
Ġdol ce
Ġgrub bing
ouch ables
Ġgar land
97 3
Ġdef ine
Ġcrust ed
Ġcup s
Ġsup per
Ġconnect icut
Ġlear ning
Ġform at
Ġform aggio
Ġdelight fully
Ġtem pl
Ġaer omex
Ġsupp ose
Ġtow ne
Ġha ul
Ġ2000 1
Ġze aland
Ġrh in
che ck
Ġswitch ing
Ġanth em
Ġhur ry
Ġfab ric
Ġsail or
Ġsail ors
table cloth
Ġbanks y
Ġfol ie
Ġref le
Ġmale ficent
Ġwol verhampton
Ġocc asion
Ġhun nam
Ġcooper ation
rey u
Ġbirth right
Ġshare s
Ġmillion aire
Ġbrand on
Ġev acu
Ġsat is
Ġnic ely
Ġeth ics
Ġprevious ly
Ġmatthew s
Ġdecision s
mis sion
Ġhom etown
Ġshak ira
Ġmir anda
Ġgor an
Ġgrow s
Ġshu i
Âłam c
Ġdynam ite
Ġmap le
Ġkay ak
Ġkrist en
Ġgene va
Ġgord o
Ġultim ate
Ġcult ural
Ġlyn ch
Ġmck innon
Ġboo zy
Ġris k
Ġris otto
Ġcran berries
Ġinvestig ators
Ġtoy ota
char ge
char lie
Ġnichol as
Ġlan caster
Ġplatform s
Âłd id
Ġep ik
har rison
Ġleon ard
Ġleon ardo
Ġemer ges
Ġscientist s
Ġwhiskey s
Ġthi baut
Ġbound aries
Ġreali zes
Ġfocus es
Ġcorpor ation
Ġviol ent
Ġtender loin
Ġdoom ed
Ġwire less
Ġencount ers
Ġrespon se
Ġbra xton
Ġmaid en
Ġcraw ling
Ġdisp atch
Ġneg ro
Ġstea med
Ġspl ash
Ġaven ge
Ġbetray ed
Ġcass erole
Ġpun jabi
Ġreli g
Ġintro du
Ġpeters burg
Ġbroke back
Ġesp n
Ġmast odon
Ġbicy cling
Ġrash ford
Ġtran sit
Ġblow ing
iza beth
Ġbrock ton
flo or
Ġske w
Ġdare devil
Ġsustain able
Ġsales man
Ġsimp ly
Ġcopy right
Ġassign ment
Ġbom bs
Ġmarian ne
Ġwander ers
Ġhick ory
Ġsed u
Ġinqu ire
Ġalph a
Ġalley s
Ġopin ion
Ġcheer ful
Âłne xt
Ġintrigu ing
Ġzomb ies
Ġmim os
Ġbind u
Ġbachel orette
Ġinstinct s
Ġneut ral
Ġdayton a
Ġmik uni
Ġpavil ion
Ġmccon augh
Ġolad ipo
Ġinvad ers
Ġwidow ed
Ġchimich ang
Ġunconquer able
Ġwrest les
Ġhamp shire
Ġmount s
Ġislan ders
Ġaly son
Ġencour aged
Ġzay n
Ġhallow een
Ġinspir ation
Ġpakist ani
Ġtatt oo
Ġille gal
Ġobl it
Ġhitch cock
Ġcil ant
Ġpya ari
Ġlent il
Ġlloy d
Ġnag lee
Ġjala peÃ±
Ġfrag ile
Ġelfri d
Ġarroy o
Ġspok ane
Ġoutersp ace
Ġretire ment
Ġwemble y
Ġcaill at
Ġbologn ese
Ġexod us
Ġpheoni x
Ġburgeon ing
Ġcourto is
Ġprote ction
Ġpromethe us
Ġdissoci ative
ĠbenÃŃ tez
' ?
. '
/ /
1 300
2 45
2 11
3 15
3 40
3 11
3 87
3 80
4 49
4 19
4 28
4 39
5 50
5 13
5 29
6 15
6 20
6 40
6 41
7 11
7 18
7 87
7 80
7 04
8 40
9 07
: //
b atch
b ro
b one
b les
b age
b ury
b atta
c co
c Ã©
c ynthia
e ath
e asy
f ace
g os
g ated
g rill
g age
h ot
i id
i per
i val
j e
k u
k itchen
k eley
l at
l ax
m u
m id
m ins
m illa
n ow
o a
o in
o th
p ian
p eter
r ome
r ont
s ur
s and
t een
t emp
u si
u be
w ish
w reck
y att
y ani
z able
Ä į
Å Ĥ
Ġ ÅĤ
an ie
Ġt ails
Ġt ick
Ġt ai
Ġt ire
er os
er ville
st ol
Ġi an
Ġi am
as ley
as car
Ġa ld
Ġa iling
assi ng
us ch
Ġo le
Ġh ind
Ġh atch
Ġh ag
Ġh az
Ġh orton
re w
re mix
in ton
Ġf ont
Ġf ins
Ġf ade
Ġf urs
Ġf eng
Ġf ernandez
Ġyou th
Ġs ens
Ġs gt
Ġc assi
Ġc ul
Ġc ena
Ġp ont
Ġp ath
Ġp assing
Ġl b
Ġl ott
Ġl ud
Ġl atter
Ġl inda
Ġl aura
Ġl arter
Ġl cd
ay an
Ġm it
el et
Ġb il
Ġb ake
Ġb itch
Ġb ento
Ġb ought
or io
Ġd ed
Ġd ak
Ġd ah
Ġg ina
Ġg ross
on ly
Ġn il
th al
th ere
ar ack
Ġwh op
Ġfor ster
om an
om wich
gh er
Ġli pa
Ġwi en
Ġre ference
al es
al right
ic ia
Ġlike wise
Ġbe asley
Ġne pal
et c
ch ang
ch ron
ch ini
Ġdo gg
le ast
Ġthank ful
Ġr ale
Ġr ondon
ea ke
is er
Ġat least
Ġst ol
Ġst af
Ġst anton
Ġst atham
Ġse p
Ġse y
Ġse eds
vi Äĩ
vi gne
it al
it ker
it alia
se eing
Ġfl ower
Ġfl ock
Ġfl owers
am ari
il ight
Ġch i
Ġch er
Ġch ad
Ġch ase
Ġj av
Ġj ury
Ġj eps
Ġor ly
Ġsu tter
Ġk us
Ġk orn
Ġab ba
lo cks
lo pes
ct s
Ġgre g
Ġfr aser
Ġwill is
est ra
Ġal pine
Ġal italia
Ġu a
Ġel ton
Ġel izabeth
op ic
Ġsome how
im posed
ail ed
ad am
Ġdi ver
Ġmu l
Ġam ig
Ġper cy
ut i
ut o
Ġsh ift
Ġsh attuck
Ġ4 75
Ġstar ter
for tune
Ġco b
Ġco sm
Ġco bb
Ġ3 20
Ġ3 39
Ġpri ority
Ġtw ilight
Ġtr ap
Ġtr avi
Ġknow s
Ġcon n
ali zed
ali stic
Ġ7 50
Ġman age
Ġman ny
Ġman iac
ess el
Ġag g
os lave
Ġcl im
Ġcl are
ci utto
Ġsi ts
Ġsi enna
Ġsi zable
Ġche fs
Ġmin t
Ġmin im
tt ers
Ġ6 34
Ġmar ion
Ġmar qu
Ġmar cos
Ġmar tha
Ġad ol
Ġun le
Ġun ions
Ġun adorned
Ġun easy
Ġun locks
Ġav ril
Ġla zy
Ġla zar
Ġla vigne
Ġcom ics
Ġqu ali
ro b
ro e
Âł per
Âł br
Âł like
Âł upscale
Ġho lo
Ġho ly
Ġho ag
Ġho bb
erv in
ort s
Ġshow place
Ġshow down
ick ers
ag ascar
Ġstay s
Ġbu ster
id on
Ġbo red
Ġbo hem
Ġbo lio
Ġv oodoo
Ġv essel
Ġbre es
Ġdep ot
Ġaw ake
be e
Ġrec re
Ġoh io
Ġwatch ed
Ġwatch tower
Ġsa br
Ġdon uts
Ġem ul
Ġem br
Ġem phasis
ap ore
Ġfi res
fi ance
15 8
Ġres cue
over s
Ġsal ty
Ġsal azar
Ġbeach side
Ġcorrect ion
ill az
em ies
Ġdel ica
Ġloss l
ac a
ac ular
ac ked
ac cent
Ġ12 8
Ġpick ford
Ġph oto
Ġbal ance
Ġweek ly
ab eds
Ġclo thes
aw a
aw ling
Ġcu di
Ġcu rio
Ġbl an
Ġbl oom
Ġim mi
Ġcas pian
Ġ15 00
Ġred bull
40 4
Ġconf used
Ġconf ront
Ġpo or
Ġpo ss
Ġtry on
Ġgr ave
Ġgr ano
Ġgr abb
Ġproblem s
Ġ19 30
Ġ19 99
Ġ19 14
Ġ19 80
Ġ19 77
Ġ19 67
Ġapp lic
Ġapp oint
Ġcomed ian
pt ations
Ġfar mer
Ġstand s
Ġ16 01
Ġfit ting
17 3
na ud
Ġcre ams
ment o
ath y
Ġmad re
Ġmad agascar
amp i
Ġbi opic
Ġgl enn
55 4
55 9
Ġwar ren
Ġsc ot
Ġsc ram
Ġsc ampi
Ġcol omb
ud y
ud ing
Ġeng age
Ġeng aged
Ġeng ulf
Ġz ack
Ġz uc
Ġz aha
wh y
Ġseason ing
Ġher itage
12 99
Ġcoffee house
Ġfam ed
99 6
Ġmon arch
Ġmon kees
Ġmon roe
Ġ13 9
ians ki
act ic
Ġoff s
Ġoff sp
Ġcont ract
16 7
16 00
Ġtrad ing
Ġver m
Ġfire work
Ġwood y
Ġwood en
air y
Ġsyn chron
form al
ris az
Ġwor st
18 1
Ġthrill ed
Ġcr aving
Ġspace craft
Ġcomp aring
Ġassist ing
Ġori ented
Ġ26 20
Ġbeat ing
Ġburn et
Ġsin s
Ġpir ate
Ġmic ro
Ġsau ces
Ġfeel ings
iz on
Ġbarbe cu
Ġbri stol
Ġcle ver
the y
Ġpull ing
Ġrele gated
Ġfun k
Ġmed ical
Ġfo ld
fo ld
Ġearth born
Ġpit bull
Ġsn ack
Ġsn oop
Ġsn iper
Ġsn itker
Ġoak s
Ġmid d
Ġmid way
Ġele ven
fr on
Ġent r
Ġroy ale
Ġatt itude
Ġjap an
Ġhit ting
Ġbro th
Ġbro derick
Ġber keley
ni xon
Ġhan uk
sh aped
Ġpol ish
28 7
28 80
Ġdod ie
34 2
34 4
ik o
ik u
Ġbread ed
ey e
Ġtill er
27 1
27 7
Ġsof abeds
Ġimp ressive
Ġshort stop
uff y
Ġast rona
ep ing
Ġcir cus
Ġfight er
Ġtur tle
Ġry oko
Ġdis cipl
24 7
24 8
Ġstr anger
Ġhy p
26 2
Ġinst itution
Ġversion s
Ġpan ang
olog ist
Ġben ny
Ġben eath
Ġshut ter
Ġdeg ree
Ġmis o
Ġhard wood
Ġhaw ke
Ġhaw kins
47 9
Ġthu nders
Ġthu risaz
ex plic
Ġbase ment
Ġcrow ded
Ġdest inations
Ġprop osal
hour s
Ġdyn asty
Ġtrack s
Ġcri st
Ġjam bal
Ġsing s
Ġemb iid
Ġsam my
Ġdu a
Ġdu ke
Ġshall ows
Ġ40 3
Ġsty les
Ġsty led
Ġturn ing
Ġrey es
xx x
ang led
Ġbeast ie
Ġdeal er
gar ner
bri ck
Ġwal ter
Ġoper a
Ġoper ating
36 2
Ġbarb arian
Ġvo gt
Ġemp orio
Ġtrain s
Ġtrain wreck
he im
Ġcab ello
Ġmagic ian
ig ern
Ġmission s
Ġsub t
Ġsub mar
ga ard
gen cy
Ġ200 4
Ġ200 8
Ġ37 6
Ġ37 203
Ġass ort
Ġbrook s
Ġpatri ot
Ġthor nton
Ġbob by
Ġfresh ly
Ġcal cul
Ġcal amari
Ġmot ion
Ġsmith s
Ġfill ings
Ġaf fect
Ġcoll ea
Ġcoll abor
Ġslo pe
Ġaudi oslave
Ġline up
Ġmach ina
Ġdeep ly
Âłw on
lan ca
Ġinc or
Ġci opp
Ġsy nd
Ġsy rah
Ġcam ila
Ġsleep y
Ġgod z
Ġpost ed
Ġbout iques
Ġcomm and
Ġcomm ission
Ġalex and
Ġgar th
Ġcateg or
Ġimag ination
Ġ197 1
da vid
Ġjon ah
Ġow en
Ġdef ensive
Ġridge mont
Ġdream works
Ġreun ites
Ġ97 2
Ġ97 205
Ġform ed
Ġtem ptations
Ġaer ial
Ġspan ning
Ġbrick work
Ġgall o
Ġjes sica
Ġbag gage
oop s
Ġcant on
Ġgro hl
Ġpitt ed
Ġpas o
Ġkore a
Ġrh ett
Ġbir yani
ora co
Ġlemon ades
Ġcontain s
Ġbry son
Ġlift s
Ġcomb at
Ġfab ianski
Ġsav annah
Ġstrip s
.. ..
Ġref resh
Ġsurf ace
cour t
Ġcit i
Ġdomin ica
Ġblond ie
Ġhang out
Ġoppon ents
Ġguit ars
Ġren ner
Ġjuli us
Ġjuli et
Ġtam bour
Ġuh m
Ġconst antly
Ġ212 18
Ġaz te
Ġdeck ard
Ġhal al
Ġcia batta
Ġphil ip
Ġmir age
Ġgor illaz
Ġmam ma
Ġinf ant
Ġkrist aps
Ġwonton s
Ġrecru iting
Ġindepend ence
Ġavi anca
Ġbart on
Ġfashion able
Ġpul is
Ġnav arro
Ġrand om
Ġshar p
Ġshar ks
Ġpros ciutto
Ġinvestig ate
Ġmes oraco
Ġsex ual
Ġ96 146
Ġdifficult ies
Ġstew art
Âłshow ing
Ġhab an
Ġeas ily
Ġadv anta
Ġscall op
Ġscall ops
ats by
Ġinvit e
Ġorch estra
Ġep iso
Ġash es
Ġguid ed
Ġbrave heart
Ġterror ism
Ġbeyon cÃ©
arri ves
Ġsalv ador
Ã¡ n
Ġmou nie
Ġcomple ment
Ġspect acular
Ġtas ked
Ġinflu ences
Ġevid ence
Ġteenag ers
Ġexplor ing
Ġbum garner
Ġrespect ively
Ġbra ised
Ġbrut al
Ġoccup ied
Ġiceland air
Ġcater ing
Ġplant ation
Ġhotdo g
Ġspl end
Ġaven ida
Ġlaure l
Ġcarpent ers
Ġegypt ian
uk asz
Ġfed eral
Ġpun ish
Ġbis que
Ġsight seeing
Ġavoid ing
Ġconfid ence
ww w
Ġflag ship
Ġcoh en
Ġque ue
Ġhorri ble
won der
Ġble u
Ġmos cone
Ġsubur b
Ġsaf ety
bea uty
Ġarrow ood
Ġmonkey s
Ġanchor man
Ġlangu age
Ġrecogn ized
wall ed
Ġpy ram
Ġpose idon
Ġnom inee
Ġkath ryn
Ġexped ition
Ġfund amental
Âłhot el
dry ers
mor gan
anth ony
Ġhood ie
Ġpud ding
Ġdarl ing
Ġloy al
Ġcommit ted
Ġdrunk en
Ġexpan sive
Ġpromis cu
Ġsuprem acy
osit ion
Ġvie jo
Ġess ential
Ġwast eland
Ġhav ana
Ġlum ineers
Ġgare th
Ġwhoop i
Ġnocturn al
Ġbod ak
Ġvent ura
Ġcasab lanca
Ġschem e
Ġmazzott i
Ġlugg age
Ġinstall ment
Ġmathem atical
Ġade ma
Ġwend y
Ġbend ik
Ġbicker staff
Ġinhab ited
Ġneph ew
Ġchronic les
Ġorn ate
Ġarb oles
Ġsic ilian
Ġopp ressive
Ġvort igern
Ġintellig ence
Ġsquee ze
Ġcrud up
Ġincredib ly
Ġtempl ar
Ġaeromex ico
Ġskew ers
Ġcilant ro
temp o
ĠÅĤ ukasz
Ġhaz ard
Ġstol en
Ġflock a
Ġjav ale
Ġjeps en
Ġamig os
Ġadol fo
Ġlazar us
Âłbr omwich
Ġsabr ina
Ġembr ace
Ġdelica fe
accent ed
Ġimmi gr
Ġredbull s
Ġscram bled
Ġengulf ing
Ġzuc chini
Ġoffsp ring
Ġbarbecu ed
Ġhanuk kah
Ġjambal aya
Ġsubmar ine
Ġciopp ino
Ġcommission er
Ġtambour ine
Ġepiso de
& -
, "
- &-
. -
0 50
0 27
2 34
2 60
3 30
3 22
3 28
4 14
4 38
4 42
4 32
5 45
5 49
5 60
5 33
6 000
6 14
6 27
6 47
6 42
6 90
7 1
7 2
7 28
7 81
8 25
8 58
8 38
8 31
8 595
9 39
9 89
] .
b ow
b ut
b istro
b rah
b lock
c s
c at
c ce
c ase
c li
c ream
c rop
d r
d ana
e i
e jas
f a
f x
f el
f ed
g or
g ade
g ens
g ulf
g olf
h t
h ur
h orn
i berg
i oli
j k
j in
j osh
k ward
k rist
k atherine
l u
l as
l ar
l ance
l ily
l hr
m ington
m ost
m stone
n an
n it
o z
o gn
p en
p ur
p owers
r ne
r ough
s aw
s outh
s ky
s alito
t alk
t ario
u f
u ge
w s
w an
w it
w ash
w ide
x us
y out
y ne
z ano
Ã ³
Å Ħ
Å Ľ
Ġ ase
Ġ antic
Ġ ervin
Ġt end
Ġt ile
Ġt rench
Ġt rid
Ġt araji
er as
er on
er ation
Ġth rust
Ġi brah
as a
as ar
as ia
ant ed
ant yne
ou x
Ġa right
Ġa ston
Ġa chie
Ġa ioli
us uf
Ġw anda
Ġo c
Ġo at
Ġo ingo
Ġh ir
Ġh tt
Ġh ue
Ġh ors
Ġh omb
Ġh rs
Ġh ernandez
Ġy ea
Ġy eap
at elle
re tte
Ġf ell
Ġf ool
Ġf ala
Ġf ultz
Ġthe ory
Ġs ze
Ġs za
Ġc t
Ġc ed
Ġc ly
Ġc inn
Ġc esar
Ġp f
Ġp oyd
Ġl ush
Ġl ala
Ġl ga
Ġm ort
el se
el ia
Ġb ish
Ġb ount
Ġb atter
Ġb acco
or is
or amic
ing ale
Ġan ast
Ġto fu
Ġd al
Ġd ane
Ġd wy
Ġd iced
Ġg at
Ġg am
Ġg ail
Ġg rip
Ġg abb
Ġg atsby
on o
Ġn ook
Ġn ca
Ġn ative
en cing
th ai
ar naud
Ġwh ip
Ġin cident
ll o
Ġfor ge
om er
om ar
Ġon tario
gh ai
ed elic
ri us
ve tte
Ġpl un
Ġli z
Ġli am
Ġli me
Ġre lo
Ġre de
Ġre ne
Ġre pl
Ġre ef
Ġre connect
Ġcan adian
ic le
ot os
Ġof elia
Ġme yer
Ġme mento
ur ous
Ġne st
Ġne xus
ch o
ch ow
ch ri
Ġdo able
Ġdo ves
Ġthank you
Ġr ook
Ġr ally
Ġr az
ir st
ea ble
ea zy
Ġst ack
Ġst ub
Ġst air
Ġst ocked
Ġst unning
Ġmo or
Ġmo ved
vi a
it os
Ġfl ow
Ġfl own
Ġfl utter
am y
il er
Ġch u
Ġch Ã
Ġch air
Ġch ime
Ġch asing
Ġch iron
Ġhi d
Ġby rne
Ġj elly
Ġj usuf
Ġor son
Ġgood man
ind s
Ġsu cks
Ġsu ey
Ġk am
Ġk ren
Ġk icked
Ġk roc
Ġ2 10
Ġ2 25
Ġab c
Ġab ilities
ast s
est ed
est one
Ġal ch
Ġal ad
Ġal to
Ġal icia
Ġel em
Ġel isa
Ġel usive
Ġgo ali
op sy
ail er
ad ina
Ġju lie
Ġju lia
Ġju mbo
Ġdi vid
der n
Ġno stal
Ġno fx
Ġlo g
Ġlo co
Ġrest ore
Ġall e
Ġall ardy
Ġmu t
Ġam ass
Ġso vi
con a
Ġsh out
Ġsh un
Ġsh een
Ġsh red
Ġsh ark
Ġsh ots
Ġsh ama
Ġlast ing
Ġ4 17
Ġ4 01
Ġstar man
Ġstar red
and o
and ed
by n
Ġar ab
Ġsp awn
Ġsp iced
ers et
Ġout ing
Ġprefer ring
fe at
Ġen emies
Ġ3 11
Ġtw ink
Ġtr oops
Ġnight ingale
oy e
co ach
ge ant
Ġde fiance
ul ia
Ġcon an
Ġcon fer
Ġhe med
ali fornia
Ġ7 80
Ġ7 58
Ġ7 57
Ġ7 89
Ġ7 81
Ġman g
Ġman hood
Ġman kind
ia ÅĦ
ine er
ater al
Ġas ap
Ġcl ine
Ġcl inton
Ġret ired
Ġsi ena
Ġsi bling
Ġreturn ed
Ġbook er
Ġbook ings
Ġle x
Ġle vy
Ġche cked
tt on
gu es
Ġ6 27
Ġ6 770
Ġfe es
Ġmar c
Ġmar ie
Ġmar ath
Ġmar oc
Ġmar iza
Ġad vent
Ġad vert
Ġad mission
Ġun its
um i
um es
um ed
um bers
Ġthink s
Ġla wyer
Ġla chow
Ġup per
Ġcur t
ro ad
ro bert
Âł -
Âł z
Âł an
Âł right
Âł your
Âł tr
Âł flight
Âł cont
Âł non
Âł guardians
Âł please
Ġ8 01
Ġ8 58
Ġho l
Ġho iberg
Ġ20 7
Ġca vi
own s
ag n
ag ger
ag na
ag ainst
Ġbu chan
Ġwin ston
Ġwin fl
Ġwin ners
Ġbo il
Ġbo ingo
Ġv as
Ġv au
Ġv od
Ġv ardy
Ġwhere ver
Ġpar c
Ġpar isi
Ġpar ano
Ġpar sons
30 6
Ġbre ast
Ġaw kward
be ck
Ġwest field
Ġback s
Ġpi x
Ġpi gs
Ġex ile
Ġex pert
Ġadd iction
Ġsa bb
Ġdon atello
Ġem ack
Ġem ile
Ġsan ity
ft een
ol as
ol ous
ol ulu
gue z
Ġfi elder
Ġfi fteen
15 3
Ġint ense
Ġgu ster
Ġgu ide
Ġfri tters
Ġres cu
Ġtom od
Ġkind ness
Ġfran z
Ġthem ed
Ġlay er
Ġpizz etta
Ġran ger
Ġran go
li de
li atelle
Ġro gan
Ġro berto
Ġro byn
Ġsal dana
Ġsal salito
per o
Ġea ger
Ġart if
nder gaard
Ġcorrect ly
Ġvi ogn
Ġdel oris
Ġunder cover
Ġmor ial
ac cia
20 15
fic ient
Ġset tles
Ġ12 6
Ġph at
Ġph otos
rit ic
Ġbal e
ab ase
Ġpart ners
Ġim ages
Ġcar li
Ġcar ond
Ġcar rey
Ġunt ouchables
Ġear l
Ġ15 7
Ġred u
Ġred man
40 2
Ġfew est
Ġpo key
Ġgr ass
Ġgr avi
Ġfc s
Ġ19 25
Ġ19 08
Ġ19 44
Ġ19 54
Ġ19 98
Ġ19 86
Ġ19 96
45 9
Ġgen etic
ger ton
Ġsw a
Ġpartic ip
Ġthr one
Ġsand als
Ġsand ler
25 2
Ġatmosph eric
Ġlar ger
Ġgl oria
55 7
Ġmanag es
Ġmanag ers
Ġsc am
Ġsc ript
Ġreg ards
Ġreg iment
Ġdish wash
35 1
35 2
35 3
05 1
Ġeng ineer
Ġdown load
Ġz en
Ġz iti
Ġ18 80
Ġ18 82
Ġsch m
Ġflat liners
Ġsac ri
Ġwash er
Ġchar ges
Ġocean side
Ġsl aughter
Ġmon str
Ġ13 1
ash a
ash ing
Ġbas kin
Ġpalm dale
Ġatl as
Ġspot light
Ġhead strong
gan y
Ġcheese cakes
Ġoff ense
Ġnor walk
Ġcare ers
Ġchan cell
Ġpr ada
Ġchain ed
Ġver de
Ġver ify
Ġhad n
Ġgold field
Ġport ob
Ġnap erville
Ġma ho
ter restrial
14 00
Ġspr awling
Ġlu pe
Ġlu ig
bur on
Ġ23 8
sit es
sit ive
Ġrock s
Ġrock ing
Ġ22 7
Ġus b
Ġus d
18 5
Ġsafe way
Ġed uc
Ġcomp an
min ed
eni o
Ġwater fall
Ġhapp ier
Ġmatt resses
Ġ27 0
fc ase
Ġti buron
Ġcommer ci
Ġsec ure
Ġsuper powers
Ġbri mstone
19 1
sid ent
vision s
Ġke pt
Ġunfortun ate
Ġhar per
Ġscreen s
Ġfo es
me an
sw orth
Ġdec ades
Ġfair port
Ġbud we
Ġsn ake
Ġsour ce
Ġreal ity
Ġoak ridge
Ġmid lands
Ġswe ets
Ġsur vey
Ġmeat y
Ġja vier
Ġclos ely
Ġfore ign
Ġbow ling
Ġhit ter
Ġda ito
met rius
Ġdur ham
den zel
28 4
28 8
Ġmont e
Ġdod ger
Ġmajor ly
Ġhand line
Ġsouthampton s
Ġid es
27 2
27 8
Ġser ial
Ġser geant
Ġru ston
Ġpic o
Ġcap ability
Ġast ron
39 3
60 3
Ġcir ca
Ġtur meric
Ġeleg ance
Ġappet it
26 1
Ġpan oramic
Ġben n
Ġben son
Ġmis ery
off ice
Ġdan ville
Ġbon y
Ġlam bs
pp ard
Ġwall ace
Ġra id
vit e
Ġcourtyard s
Ġariz a
Ġmax im
ez vous
Ġest elle
Ġown ers
Ġtre asure
Ġsing apore
Ġdu o
Ġboss es
46 8
Ġmur als
Ġmur ders
Ġrob bie
Ġauth ority
33 3
Ġspider man
Ġuse ful
Ġupgr ade
Ġtri ano
Ġtri ada
Âłthe ir
Ġresident ial
Ġwal dor
Ġfac ing
36 9
Ġbarb arella
Ġvo id
Ġvo gel
Ġparty ing
Ġmat s
Ġmat ri
Ġwild life
Ġ49 4
Ġroad side
Ġmonth s
ugg ed
Ġwarm ly
Ġpeter borough
08 00
Ġ200 5
Ġreason s
Ġsurround ing
Ġsk in
Ġcast away
Ġcal vin
Ġpin ata
Ġmot or
Ġ787 22
Ġ787 56
Ġvin aig
fy ing
Ġmas pero
Ġgir ardi
Ġsus an
Ġread er
Ġcoll usion
Ġcoll ateral
Ġmart ial
Ġsteven son
Ġ34 103
nect ar
Ġmark elle
nut s
Ã© e
Ã© es
Ġsy fy
Ġsy ndergaard
Ġcam eron
Ġcreed ence
Ġly ric
Ġpsych edelic
Ġpier ce
Ġfield s
Ġwil mington
Ġsurvi ve
Ġhen ley
Ġcolle ct
Ġgar field
Ġgar rix
Ġrain y
Ġ197 8
zing is
Ġhon olulu
Ġdef end
Ġhost iles
Ġcow ell
Ġdream ing
Ġ36 6
boy s
Ġtechn ical
Ġcut ting
Ġcut ler
Ġdrag ic
ilt r
Ġmand ina
Ġmand atory
Ġtu be
Ġmcc orm
Ġequ ally
Ġcole man
67 9
Ġill ness
Ġce asar
Ġmass acre
Ġduck horn
Ġrout ine
Ġven ues
look ing
Ġfest ival
Ġkra ut
Ġkiss ed
Ġhur ts
Ġbry ce
aka be
Ġfab iaÅĦ
Ġfab olous
Ġstrip ped
Âłm ay
Ġtwist ed
Ġhash br
Ġfol ks
Ġob sc
Ġocc as
Ġassoci ated
Ġclean ing
Ġflav or
Ġtam arack
Ġconst ant
Ġprog ressive
Ġlingu ist
Ġ212 11
Âłc ur
Ġupd ate
Ġstep s
Ġfoc accia
Ġbass nectar
Ġsoci als
Ġexplo res
Ġcarl son
Ġandrew s
Ġdeter mined
Ġinf iltr
Ġky go
Ġkrist of
Ġagu ilar
zo ey
Ġrip ley
Ġultim atum
Ġship p
Ġlean ing
Ġluk asz
Ġentire ly
Ġpupp ets
Ġsex es
Ġted dy
Ġpor zingis
Ġrefer ences
Ġadv ance
Ġtransfer red
Ġox ygen
Ġshore s
Ġemot ion
Ġgradu ation
Ġful ham
Ġalter ed
Ġapocaly ptic
Ġpist ol
Ġemer gency
Ġsalv at
Ġ029 06
Ġthir teen
Ġbab ies
Ġinvi ting
Ġpenth ouses
Ġtas ks
Ġhay ek
Ġinflu ential
Ġcorpor ate
Ġchains aw
Ġexplor er
Ġblossom ing
Ġbum mer
Ġpress ure
Ġrespon ders
Ġrod ri
Ġscen es
Ġactivi ty
Ġtul sa
Ġreli ving
Ġprison er
Ġdevel ops
Ġveter ans
Ġak on
Ġcro ce
Ġgil bert
Ġreve aled
Ġches ney
Ġshan ghai
Ġarrange ment
Ġcoh orts
Ġbog ota
Ġspeaker phone
Ġern est
Ġern esto
Ġastor ia
Ġcord on
Ġbrent wood
Ġlit re
Ġarm ada
Ġclaim s
Âłmo vie
Ġthri ce
Ġka abil
Ġdizz y
Ġawaken ed
Ġcarri age
Ġhoy a
Ġdut ton
Ġisa iah
Ġchester field
Ġker lin
colo red
Ġdemar co
Ġ9100 6
Ġclover field
graph y
Ġdisapp oin
Ġfeli pe
Ġers o
angel o
Ġiris h
Ġdat abase
Ġdome stic
ensi vely
Ġmoz art
Ġsha un
Ġunc aged
Ġhoff man
Ġrode way
Ġgrav y
Ġbrie fcase
Ġmercen ary
Ġaccompl ished
Ġtag liatelle
Ġira q
Ġhed ges
Ġhul k
Ġles lie
Ġrend ezvous
Ġsevent een
Ġjag ged
Ġeug ene
Âłany thing
Ġexor cist
Ġcrum bling
Ġsupply ing
Ġbullet in
Ġdinosaur s
Ġiber ia
Ġped ro
Ġll c
Ġliber ty
Ġsuz ie
Ġ949 65
Ġcaramel ized
Ġpursu it
Ġimprison ed
Ġescal ante
Ġevacu ated
Ġmcconaugh ey
ĠjalapeÃ± os
mid town
Ġtire less
Ġhatch es
Ġcassi dy
Ġbil ic
Ġrale igh
Ġstaf ford
Ġkus akabe
Ġmarqu is
Âłper form
Ġhobb it
Ġemul sion
Ġsynchron icity
Ġmidd leton
Ġentr Ã©es
explic it
Ġcollea gue
Ġgodz illa
Ġalexand ria
Ġcategor ized
Ġhaban ero
Ġpromiscu ous
Ġimmigr ant
nit zel
yout ube
Ġtrid ent
Ġachie ve
Ġoat meal
Ġhomb res
Ġfala fel
Ġsze chuan
Ġcinn am
Ġpoyd ras
Ġbish op
Ġbatter ies
Ġanast asia
Ġdal ton
Ġdwy ane
Ġnca a
Ġplun ge
Ġrene gade
Ġrook ie
Ġkren nic
Ġgoali es
Ġnostal gic
Ġallardy ce
Ġamass es
Ġtwink le
Ġmarath on
Ġadvent urous
Âłcont emporary
Ġwinfl ow
Ġvau ghan
Ġvod ka
Ġparisi an
Ġrescu ing
Ġtomod achi
Ġartif act
Ġviogn ier
Ġcarond elet
Ġgravi ty
Ġslaughter house
Ġmonstr ous
Ġchancell or
Ġportob ello
Ġmaho gany
Ġluig i
Ġastron omer
Ġwaldor f
Ġvinaig rette
Ġmccorm ick
ĠfabiaÅĦ ski
Ġdisappoin ting
2 35
3 37
3 34
3 27
3 21
4 30
4 40
4 45
4 25
4 17
4 16
4 11
4 87
4 80
5 15
5 20
5 25
5 11
5 22
5 80
5 44
5 32
6 10
6 49
6 75
6 44
6 43
6 142
7 3
7 59
7 46
7 31
8 000
8 80
8 36
8 67
9 30
9 47
9 80
9 48
9 42
9 36
? '
a es
a id
b d
b us
b lo
b ath
c ard
c ence
c ord
c ett
d rill
d ram
f ar
f it
f ice
f resh
f uel
f onia
g ing
g ot
g il
g ary
g ram
h d
h i
h is
h it
h ard
h are
h ung
i ad
i als
i ara
i ka
i ja
j et
j ago
j ude
j ones
j du
k t
k ate
k oud
l on
l en
l ors
l ho
l auri
m at
m ers
m ption
n ot
n ice
o is
o dge
o ise
o sing
p ut
p ro
p les
p ossible
p acho
r an
r at
r ink
r acy
r anean
r aine
r uti
s am
s day
s ushi
s ville
s sin
s ully
s aken
t ake
t elling
u ine
v ant
v oye
w o
w r
w are
y ards
Ġ !
an in
an ces
an gon
Ġt ak
Ġt ack
Ġt ip
Ġt ark
Ġt ired
er i
er es
er en
er rill
er ced
st le
st art
st ics
Ġth ie
Ġi gu
si o
si al
ou nce
Ġa j
Ġa ul
us ole
us ement
Ġw ong
Ġw eren
Ġo ates
Ġo lly
Ġh ai
Ġh ark
Ġh ars
Ġh inch
Ġh aha
at r
re view
in al
in cl
in ju
in elli
in ella
Ġf aw
Ġf anta
Ġf umes
Ġyou re
Ġs as
Ġs ade
Ġs amples
Ġc m
Ġc n
Ġc s
Ġc en
Ġc ad
Ġc ampton
Ġp on
Ġp oo
Ġp am
Ġp ry
Ġp ena
Ġp ardon
Ġl att
Ġm ace
Ġm urs
Ġm ante
Ġm ussels
el ie
Ġb als
Ġan xious
Ġto gar
Ġd ere
Ġd ude
Ġd ata
Ġd umps
Ġd uffy
es sing
Ġg om
Ġg ru
Ġg ian
Ġg az
Ġg ert
Ġg loss
Ġg ables
Ġg aff
on as
on tage
Ġn t
Ġn ail
Ġn un
Ġn avi
Ġn elly
Ġn azi
Ġn koud
en voye
th ead
th ouse
th etic
th usi
oo f
ar is
ar age
ar illo
Ġok a
Ġwh im
Ġis ol
ke h
ke em
Ġin se
Ġin con
ll ar
Ġfor th
Ġfor bes
Ġfor saken
om bed
om atic
Ġon ere
ed a
ri et
ri sing
ri ders
Ġpl u
Ġpl ots
Ġli th
Ġwi ig
Ġhel sin
Ġre b
Ġre open
al ph
al ho
Ġcan on
ic ulous
Ġwhat s
ot i
Ġof course
Ġbe ur
Ġbe ard
Ġbe side
ur o
ur ate
Ġne ck
Ġne me
et eria
nd own
ch a
ch ange
ch uri
Ġdo z
Ġdo ck
Ġdo pe
ce mi
le wis
Ġr ach
Ġr aces
Ġr oot
Ġr alph
ea way
is ue
Ġat op
Ġwith ers
Ġwith ersp
Ġst am
Ġst all
Ġst up
Ġst akes
Ġst airs
Ġse als
Ġmo ss
Ġmo lit
Ġmo yes
Ġmo cking
it ori
se quent
Ġfl ick
Ġfl ume
Ġfl acco
am ind
am ous
il ion
Ġplay ground
Ġch al
Ġch art
Ġch un
Ġhi de
Ġj ah
Ġj eni
Ġj inju
Ġor b
Ġgood ies
Ġgood night
Ġe fron
Ġe cho
ent ions
ent less
Ġk m
Ġk in
Ġk ir
Ġk ome
Ġk ool
Ġk ara
Ġk aylor
Ġk ori
Ġk ha
Ġk han
Ġk esha
Ġ2 406
Ġab ru
ast e
Ġgre n
Ġgre w
Ġfr ontage
Ġal ta
Ġal berts
Ġal arm
Ġu ch
Ġu zi
Ġel der
Ġgo sp
op ular
im ated
im ely
ell er
Ġdi ll
Ġdi gg
Ġdi pp
Ġpre order
Ġno el
Ġno vill
Ġno xious
Ġlo re
Ġall ian
Ġmu ni
Ġmu nic
Ġmu ang
Ġmu tton
Ġam ate
Ġam anda
Ġam usement
Ġper d
Ġneed le
Ġso re
Ġso il
Ġso ber
ut Ã©
ut ches
Ġsound ing
con omy
Ġsh us
Ġsh ame
Ġsh ane
Ġsh ips
Ġsh aron
Ġsee k
Ġ4 50
Ġsure ly
ain ing
for ce
Ġsp ices
Ġsp inn
Ġsp elling
Ġco v
Ġco al
Ġco lo
Ġco rey
Ġco erced
Ġout ta
Ġen light
Ġen sure
Ġen thusi
Ġ3 30
Ġ3 50
Ġ3 05
Ġ3 000
Ġ3 22
Ġ3 28
Ġ3 46
qu een
qu eline
Ġlea f
Ġtr ash
Ġkn ox
Ġfir m
Ġwel sh
end etta
art en
Ġ5 60
Ġ5 21
Ġ5 42
ge zo
ge ois
Ġde mon
Ġde mp
Ġde icide
Ġnow here
Ġcon rad
Ġcon cier
Ġhe ure
Ġhe ather
Ġhe els
ali zer
Ġ7 37
Ġman n
Ġman ass
Ġman olo
Ġman churi
ia go
av ed
Ġas par
Ġcl assi
Ġcl ick
Ġcl au
Ġcl ues
Ġcl uel
Ġcl if
Ġcl ancy
Ġcl audio
Ġcl utches
Ġsi d
Ġsi bl
Ġbook store
ack er
Ġle b
Ġle ppard
Ġ9 40
Ġmin or
gu ire
gu ette
Ġ6 16
Ġ6 24
Ġwe i
Ġfe ist
Ġmar a
Ġmar x
Ġmar ia
Ġmar ry
Ġmar gin
Ġmar lin
de ga
de bra
Ġgot ta
Ġad ler
Ġun ite
Ġun fold
um oto
ne th
ne ck
ne ath
Ġla b
Ġla pt
Ġla bor
Ġla zer
Ġcom man
Ġqu o
Ġup ended
Ġup rising
ro ck
ican a
Âł '
Âł o
Âł ch
Âł im
Âł be
Âł 20
Âł pl
Âł man
Âł 11
Âł 19
Âł 27
Âł 24
Âł ste
Âł don
Âł john
Âł new
Âł yeah
Âł mini
Âł alright
Âł xxx
Âł against
ern o
Ġbut ton
Ġca br
Ġca cio
Ġdin ers
ag er
ag us
ag ata
Ġbu nd
Ġbu cke
ner al
Ġbar k
Ġbar ber
Ġbo lly
Ġbo asts
Ġbo keh
Ġbo dega
Ġv ance
Ġpar ade
Ġpar lors
30 8
Ġbre n
Ġbre ed
ish i
Ġrec urring
Ġback yard
Ġpi att
Ġwatch ful
zz a
Ġex change
Ġadd y
Ġpe i
Ġpe ele
Ġsa ge
Ġsa ute
Ġsa utÃ©
Ġdon ald
ist a
ist ence
ap er
ap in
ap ia
Ġamerican a
Ġint entions
Ġgu ild
Ġgu essing
Ġfri da
ord ano
Ġpro visions
Ġres ume
Ġtom b
Ġtom er
Ġran kings
li ze
Ġro e
Ġro x
Ġro am
Ġro eth
Ġro cke
Ġopen ly
Ġsal ma
Ġea mon
ott os
Ġty pic
Ġty rod
Ġhigh light
Ġart icle
ting ly
Ġshould er
are t
Ġau str
ru ce
ru ck
ru de
ill ac
Ġvi sta
Ġdel ish
do g
do llar
Ġunder wood
Ġunder neath
Ġtea ches
ac s
ac ia
ac ris
Ġ12 2
Ġ12 99
Ġ12 60
Ġri o
Ġri sing
Ġri da
Ġjo anna
Ġpick s
Ġfranc ais
Ġbr usch
Ġph ar
ab o
Ġeven ings
Ġcou ches
Ġcou ples
Ġbur ton
Ġeat en
Ġcas he
Ġcar pac
Ġunt imely
Ġ15 30
gg io
Ġcho ir
Ġred dy
Ġeconom ical
Ġsearch es
40 9
Ġfew er
ai k
Ġpo d
Ġpo e
Ġpo ki
Ġpo llo
cl assic
Ġbusiness man
Ġgr at
Ġgr ade
Ġgr ange
Ġgr ape
Ġgr acia
Ġ19 22
Ġ19 87
Ġ19 46
Ġ19 89
een ey
Ġapp a
Ġapp eared
Ġtravel odge
45 1
45 7
Ġangel o
mit age
Ġgen ere
Ġgen uine
Ġtot o
Ġtot oro
Ġsw eeney
pl ies
man ces
Ġsm f
Ġbest s
Ġdirect s
go d
Ġcre st
Ġlar b
ff any
Ġlong oria
Ġover d
Ġover come
Ġgl am
Ġgl azer
Ġgl azed
55 2
55 5
Ġwar ning
Ġsea gate
Ġsc ars
Ġdes k
Ġdes lauri
Ġreg inelli
ins ale
bo i
35 7
05 3
05 7
Ġpoin ting
Ġmini fridge
ip al
Ġpa hl
Ġ14 8
Ġ14 17
Ġz io
Ġz lat
wh o
Ġ18 26
Ġ18 06
Ġ18 78
res sion
Ġher b
Ġher mitage
Ġgal ore
Ġchar lize
Ġsimilar ly
Ġsimilar ities
Ġrom a
Ġrequire s
Ġ17 0
Ġ17 00
Ġsent ence
Ġba guette
Ġsmall er
Ġmon k
Ġdri ven
Ġ24 1
ati ves
Ġconfirm ing
Ġsouth end
au x
au ce
Ġsuggest s
Ġcook ery
Ġcont est
Ġcont adina
lle y
Ġnor way
Ġnor ris
16 3
16 95
Ġdesc ended
Ġver a
Ġver t
Ġver ti
Ġhim al
Ġschedul ing
Ġfire stone
Ġpoint e
Ġgy llen
Ġgrill s
Ġhor izon
ter ranean
Ġham ilton
14 1
Ġlouis e
Ġ30 3
oc racy
Ġ23 1
Ġ23 7
Ġguess ed
Ġ28 2
Ġ28 203
Ġlake wood
Ġwood four
Ġgi ordano
Ġsyn ap
Ġsyn thetic
49 1
49 5
Ġcinem atic
Ġrel entless
Ġdrink ing
Ġpur ge
Ġstill berger
Ġcr op
Ġcr os
Ġcr ouch
Ġed itor
Ġed gerton
Ġste in
Ġste ely
Ġste ward
Ġori g
Ġori ental
Ġchild hood
Ġhop es
Ġ26 00
min als
Ġbel le
Ġacc urate
Ġti ffany
Ġshe ep
Ġext er
Ġext rem
Ġsuper star
Ġbri tt
19 3
Ġlow riders
Ġlunch es
Ġmet ric
sid ed
ars enal
Ġke ane
Ġke aton
Ġhar ley
Ġhar wood
Ġsetting s
Ġfo g
Ġfo ie
me g
me yer
Ġweather ed
Ġ29 01
Ġ95 401
Ġ95 928
Ġhu stle
Ġsn l
Ġoak sh
Ġswe eping
Ġer rors
Ġrem em
Ġtown house
keep ing
Ġja vi
Ġja anu
Ġent angled
Ġent ombed
ane y
Ġpad re
Ġgreen house
Ġbill boards
22 1
22 3
Ġatt acks
37 3
37 4
37 5
Ġhit mans
Ġfu g
Ġfu neral
sh i
Ġsaus ages
Ġhud gens
Ġtit aya
Ġpay ne
Ġpay phone
34 1
34 8
29 1
29 4
Ġbuild s
Ġser ious
Ġser ena
Ġru sty
Ġpic colo
Ġast ley
Ġanim al
Ġanim ations
39 0
39 5
60 4
60 8
mp athy
Ġrap sody
Ġcontin uous
Ġtur ndown
Ġcapt ure
Ġdis places
26 3
26 5
26 6
âĢĭâĢĭ âĢĭâĢĭ
que z
Ġmag oo
ma id
Ġheat ers
Ġmis under
47 0
47 4
47 6
Ġbon nie
Ġthu nda
pp y
Ġfall en
87 2
80 2
ex istence
Ġra ul
Ġra cial
Ġra ja
Ġcolumb ia
Ġathlet e
Ġsom erset
Ġzoc col
bound er
Ġant ip
23 8
Ġrevol ver
Ġdescript ive
Ġmyster ies
58 8
Ġcri b
Ġcri minals
Ġwis dom
Ġcott a
Ġsam son
Ġsam uel
Ġsam pling
Ġdu el
Ġ40 4
Ġchap man
Ġguest room
Ġranch ito
Ġrob ata
Ġauth or
Ġgener ation
Ġgener ous
Ġcavali er
07 7
col m
95 6
Ġtri al
Ġtri als
Ġchang s
Ġmaver ick
ang ri
bri a
Ġwal es
Ġ60 2
Ġmat ty
Ġsil icon
clo sed
Ġfur t
Ġcab aret
Ġvari et
Ġarc adian
Ġeyes down
Ġale house
Ġeur os
Ġsub du
Ġsub sequent
Ġsub terranean
Ġroll ed
Ġkill s
Ġpant era
Ġlady bird
Ġje op
Ġremember ed
57 6
Ġthought fully
Ġsk ies
Ġpin thouse
Ġvin ci
56 4
56 9
Ġfill more
Ġacqu ire
watch ing
Ġson ic
Ġgir oud
Ġbridge way
Ġtort ino
Ġmart ina
Ġbell y
Ġball rooms
Ġbour geois
Ġmark er
43 1
Ġmach ines
Ġhill side
Ġtech nic
Ġwr ought
Ġchop sticks
Âłw i
erc ard
Ġkab ab
Ġscott y
Ġchamp ion
ju ana
Ġci gar
Ġsy mpathy
Ġcam arillo
Ġcam bria
Ġsleep s
Ġrecei ves
Ġwoodst ocks
88 6
jo e
Ġgar rett
Ġrain fall
Ġhunt sville
Ġspeak s
Ġjon jo
Ġknight on
Ġoyster ia
97 6
Ġface book
bre ad
Ġbron son
Ġreun ite
Ġcop per
Ġthousand s
Ġghost s
Ġmand ola
Ġgather ed
Ġspell ed
Ġsuspense ful
ha al
Ġha jdu
Ġmcc arth
Ġgall eries
Ġequ alizer
Ġnews om
Ġhero ic
Ġ958 16
Ġentertain ing
Ġmultiple x
Ġalf red
Ġtrop isue
Ġtrop icana
Ġcondition er
Ġjen nings
Ġmal ts
Ġmal colm
Ġsnow y
che ese
69 4
Ġcrowd s
Ġcart e
Ġcomb os
Ġcomb inations
Ġprodu ced
Ġprodu ction
Ġsav ages
Ġbus cemi
Ġgas ol
ows ki
Ġstrip per
Ġjosh ua
Ġann ies
amer ica
Ġcarry ing
Ġmel ia
Ġmel fi
Ġmel vin
Ġmel ody
Ġinsp ire
Ġref uge
Ġdevil ed
Ġident ities
Ġident ify
ja cob
Ġshell fish
Ġfand angon
Ġ950 54
66 5
Ġgang ster
Ġclear water
Ġbern ard
Ġut il
Ġclean up
Ġdomin ic
Ġoverlook s
Ġhang ing
Ġtraf ford
ister ous
Ġsmur f
Ġgeorg es
Ġtruth s
ropol is
ilian o
Ġgovern ors
Ġjuli an
Ġray mond
Ġstat s
Âłc ould
Ġcommon s
Ġir vine
Ġnic ole
Ġafri ca
Ġhal sey
Ġfoc using
Ġsant iago
Ġbeck insale
Ġexplo de
Ġexplo sive
Ġinstrum ent
Ġhom eland
Ġfred die
Ġdrug s
Ġron ald
Ġconvin ce
Ġ9537 7
Ġelect ron
Ġaut opsy
Ġstock ton
Ġinf act
Ġky oto
Ġell is
Ġrecru it
Ġnas car
Ġ219 1
Ġscr apped
Ġcontro ls
Ġquesad illas
113 3
Ġrand y
Ġpresid io
Ġris ottos
Ġsmoke house
Ġbigg ie
Ġzoot ropolis
Ġluk as
Ġtax es
Ġvine yard
Ġvine yards
Ġvoc alist
Ġdestroy ing
Ġtransfer s
burn ing
Ġrebel ution
Ġmeg amind
Ġorch ard
Ġki iara
Âłj ack
Ġcau ley
Ġguid o
Ġguid ance
Ġrid iculous
Ġimm ort
har ry
part s
Ġoli vier
Ġni xon
Ġsoft er
Ġpist o
Ġsalv ation
Ġjalapen o
fell er
otts dale
Ġko be
Ġko ala
Ġdeb ate
Ġspect re
Ġspect rum
Ġtar zan
Ġdip lo
Ġshi gezo
Ġopry land
Ġpillow s
Ġcuc umbers
Ġtah iti
Ġblossom s
Ġil ana
Ġfas ulo
Ġsen sitive
Ġdoom sday
Ġinvol ving
Ġinvol ves
Ġrep ut
Âłre sident
Ġvic arage
Ġrespect able
Ġcraw fish
pal omar
Ġnin jago
Ġcelebr ation
unt il
Ã± o
oun ced
Ġliqu id
Ġcham ber
Ġcham bers
Ġales ana
augh n
Ġbungal ows
Ġpour ing
Ġpain ting
Ġmast ercard
Ġdick ie
Ġrash ad
Ġesc aped
Ġwheel chair
Ġpage ant
Ġpaint ed
Ġmack anin
Ġdun can
Ġlit res
Ġsaf ely
Ġsimp sons
Ġauto graph
Ġwit ness
Ġjill ian
Ġspark ing
Ġspark ling
Ġdem ocracy
Âłarri ving
Ġawaken ing
Ġblur ry
Ġimpro ved
Ġlangu ages
Ġtil apia
Ġhoy er
Ġgem s
Ġisa ac
Ġbea usole
Ġ9100 7
Ġbaron ne
Ġbrain s
Ġglor iana
Ġfeli x
Ġeffect s
Ġchallen ge
Ġchallen ged
mad ison
Â¨ .
Ġalo ft
Ġyak itori
Ġbatt ery
Ġance st
Ġance stor
Ġcandle wood
Ġult ra
Ġpreach ers
Ġvit ale
Ġriff s
high est
Ġnur kic
Ġrever ed
Ġjad en
Ġaby ssin
Ġdig ital
Ġperfor mances
Ġarn ett
Ġcaf eteria
Ġvad is
Ġprodi gy
Ġbrid get
Ġarchite cture
Ġcontrover sial
Ġdevelop ing
Ġjourn alist
lis berger
Ġyam agata
Ġcot ton
Ġcale b
Ġmessen ger
Ġdm c
Ġjas mine
Ġkub o
Ġabs ence
Ġalv aro
Ġkni fe
Ġasc ending
Ġoppo site
Âłcount ing
Ġtear oom
Ġcourage ous
Ġlandsc aped
Ġwaff le
Ġaccomp any
Ġemploy ee
Ġmimos a
Ġchimichang a
Ġoblit eration
grill ed
oth y
Ġhind quarters
Ġhag gard
Ġlott ery
Ġlud acris
Ġdak ota
chang ing
Ġtravi ata
Ġagg ressive
Ġclim actic
Ġbohem ia
Ġgrabb ing
Ġapplic ation
Ġverm icelli
Ġcalcul ate
Ġincor por
Ġsynd icate
Ġcanton ese
Ġazte ca
Ġpunish er
krist en
lu cas
Ġase m
Ġantic ip
Ġhir sch
Ġhtt ps
Ġced ar
Ġbount y
Ġgat wick
Ġgrip ping
Ġgabb iad
Ġrede mption
Ġrepl acing
Ġstair way
Ġhid eaway
Ġalad din
Ġalto gether
Ġelem ents
Ġdivid ed
Ġshred ded
Ġconfer ences
Ġlex ington
Ġcavi ar
Ġschm ick
Ġsacri fice
Ġwaterfall s
Ġbudwe iser
Ġmatri mony
Ġhashbr owns
Ġoccas ional
Âłcur rently
Ġkristof ferson
Ġsalvat ore
Ġachieve ment
Ġcinnam on
drill ing
dram a
fuel ed
mat thew
Ġtark a
review ed
incl uding
Ġfaw cett
Ġmante gna
Ġbals amic
Ġtogar ashi
Ġdere k
Ġgom es
Ġgaz pacho
Ġgloss y
Ġgaff eli
Ġnkoud ou
Ġonere public
Ġhelsin ki
Ġbeur re
Ġneme sis
Ġrach ael
Ġwithersp oon
Ġstam ford
Ġstup id
Ġmolit or
Ġkara oke
Ġkori ente
Ġkha o
Ġabru zzi
Ġnovill ero
Ġallian ces
Ġmunic ipal
Ġdemp sey
Ġconcier ge
Ġheure lho
Ġmanass as
Ġmanchuri an
Ġaspar agus
Ġclau de
Ġcluel ess
Ġclif ford
Ġsibl ings
Ġlapt op
Ġcomman der
Ġcabr era
Ġbucke thead
Ġbolly wood
ĠsautÃ© ed
Ġroeth lisberger
Ġrocke feller
Ġtypic ally
Ġaustr alian
Ġbrusch etta
Ġcashe w
Ġcarpac cio
Ġdeslauri ers
Ġpahl meyer
Ġzlat an
Ġverti go
Ġgyllen haal
Ġextrem ely
Ġoaksh ade
Ġsubdu ed
Ġhajdu k
Ġmccarth y
Ġtropisue Ã±o
Ġfandangon ow
Ġbeausole il
Ġabyssin ia
Ġgabbiad ini
