#version: 0.2 - Trained by `huggingface/tokenizers`
Ġ t
Ġ a
h e
i n
Ġt he
e r
Ġ s
o n
r e
Ġ ,
Ġ w
Ġ c
Ġ o
e d
Ġ b
n d
Ġ f
a t
Ġ .
Ġ p
o r
i t
i s
e n
Ġ in
Ġ m
a n
e s
a r
Ġo f
a l
a s
in g
Ġ d
Ġ h
Ġa nd
Ġt o
r o
i c
Ġ l
i on
o u
Ġ Ċ
Ġ n
Ġ re
i l
Ġt h
Ġ g
Ġ e
Ġ =
l e
en t
Ġ "
Ġ 1
s t
e l
Ġ @
a m
o m
Ġ on
a c
a d
Ġw as
Ġs t
Ġb e
Ġ he
u s
u r
Ġf or
l y
Ġ '
i d
i m
o l
i g
i r
t er
Ġa s
i v
- @
Ġ@ -@
o t
c t
a y
u t
e t
o w
Ġ r
it h
u n
Ġa l
Ġ 2
Ġw ith
Ġth at
v er
c e
Ġw h
at ion
Ġ it
c h
Ġa t
Ġ is
Ġa n
Ġ j
is t
Ġb y
Ġc on
Ġs e
Ġd e
Ġ k
t h
Ġ v
u l
Ġ (
Ġ )
er s
Ġc h
a nd
ro m
a v
a in
an t
e m
o s
Ġ1 9
he r
Ġ y
a g
u m
es t
0 0
Ġc om
Ġh is
o d
Ġf rom
r i
Ġp ro
Ġs u
p e
Ġn e
i f
l d
il l
ig h
o re
Ġs h
a p
Ġp l
o p
er e
re s
as s
Ġ ro
Ġo r
i es
q u
ar t
ar d
a k
b er
ic h
Ġe x
at e
Ġw ere
al l
or t
Ġ un
Ġl e
a b
s e
Ġ u
u d
o c
on g
g h
at ed
it y
es s
am e
i e
i p
Ġa r
iv e
Ġt r
ou r
Ġa re
Ġh ad
Ġ â
ac k
as t
Ġ i
igh t
Ġâ Ģ
re d
ro u
Ġwh ich
g e
o v
m ent
Ġn ot
i an
Ġa f
i al
el l
p t
o st
av e
Ġc l
i a
u st
Ġw he
in e
ar y
Ġw or
Ġ 3
t her
p p
c l
r it
ou ld
Ġa d
ou n
Ġs c
ic al
Ġ us
Ġth is
Ġ en
c c
Ġb ut
Ġcom p
or d
ct ion
Ġf ir
Ġa b
Ġhe r
Ġt w
Ġ2 00
t e
Ġfir st
Ġon e
is h
Ġaf ter
Ġcon t
ou s
Ġt e
id e
s o
Ġa m
Ġthe ir
Ġal l
Ġs p
o k
Ġ2 0
Ġne w
u re
Ġit s
ig n
Ġm an
om e
Ġthe y
Ġp er
ist ant
p er
ou t
Ġ ;
r a
it ion
Ġin t
Ġal so
Ġh ave
Ġt im
Ġm ar
on d
u b
ĠâĢ ĵ
at er
Ġg o
o g
ass istant
r u
e ar
Ġs he
Ġre s
or m
Ġ :
k e
Ġre c
ag e
r y
Ġs er
i re
Ġ 4
Ġtw o
Ġwh o
Ġa g
Ġf e
he d
u e
Ġp art
Ġpl ay
Ġ 5
re e
Ġm e
Ġcom m
d u
Ġd es
an s
al ly
ic e
f f
Ġbe c
Ġc an
Ġw e
Ġd is
an ce
il e
ul t
ow n
Ġh as
Ġ1 8
p l
Ġo ver
. @
Ġ@ .@
i z
us er
Ġof f
Ġy ear
en ce
Ġc o
ac t
Ġy ou
ou nd
ur ing
Ġbe en
e ct
Ġo ther
Ġo ut
ac e
Ġ20 1
Ġ im
Ġf in
Ġp re
, @
Ġ@ ,@
ou gh
Ġf l
a re
Ġw ould
Ġc ol
Ġu p
el y
ation s
ac h
or y
Ġp r
cl ud
Ġb o
Ġin ter
a il
Ġe v
Ġwhe n
l and
Ġtim e
w n
i b
ion s
Ġs pe
ur n
ad e
res s
t ed
Ġd uring
ic k
Ġse c
Ġa p
Ġin clud
c ed
Ġb r
en s
on e
m an
Ġf il
Ġin d
nd er
w e
w ard
an g
Ġint o
t s
it e
Ġb l
Ġh im
Ġ 6
Ġh ow
Ġm ore
as e
Ġat t
k s
at es
Ġ qu
ab le
Ġe ar
ol l
re n
c es
Ġth an
Ġp e
Ġj o
Ġl i
Ġw ar
it ed
Ġc ent
as ed
Ġch ar
Ġthe re
am p
Ġbe t
Ġfil m
Ġre p
i ed
Ġ 7
rou gh
w ay
f orm
Ġg r
oun t
l es
Ġg ame
Ġfor m
f er
os e
re at
ing s
or s
r ic
Ġp o
Ġs o
as on
Ġk n
Ġm us
a w
Ġn o
em ber
Ġwh ile
ak e
Ġa cc
v e
c k
v el
Ġm ost
il d
in d
Ġf r
Ġab out
Ġp ar
Ġs ong
ol d
Ġc ar
Ġd o
Ġ 8
at t
Ġre m
Ġag ain
Ġas s
Ġn or
Ġg en
er ed
Ġs ou
Ġe m
i ous
o od
Ġs ome
Ġcon s
ent s
a us
Ġl ater
rou nd
is s
Ġb u
Ġre t
Ġa ct
Ġ 9
Ġon ly
Ġre g
Ġm ay
Ġu nder
f t
Ġpro du
g an
n e
Ġwor k
ri b
v ed
Ġthe m
Ġth ree
Ġd ay
Ġ ver
Ġs y
al s
ter s
i x
Ġm in
Ġsec ond
ub l
we en
at h
Ġ19 9
Ġbet ween
Ġm ov
p h
Ġh igh
oll ow
ot h
Ġrec ord
er ic
on s
Ġb ro
Ġth rough
Ġen g
h ip
Ġm on
Ġre le
Ġf ollow
Ġm a
ation al
Ġa pp
f ore
Ġre l
Ġp h
Ġw ill
Ġe nd
t on
Ġa ir
Ġn um
ie w
l l
u g
ic t
Ġa c
Ġsu b
Ġe le
Ġp res
Ġs a
Ġim p
Ġf our
Ġ 00
Ġal b
Ġse ason
Ġ ed
Ġam eric
Ġp os
Ġwhe re
Ġde f
Ġe p
at ing
Ġwor ld
n ing
Ġnor th
Ġli ke
Ġin c
Ġ ent
Ġte am
ul ar
Ġbe fore
Ġspe c
Ġl oc
r al
ct ed
am es
Ġg u
Ġs m
Ġl ar
Ġm ade
Ġw rit
Ġd r
Ġar m
he s
Ġs ch
is ion
iv ed
s on
Ġsu ch
Ġc ap
Ġs ur
Ġp ol
Ġs ing
Ġalb um
Ġ1 0
Ġp ubl
Ġc all
Ġ00 0
is hed
Ġsh ow
i o
Ġse ver
Ġb ack
Ġyear s
ain ed
Ġad d
ic s
i el
od e
Ġthe n
Ġsu pp
Ġre v
e ver
Ġb oth
ter n
Ġsou th
Ġw ell
Ġagain st
id ent
Ġf ound
ro s
u al
Ġl o
Ġ /
Ġgen er
il y
if ic
Ġin v
al e
ut e
Ġhow ever
Ġc ount
Ġde c
Ġap pe
Ġs et
Ġep is
Ġus ed
Ġthe se
Ġre ce
Ġm ill
Ġan y
or n
Ġbe ing
ur y
Ġman y
Ġm et
Ġc ity
Ġwh at
Ġhe l
Ġst ud
t en
Ġ z
Ġser ies
Ġmus ic
Ġb att
an k
Ġst e
Ġo p
Ġnum ber
Ġin st
if e
Ġchar ac
Ġs im
ot her
Ġl ong
Ġ1 7
Ġm at
Ġb el
Ġle ad
Ġ 0
vel op
Ġper form
Ġm ain
an e
Ġd id
e nd
Ġt er
in t
Ġun ited
Ġc re
Ġde p
Ġar t
o ol
o y
aus e
in ce
Ġb rit
ar s
Ġd ire
er t
Ġs l
Ġde velop
Ġbec ame
Ġsever al
a u
Ġh ist
ig in
h n
Ġinclud ing
Ġm il
at her
a ir
Ġsh ip
Ġex p
ĠâĢ Ķ
d er
i er
Ġ1 2
is e
Ġst ate
Ġ1 5
Ġear ly
Ġin f
or k
in es
Ġd iv
Ġor igin
ow er
Ġp op
is ed
Ġo b
ver n
Ġ19 8
Ġtr ans
Ġe l
Ġw in
u nd
it s
le y
u res
i red
Ġret urn
em ent
j ect
Ġc ould
Ġn ov
Ġp ers
u ch
ro p
Ġ19 4
it ies
i et
an c
a z
Ġcont in
Ġgo vern
Ġo k
Ġd ist
ol og
f ul
Ġpro v
rou p
Ġ $
el f
l ed
Ġc r
Ġameric an
Ġc rit
Ġjo hn
Ġsa id
Ġepis ode
Ġst ates
ir d
Ġk e
ros s
Ġd if
a red
Ġst r
Ġfollow ing
Ġ est
Ġ1 6
Ġcon st
Ġdes ign
Ġg roup
iv er
oc k
t y
ou se
Ġd own
Ġne ar
Ġ1 1
Ġm ed
Ġj un
Ġw est
at ive
Ġun t
Ġr un
Ġdes c
Ġser v
y s
n a
Ġo per
Ġa ust
Ġk ing
iel d
Ġkn own
Ġal th
Ġcomp le
iv ers
te nd
Ġalth ough
Ġg reat
Ġm od
Ġhel p
Ġj ust
Ġb ar
u ally
Ġs ign
Ġg er
Ġp ass
Ġ19 7
Ġl and
op le
em b
r on
Ġf am
ro w
Ġcall ed
Ġ19 6
an ge
t ing
Ġunt il
Ġfe at
Ġop en
u ed
Ġbe gan
a h
g r
in ed
Ġcl ass
Ġoff ic
x t
Ġe ff
Ġdis c
ak ing
is m
er n
Ġh ar
Ġbec ause
Ġal ong
Ġok ay
Ġo wn
in s
Ġsch ool
Ġp ort
Ġpe ople
id ed
Ġrele ased
Ġwe e
Ġn ational
g er
cc ess
iz ed
Ġ if
u p
i am
Ġpre v
Ġth ough
u c
Ġma j
n er
ist s
ul l
u red
Ġg re
Ġin s
st em
Ġe ver
Ġre st
Ġl a
ment s
ial ly
ut ion
Ġa v
Ġc our
i um
Ġan n
Ġb re
Ġcol le
Ġc or
Ġmill ion
os ed
Ġa round
Ġb est
ce pt
Ġhe ad
Ġ1 3
Ġsy stem
Ġbo ok
Ġl ast
Ġbrit ish
Ġj u
Ġg e
Ġs ince
Ġa ug
et s
Ġs ix
Ã ©
Ġad v
ar k
Ġa ut
Ġmaj or
Ġl ife
Ġm y
Ġa ward
h ing
Ġt ri
Ġst art
ib le
g est
Ġe ach
Ġse pt
Ġcon f
an y
ain s
Ġsu ccess
Ġs ame
Ġatt ack
o ot
Ġaug ust
Ġsept ember
Ġv ar
Ġdesc rib
Ġt y
Ġcharac ter
Ġus e
Ġan other
av ing
am ed
el s
on t
Ġe ast
r ap
Ġf ive
Ġro ad
i k
Ġgo od
Ġ1 4
Ġs w
Ġl it
Ġc are
ac ed
Ġfin al
Ġo ct
r is
Ġl ine
Ġres ult
Ġsupp ort
Ġo cc
Ġde m
Ġg l
Ġo ld
ain ing
Ġm uch
Ġpubl ic
Ġp rom
Ġpl ace
Ġbu ild
Ġk m
Ġr a
en n
Ġex t
Ġcon c
Ġb and
in k
ov e
Ġaust ral
Ġ19 5
Ġare a
Ġh ouse
Ġc amp
Ġto ok
Ġsm all
u es
Ġc he
Ġger man
e p
Ġm id
b le
g et
ant s
o b
an n
iv es
Ġcent ury
Ġ19 3
Ġrep ort
Ġcons id
o ber
Ġst re
Ġmar ch
Ġt urn
Ġg ames
Ġoct ober
Ġrece ived
us s
Ġpart ic
b y
Ġun ivers
Ġcont ro
Ġr ight
Ġh ome
Ġpers on
il ity
Ġs k
Ġn ow
o ver
Ġjun e
ical ly
Ġdire ct
Ġ19 1
Ġre f
Ġsh ort
Ġar r
t le
Ġh al
Ġd ue
in a
at ely
Ġgovern ment
r il
Ġw ay
ian s
Ġle g
c ess
en e
g in
Ġ es
Ġj an
Ġy ork
Ġcomm and
Ġju ly
Ġc ur
om et
Ġth ird
Ġ ]
ore d
Ġd el
Ġm en
Ġ [
Ġm ag
Ġs qu
im e
Ġs ound
Ġmar k
iv ing
Ġsing le
Ġrev iew
Ġgener al
Ġc al
Ġdif fer
Ġch ild
c he
Ġt it
Ġst ar
iss ion
Ġap ril
Ġev en
ur ch
Ġcap t
Ġne xt
Ġ %
Ġnov ember
pe ct
as h
Ġplay ed
Ġtr ack
ag ue
Ġlar ge
Ġde ath
Ġto p
Ġis land
l ish
Ġpar k
ra ft
u ary
Ġev ent
Ġv ide
Ġl os
Ġf ur
Ġver s
Ġs oc
u ro
Ġd am
Ġde ce
Ġto wn
Ġbatt le
Ġp ower
ction s
Ġacc ord
Ġle ft
ur al
id ge
ion al
Ġ3 0
Ġc ast
Ġinter n
Ġp at
i ent
iv ely
b o
Ġall ow
Ġg un
Ġm or
Ġst ory
Ġfam ily
Ġmon th
Ġk ill
il t
Ġb ased
Ġv is
Ġapp ro
a im
m s
m in
v en
m ber
Ġadd ition
Ġbl ack
Ġre d
Ġv ict
Ġan t
Ġn ame
al es
Ġinc re
Ġex pl
Ġdece mber
if ied
Ġ2 5
Ġw on
Ġcomp any
Ġl aw
Ġarm y
on y
Ġcl ub
av y
em pt
en g
Ġhist ory
ro te
at s
Ġjan uary
l ing
Ġan g
Ġw ant
Ġw ater
Ġse e
Ġr iver
Ġtim es
Ġp ost
Ġinclud ed
Ġst orm
Ġaccord ing
. .
Ġw om
b all
Ġh ot
Ġth ose
r ist
Ġl ed
Ġver y
Ġ ir
Ġw ind
Ġ19 2
ber t
Ġh and
og rap
ap an
Ġfin d
ag ed
Ġre qu
in c
Ġm ake
Ġw rote
Ġi i
Ġj apan
Ġv al
ent ly
Ġh um
p ort
Ġor gan
Ġwith in
ag es
er g
Ġle ague
Ġor der
Ġres p
i ence
r act
Ġl ist
Ġst ru
Ġo pp
Ġf ar
Ġst and
Ġb us
Ġ. ..
st er
Ġvide o
Ġprev ious
Ġlo ok
it al
Ġpos s
ap p
Ġpos ition
p s
od y
Ġappe ar
Ġst ill
m ed
Ġr ad
Ġdescrib ed
Ġf ore
Ġin it
Ġe uro
Ġl ate
ot t
id es
Ġch amp
Ġde b
Ġb ill
om in
ne y
Ġn amed
en ces
Ġm emb
Ġbel ie
Ġv iew
er v
il ar
b ru
Ġorigin al
Ġrele ase
Ġne ed
Ġ rom
Ġam ong
p or
n ess
Ġ x
Ġd et
Ġfur ther
Ġatt empt
iv en
Ġeff ect
Ġre pl
Ġf oot
m er
Ġd est
Ġl et
pt ion
Ġt ake
ar ch
ren ch
Ġfor ce
Ġre al
c y
is ter
Ġte le
ent ion
Ġis s
Ġro ute
iv al
bru ary
Ġn ight
Ġfe bruary
a ff
re t
i od
Ġ1 00
Ġb as
Ġc y
Ġf ri
Ġcomm un
Ġex per
Ġwh ite
Ġday s
i or
Ġprodu ction
Ġ Â
Ġsim ilar
Ġspec ies
Ġmemb ers
ac hed
Ġpl an
Ġconst ru
Ġpol it
pe nd
Ġc oun
Ġch rist
Ġto ur
Ġform er
Ġ er
Ġmil it
Ġ &
ak es
Ġf le
Ġs ide
y al
Ġp a
b r
Ġinf l
an ces
Ġdiv ision
Ġn ort
Ġw at
Ġs old
Ġmat ch
Ġper iod
p le
Ġs ay
Ġsu per
Ġbu ilt
ak en
Ġserv ice
Ġro ck
ver s
Ġt em
Ġto t
c hed
Ġn at
Ġf rench
Ġunivers ity
Ġpo int
Ġy oun
Ġpro p
d ay
Ġhe ld
Ġeuro pe
Ġc le
Ġever y
Ġl ight
he n
Ġloc al
Ġfe w
Ġwee k
Ġm o
Ġe as
Ġ2 1
Ġ201 0
h or
Ġpres ident
Ġest ab
e c
Ġdes p
a x
Ġro le
au gh
ward s
ic es
Ġfl ight
Ġpres ent
ut ed
s h
Ġe qu
tend ed
Ġf re
Ġsu g
Ġc ame
Ġne ver
Ġbe h
Ġs um
rop ical
Ġh aving
f ord
Ġs ol
h am
' s
s elf
Ġc aus
Ġwill iam
Ġc ross
oc i
en se
h y
Ġdiffer ent
Ġs omet
Ġj e
Ġ2 4
Ġt ro
ul ation
a f
Ġplay er
Ġt est
Ġhal f
Ġass oci
Ġpro f
es tern
Ġch art
Ġf ire
Ġst y
ard s
Ġ200 8
Ġcomm on
Ġs ent
Ġof ten
Ġst at
l er
Ġh ur
Ġl ow
Ġg et
es e
Ġge or
Ġcare er
Ġ200 9
m e
Ġe c
Ġte ch
Ġl ess
r ing
Ġcontin ued
at or
Ġd av
Ġhist or
Ġp ri
Ġm ich
Ġcl aim
Ġf un
c raft
op s
Ġy our
Ġle vel
Ġ201 1
Ġd on
Ġwith out
al k
b s
Ġp ress
Ġco ver
c o
Ġele ct
Ġeng land
Ġf ree
ot s
Ġm er
ad y
Ġdesp ite
Ġ2 2
ren t
at ic
p ed
ut es
olog y
Ġcour t
Ġpart y
gr am
Ġt en
a ur
le t
Ġconsid ered
ri ed
g ress
Ġl ost
p ar
Ġt re
as ter
Ġf act
y ing
Ġh our
Ġb ur
Ġh ig
Ġdevelop ment
Ġfri end
Ġar ch
Ġl im
Ġch urch
Ġstr ong
Ġ200 7
Ġrep res
v es
Ġcount ry
Ġeng lish
Ġlit tle
Ġsong s
Ġcount y
Ġcom b
Ġtr ad
Ġtot al
Ġs al
l ine
Ġchamp ions
Ġinfl u
iz e
Ġf ield
Ġvers ion
b e
Ġro yal
Ġhigh way
Ġmilit ary
er ing
on es
Ġmov ed
Ġh y
Ġwrit ten
Ġl ond
Ġv ol
Ġ2 3
Ġcon v
Ġdef e
Ġan im
Ġlond on
Ġsug gest
ro du
v ision
s ide
Ġm i
c hes
Ġpro gram
Ġ201 2
Ġpro te
Ġbec ome
Ġch ang
ert ain
Ġfor ces
Ġm iss
Ġintern ational
Ġpro ject
Ġbuild ing
Ġor d
Ġs on
a i
Ġph il
Ġg iven
Ġt ropical
Ġcontro l
is on
Ġstre et
Ġh it
Ġaf f
Ġinv ol
Ġaut hor
el t
Ġre fer
Ġl at
Ġv e
Ġh o
Ġv ir
Ġimp ort
he l
Ġn on
Ġ19 0
il le
Ġann oun
Ġsh ould
g ed
Ġw estern
Ġl ab
Ġear l
Ġs it
Ġp ur
Ġg old
im ent
er y
iet y
Ġe ight
Ġde cl
Ġcan ad
Ġdep art
Ġpartic ular
qu e
ail ed
al d
Ġkn ow
se qu
Ġv i
Ġperform ance
Ġg ave
Ġl y
Ġst ation
Ġr ail
Ġinter est
Ġc ir
Ġw ent
Ġspec ial
a e
Ġj ack
Ġm ass
Ġrepres ent
Ġreturn ed
ab ly
Ġus ing
Ġco ast
Ġbro ad
Ġpop ular
am a
Ġf ather
Ġhe n
Ġh un
Ġpubl ished
Ġprodu ced
Ġl ove
Ġchild ren
Ġcomp et
Ġar g
in ess
x im
Ġnew s
on om
a pe
Ġob s
Ġreport ed
e ad
Ġl ive
Ġd u
os p
Ġinclud e
Ġg round
Ġrecord ed
Ġc ult
Ġtele vision
Ġind e
or ies
Ġ200 6
Ġst ated
Ġair craft
a ign
Ġship s
Ġd ou
ition s
Ġcent ral
Ġm aking
Ġcamp aign
ra w
Ġtr av
Ġde v
Ġ ide
Ġ2 7
Ġcrit ic
Ġc as
Ġ2 8
y l
us ed
om b
m it
um ent
Ġv o
Ġfr ont
Ġa ge
in ts
ie f
Ġplay ing
Ġwom en
Ġ5 0
Ġcol l
are n
Ġc op
Ġdest ro
Ġhur ric
Ġyoun g
Ġf av
Ġthrough out
Ġon ce
Ġup on
Ġpr im
Ġto o
Ġcent er
ens ive
Ġh old
Ġc ost
Ġh om
pl oy
Ġdo es
Ġsu ff
Ġhim self
c er
Ġoffic ial
Ġaustral ia
Ġ201 3
Ġs an
Ġchampions hip
Ġa ud
Ġtech n
Ġw all
Ġv ill
Ġm ot
Ġs en
Ġh or
Ġr ich
it her
Ġ2 6
Ġsou ther
Ġf ull
Ġb all
n ed
Ġcharac ters
Ġ4 0
Ġa way
Ġm ad
Ġplay ers
re st
Ġse a
re w
Ġcir c
pl ay
al th
Ġt ur
Ġf t
Ġthan k
Ġman ag
Ġro om
Ġf all
Ġrel ations
Ġse ven
Ġsqu ad
it ive
g es
Ġinst ead
ed er
Ġc am
Ġj ames
Ġb ase
Ġp ra
Ġsouther n
l o
Ġtit le
ac y
Ġcomm it
Ġwrit ing
c om
Ġ18 9
Ġf em
Ġbe gin
Ġp al
Ġac ross
Ġgr and
Ġb at
Ġint rodu
Ġd ied
Ġmod ern
Ġcon d
Ġrem ained
Ġh am
Ġb ig
Ġmonth s
Ġfor t
Ġw ood
Ġc e
Ġh all
Ġsign ific
Ġm ount
Ġdevelop ed
Ġpolit ical
Ġprom ot
Ġf if
Ġmov ie
Ġh ol
Ġc at
Ġp ut
Ġr ange
Ġa ver
u ck
Ġvar ious
Ġf ac
Ġn et
Ġocc ur
Ġre ad
Ġmil es
Ġm c
Ġr ace
Ġh ill
Ġhurric ane
Ġwor ks
Ġf ight
f ic
r ation
Ġp it
en cy
Ġoff ice
e f
Ġ ill
Ġro und
Ġb ow
Ġsty le
d om
Ġh on
a el
er c
ri es
Ġh ard
her n
Ġst ri
Ġs at
ist ed
Ġare as
Ġameric a
Ġs il
in ted
Ġc ro
m ost
Ġt ell
ort s
Ġf elt
Ġs un
Ġnot ed
Ġind ust
Ġr uss
Ġevent ually
Ġjapan ese
k ed
Ġdisc over
en ed
Ġloc ated
Ġannoun ced
Ġbro ther
Ġcre ated
Ġcolle ge
Ġre ached
m ing
Ġd i
Ġdestro y
Ġconstru ction
Ġin form
c ast
Ġeng ine
f ield
Ġse le
Ġa ction
Ġnort hern
Ġsuccess ful
Ġme et
Ġ2 9
Ġcur rent
Ġse en
Ġm al
Ġ200 5
Ġb ody
Ġser ved
get her
Ġto gether
Ġhe avy
Ġp ain
Ġbro wn
Ġstru ct
is ing
Ġc ut
it ing
Ġm em
Ġab le
ĠâĢ Ļ
Ġfollow ed
Ġag re
Ġsy m
Ġperform ed
Ġpro cess
Ġt or
Ġc iv
Ġpro t
iz ation
Ġfoot ball
al ity
an a
Ġact iv
av es
id s
Ġm ix
Ġbr idge
Ġgeor ge
w ork
Ġbus iness
Ġ201 4
Ġm ember
Ġto m
o on
Ġm ur
Ġqu e
id ence
os s
am ent
Ġes c
Ġg od
ol ution
Ġkill ed
c ent
Ġsignific ant
Ġec onom
Ġprof ess
Ġpo ints
Ġestab l
at ure
Ġs aw
ric t
Ġt aken
Ġ ident
Ġm m
Ġit al
Ġme an
Ġimp ro
z e
Ġbec om
Ġhum an
ir l
b ur
Ġb orn
Ġlos s
Ġav ail
Ġthough t
Ġd en
b or
Ġg ar
Ġestabl ished
Ġ ur
ar a
Ġdirect or
i us
Ġinv est
Ġorigin ally
av al
Ġth om
Ġs n
Ġother s
d s
ent h
Ġaustral ian
Ġdav id
Ġb ri
Ġg row
Ġen c
Ġsub sequ
et t
en ced
Ġfeat ures
Ġst age
Ġent ire
Ġhot el
Ġappe ared
ct or
ress ion
Ġsur v
Ġm other
Ġh i
i ers
Ġcre w
r ay
Ġp ot
c il
Ġ !
Ġre du
Ġp le
Ġv oc
y n
o x
Ġch o
he ad
Ġeas tern
g round
Ġcomm ission
Ġbre ak
th ing
Ġstart ed
l ess
Ġfour th
Ġf ell
Ġaf ric
Ġcrit ics
Ġr ather
Ġciv il
ough t
od es
Ġcaus ed
Ġr ank
Ġpro ble
Ġdec ided
s hip
Ġm ater
ri pt
ress ed
Ġimport ant
Ġking dom
d en
g g
Ġfe et
Ġbeh ind
at ors
ac es
Ġre b
ree k
Ġcl ose
Ġp en
Ġs ite
Ġadd ed
Ġb al
Ġre se
Ġre n
Ġso on
Ġinde pend
Ġform ed
og n
Ġfle et
Ġmag az
Ã ¡
Ġel se
Ġc ase
Ġb i
Ġ3 1
Ġind ian
Ġ18 8
g o
w ood
um b
Ġp red
amp le
m a
Ġgre en
ate g
Ġm art
iv id
Ġj ud
Ġcom ment
rough t
Ġsc ore
Ġs am
ad es
c ing
Ġm ult
Ġl ou
Ġpe ak
Ġdam age
Ġgun s
Ġal most
Ġed uc
Ġcomple ted
Ġpop ulation
Ġavail able
d le
Ġs us
s u
Ġse x
Ġne g
in ation
l in
Ġj our
Ġpre m
Ġr u
way s
he re
Ġc up
Ġex ec
em y
Ġinter v
Ġsc re
Ġl ang
one y
Ġt reat
Ġaward s
ap s
Ġcl os
Ġc reat
Ġgo al
Ġinit ially
Ġb ay
Ġg irl
Ġtrad ition
Ġin j
Ġmich ael
Ġreg ion
Ġle ast
c her
in o
it ar
Ġ200 4
Ġh ost
Ġopen ed
at a
Ġsoc ial
Ġl ack
Ġpr act
Ġqu est
Ġty p
Ġrelations hip
Ġin n
Ġmin utes
Ġse par
Ġcal if
Ġs our
Ġn ar
Ġind ivid
Ġ18 6
Ġfr ance
Ġlead ing
im es
Ġang el
Ġcalif orn
ce ed
Ġwas hing
Ġf und
Ġwee ks
em ents
Ġwork ing
Ġ201 5
Ġacc om
Ġrad io
h ic
ul a
Ġgo ing
Ġwork ed
Ġa le
Ġsec ret
Ġdif fic
Ġdiffic ult
Ġcon n
Ġun ion
Ġwant ed
Ġrecord ing
k i
Ġy es
Ġto wards
ic a
Ġm ust
t o
Ġm el
med i
Ġb omb
Ġm ac
Ġapp o
Ġf a
ist ic
Ġqu ar
he st
Ġqu ick
Ġhour s
Ġr ain
ris on
Ġr ap
Ġla un
Ġcoun cil
an ch
Ġsc ene
Ġlook ing
Ġsp ace
Ġe ither
Ġwashing ton
as ing
Ġf ly
Ġmater ial
Ġw id
Ġto day
Ġn orm
ign ed
Ġp ast
Ġrep ubl
Ġres pect
Ġhen ry
Ġrecord s
k y
Ġcaliforn ia
Ġac cept
Ġf ig
et h
Ġro bert
Ġc ru
Ġre ve
Ġhe re
Ġear th
Ġf ood
Ġaver age
Ġe y
Ġn avy
x ic
Ġsc ored
fer ence
Ġv ot
Ġ200 0
Ġtr aining
Ġprov ided
pe c
Ġposs ible
Ġre ach
5 0
Ġn omin
ell ing
Ġtro ops
id ing
ow s
Ġb rought
Ġst op
am s
ant ic
Ġpro per
bo ard
Ġd ut
Ġbr ig
Ġrec ogn
Ġro b
Ġfeat ured
olog ical
Ġst ars
Ġ5 00
Ġcol on
Ġw ife
a ut
os ition
Ġf oc
Ġth ink
Ġcom e
Ġallow ed
Ġpr iv
Ġ18 7
Ġf ut
v ille
Ġd ark
ect ed
Ġt ar
Ġpl aced
Ġest im
Ġsum mer
Ġf eder
Ġcont ract
Ġc ou
Ġstud io
Ġvict ory
if f
Ġgener ally
Ġr ul
Ġcy cl
p re
Ġrun s
Ġa ch
Ġbo ard
Ġph ys
Ġev ents
Ġex ample
Ġch ief
Ġmagaz ine
ag o
Ġd er
Ġbatt al
Ġrepubl ic
Ġl eng
Ġpa ul
Ġg ot
Ġun c
Ġ ut
Ġreg ular
Ġsomet hing
Ġins p
Ġw il
Ġst aff
Ġc red
Ġd ro
u el
ent ial
Ġ200 3
Ġp ie
Ġpartic ip
Ġjo ined
Ġdesign ed
Ġsquad ron
Ġsur f
Ġty pe
Ġd an
Ġsp an
Ġmid dle
k a
Ġn ine
Ġoper ation
Ġsh ot
an ks
Ġem ploy
Ġspe ed
Ġgr ad
Ġth reat
Ġcon du
Ġopen ing
v ing
i ke
ap er
Ġmed ia
m en
Ġreg ard
Ġbelie ved
ud e
Ġg ive
Ġrel ig
u gh
Ġm ary
Ġp ay
Ġb er
Ġwind s
Ġb ir
Ġat l
Ġst one
Ġo x
Ġh op
ict ion
Ġtrans port
Ġcapt ain
h an
Ġfin ished
Ġrepl aced
Ġm ph
Ġb en
Ġhig hest
Ġreview s
Ġpri or
Ġem p
Ġsc en
Ġearl ier
Ġcomm erc
r ight
Ġpol ice
Ġinf ant
or ing
im in
Ġde ter
w est
st on
Ġb ad
Ġse qu
Ġeurope an
o ff
Ġbet ter
Ġinvol ved
er ous
ific ation
f all
Ġlang u
l ic
Ġke ep
h a
Ġsay ing
Ġch ange
Ġrese arch
Ġst ay
Ġsoc iety
as ion
Ġm om
al ed
re g
ut ive
Ġleng th
Ġcont rib
Ġfilm s
Ġrom an
Ġind ic
Ġim medi
Ġbo y
Ġp il
ok e
ick et
Ġassoci ation
Ġt rib
id a
s el
Ġsc ott
Ġparticular ly
Ġl ower
Ġn y
Ġvir gin
Ġlar gest
Ġad min
Ġrem ov
Ġke y
Ġpl at
Ġperson al
Ġbegin ning
Ġex ist
ish ing
Ġl ay
Ġte x
Ġad m
' m
pe cted
w er
Ġper cent
Ġfor ced
Ġresp ons
Ġtrav el
m p
Ġfe el
ip p
Ġse ction
Ġout side
Ġ200 1
Ġde al
s c
j oy
Ġhe art
Ġhe ll
Ġt aking
Ġdis p
Ġle ar
ar ing
Ġach ie
Ġu k
h ib
ann ed
Ġant i
ail s
Ġchar les
Ġbe at
em s
Ġme as
Ġab ove
Ġcommit te
Ġthom as
e y
Ġgr ant
ograp hy
Ġnov el
Ġmain t
Ġre ason
o f
ĠÂ °
Ġend ed
op h
Ġl ake
Ġturn ed
Ġincre ased
Ġun its
as es
Ġp an
Ġn in
Ġcommun ity
ad ed
Ġh ous
Ġac ad
m ar
ke y
ak er
Ġpass ed
f or
he ast
Ġmov e
Ġpra ised
Ġrest aur
Ġthe at
Ġm cc
Ġ ult
Ġaddition al
Ġfut ure
Ġen ough
i os
Ġen joy
Ġ200 2
Ġfr anc
Ġp ac
Ġappear ance
Ġb ird
i ation
Ġph ot
Ġgu itar
Ġth us
Ġli k
Ġlit er
Ġord ered
Ġd oc
Ġcanad a
Ġsm ith
it or
Ġp s
Ġcast le
Ġd augh
Ġex c
Ġpl ot
Ġinfant ry
ers hip
Ġ -
Ġp un
Ġprevious ly
il ities
b ack
Ġmark et
Ġpro b
Ġsqu are
Ġle ave
Ġmus ical
ed y
Ġle aving
m y
Ġsign ed
Ġab s
oc r
Ġmin or
Ġale x
Ġrich ard
n al
s en
us h
Ġm ic
Ġme xic
Ġter rit
pp er
Ġo ur
Ġde ad
Ġele ments
Ġd ig
ter ed
ar ily
Ġinst it
Ġacc ess
ag on
n es
Ġright s
Ġvi ol
r ated
Ġh a
pp ed
Ġpos itive
Ġfem ale
g en
ers on
Ġbl ue
o or
Ġdire cted
Ġl ord
it z
Ġcrit ical
Ġm oney
Ġa w
Ġpart s
Ġl ines
Ġp ow
Ġch ic
Ġh app
Ġback ground
i que
it es
Ġbe g
Ġover all
um p
Ġto ld
Ġ3 5
Ġsp ent
Ġsub ject
Ġpr inc
ct s
Ġp et
Ġ6 0
cl us
Ġsc ient
Ġvict or
Ġt ax
Ġs and
Ġde ep
Ġch ap
Ġro ll
u ation
Ġfl ood
on st
Ġd omin
Ġcommitte e
u ter
Ġinterv iew
ell ed
Ġc orn
Ġcommerc ial
Ġ199 0
m on
Ġf ailed
Ġrequ ired
Ġscre en
n el
b ers
ren g
t t
Ġm ach
g a
Ġwom an
Ġpo or
Ġgerman y
Ġgu ard
Ġdeb ut
Ġgroup s
Ġdist rict
e e
Ġfl or
Ġcle ar
Ġd re
Ġpe ter
Ġl u
Ġk il
Ġen v
Ġw al
Ġfr ank
Ġbroad cast
um e
Ġob ject
Ġhe alth
Ġter m
Ġits elf
Ġ Ã
Ġind ia
Ġconst it
Ġan al
Ġchrist ian
Ġste p
Ġw alk
st and
Ġl iving
Ġsomet imes
Ġev idence
ber g
Ġbattal ion
Ġb ank
is l
ib ility
re ady
Ġcon ference
Ġas ked
Ġpr ison
Ġb urn
Ġ ?
Ġocc up
Ġrece ption
Ġinvest ig
Ġex cept
Ġele ction
Ġpar l
Ġtrans fer
ĠÂ £
en ue
Ġdef end
er ved
Ġst reng
ab ility
Ġwh om
i i
g ar
Ġcomple te
Ġwh ose
Ġsy n
Ġal ready
on na
Ġb ud
Ġadmin ist
ap t
Ġs ov
air s
Ġnat ural
on se
Ġque en
Ġbe y
Ġstud y
Ġappro xim
Ġre act
Ġclaim ed
Ġgovern or
Ġwat ch
Ġinform ation
Ġcl im
Ġam b
Ġfore st
w or
Ġfre qu
ig an
Ġmus e
Ġsov iet
Ġus ually
Ġintrodu ced
Ġm ight
Ġz e
Ġw ild
Ġmin ister
Ġd raw
Ġstud ents
Ġr h
Ġide a
Ġfav or
Ġ3 2
Ġquick ly
Ġeduc ation
Ġlim ited
Ġb ul
t a
Ġfif th
b c
Ġc ertain
Ġan c
Ġre ally
f l
Ġd ate
Ġconc ern
Ġeffect s
Ġl ib
Ġg ro
Ġmov ement
Ġsl ow
Ġt un
Ġg ard
Ġany thing
Ġbo x
Ġteam s
ay s
ain t
Ġresp onse
Ġprev ent
Ġiss ue
Ġcent re
Ġcommand er
Ġs elf
in ing
Ġ197 0
at ory
Ġpl ant
Ġsurf ace
b a
Ġpol ic
Ġmanag er
Ġes pec
Ġdepart ment
Ġf ace
Ġarr ived
Ġh osp
b our
Ġk ind
Ġf er
Ġshow s
Ġbrit ain
Ġvill age
Ġserv ices
Ġ198 0
Ġespec ially
Ġdec ision
Ġvo ice
Ġimp act
erg y
p r
se c
Ġr at
t r
t ies
Ġr ac
Ġsc ience
Ġoper ations
Ġchic ago
Ġmuse um
Ġlou is
Ġl ie
Ġcour se
Ġparl iam
r or
Ġstruct ure
Ġcon gress
Ġr an
Ġcont r
Ġf est
Ġly ric
and ed
ines e
Ġindust ry
Ġlar ger
Ġquar ter
Ġdefe ated
Ġwrit er
Ġart ist
Ġrem aining
Ġs ize
Ġbecom ing
Ġhe av
Ġth r
w h
Ġestim ated
Ġmult ip
Ġlat ter
Ġrem ain
Ġf ant
por ary
is es
Ġepis odes
Ġsur round
Ġc ell
Ġo l
Ġcar ried
Ġpre fer
Ġparliam ent
ar ies
Ġbl ood
Ġult im
ir on
ou th
Ġnet work
Ġconsid er
Ġdisc uss
ul ly
ul f
Ġpro gress
Ġpress ure
Ġch inese
Ġac qu
Ġ199 9
Ġfl ag
if t
Ġbri ef
Ġrun ning
er ve
Ġro s
Ġscen es
Ġc m
Ġchang es
che ster
Ġ3 6
Ġc and
Ġvirgin ia
Ġw el
Ġcomple t
Ġp urch
ess ion
Ġje w
Ġd om
Ġco ach
Ġ8 0
Ġem b
Ġwin ning
Ġn aval
Ġsuggest ed
Ġfin ally
Ġd one
v al
Ġent ered
Ġnear ly
Ġjack son
Ġb ed
ent y
or ial
Ġdep ression
Ġv an
d e
Ġhig her
Ġapproxim ately
Ġappo inted
and er
Ġinflu ence
Ġcap ital
Ġemp ire
as c
Ġsa f
Ġper f
Ġch all
Ġsub st
Ġg al
Ġlead er
bur g
Ġcan n
3 0
Ġm ission
Ġestab lish
Ġlangu age
Ġequ ip
an ia
Ġshort ly
Ġp ick
Ġreg iment
Ġisland s
Ġb ra
Ġsc ript
Ġfeder al
Ġmet h
ter y
Ġprov ide
Ġsound s
Ġ4 5
Ġf it
Ġw ide
Ġdaugh ter
Ġun l
Ġloc ation
ch ange
Ġu pper
Ġtrack s
Ġo ly
Ġdestroy ed
Ġo h
Ġprop osed
Ġspan ish
Ġpriv ate
Ġw ing
ul ated
Ġoly mp
Ġprodu cer
ab or
Ġarr ang
Ġenv iron
Ġexper ience
Ġnat ure
Ġcor ps
r d
Ġmor ning
k ing
Ġc er
Ġdist rib
Ġg i
Ġhor se
Ġc ard
Ġprinc ip
n s
Ġc a
Ġstand ard
Ġsubsequ ently
Ġcol or
o id
Ġprofess ional
Ġbatt les
Ġhe ro
id ents
Ġbrig ade
sel ves
Ġp aren
Ġfeat ure
Ġrail way
d own
Ġal tern
Ġcomp ared
Ġdis s
ens ion
mit ted
is er
Ġbre ed
Ġcomple x
Ġmar ried
Ġem erg
Ġcon cept
Ġimmedi ately
Ġin tended
Ġsp ir
Ġ3 00
Ġf air
Ġdem ocr
Ġf ans
om m
Ġ196 0
Ġfranc is
Ġtem per
Ġce le
Ġ18 4
Ġp ict
Ġfor ward
Ġjour nal
Ġent ertain
Ġo ce
Ġsupport ed
Ã Ń
n y
Ġm r
Ġsh oot
Ġb ord
Ġagre ed
om s
Ġed ward
Ġmon t
o le
Ġint ens
Ġrestaur ant
Ġbr ing
Ġbl ock
all ed
Ġcomp an
Ġarch it
Ġconf ir
Ġincre asing
Ġwhe ther
Ġmod el
Ġwe ap
Ġhelp ed
g y
Ġinit ial
Ġpac ific
Ġli ber
Ġaward ed
Ġb or
ri a
Ġdis play
Ġrel ated
Ġarchit ect
Ġtex as
i res
Ġpl anned
Ġoffic er
Ġbook s
Ġleg isl
Ġim m
Ġ199 8
Ġval ley
Ġy et
ap h
Ġsold iers
Ġlong er
Ġsu re
Ġtr ade
Ġcre ate
as y
at ively
u k
he m
Ã ¶
Ġart ic
Ġatt ract
Ġw it
ore s
Ġk ore
Ġpl ans
Ġfriend s
i en
Ġc ause
Ġprob ably
b an
Ġchang ed
te en
Ġir on
Ġsp ring
Ġbuild ings
Ġital ian
Ġcapt ured
Ġun it
Ġcons erv
Ġd ance
Ġp enn
in ct
Ġflor ida
w ell
Ġ q
Ġcon clud
Ġ7 0
Ġwith d
Ġassoci ated
Ġmost ly
Ġinst r
Ġ18 5
Ġse v
Ġjohn son
Ġwin ter
Ġoffic ers
Ġrem ains
Ġrequ est
Ġcont em
Ġn ation
Ġsing les
Ġlyric s
Ġbill board
ab it
Ġthem selves
Ġmix ed
ron ic
Ġp u
Ġa st
k en
Ġcount ries
Ġex am
il i
Ġangel es
ri age
Ġneed ed
Ġad ult
Ġd og
en a
Ġex tended
Ġr ay
Ġt v
Ġmeth od
Ġw a
Ġmov ing
Ġal ways
Ġfin anc
Ġnum erous
Ġat tend
Ã ¼
Ġvis it
Ġgo als
Ġmom ent
Ġv ia
Ġdou ble
ad o
Ġst ad
Ġport ray
le g
Ġf ail
is ions
Ġr id
Ġcop ies
Ġsc ot
Ġbir th
Ġmeet ing
Ġindivid ual
Ġc it
Ġmin ute
Ġ3 7
Ġs ales
Ġj im
c ome
Ġinclud es
Ġpr ice
Ġfoc us
Ġatl antic
Ġm ess
Ġ199 7
Ġstat us
Ġr ang
Ġiss ued
Ġm ale
Ġen ergy
Ġm ind
Ġsing er
ol ic
and on
c an
Ġtr aff
Ġsuff ered
Ġt al
Ġhosp ital
Ġadm ir
Ġma xim
Ġmart in
Ġch ina
h ood
Ġalbum s
and s
Ġ ice
Ġg all
Ġt on
Ġsc hed
Ġed ition
Ġter min
Ġrev olution
Ġproble ms
Ġt as
Ġb ene
Ġlik ely
b ed
Ġcar ry
' d
Ġc reek
Ġincre ase
Ġstart ing
h l
Ġs ir
Ġindepend ent
v in
Ġass emb
Ġremov ed
Ġappro ach
Ġcele br
Ġb ond
Ġoff ered
b ury
t ic
f act
p an
Ġinsp ired
Ġt akes
Ġcoun ter
Ġfore ign
i est
Ġm aster
Ġter ms
Ġd v
at ives
ch an
Ġref le
land s
Ġmajor ity
h old
Ġprim ary
Ġhell o
Ġperf ect
Ġcomp os
Ġcar ol
it er
Ġoce an
ail y
Ġcons ist
Ġo pt
Ġinter se
Ġm akes
ve y
Ġqu al
Ġtradition al
Ġt ons
ograp h
Ġ7 5
Ġve hic
Ġdr um
Ġins ide
Ġs ar
Ġentertain ment
Ġen s
Ġl og
Ġr ating
st e
ous ly
Ġf ox
Ġre pe
Ġmount ain
Ġad op
Ġattack s
Ġrank ed
Ġby e
Ġde g
oun ted
is c
Ġwor d
l ight
Ġo il
Ġact or
Ġenviron ment
Ġ ign
Ġ9 0
ac hes
et ic
ound s
Ġra ised
Ġcomb at
Ġcomp osed
Ġd aily
Ġdam aged
Ġu nd
Ġcanad ian
ur s
Ġpre c
Ġair port
ic ted
Ġconc ert
Ġafric a
Ġsh ar
Ġn ick
Ġc ateg
l or
Ã ³
Ġtr ain
z z
Ġw rest
Ġsele cted
ort un
Ġgu est
Ġsp orts
Ġfight ing
Ġcycl one
Ġappe ars
un g
if y
Ġreve aled
o o
Ġ3 3
Ġdiscover ed
Ġdeter m
Ġwho le
Ġmet al
Ġer a
Ġb ab
Ġsim p
Ġun able
Ġbel ow
Ġruss ian
Ġact ive
er a
Ġst ra
Ġtw enty
uc le
Ġcond itions
Ġlet ter
Ġquest ion
Ġstad ium
ri ption
al and
Ġk ent
Ġgre ater
l s
ur ies
Ġv en
Ġsch ol
Ġlaun ched
Ġ3 4
ist ance
Ġp m
um ed
Ġrespect ively
ut h
Ġs ister
a j
Ġo s
Ġnum bers
Ġ199 5
ar i
Ġiss ues
Ġj ose
Ġconn ect
Ġsl ight
Ġth ir
Ġto uch
Ġsmall er
Ġinc or
Ġl ived
Ġadv ance
Ġd in
Ġcont ains
us e
Ġy ard
Ġc ab
Ġnear by
Ġsh own
Ġattempt ed
Ġattack ed
Ġy ards
e ch
Ġcult ure
Ġsil ver
Ġ3 8
Ġl ink
Ġc art
um ents
Ġ201 6
Ġoccur red
Ġnews p
ag ing
Ġrelig ious
Ġb on
Ġc ust
Ġre in
u als
Ġy e
Ġii i
Ġexp ress
Ġf ast
Ġbe ach
Ġr ing
Ġto urn
Ġdefe at
Ġat h
ct ing
am b
Ġrec over
Ġt alk
Ġd ie
iz ing
Ġpe ace
an ced
Ġne igh
Ġr are
Ġann ual
Ġlar g
2 0
Ġ iv
Ġele cted
a ult
Ġfest ival
Ġd ra
augh t
Ġ195 0
Ġaud ience
Ġl ot
Ġ199 6
Ġrefer red
Ġconst ant
Ġps y
ri al
Ġre form
ol k
en ant
Ġs av
Ġd un
Ġpr ince
Ġvar iety
ur ity
en ing
Ġlist ed
ver t
Ġh aw
Ġthem e
Ġcover ed
Ġgl ob
Ġmag n
Ġb ell
Ġn ames
Ġd ar
Ġschool s
ad s
ri an
Ġse arch
Ġresult ed
ent al
Ġr is
Ġspec ific
Ġlarg ely
Ġass igned
Ġcl osed
Ġdoc ument
Ġpur p
os aur
y a
Ġcolle ction
Ġb an
Ġse nd
u ated
Ġ199 4
k er
Ġcompet ition
Ġth ings
Ġex pected
Ġsp ot
Ġas h
Ġc ath
Ġc row
Ġear ned
m i
Ġte xt
Ġcontro vers
Ġcomp l
qu ar
Ġs out
Ġcomment ed
it ude
Ġmat ches
Ġrap id
Ġatt ention
Ġs we
Ġperform ances
ã ĥ
Ġg iving
Ġwat ers
Ġn ucle
Ġc ry
Ġgreat est
Ġent er
Ġmich igan
Ġim per
Ġv iet
Ġacc ount
Ġm ir
Ġf igh
Ġk ar
Ġext re
Ġsp l
Ġleg al
on a
Ġref used
Ġeconom ic
Ġcont act
u ff
Ġch am
Ġcontin u
oun ts
z a
Ġset t
ap ed
Ġto wer
Ġ4 9
pl es
br idge
Ġm as
Ġm ention
Ġh und
Ġr ate
Ġelect ric
Ġm un
Ġab ility
Ġdire ction
Ġw ales
Ġme ant
ut ions
Ġser ious
Ġnot es
Ġst ories
Ġst an
Ġn ative
Ġ194 0
Ġo d
Ġprom in
Ġdecl ared
Ġvoc als
is her
Ġhund red
Ġp oll
Ġsu nd
Ġh us
Ġple ase
Ġch ann
Ġ18 0
Ġm att
Ġlevel s
Ġsepar ate
Ġhigh ly
Ġab andon
ol s
Ġwe ather
Ġwor ds
g l
Ġk h
Ġfant asy
Ġf ill
im s
Ġne cess
Ġdo ctor
1 0
Ġmar riage
Ġprodu ce
r am
Ġtr ail
Ġpre p
w in
Ġdef ense
Ġc ub
Ġconstit ution
Ġpract ice
Ġconstru cted
Ġs le
Ġem per
Ġsour ce
Ġdv d
Ġth ing
h ouse
Ġcurrent ly
od ies
g ing
Ġfar m
i ences
Ġdr ive
Ġact ually
Ġcand id
g s
ic ient
j e
Ġ199 2
um n
w ide
p ass
Ġrec omm
in em
Ġvoc al
Ġfly ing
t own
Ġe th
ib ly
p ing
Ġme ans
et te
Ġ ess
Ġlab or
Ġch ris
Ġro w
Ġproble m
Ġwrit ers
Ġd yn
Ġadv ent
Ġmexic o
it ation
Ġexec utive
Ġmed ical
Ġd a
Ġdirect ly
Ġze aland
Ġs ac
m as
Ġl es
Ġcontro ll
ell ow
Ġultim ately
ish op
Ġex hib
Ġcontin ue
Ġobs erv
Ġposition s
ick ets
Ġmultip le
Ġnorth west
Ġafric an
Ġpresent ed
ed ic
Ġj er
Ġeff ort
Ġredu ced
d ing
Ġb it
Ġpar is
Ġfind ing
Ġ4 00
Ġb ound
Ġche m
Ġadmir al
Ġb ost
Ġtr ue
w rit
Ġanim als
Å į
Ġfl ow
b and
k n
Ġeff orts
Ġhous es
Ġg as
Ġform ation
Ġdis m
Ġme chan
Ġbo b
Ġ193 0
Ġlib r
Ġde pend
Ġlie ut
Ġw ear
og ue
Ġtri ed
Ġg reek
Ġset tle
r ical
Ġcom edy
Ġman chester
Ġmem orial
Ġs ides
Ġaccept ed
Ġstr ateg
Ġat tended
l a
d on
Ġstud ies
Ġmad onna
Ġfinanc ial
Ġse em
Ġst ating
Ġru le
Ġpar al
Ġj ones
l ines
Ġp air
Ġhon or
Ġr am
ac her
Ġbeg ins
v ement
Ġcom ing
Ġro ugh
am ing
Ġsym b
Ġl uc
Ġs aint
Ġp ack
Ġ199 3
Ġtheat re
Ġ199 1
Ġin ch
tr ack
Ġl if
Ġ18 3
Ġincor por
Ġpil ot
ri er
Ġend ing
Ġorgan ization
Ġtraff ic
is ation
Ġen emy
ru pt
Ġcer em
Ä ĩ
Ġey e
Ġ17 9
an es
ru ction
Ġreturn ing
op er
Ġcas es
n ers
Ġscot land
e x
Ġ3 9
b re
Ġm ob
Ġqu ality
er o
ill ery
Ġar rest
Ġk enn
Ġsur re
Ġed ge
Ġcontem porary
Ġro se
Ġconf l
Ġrespons ible
Ġ +
Ġpr ime
Ġform s
Ġmean ing
Ġp ath
Ġman aged
Ġus es
ip s
Ġw ound
Ġm os
Ġar ab
Ġtourn ament
Ġap art
Ġresult ing
Ġ4 8
Ġb ass
ol f
Ġproper ty
Ġke pt
Ġfeat uring
Ġacad emy
Ġsound track
ad a
Ġth ick
Ġshow ed
Ġart ists
Ġlieut enant
Ġdro pped
un e
Ġdet ails
Ġprot est
Ġrec ent
k et
ri e
Ġf at
Ġauthor ity
Ġspir it
Ġdist ance
Ġpolic y
Ġstru gg
Ġe ll
Ġmar sh
Ġfound ed
cl aim
Ġf an
Ġd ru
Ġemper or
Ġexp ed
Ġart illery
Ġbo at
Ġrecomm end
Ġh ors
Ġcomb ined
Ġ ic
Ġwilliam s
Ġact ing
ceed ed
Ġcontin ues
Ġsecret ary
Ġm u
Ġtri al
Ġmark ed
Ġadminist ration
Ġtri p
' re
ce nd
Ġro t
Ġinc hes
r ick
Ġplan et
Ġenc oun
Ġnot hing
Ġbost on
Ġsystem s
Ġprop os
Ġl in
Ġsubsequ ent
u ge
Ġattempt s
n am
Ġsix th
o e
in son
Ġd raft
th ur
Ġa head
i ated
gy pt
Ġbe aut
Ġterrit ory
ant a
Ġth ous
Ġ4 1
an i
Ġnort heast
Ġstud ios
Ġcas ual
Ġcho ice
Ġre ar
Ġpot ential
Ġcompan ies
t hel
Ġjo b
ic ip
Ġl iver
Ġpres ence
Ġallow ing
Ġmet res
Ġle e
Ġpre par
Ġview ers
ul ations
Ġmach ine
Ġsc ale
Ġsupp l
Ġam ount
Ġlat in
Ġtar get
Ġco al
Ġcommun ic
Ġ194 2
Ġe gypt
Ġbeh av
Ġofficial s
Ġcondu cted
Ġpie ce
Ġmaxim um
Ġresp ond
Ġob t
Ġse g
Ġ4 7
Ġcol d
Ġy ellow
Ġdig ital
ing u
Ġfilm ing
Ġtem ple
Ġd oll
Ġhy d
stand ing
Ġhead quar
Ġdef ence
Ġcontr ast
Ġoff er
Ġparen ts
Ġsc oring
Ġfig ure
Ġcoll abor
Ġle aves
Ġtransfer red
o es
' ll
Ġsen ior
Ġopp ortun
Ġstep hen
Ġrel atively
r ain
Ġcor por
Ġbr ad
Ġdo ing
en ge
Ġgeor g
Ġstud ent
Ġall ied
Ġdem onst
Ġdis e
Ġprim arily
Ġele v
c le
Ġown ed
Ġox ford
ian ce
Ġplay s
Ġbecom es
Ġtor ped
Ġthere fore
Ġjose ph
Ġthe ory
ag a
Ġpeak ed
Ġm ort
Ġtit led
ast ic
Ġw ond
Ġcor re
Ġcol umb
Ġpa id
ste in
Ġpsy ch
Ġt ree
Ġcit iz
ers ey
Ġst ock
Ġport ion
Ġstreng th
h i
Ġcon ver
Ġbattles hip
Ġav enue
Ġje ff
Ġc ert
Ġconclud ed
or ter
Ġm ut
Ġprem i
Ġwrit e
Ġhar rison
Ġrequ ire
Ġsit uation
Ġwe aken
Ġseason s
Ġinv asion
Ġ4 6
Ġsh are
it a
Ġch air
Ġbro ke
ul ed
Ġfun ction
Ġco ol
ent ed
Ġdr ama
Ġphys ical
Ġtrans l
Ġm ile
Ġs elling
Ġresult s
Ġalong side
Ġser ve
id er
Ġobs erved
Ġ4 2
aren t
Ġsec urity
Ġdist inct
in i
Ġbord er
Ġsw ed
Ġpower ful
Ġshe ll
Ġslight ly
Ġmin im
Ġsecond s
Ġcall ing
Ġste am
Ġconc ent
Ġperson nel
Ġath let
ad el
Ġdiv ided
il es
ist ics
Ġsour ces
Ġf red
Ġc ities
Ġhistor ical
Ġ194 4
z y
Ġwar s
c a
Ġar ts
Ġ6 4
Ġin h
Ġh an
re ad
ic ed
ch ing
Ġcont est
Ġmanag ement
Ġchar l
Ġcou ple
che st
Ġre ject
Ġo tt
Ġad j
Ġhistor ian
Ġon to
Ġsu st
Ġ4 4
Ġf ear
Ġfre ed
Ġplat form
ot a
Ġimper ial
Ġl ov
Ġnomin ated
Ġv ess
Ġcan c
Ġa ctions
Ġo w
un t
Ġbird s
Ġtr ust
Ġpl aces
Ġk g
Ġcro wn
Ġinflu enced
ct ive
Ġactiv ity
Ġf ish
Ġ5 5
m ond
Ġinn ings
il s
Ġi re
y er
Ġold er
Ġsu c
Ġpo et
Ġres idents
w here
Ġres c
for ce
p o
Ġl ane
ell ig
Ġro d
Ġdesign ated
Ġpass ing
Ġpromot ed
e es
Ġb bc
Ġcult ural
Ġr y
Ġconfl ict
Ġwe bs
Ġcomplet ely
Ġp ul
Ġm is
Ġsub s
Ġcro at
Ġass istant
Ġhe ight
Ġwe ight
Ġs ense
ro ad
Ġmain ly
r ate
ph y
Ġsex ual
Ġr ated
Ġarm s
Ġor chest
Ġp aper
Ġstru ck
ist ry
Ġchart s
Ġrepl ac
st one
Ġ192 0
Ġhand s
Ġs ought
Ġanc ient
Ġenc our
Ġcont ent
Ġbase ball
Ġche ck
Ġ194 5
ill s
Ġchar ge
ian o
Ġ15 0
Ġfe ed
Ġdou b
Ġital y
Ġ194 1
Ġvar i
Ġr i
le ment
g ers
Ġcon sec
Ġf res
Ġhe ard
Ġspe ct
Ġte nd
Ġim age
Ġreach ing
Ġwel come
Ġd ang
Ġfell ow
Ġf iction
Ġk r
Ġinstr ument
Ġcom es
Ġweap ons
Ġm it
ub e
Ġal one
Ġ18 1
Ġspe nd
Ġchann el
Ġset ting
ol ved
Ġameric ans
Ġwid ely
p ool
Ġfav our
Ġun f
Ġmur der
ur a
wh ile
Ġmed al
Ġbey ond
Ġj ersey
Ġ5 2
Ġs r
Ġeconom y
Ġem ot
Ġsp ort
qu es
Ġh abit
Ġappear ances
Ġint ellig
Ġshe l
Ġconfir med
yl v
d y
r ative
Ġg ra
Ġste el
Ġjo in
att le
Ġlibr ary
Ġg ained
Ġire land
Ġbrother s
Ġfl oor
Ġb ru
ro ll
Ġcar l
b on
Ġspl it
u le
Ġext ra
Ġre ign
Ġsay s
Ġvers ions
Ġele ment
Ġpro ved
Ġsu it
kn own
Ġanal ys
Ġal t
Ġheadquar ters
al ing
m ans
Ġtr ying
or ation
Ġexpl ained
Ġbow l
Ġman u
Ġt ay
Ġs ens
c ers
Ġmat ter
Ġact ors
Ġexp ans
om an
Ġneg ot
a res
Ġf al
Ġrain fall
Ġ198 9
Ġspe ech
Ġcaus ing
Ġd edic
Ġact ress
Ġ18 2
Ġbar b
Ġ194 3
Ġvictor ia
Ġfrancis co
anc y
i j
Ġd w
Ġcath olic
Ġexp ressed
Ġfig ures
in n
Ġequip ment
Ġwork ers
Ġat m
Ġp ap
Ġartic le
Ġhors es
Ġapp arent
Ġres erve
g u
Ġroad s
Ġreport s
Ġ4 3
Ġexper iment
m ark
Ġgrow th
us ion
et y
Ġactiv ities
Ġbr anch
Ġb ott
Ġocc asion
Ġhus band
Ġg ross
Ġoff ensive
Ġjust ice
Ġpromin ent
Ġadv anced
Ġcateg ory
Ġwh y
Ġsn ow
Ġf ine
st re
by e
igh th
Ġcapt ure
y le
Ġident ified
Ġserv ing
Ġoffic ially
Ġbelie ve
ou red
Ġworld wide
Ġtell s
Ġinter act
Ġso ft
Ġtr y
Ġarm ed
Ġesc ape
Ġhe ar
Ġpat tern
Ġmanu fact
ir ing
Ġpie ces
Ġgold en
Ġheav ily
Ġcomp uter
Ġtre es
Ġsen ate
Ġj ul
i Äĩ
Ġord ers
Ġrepresent ed
Ġad apt
Ġmean while
Ġcr icket
Ġtreat ment
Ġt able
Ġatm osp
Ġl ives
Ġh at
Ġ6 5
Ġav oid
b it
Ġim ag
Ġlead ers
Ġf ired
Ġpr in
Ġto ward
Ġla id
Ġ id
Ġan th
Ġinj ury
Ġdu ke
ylv ania
Ġun known
r id
Ġsupp ly
Ġagre ement
Ġloss es
Ġexped ition
ab eth
Ġdut ch
Ġill ust
Ġeven ing
Ġdesc ription
Ġal bert
Ġd ata
id ay
Ġcarol ina
i ber
Ġkil omet
Ġunl ike
Ġel iz
Ġstri ke
m ore
Ġed itor
Ġst ore
Ġwall s
Ġc inem
ac ity
Ġm ig
Ġcons isted
Ġc ra
ess ions
Ġdeb uted
our s
b i
Ġs her
ol a
Ġb art
Ġt a
Ġg il
Ġop in
Ġa ired
Ġsp in
us hed
Ġarg ued
Ġsund ay
Ġsk y
Ġst ations
Ġj on
Ġtyp ically
os en
Ġopp osition
Ġrefer ence
Ġsever e
Ġres ident
Ġtw ice
Ġ5 1
pt on
Ġhom er
Ġpow ers
Ġm ounted
Ġkn ight
Ġtechn ology
Ġclaim s
Ġpol ish
Ġn ations
b n
Ġaff ected
Ġindust rial
Ġf aced
Ġland ing
Ġanim al
Ġas pect
Ġacc ident
Ġsu pre
Ġ6 00
u x
Ġnot able
Ġk id
Ġk ick
Ġval ue
Ġr ic
Ġem ph
Ġdan iel
el le
Ġse at
on c
ot y
Ġprote ction
Ġmaint ained
re y
Ġcon ne
Ġb a
Ġcon vers
Ġhol ly
Ġs ail
Ġd ur
if ying
Ġvis ited
Ġsp read
Ġcritic ized
Ġass ault
Ġjo int
Ġdel ay
Ġf ully
Ġbro ken
Ġs om
Ġf uel
Ġho pe
Ġmot or
oc ks
wor th
Ġdef in
i ate
em ic
Ġgrow ing
Ġmo on
Ġco oper
Ġch osen
en ger
ru it
Ġsev enth
Ġmot ion
Ġnar row
oc key
Ġscott ish
Ġtw el
g ian
Ġland s
Ġe t
Ġh ip
Ġtay lor
Ġ198 7
Ġb ac
ag n
Ġcond ition
Ġm ul
Ġinstit ute
Ġfrequ ently
Ġlab el
est ic
Ġtwel ve
Ġ198 8
Ġcomp ar
Ġr ival
u nder
Ġyou th
Ġsol o
Ġcritic ism
h ar
an o
Ġprodu cers
Ġm d
Ġur ban
h ire
clus ion
ay er
Ġent r
Ġres erv
Ġpenn s
Ġthe ater
iz es
Ġphil os
Ġc aval
Ġb ol
Ġtr a
Ġwound ed
Ġn est
Ġcom ic
Ġcre ation
Ġaccom pan
Ġv ice
Ġch or
Ġopp os
Ġin te
Ġle w
Ġnewsp aper
Ġbill ion
Ġsurround ing
Ġindepend ence
Ġdeg ree
ra el
e w
Ġcomp osition
Ġoper ated
ord in
Ġreg ister
Ġchamp ion
Ġassemb ly
Ġj ac
Ġfl at
Ġrepublic an
Ġnucle ar
Ġey es
Ġlos ing
Ġd ry
il ly
Ġchrist mas
Ġpal ace
Ġsout heast
Ġfam ous
Ġgre w
Ġs ell
w ise
Ġdre am
Ġfollow s
Ġsimp ly
Ġadd ress
Ġopp on
Ġbud get
he w
Ġinc ident
Ġand rew
Ġ5 4
Ġris k
Ġcont ained
Ġnew ly
Ġe gg
Ġkill ing
Ġvot e
Ġexpans ion
Ġnorm al
Ġa er
ur b
Ġcann ot
Ġher self
Ġend s
Ġpass es
Ġag ric
Ġjo e
Ġpro s
Ġwebs ite
m ission
Ġb c
Ġweek ly
k in
os h
Ġgood bye
Ġplan ning
ful ly
Ġindivid uals
Ġwil son
Ġt am
Ġg h
w all
Ġclass ic
j o
iv ity
Ġapp lic
uck y
Ġstra ight
i as
Ġhistor ic
Ġco ok
ot e
Ġatt rib
Ġ9 7
Ġhom es
Ġposs ibly
Ã ¨
w ater
is ters
Ġn av
al a
Ġconsec utive
Ġfres h
Ġemph as
Ġ5 6
Ġch ronic
Ġch ose
Ġcross ing
Ġvol ume
Ġwe ak
Ġye ah
Ġr ise
Ġev ac
Ġ198 6
Ġmeas ure
Ġsupport ing
ge nd
Ġcon sequ
Ġper man
Ġd ates
Ġnot e
Ġeliz abeth
Ġma x
Ġopp osed
Ġdav is
Ġalex ander
Ġstand ing
k ins
Ġroom s
ak ers
Ġgard en
ograp her
Ġsequ ence
Ġw ave
Ġn ic
Ġpo ly
Ġparticip ated
Ġagric ult
r ane
Ġsched uled
Ġthem es
Ġp ier
Ġd ub
l am
Ġar c
Ġcap acity
anc ing
Ġcolon el
Ġlead ership
Ġv on
Ġadop ted
Ġbas ket
pr ise
Ġk it
Ġmi ke
Ġe ld
Ġcust om
Ġhar ry
adel ph
Ġh air
az z
Ġsk in
Ġfam il
Ġdise ase
Ġl ady
Ġadv ant
Ġabandon ed
Ġdown town
r ong
Ġal right
ã Ĥ
Ġex tend
Ġtorped o
Ġfilm ed
Ġphil adelph
Ġpenns ylvania
av en
ro om
Ġpl ants
Ġv ac
Ġ7 6
on ic
Ã ¤
Ġvis ual
Ġdemocr atic
Ġr and
Ġbas is
im ens
il ed
ut ing
Ġneg ative
Ġt all
Ġle gend
Ġgirl s
Ġprom pt
Ġde ploy
g reg
u it
Ġsp ain
Ġcreat ing
Ġd rop
Ġapp l
Ġw ed
Ġe ag
Ġfail ure
Ġchall eng
Ġbene f
Ġgame play
Ġt ank
Ġ17 7
Ġcl in
Ġphiladelph ia
Ġregard ed
us es
Ġir ish
Ġr idge
Ġtreat y
is ers
Ġc ore
Ġb odies
Ġcan al
ian a
k o
Ġdist ingu
Ġfound ation
Ġdel iver
Ġfl u
Ġs in
Ġdid n
Ġs el
Ġl ap
Ġevery thing
Ġm ist
Ġ9 5
Ġinter change
Ġide as
Ġz one
Ġde ck
Ġmer ch
Ġext ensive
Ġparal le
g al
Ġp in
Ġret ired
Ġad vert
Ġdism iss
Ġl ind
Ġ5 3
am m
Ġp y
Ġno b
Ġtyp es
Ġo ri
ul s
t v
ro l
Ġg ate
Ġsurre nder
Ġ17 8
Ġyoun ger
Ġa id
Ġperform ing
r ich
Ġl ic
ru ct
Ġrat ings
Ġh ockey
Ġrec ently
Ġgl ass
h ol
Ġth or
Ġexpl os
Ġschol ars
Ġro les
and a
led ge
Ġlim it
Ġwor th
Ġd ial
Ġar thur
Ġpre t
Ġfr anch
Ġsou l
Ġl em
m es
Ġb ishop
Ġ193 9
Ġanalys is
Ġoper a
Ġa im
Ġsouth west
Ġb anks
Ġreg ional
Ġd rew
Ġg a
Ġp iano
Ġimpro ved
Ġrepe ated
Ġachie ved
Ġnecess ary
Ġb om
Ġn ap
Ġh ay
Ġeffect ive
Ġd ip
Ġbrief ly
v a
Ġt rou
Ġis rael
Ġsc he
Ġliver pool
Ġpurp ose
Ġturn s
i enced
Ġ6 6
Ġro of
Ġcham ber
Ġdr am
Ġf ame
Ġun su
e per
or ters
Ġsu d
Ġon line
Ġf ro
Ġhouse hold
Ġcal c
Ġdef ensive
Ġvehic les
Ġc aught
Ġgrant ed
Ġcitiz ens
Ġp ed
Ġ198 5
Ġreject ed
Ġup gr
Ġtrans form
j a
ark ed
Ġk ir
Ġorgan ized
Ġ196 8
Ġrece ive
Ġmar ine
Ġgen us
Ġkilomet res
Ġh orn
Ġh ou
Ġb le
Ġj es
Ġprov ince
Ġr hy
res p
Ġsecond ary
Ġsim ple
Ġexp anded
Ġgo es
Ġbra z
s et
Ġauthor ities
Ġc ode
Ġflood ing
Ġarr ival
Ġcommission ed
Ġch ance
Ġwh it
Ġshow ing
Ġwin s
Ġoh io
l ers
im ents
sh ire
Ġfamil ies
Ġfreed om
Ġcaval ry
Ġdiv ers
st ation
Ġacqu ired
ill a
z er
r at
Ġwe b
Ġmention ed
Ġmod er
Ġsuccessful ly
Ġpict ure
Ġag ent
f ri
Ġlet ters
Ġdeterm ined
Ġal le
Ġliter ature
stre am
ad ing
Ġun us
he t
Ġdescrib es
Ġf ought
u ate
um ber
Ġtit les
Ġk ings
Ġbr ight
ut ation
Ġtown s
Ġ5 7
Ġt enn
Ġcl ou
Ġsing ing
Ġfree way
Ġsaf ety
Ġhyd ro
Ġconv ention
Å ¡
Ġt ail
Ġ198 4
Ġ8 00
o pe
re c
ig er
Ġg ives
s p
Ġgen re
in ity
ol n
Ġsuggest s
h aps
Ġgeorg ia
ri f
Ġmic ro
Ġsupre me
Ġcommon ly
Ġcl ar
Ġ8 5
Ġcr ime
Ġper haps
ot ed
Ġcent uries
Ġsp r
Ġcont ain
Ġun ique
Ġrev ol
Ġregard ing
Ġtr ains
ific ations
Ġs ave
Ġdistrib ution
Ġ12 0
Ġk el
Ġfind s
Ġcam bridge
Ġmy th
Ġre ady
Ġloc ations
Ġf ix
Ġprote ct
Ġshoot ing
Ġcontroll ed
Ġaltern ative
Ġr on
Ġset s
Ġwithd raw
Ġfac ilities
Ġqu ite
Ġg ri
w ick
Ġmer c
t ar
Ġbro ok
e en
Ġk a
Ġmed ic
Ġprincip al
Ġvir t
Ġreact ion
Ġgr aph
om a
Ġs ie
Ġdec re
Ġkore an
Ġsele ction
Ġl is
Ġ196 7
Ġe at
Ġwrest ling
am in
Ġest ate
Ġrul es
um es
Ġwit ness
Ġruss ia
f ort
Ġr ub
Ġsub mar
Ġs ession
Ġread ing
Ġh its
bo x
Ġ Î
Ġt ag
Ġbel ong
Ġdem and
Ġm and
Ġscient ific
out s
Ġfin ish
Ġg ain
il ton
Ġex change
Ġcont aining
ou l
Ġan ne
p a
Ġaccompan ied
Ġpublic ation
Ġbr id
Ġdom estic
Ġfigh ter
Ġte ach
Ġt act
Ġnin tend
Ġs s
Ġtouch down
Ġcrow d
m outh
Ġcerem ony
Ġl inc
o ch
Ġbo ats
Ġm outh
Ġpurch ased
ab les
Ġas ia
Ġentire ly
Ġcamp us
Ġnintend o
fri end
un k
d a
Ġr um
Ġwind ows
Ġ5 8
Ġcolumb ia
ing ton
Ġconc er
Ġf ash
ag an
ing er
Ġexist ing
Ġbo ys
Ġrem ix
Ġbr and
Ġgre y
Ġprov ides
Ġfir m
Ġdedic ated
Ġleg acy
Ġsing ap
Ġje an
Ġintens ity
Ġc d
Ġcontrib uted
Ġb es
Ġbraz il
Ġprem ier
Ġcar s
Ġjew ish
Ġun s
Ġ7 4
Ġget ting
Ġbasket ball
Ġth row
Ġk en
ris ing
Ġhe at
Ġad ap
Ġp age
Ġe ighth
Ġcasual ties
bur gh
Ġo ak
Ġ198 3
Ġres emb
k es
Ġres istance
Ġbat tery
ick s
Ġa x
Ġsit es
Ġadvant age
Ġan s
Ġcare y
ul ate
Ġoccup ied
Ġmar c
Ġprodu ct
Ġ196 9
Ġlinc oln
Ġsingap ore
Ġg ib
Ġhead s
Ġhold ing
resp ond
Ġcor respond
Ġex act
Ġg ulf
os es
Ġ196 4
Ġcoast al
Ġmill er
Ġg ay
Ġl ad
Ġres our
Ġpromot ion
Ġstruct ures
Ġel imin
Ġdra wn
Ġste ve
Ġprote cted
Ġreg ions
Ġg ill
Ġs or
Ġ191 4
in y
it led
Ġcon qu
Ġdis ney
Ġclos ely
eng ers
Ġbab y
Ġh ms
r ons
Ġ5 9
Ġrece iving
e ction
Ġplay station
Ġunc le
Ġpen al
Ġopportun ity
Ġâ Ī
Ġlaw s
c ript
Ġ191 8
Ġlew is
Ġhun g
Ġturn ing
Ġ #
Ġsh all
Ġjud ge
Ġmy ster
Ġ197 1
Ġj r
Ġneigh bor
Ġ198 2
Ġcall s
Ġcons ists
Ġbri an
g n
Ġgener ation
Ġand erson
Ġcorn er
Ġroll ing
Ġ197 2
Ġ197 9
Ġrough ly
Ġgr ade
Ġprov iding
Ġ196 6
Ġact s
Ġdef ined
Ġjour ney
Ġfash ion
Ġview s
w are
Ġby z
Ġrail road
ot ic
Ġstreng t
Ġolymp ic
Ġsymb ol
Ġextre m
ver se
Ġexper ienced
Ġtas k
Ġb ull
Ġhy p
Ġband s
gar ian
Ġcorre ct
Ġrom e
oc ated
b ound
un a
Ġsur vey
Ġret ire
Ġ196 5
Ġbyz ant
Ġfoc used
Ġeng aged
Ġh ind
aw a
Ġpolit ics
Ġview ed
u a
Ġintellig ence
Ġ9 9
Ġrelig ion
r ant
if ically
Ġ6 2
man n
Ġsol id
Ġbott om
Ġgu y
Ġmount ains
Ġse mi
Ġdevelop ing
Ġ197 5
Ġ6 1
Ġm ap
Ġrel ief
Ġholly wood
Ġsh ared
Ġappe al
Ġn hl
Ġd ress
Ġtemper ature
Ġh ired
Ġrapid ly
Ġth in
Ġinvestig ation
Ġearl iest
op her
Ġto w
Ġdis app
Ġwal ter
Ġmiss ing
Ġen l
Ġs ort
Ġm ales
Ġplay off
Ġsh ut
Ġhigh light
Ġfa ith
Ã ¸
Ġcred its
Ġph ase
Ġgr am
Ġger mans
Ã¡ n
Ġlaun ch
Ġpret ty
Ġrecogn ized
Ġintrodu ction
Ġsh ape
he im
Ġ7 7
cl es
om y
Ġh art
Ġ197 4
Ġjun ior
Ġpain ting
Ġv ent
Ġg ord
Ġbelie f
Ġfall s
Ġ197 3
n ic
se e
Ġg y
if ul
Ġf olk
Ġappo int
Ġprep ared
Ġwond er
Ġis ol
Ġfranch ise
Ġdes cend
Ġw ings
ess ed
Ġsubst ant
Ġkn ew
Ġty ph
Ġcon ve
Ġglob al
Ġn az
Ġopin ion
en c
Ġ197 6
Ġser b
Ġra id
Ġsignificant ly
Ġc ens
Ġaut h
Ġl b
Ġam end
Ġinterse ction
ak a
Ġproject s
Ġappro ved
Ġliter ary
Ġadd ing
Ġinterest ed
Ġd iam
Ġcab in
Ġex erc
et ts
Ġarch ae
Ġpen ins
Ġknow ledge
Ġv ic
ren ce
Ġthan ks
Ġs ab
Ġwhe el
Ġmov ies
app ed
Ġreason s
Ġa ri
Ġcr is
w art
m od
Ġc ape
Ġconf eder
Ġar sen
Ġsh op
b l
olog ist
Ġw ard
is hes
Ġchall enge
ograp hic
Ġunsu ccess
onc Ã©
i ents
Ġ6 7
ach us
Ġmexic an
Ġmus l
Ġcry st
ock ed
Ġsat ur
em e
ast y
Ġatmosp here
Ġpl us
Ġsy d
Ġ25 0
er ted
Ġst ages
w ich
Ġev olution
Ġex pect
Ġsettle ment
Ġoper ating
Ġequ al
z en
at ures
Ġpo em
Ġesc ort
ed s
Ġstory line
l av
it an
ir a
Ġj am
un te
Ġintern al
Ġthir ty
Ġbl ues
Ġhill s
Ġren amed
Ġbey oncÃ©
Ġrep utation
Ġsc ul
Ġtri ple
ad or
Ġall ies
Ġsh aped
Ġwat ched
Ġs ed
Ġreb u
Ġinj ured
Ġpro ceed
Ġhead ed
Ġsh ore
Ġvol unte
Ġb ern
Ġnever thel
Ġemploy ed
Ġneverthel ess
at i
Ġpopular ity
Ġhum ans
Ġenjoy ed
Ġaut om
Ġne ither
Ġprofess or
Ġfavor ite
Ġl as
Ġincreasing ly
Ġpain t
hen s
Ġgu ide
Ġne ut
Ġway s
Ġhou ston
Ġfem ales
Ġra f
Ġconn ected
Ġc ited
Ġkent ucky
Ġ9 6
a ver
e v
Ġwe alth
Ġ7 2
Ġ194 6
ap pe
Ġ6 8
Ġgr av
Ġmod els
Ġdecl ined
Ġexist ence
Ġviol ence
Ġ198 1
Ġconver ted
Ġp ear
Ġscul pt
at o
ist an
Ġcolle cted
ar m
Ġent ry
Ġsw im
Ġlab our
Ġdep th
Ġmass achus
Ġlear ned
Ġsust ained
se y
ĠâĪ Ĵ
ke nd
Ġground s
t ime
Ġcontrovers y
Ġnor way
m et
in um
ell a
Ġmassachus etts
Ġs ad
Ġt orn
Ġcons um
ony m
Ġ191 7
Ġim pl
Ġvol can
Ġchampionship s
Ġcr imin
Ġo uter
ol i
Ġflight s
Ġquest ions
Ġolymp ics
Ġv el
Ġ7 8
Ġro y
Ġse ems
Ġbr on
Ġsyn t
Ġn one
Ġ8 7
Ġappl ied
ce ived
Ġcam era
h r
ist ol
if orm
Ġallow s
Ġspec ifically
Ġte acher
e k
Ġm ine
Ġinter p
Ġdin ner
Ġg ang
Ġpit ch
Ġon es
Ġocc as
av a
ap es
Ġcl ark
Ġh ang
Ġcell s
Ġbu ff
Ġdec ade
rop ri
Ġ16 0
Ġaw are
Ġentr ance
Ġappro ached
Ġeas ily
Ġcarry ing
Ġgr ay
Ġtest s
Ġdiscover y
Ġg ree
Ġr aw
Ġj ay
os is
Ġconf ron
Ġdesign s
Ġte en
Ġdown lo
Ġrespond ed
Ġdo or
Ġit ems
Ġh ug
Ġtechn ical
Ġf oss
Ġev il
Ġs ons
Ġ194 8
im a
Ġt s
r as
Ġin du
Ġ7 00
Ġac res
Ġchair man
ps ons
Ġbur ied
Ġdut y
Ġbus h
er al
Ġext ension
Ġsal t
Ġn as
Ġ6 9
Ġgrad ually
Ġconv oy
bre ak
i pe
Ġsuc ceeded
Ġg one
Ġ6 3
Ġse ctions
ain e
Ġmay or
Ġast ron
Ä ģ
em an
Ġoff ers
ign ment
Ġh ull
Ġprogram s
Ġbreed ing
Ġmun icip
iss ance
Ġinst all
Ġm ode
Ġle v
Ġpri ze
Ġsim psons
Ġwin ner
Ġ9 4
Ġstre t
Ġex clus
t ical
re ll
Ġpur s
Ġsa x
Ġ197 8
Å Ĥ
ant ly
Ġpo ol
Ġprison ers
Ġarrang ed
Ġdiam ond
1 5
Ġ7 3
Ġmag ic
Ġsimilar ly
Ġcred ited
ak ed
Ġanim ated
Ġviet nam
it ors
Ġse attle
Ġros s
Ġbe ar
Ġass ist
Ġprodu cing
Ġstat ement
Ġweaken ed
Ġad am
Ġb ath
Ġimpro ve
Ġmary land
Ġaddition ally
Ġdepart ure
Ġpart ies
Ġk at
ans as
Ġrom antic
Ġland fall
w a
Ġpl ac
Ġdiv isions
Ġwar ning
Ġr ural
Ġcandid ate
p ut
Ġpresident ial
Ġro utes
Ġcomb ination
Ġthreat ened
Ġengine er
Ġfield s
re l
Ġ191 5
Ġin ner
og en
s s
Ġal ien
Ġmo ore
Ġk im
ok es
Ġret ained
Ġbas ic
ent ions
r ations
Ġpurch ase
Ġott oman
Ġsh a
ol es
Ġsyd ney
Ġ9 8
Ġpol and
Ġ197 7
Ġprodu cts
Ġinst ru
Ġlast ed
Ġc ow
n ow
Ġdr ink
iv ered
Ġinter ior
Ġbr ain
Ġrepl ace
Ġchem ical
Ġm tv
el ess
on ia
Ġsus p
Ġsuppl ies
Ġadap ted
Ġo t
c ks
al y
ath an
Ġsurv iv
cher s
Ġdel ivered
Ġfr ag
Ġinte gr
Ġafter wards
Ġcle an
Ġinsp ir
Ġk ur
Ġspe aking
Ġpenins ula
m ath
Ġc ul
Ġeng ines
Ġfill ed
Ġent itled
Ġ196 3
Ġmaint ain
Ġmess age
re ts
ct ors
Ġag ency
Ġcr ash
Ġc u
Ġstop ped
Ġwee kend
Ġt icket
al i
Ġrh odes
Ġequ ival
Ġre ne
Ġaff airs
Ġperman ent
Ġreturn s
Ġarsen al
Ġsc ar
Ġ191 6
Ġextrem ely
Ġsupp orters
Ġindic ated
Ġso le
Ġclim ate
Ġarchitect ure
Ġw ides
iz ations
Ġsh r
Ġc ad
Ġdru g
Ġf ruit
Ġengine ering
Ġdec or
Ġaff ect
m un
Ġdeath s
Ġcaus es
Ġrem ember
us hing
Ġgre g
Ġphil ipp
Ġc hes
Ġp ad
Ġsec ure
Ġcop y
Ġpropos al
bo ok
ant e
Ġsome one
Ġsw it
Ġimport ance
Ġgord on
Ġ8 9
le e
Ġr ivers
rop ol
Ġstre ets
Ġstart s
Ġform al
Ġmul der
Ġpl ate
Ġal f
Ġclass ical
Ġp ig
Ġj ur
Ġman s
Ġhapp y
le ton
ot hes
Ġde leg
Ġ8 2
Ġsp ons
Ġspe ak
Ġhar v
Ġkn ots
Ġphil ip
Ġtyph oon
Ġt el
em ies
Ġchap ter
Ġcompos er
Ġac id
Ġb os
Ġ196 2
Ġ191 9
Ġimp lement
ak i
Ġn a
Ġconv in
Ġcons c
ino is
Ġt anks
Ġgi ant
ivers ary
Ġswe et
Ġafter math
Ġsurv ived
Ġsatur day
Ġth under
pect ive
Ġl l
Ġr ab
Ġir a
Ġb ure
Ġm es
it t
Ġma h
Ġrefer ences
Ġexc ell
Ġk o
Ġdescrib ing
Ġwrit es
Ġcomp on
Ġt ub
Ġpr int
Ġfeel ing
r ig
Ġb ought
Ġcol our
bour ne
Ġ8 8
Ġho ly
Ġf ict
Ġim ages
Ġtyp ical
Ġconcern s
Ġclass ification
Ġj ane
Ġsong writ
Ġa ck
Ġv ul
Ġrul ed
el a
Ġ193 8
Ġmed ie
Ġfl o
Ġent ering
ack s
Ġmar s
Ġag o
Ġarm or
Ġenvironment al
m us
Ġt ony
Ġn ba
Ġs ale
Ġstud ied
Ġunivers e
Ġarrest ed
Ġwar m
Ġret reat
Ġdecl ine
Ġportray ed
Ġb ang
Ġafter n
Ġown er
ent ially
r us
Ġa z
Ġcru iser
Ġpre ced
Ġdr iving
Ġvot ed
ar ian
Ġlo yal
Ġredu ce
Ġal an
Ġact ual
Ġele ven
Ġrec alled
Ġcorpor ation
Ġrecommend ed
Ġk ong
Ġfin als
ad ow
Ġnomin ation
Ġsie ge
Ġd iet
Ġa k
Ġprin cess
Ġb ry
Ġall iance
Ġcap able
Ġident ity
Ġmedie val
Ġcolon ial
Ġconcern ed
Ġequip ped
Ġp av
c op
Ġacad emic
Ġcour ts
Ġhun ting
Ġadult s
st op
Ġj ord
Ġadvent ure
ly ing
Ġn el
Ġme ters
Ġ13 0
Ġobject s
Ġob l
Ġliber al
Ġrecogn ition
Ġs essions
Ġconne ction
Ġk er
Ġsuff icient
j i
Ġb ou
Ġthous ands
Ġmar g
Ġad ams
vel and
Ġcam er
Ġbre aking
Ġfund s
rane an
Ġt u
Ġ7 9
Ġserv es
Ġ eric
Ġpass age
Ġhistor ians
Ġnot ing
Ġdec ades
Ġann iversary
Ġ195 6
Ġdeb ate
Ġunder t
Ġair lines
Ġl am
Ġconsist ing
Ġcross ed
Ġch ain
ok ed
Ġestablish ment
h us
Ġdet ect
Ġs ight
Ġad mitted
in al
ell er
Ġg am
Ġsim on
at he
Ġprogram me
u ct
Ġp ound
Ġunivers al
Ġdip l
Ġcol ony
Ġinv ited
Ġbeaut iful
Ġdou gl
Ġmar ia
Ġinst alled
Ġcle veland
Ġtr uth
Ġconsider able
o ir
Ġt ickets
Ġaftern oon
reg on
Ġmon ument
Ġsequ el
Ġ193 6
Ġanim ation
Ġve ter
Ġham ilton
i ques
Ġo regon
Ġen emies
Ġsty les
ing ly
Ġam az
Ġchar ged
Ġindian a
Ġry an
u an
ont o
Ġimpro v
Ġdut ies
Ġb ot
Ġ8 4
pre ad
el and
Ġqu ant
Ġremain der
Ġj ump
Ġman ner
Ġparalle l
Ġp ure
Ġut c
he as
Ġpict ures
e b
Ġal leg
Ġass istance
Ġcommun ist
Ġshar p
Ġsh ield
Ġnegot i
Ġwides pread
Ġde an
Ġclass es
il ation
il ing
Ġpass engers
Ġpromot e
Ġcat ch
Ġc os
Ġnet her
Ġsee ing
Ġconserv ative
Ġslow ly
Ġb id
Ġind ones
Ġbehav ior
Ġl un
Ġ196 1
osaur us
Ġth ro
Ġmo le
Ġhe rit
Ġcontinu ing
Ġbu y
Ġp ir
Ġhow ard
Ġaspect s
Ġkenn edy
Ġoccasion ally
Ġac claim
Ġtrans ition
Ġelect ronic
Ġneed s
Ġrhy th
Ġresour ces
Ġgr ass
Ġw we
Ġdest ruction
Ġ195 3
Ġtur k
Ġr ide
Ġarg ent
Ġwear ing
Ġtransport ation
Ġorchest ra
Ġpost ed
Ġhit ler
Ġemerg ency
Ġve get
Ġr ug
Ġsuper ior
Ġdisapp o
Ġle on
Ġnor we
Ġtre as
Ġs anta
Ġsc out
Ġcred it
Ġsle ep
u ous
c on
Ġsen ator
ion e
Ġcar bon
Ġoccur s
Ġvess els
Ġacc ur
Ġatt ached
Ġcost s
Ġt ied
as hed
Ġmem ory
Ġc ant
Ġd ated
Ġcert ified
Ġinc ome
Ġpop ulations
Ġsc ully
Ġf isher
Ġanc est
i ro
ic ide
Ġwar ri
Ġ194 7
Ġ11 0
Ġ8 6
be y
b ar
c ul
Ġchor us
r ad
Ġport ug
Ġproper ties
aw are
Ġdem ol
Ġapp rec
Ġr ig
Ġp ink
Ġsh ots
Ġmat hem
Ġ195 8
Ġ191 0
Ġconserv ation
Ġnin th
Ġequival ent
Ġinvol ving
Ġold est
iv als
Ġchap el
o ard
Ġe u
Ġ9 1
Ġherit age
op hy
af ter
Ġcirc um
Ġtor onto
Ġtermin us
u ing
Ġack now
p ir
Ġ195 7
Ġple as
Ġpri est
Ġtun nel
Ġexp and
Ġph ill
Ġ193 7
Ġsett led
Ġresc ue
Ġill inois
Ġfin ishing
Ġpo pe
Ġdyn asty
Ġobt ained
Ġl enn
Ġbomb ard
Ġauth ors
Ġke vin
Ġjun ction
Ġbeat les
ic it
Ġwor st
Ġsw ord
Ġmed iter
Ġcol umn
Ġacc used
Ġchar ges
Ġp ull
az a
o oth
Ġsupp osed
Ġreview ers
Ġder ived
Ġjord an
Ġ7 1
ag ues
Ġbring ing
Ġand y
Ġincorpor ated
Ġsaf e
Ġlist en
Ġcris is
Ġdougl as
Ġcirc uit
Ġmediter ranean
Ġcommit ted
Ġreplac ement
Ġnav ig
r an
Ġmiss ions
Ġmov es
Ġpred e
et ime
Ġhost ed
heas tern
Ġcho ose
Ġun p
Ġpre y
Ġbel t
Ġseg ment
w an
w estern
Ġ <
Ġd or
Ġreb ell
Ġaud io
Ġvehic le
Ġunus ual
Ġshe ar
are t
Ġcirc le
Ġstan ley
in ary
Ġass umed
Ġ195 9
Ġclub s
Ġden ied
Ġm ol
Ġbru ce
Ġaccom mod
Ġinterp ret
ĠâĢ Ŀ
Ġrec re
Ġcirc ulation
Ġb ah
el ine
Ġrepresent atives
Ġout standing
Ġstrong ly
Ġd ens
Ġro ger
Ġfict ional
Ġmusic ians
Ġw et
Ġcon te
Ġnorwe gian
Ġcommand ed
agon ist
Ġcat hed
ic ian
ĠâĢ ľ
Ġdiffer ences
su it
Ġbeg un
Ġdocument ary
Ġinter cept
Ġ9 3
Ġdep ut
Ġcomplet ion
Ġsurv iving
Ġor ange
Ġpers u
Ġg ust
Ġbr istol
Ġ195 4
Ġreal ity
Ġcharacter istics
Ġ195 5
Ġhor ror
Ġmaterial s
Ġexcept ion
b ell
Ġde em
Ġevery one
Ġr if
Ġmon arch
Ġl anc
Ġcons ult
Ġposs ibility
Ġatt or
Ġsol ar
Ġis bn
Ġalle ged
wor ks
Ġw ickets
Ġpass enger
Ġmethod s
Ġv ision
Ġs ailed
Ġfor d
Ġ8 1
Ġgen e
Ġrespons ibility
st ate
Ġ9 2
bor ne
Ġlis a
Ġh az
Ġrec onst
e z
Ġpra ise
at us
Ġ17 5
id den
ag er
Ġdr iven
am i
Ġcan cer
Ġag gress
uc ks
Ġmiss ed
Ġton ight
Ġoppos ite
le ts
Ġdr agon
Ġw rong
Ġer u
Ġcar rier
Ġsche me
Ġrepresent ative
Ġint ention
Ġdes ire
Ġkore a
ch ar
Ġother wise
che n
Ġv ary
Ġmass ive
Ġhabit at
n o
Ġs oph
Ġn ich
we ight
Ġn ice
Ġv oy
Ġthere after
Ġpl ane
b urn
Ġd od
Ġtw in
Ġrecover ed
Ġco ff
ĠÃ Ĺ
Ġthr one
Ġfund ing
or gan
al f
Ġplat inum
Ġstrateg y
erg ed
Ġs ke
Ġattrib uted
Ġrein force
it able
Ġsh if
Ġretire ment
Ġpun k
Ġweap on
Ġdis appe
Ġstay ed
Ġmob ile
f ast
Ġj azz
ok ing
Ġmor ris
Ġemerg ed
Ġlook s
Ġclass ified
Ġmor gan
Ġnorm an
Ġrob inson
Ġ ille
Ġeffect ively
Ġcommun ities
Ġhaw ai
Ġh ud
Ġab oard
Ġ195 2
Ġc ock
Ġl ies
Ġmin istry
Ġout break
Ġtown ship
Ġc eme
Ġo m
Ġin se
els h
com ing
Ġfall ing
Ġnel son
Ġcross es
Ġregular ly
Ġbatt ing
Ġj enn
Ġch a
Ġdiss ip
Ġto ll
Ġacc ounts
Ġunder ground
Ġele ctions
Ġpart n
Ġme ets
Ġpremi ere
Ġw y
Ġsat is
Ġan ton
Ġ193 3
ri ers
Ġb ag
Ġstrengt hen
Ġinspir ation
it o
Ġne ck
Ġsubmar ine
Ġattract ed
Ġfact or
Ġcrimin al
Ġc rop
Ġst ood
ut s
Ġtri als
Ġcl a
Ġpar ks
Ġly n
Ġform ing
ism s
ens es
pp ing
Ġ17 6
Ġmoder ate
im ate
Ġr aces
Ġinj uries
os lav
Ġm ck
Ġang le
Ġrac ing
Ġall en
Ġra ise
Ġl ith
an th
iam i
ret t
Ġdes ert
Ġmov ements
Ġcomm em
Ġpat rick
Ġimm ig
Ġrene w
Ġadv is
Ġs id
so le
Ġhar m
Ġvot es
Ġbattleship s
Ġg ets
Ġrec ru
Ġsepar ated
Ġarr iving
Ġal co
ab led
Ġrequest ed
Ġ193 5
Ġarr ive
Ġque ens
Ġat om
Ġrel ative
Ġcondu ct
Ġsud den
Ġswed en
Ġfac ility
Ġegg s
Ġany one
Ġp ale
Ġstand ards
Ġsh ark
Ġgar rison
Ġmatt hew
b ing
Ġn om
ick en
Ġprede cess
Ġ194 9
Ġphot ograph
Ġw elsh
Ġear n
Ġpubl isher
Ġsym ph
Ġeas y
Ġpart ner
Ġ195 1
Ġm iami
Ġrest ored
Ġtem porary
Ġa h
Ġintern et
n ight
Ġk iss
Ġrem n
Ġsurround ed
Ġe ch
Ġfl ank
Ġmet ropol
Ġdifficult y
a ug
Ġor b
Ġdistingu ished
Ġseem ed
Ġport s
Ġdelay ed
Ġcur t
Ġhe m
te enth
Ġg or
Ġus s
wh at
Ġeld er
Ġal i
Ġdep ict
Ġfr ame
Ġelse where
Ġnether lands
b ody
Ġbrid ges
Ġp el
Ġbat man
Ġmur d
Ã³ n
Ġsh ir
oy d
Ġbyzant ine
g ets
Ġbig gest
Ġhop ed
il a
Ġchild hood
Ġconvin ced
Ġh in
Ġclaim ing
Ġdang erous
re al
Ġjac ob
og y
Ġw olf
Ġy an
Ġreview er
Ġpenal ty
Ġconve ction
Ġag es
Ġpat ri
Ġcathed ral
Ġgreat ly
Ġstand s
Ġexam ples
ro it
Ġr ud
Ġtemper atures
4 0
Ġira q
ert o
Ġ ere
Ġass ass
Ġdr ag
Ġruss ell
or al
Ġloc k
Ġ ip
Ġjew s
Ġapp ropri
Ġpubl ishing
Ġpain ted
Ġcy cle
Ġgi ants
y ard
Ġd ick
Ġinvol vement
ile y
Ġaccom pl
Ġw right
Ġsat ell
Ġlear n
Ġunder stand
Ġwood en
Ġ19 00
Ġl od
Ġadapt ation
Ġtri es
Ġsum m
Ġstri p
Ġbe ars
o z
Ġr it
Ġber lin
Ġf u
Ġsp oke
Ġhundred s
t im
Ġar n
p son
Ġsal v
Ġimmedi ate
Ġco in
Ġrecord ings
ab il
Ġfl ed
se a
Ġle af
ber ts
Ġd ating
im et
w ar
Ġclos er
Ġpar ish
Ġtechn iques
Ġlear ning
Ġk l
Ġsome what
Â ł
Ġn fl
Ġencour aged
Ġbure au
re es
Ġappear ing
go ing
ut her
Ġbar r
Ġthous and
' t
ag u
Ġdeterm ine
Ġsynt hes
re ck
om ot
Ġch ur
Ġdis pl
Ġup d
Ġsuff ering
Ġarm en
b ro
Ġmeas ures
Ġbu ck
Ġpu erto
Ġkel ly
Ġdyn am
Ġpro hib
Ġins ur
Ġcolor ado
i at
Ġwind ow
Ġthom pson
Ġpoet ry
Ġcroat ian
Ġgraph ics
Ġus a
as ka
ag ement
Ġfigh ters
Ġt an
Ġlegisl ation
Ġh ub
Ġhe nd
Ġind ians
Ġwhere as
Ġjournal ist
Ġdet roit
Ġfl ash
Ġinterest s
Ġnick n
Ġdismiss ed
Ġp ak
al o
Ġjo y
Ġfac ing
Ġens ure
Ġcreat ive
Ġopt ions
Ġis lam
Ġw es
Ġmar gin
Ġa u
form ula
Ġhold s
iv a
Ġcar ter
Ġattempt ing
Ġabs or
b ra
Ġa y
Ġ0 6
Ġfit ted
Ġfred er
Ġg ent
Ġstar red
i ant
Ġdr iver
Ġtro phy
Ġcommon we
Ġt ip
Ġcon clusion
Ġs ant
Ġattack ing
Ġdep os
Ġby pass
Ġsc rap
Ġl ion
el d
Ġformer ly
Ġdoes n
Ġextre me
Ġspe ars
Ġout d
Ġvis ible
app ing
Ġcommonwe alth
Ã ±
Ġg ather
itz er
Ġabs ence
enc ies
Ġb ats
igh ter
Ġmet e
Ġinflu ences
Ġwatch ing
Ġhun garian
o en
Ġprodu ctions
u v
Ġn iel
Ġmod ified
Ġhar bor
Ġinstr uments
Ġlead s
Ġpark er
Ġland ed
Ġmain stream
Ġpro sec
ill er
Ġmed ium
Ġcl oth
Ġrep rodu
Ġrele ases
Ġdeem ed
Ġhon our
Ġ191 3
Ġapparent ly
Ġdipl om
Ġhar ris
Ġland sc
Ġcontrovers ial
Ġpremi ered
Ġover se
Ġlong est
Ġz ero
Ġbron ze
Ġst or
Ġsc and
Ġmur ray
Ġo ption
Ġlabor atory
Ġnov els
Ġfri ed
Ġnar rative
ill ed
Ġj ason
á »
Ġ192 7
Ġrhyth m
v is
Ġterrit ories
Ġdistrib uted
Ġ8 3
Ġ192 6
Ġgall ery
Ġal ph
Ġla ure
re te
Ġloc omot
Ġoper ate
Ġre un
Ġfil es
Ġtr ained
Ġrest oration
Ġvict ims
Ġthink ing
Ġarrang ement
iv an
Ġattor ney
Ġfriend ly
Ġc ov
ame ter
Ġdisc ip
Ġprefer red
ch ang
Ġbal tim
han na
Ġse es
Ġd ies
Ġacknow led
ay a
Ġ193 4
Ġvisit ors
st ar
Ġvide os
Ġ192 1
Ġbaltim ore
Ġun iform
Ġcar ib
Ġclou d
Ġw ol
Ġw ag
Ġm amm
Ġoff ering
Ġli qu
Ġref uge
Ġd na
se x
Ġunsuccess ful
Ġleg s
Ġsubst it
Ġconc ur
ili ar
Ġ9 00
Ġinflu ential
Ġex it
Ġown ers
Ġbelie ves
Ġrepresent ing
Ġâ Ĥ
Ġk w
Ġex cess
Ġlook ed
Ġres olution
aw s
ix on
t z
Ġdep icted
Ġh ut
ent ional
ig g
Ġco ins
ow a
Ġbas in
Ġmin i
Ġdomin ated
Ġguard ian
Ġ0 8
d d
Ä į
ost er
Ġgal ax
ap ers
Ġsec ured
ill ing
Ġra af
Ġchur ches
Ġt ie
ic i
el er
Ġcom ics
Ġhe aring
Ġfin n
Ġ191 2
Ġy ug
Ġnot ably
Ġimp oss
Ġinform ed
Ġh u
Ġdev ice
Ġexp os
Ġter ror
Ġcast ing
t ure
p any
ag re
v ens
us ing
Ġro berts
in er
Ġas ian
Ġk u
Ġoffic es
Ġmete or
Ġdie go
ol ph
Ġt one
Ġlangu ages
Ġceme tery
ac ent
Ġswed ish
Ġdeploy ed
Ġsk ills
Ġrelationship s
Ġsimp son
Ġ193 2
Ġhous ing
Ġmin nes
Ġlow est
Ġbehav i
ult ane
Ġneigh bour
Ġsim ultane
Ġrese ar
Ġcl ay
Ġlo b
ious ly
Ġoppon ents
e enth
l i
Ġtest ing
f are
Ġanth ony
Ġcabin et
n i
be an
Ġwar ner
Ġcontin ental
Ġdi agn
Ġs ang
Ġdrum s
Ġemot ional
Ġpre gn
Ġdet ail
Ġachie ve
Ġhapp ened
Ġexcell ent
Ġmom ents
Ġb un
ap se
Ġab d
Ġint ense
Ġfoot age
Ġoper ational
Ġl iz
Ġimp ressed
Ġinc om
Ġgener ated
Ġag ents
Ġg aga
Ġ0 9
ruct ure
Ġd j
Ġfact ors
Ġreported ly
Ġmain ten
Ġdiffer ence
Ġb h
Ġdial ogue
Ġdownlo ad
Ġexper iences
Ġb apt
ct ic
art s
Ġform at
tern al
Ġmainten ance
Ġre nder
ter ing
r um
Ġn bc
Ġcommem or
s a
Ġl ose
Ġyug oslav
Ġf ishing
Ġm ud
Ġsuccess or
Ġabs ol
Ġagricult ural
ain ts
Ġfir ing
m at
Ġtre k
Ġemploy ees
Ġdescrib e
Ġgood s
Ġsom ers
Ġab bey
ic ial
Ġr ising
Ġbel g
ac he
Ġrevolution ary
Ġscient ists
f ire
t w
ud es
oty pe
Ġra j
Ġexp ensive
Ġar k
Ġte eth
Ġcroat ia
Ġdefend ed
m ate
or a
Ġse as
Ġnegoti ations
Ġ192 9
Ġp ic
Ġperson ality
Ġst em
Ġ14 0
ann y
Ġexec uted
Ġcolle ct
ont in
Ġnorm ally
Ġgil bert
Ġs ic
Ġc her
Ġc od
Ġdiscuss ed
Ġ191 1
Ġh uge
Ġrec ur
c i
f e
Ġfe ud
Ġport ra
Ġb reat
Ġturk ish
Ġtre ated
Ġtrib ute
Ġinter state
Ġt enth
st ic
ig en
Ġent ers
r im
ot es
Ġste wart
ar f
Ġme at
Ġrad ar
Ġsym pt
Ġclin ton
Ġneighbor hood
Ġ192 2
Ġdraw ing
Ġresident ial
Ġjes us
Ġport land
Ġres ign
Ġag ed
Ġ193 1
Ġev ans
i h
o is
ach ment
Ġaccom pany
Ġvess el
Ġpart ly
Ġarr ives
Ġmel bourne
Ġstorm s
Ġminnes ota
Ġfle w
ol is
Ġres igned
Ġbo il
Ġfound er
Ġdirect ors
Ġlo op
Ġdesign er
Ġinn ov
Ġeth nic
Ġb oss
Ġmet ro
Ġadv oc
Ġdet ailed
Ġyan ke
Ġinh abit
Ġtorn ado
Ġut il
Ġupgr aded
Ġbud d
Ġorigin s
Ġr ick
Ġform ally
Ġexp osed
Ġniel sen
Ġpo inted
Ġsy nd
Ġpartn ership
Ġmathem at
ly n
Ġreve als
Ġkeep ing
Ġtechn ique
Ġmilit ia
Ġwalk ing
Ġtim ber
Ġprevent ed
p et
Ġs isters
Ġp ushed
Ġfor b
Ġdist urb
Ġgl ac
Ġx box
Ġst able
Ġtem por
Ġdepart ed
Ġsar ah
Ġm ail
Ġman h
le v
Ġinterest ing
Ġinstit ution
s k
Ġp hen
Ġannoun ce
Ġisol ated
Ġn ash
or ous
Ġorgan izations
Ġsm ooth
Ġox y
Ġwed ding
Ġmarsh all
Ġmusl im
Ġfor ty
Ġfact ory
Ġmiss ou
Ġsubstant ial
l ie
Ġhand ed
Ġgh ost
Ġsign s
Ġh ans
Ġlink ed
d ie
Ġm ack
Ġsam uel
Ġanal y
Ġlenn on
ver e
Ġimp rison
Ġme g
Ġimposs ible
Ġent hus
ro se
Ġearth qu
Ġdram atic
Ġcomp lic
Ġrank ing
Ġapp le
m ad
Ġaust ria
Ġinstrument al
Ġb enn
Ġher ald
Ġco vers
Ġsw ift
Ġd ave
Ġsus pend
Ġcarib bean
Ġf ab
ust ed
ind er
Ġgree ce
Ġfif teen
Ġp ione
Ġex isted
Ġav o
Ġfrequ ent
Ġass ess
r ating
olog ists
Ġperiod s
Ġpro ced
Ġpat rol
Ġsh ock
Ġext ent
Ġmor al
Ġ17 0
Ġcat al
Ġsym p
Ġparticip ate
Ġsched ule
Ġsee king
Ġoccup ation
Ġconcer ts
rom e
Ġlo ad
Ġsk i
Ġinst ance
Ġin her
Ġtr u
Ġph one
Ġgr ace
Ġant icip
Ġhun t
b oy
r m
ull ivan
Ġinit i
Ġd ir
Ġarm ament
Ġhel ic
Ġmal ays
Ġcru isers
Ġschol ar
Ġa qu
Ġare na
Ġdeput y
Ġspec imens
Ġtur b
Ġt aught
Ġimp ress
Ġsee k
Ġ ern
Ġver se
Ġspend ing
mus ic
Ġw ine
Ġse m
Ġfin ale
Ġm ys
Ġal ab
Ġse ats
Ġmetropol itan
Ġman us
Ġjo ining
Ġg ates
Ġrare ly
2 5
Ġrep air
Ġcreat or
Ġamend ment
ar n
Ġg ab
Ġnewsp apers
Ġd c
Ġpick ed
Ġc ous
Ġk ansas
Ġminim um
in als
Ġtre nd
Ġmult i
g ate
Ġch ase
Ġpo ison
Ġfreder ick
Ġobs er
Ġdi ameter
Ġwithd rew
Ġn ag
Ġst ro
Ġr ates
Ġrel ie
Ġp ip
Ġprec ip
Ġdiv or
co pe
Ġdeg rees
Ġsk ull
Ġ192 8
Ġunc ertain
Ġan na
Ġexhib ition
Ġencoun tered
Ġsu icide
Ġchang ing
Ġgard ens
Ġtrail er
id ae
Ġp ounds
Ġmiss iss
Ġan ch
Ġch anc
Ġper mission
ob i
Ġmar io
Ġref ere
Ġdifficult ies
Ġle ct
Ġag ree
um in
s ki
Ġsomers et
ic ians
Ġ192 5
Ġcoll aps
Ġdis aster
Ġpolic ies
Ġin qu
Ġrest rict
c ol
bor ough
Ġlegisl ature
Ġin aug
Ġpart ially
at ch
Ġse ed
Ġover s
Ġ189 0
Ġsh akes
Ġpil ots
Ġlo an
che ll
Ġadj acent
Ġhelp ing
Ġadv ice
Ġmerch ant
Ġr av
Ġtur rets
Ġr ice
Ġcap it
ar ia
Ġpl ain
Ġbomb ers
an ium
ĠÃ ¦
Ġathlet ic
Ġs ank
Ġang lo
Ġfeder ation
Ġcharl ie
Ġfr an
Ġw aves
Ġsold ier
ol as
Ġpre f
Ġstre am
Ġplayoff s
Ġp iz
Ġm all
Ġrest ric
Ġaff air
ames e
Ġtravel ed
Ġg ap
Ġk al
Ġcom ments
Ġse ctor
att an
Ġref ers
Ġ192 4
Ġrebell ion
Ġd al
Ġmin es
f r
Ġeag le
Ġbenef it
Ġtenn es
es is
Ġalab ama
Ġbr un
Ġexpl o
Ġsp a
Ã© e
Ġatl anta
Ġphilos ophy
Ġmar ry
Ġj et
Ġi owa
Ġpro port
asc ar
Ġwa it
Ġm ood
Ġmunicip al
Ġwor ship
Ġ0 7
Ġlaw rence
Ġpit ched
at ically
t i
Ġsur prise
Ġdepend ing
Ġso il
Ġcritic ised
Ġs i
Ġbas es
Ġstrugg le
i ot
Ġp ine
Ġco ordin
Ġnap ole
Ġmin t
Ġph r
Ġaustral ians
Ġcompet e
Ġfif ty
Ġdestroy ers
Ġdoll ars
Ġprompt ed
ger y
Ġrem ove
Ġd anc
Ġparen t
Ġneut ral
st ers
Ġdoll ar
Ġp c
us al
Ġmedic ine
ust er
Ġover l
Ġsatell ite
Ġwh il
Ġindic ate
g i
Ġinde ed
in ction
Ġbl ow
Ġhelic op
p ower
ore n
Ġstr ing
Ġcoll apse
Ġwalk er
Ġ ion
Ġgro wn
Ġv s
Ġcommunic ation
Ġsurviv ors
p ie
Ġmanus cript
Ġfr iday
Ġspirit ual
Ġfor cing
Ġ ul
m ont
Ġbro s
Ġdesign ation
Ġhal o
Ġprefer ences
Ġarm ored
Ġenter prise
Ġ192 3
Ġtennes see
um an
Ġhe y
Ġpow ered
im b
Ġcollabor ation
Ġw reck
un es
Ġsc at
ik a
Ġteach ing
Ġpaint ings
Ġwhil st
Ġmon ster
Ġchrist opher
Ġelect ron
Ġconfir m
is d
Ġi an
g as
n ings
le ans
Ġj en
Ġcover ing
Ġprot agonist
Ġc iting
Ġk han
ok en
Ġman e
Ġval ues
Ġposs ession
Ġy or
Ġappoint ment
en h
Ġmarket ing
Ġbr anc
Ġalco hol
Ġbr ill
Ġrestaur ants
Ġhar bour
Ġround s
Ġf el
Ġd im
Ġnaz i
Ġben j
Ġappro val
Ġprov inc
m ates
Ġcandid ates
r ates
Ġtrav elled
cept ion
Ġrec onna
Ġform ula
Ġlist ing
Ġbal ance
Ġr ib
Ġunder standing
Ġal ive
Ġfort ress
Ġcryst al
Ġoxy gen
Ġor bit
Ġab b
Ġpo ems
Ġhung ary
Ġbelg ium
Ġor leans
Ġdisp ute
Ġalf red
f ted
Ġw ake
Ġbow ling
Ġp ant
Ġcom fort
Ġvict ories
Ġd ancing
Ġhol iday
ph one
ime ter
Ġcy l
Ġsit uated
n ie
Ġclos ing
Ġviol ent
Ġminim al
an na
Ġdisplay ed
Ġph oen
Ġsug ar
Ġsurv ive
Ġbattal ions
Ġh amp
Ġvill ages
l an
Ġartic les
Ġli ked
Ġpo le
Ġreconna issance
Ġc ot
Ġd ock
Ġser ial
Ġn am
Ġrug by
Ġdel ta
Ġlegisl ative
Ġpro l
Ġfem in
es ome
Ġchar ter
Ġass isted
Ġtell ing
Ġj ar
Ġshakes pe
Ġcar go
Ġfun eral
Ġmus h
Ġpublic ations
Ġamong st
Ġforest s
Ġs ink
Ġinter pre
Ġsoft ware
Ġgu il
Ġtom b
Ġsympt oms
Ġmar ks
Ġcolon ies
Ġsub t
Ġelimin ated
Ġres idence
Ġact ed
od ore
Ġas ks
op es
Ġrid ers
Ġco le
Ġ0 5
Ġtrou ble
Ġbenj amin
Ġdis l
Ġpurp oses
Ġmissou ri
Ġmississ ipp
Ġ *
vel t
Ġmic hel
Ġadminist rative
ã ģ
m o
Ġ190 8
Ġmanh attan
Ġh ong
Ġviet n
Ġbl ind
Ġm ason
Ġdr ivers
Ġin g
Ġvietn amese
Ġro ose
Ġ190 5
Ġcircum st
Ġfat al
Ġrep airs
Ġsim pl
Ġoccas ions
es h
Ġcomp ilation
Ġ190 9
Ġconc rete
Ġro ut
Ġcinem a
Ġn ad
ort ed
Ġche ap
Ġste vens
Ġstat ue
Ġmont real
Ġm ental
Ġquarter back
Ġin land
r ac
Ġair line
Ã §
Ġbreak fast
Ġdog s
Ġs ick
Ġcann on
Ġl ists
Ġwill ing
Ġcr us
Ġwa iting
Ġattend ance
rupt ed
Ġhor iz
Ġprepar ation
Ġas k
Ġan ime
Ġpres erved
Ġfrank lin
Ġpublic ly
Ġtravel ing
Ġbusiness es
Ġgram my
Ġt ang
Ġcon sole
Ġab ilities
Ġas king
Ġpr on
Ġb our
Ġr amp
e ing
Ġel abor
Ġill ness
n g
Ġvo iced
ag en
Ġorgan isation
Ġcommunic ations
Ġwid er
ok er
Ġdefe ating
j an
Ġj os
Ġwood s
Ġoppon ent
Ġhighway s
Ġlouis iana
Ġarg ument
for ced
ograph ical
ather ine
Ġroose velt
Ġto uring
Ġunder st
Ġpr ices
Ġsign al
Ġam mun
d in
Ġch and
Ġres umed
Ġt ast
Ġfam iliar
Ġ190 7
ud a
ac le
iv ated
Ġbelie ving
Ġbeaut y
Ġpre l
Ġcompet ed
Ġd all
Ġsur ge
Ġintens ified
Ġb illy
Ġcrew s
Ġatom ic
Ġammun ition
Ġal ignment
Ġus ual
Ġpe ters
Ġaust in
Ġexc av
Ġsuit able
Ġarch b
Ġfall en
Ġr ush
i able
Ġfriend ship
4 5
Ġass ists
oun ced
Ġback ing
Ġcount ies
Ġair borne
Ġcamp bell
Ġam ate
Ġdoc uments
Ġsubject s
Ġstrateg ic
Ġus d
ish ment
Ġsp ar
Ġste ven
Ġsign ing
Ġn it
Ġs ib
Ġst u
Ġdel iber
Ġmississipp i
or ph
Ġdoub t
Ġaud iences
Ġgen etic
Ġaltern ate
Ġcerem on
Ġluc as
Ġphilipp ines
Ġst ick
Ġbi ographer
Ġc oc
Ġno ble
Ġ188 0
Ġfeel ings
Ġqu iet
Ġengine ers
ul ating
Ġari z
Ġpercent age
ens ions
Ġc ass
Ġwar ren
Ġab ol
Ġco b
Ġstar ring
Ġrad ical
s es
Ġp or
if er
Ġbut ter
Ġs as
Ġr ip
y r
l ah
Ġprovinc ial
Ġt ab
d ale
Ġgu ards
Ġtrib es
Ġv inc
Ġo sc
Ġunder w
Ġsub mitted
Ġcomple ting
don ald
Ġexplos ion
Ġalex and
à ¤
Ġown ership
Ġfun ctions
Ġadop t
Ġs ullivan
Ġdis ord
Ġbeh alf
Ġgu er
it ated
Ġchar ity
Ġbr ick
Ġshakespe are
Ġt ed
Ġaut obi
Ġw ire
Ġob v
iven ess
r ator
ut or
Ġret ail
1 2
Ġpol ar
Ġal ter
Ġart istic
Ġariz ona
Ġev olved
Ġche st
od s
Ġbirth day
Ġl akes
Ġhead ing
Ġho le
Ġhin du
f ather
Ġchronic le
c el
Ġne p
Ġfr ust
Ġfal se
ad er
Ġtar gets
Ġ10 5
Ġrev enue
Ġcart oon
Ġastron om
Ġqu ad
Ġfr ig
Ġrem ark
o h
he tic
Ġregister ed
Ġsuspend ed
Ġsp ider
Ġcl iff
c ular
est on
Ġhot els
Ġide al
onym ous
r av
Ġg oth
Ġaw esome
Ġfavor able
Ġche l
Ġsum mit
Ġrec ip
Ġd imens
Ġk in
Ġrel uct
Ġcivil ian
ig e
ot o
Ġegypt ian
Ġh ob
Ġbor ough
ic ts
Ġpoor ly
Ġguil ty
Ġbl ocks
Ġprov ision
Ġglob e
Ġreplac ing
Ġfor th
Ġpros pect
ic ate
pec ies
Ä ĥ
Ġper ry
Ġp ace
Ġclear ly
Ġh idden
Ġrequire ments
Ġp up
in ations
Ġ12 5
Ġ190 6
p es
Ġarm ies
Ġarm our
Ġsol ution
Ġ187 0
Ġk ids
Ġshell s
Ġaim ed
Ġw ants
Ġpul led
Ġwas n
Ġmeas ured
Ġro cks
ine a
Ġret rie
ze ch
Ġbound ary
Ġes p
Ġacc eler
Ġeng agement
s ky
ke eper
Ġgl ad
Ġmarg aret
Ġsit ting
Ġtempor arily
Ġfor g
Ë Ī
Ġpal est
Ġc raw
Ġf aster
Ġg ear
Ġfore cast
yl an
Ġrecogn ised
Ġ36 0
Ġt ort
Ġship ping
Ġ190 4
Ġsimultane ously
Ġf urn
Ġgr an
Ġfil ed
Ġvul ner
Ġb are
Ġrep r
Ġsequ ences
i ac
u able
ri x
Ġbehavi our
Ġcons pir
Ġav iation
Ġphoen ix
Ġtal ent
Ġsav ed
Ġremn ants
Ġess ential
Ġstor age
Ġst ores
Ġpark ing
Ġrepres ents
Ġmit chell
Ġagricult ure
Ġt ig
wn ed
Ġmon aster
Ġfast est
Ġkir k
c rib
f a
Ġw ore
Ġconte xt
Ġread ers
Ġf ra
Ġcompar ison
l ife
Ġ il
Ġv ib
Ġcover age
Ġc zech
Ġclos est
Ġpar s
Ġmat ters
Ġs q
Ġam ph
Ġsk et
Ġco inc
Ġpattern s
Ġt ight
ot te
Ġmin ing
c ar
Ġfer ry
Ġcanc elled
Ġgra ham
Ġas ide
Ġprop ag
Ġm l
y on
Ġsur gery
Ġ0 3
Ġsuggest ing
Ġpers pective
Ġoverse as
Ġinstit utions
Ġthir teen
Ġsh adow
Ġcar n
Ġspot ted
Ġnot ice
f ts
Ġj osh
Ġhun ter
Ġmane u
Ġless er
Ġrefle cted
Ġpract ices
Ġmet all
Ġcontrib utions
or i
Ġem pt
Ġrebu ilt
Ġnomin ations
Ġro ots
Ġprote in
iss ions
Ġst rict
Ġyanke es
Ġr anks
Ġfurther more
Ġpred omin
Ġapplic ation
Ġw ish
m n
Ġok lah
Ġflag ship
Ġdestroy er
Ġesc aped
art ney
Ġver tical
Ġol iv
Ġd ylan
Ġpear l
Ġport ions
Ġdru gs
Ġsatis f
Ġarchb ishop
n et
st orm
Ġdec ides
Ġbroad way
Ġbom bs
Ġbad ly
Ġjo bs
Ġam ounts
Ġsubs pecies
Ġs ult
Ġc ave
Ġun ex
Ġma ur
Ġtri ang
r ants
Ġdro ve
Ġrang ing
Ġto ky
Ġlack ed
Ġcub a
Ġr ings
um a
Ġsl aves
vere ign
Ġex clud
Ġso vereign
Ġpan el
Ġall music
Ġint elle
Ġvis iting
Ġto y
Ġsub ur
os ing
Ġconfeder ate
Ġintelle ct
Ġw icket
Ġarg ues
ks hire
Ġcontrol s
Ġbul k
v o
Ġstri king
Ġv ast
Ġac ou
Ġaut umn
Ġb ald
Ġind ies
Ġt ale
Ġexp ression
Ġsquad rons
Ġmar vel
Ġear ning
Ġsever ely
Ġf o
Ġpers ian
Ġbi ography
Ġinhabit ants
Ġdistinct ive
Ġoutd oor
Ġcre st
or er
ur ally
Ġphen om
Ġt ack
Ġpr inted
Ġoklah oma
th a
Ġtam il
Ġ0 4
Ġpit ts
Ġtalk ing
a way
Ġwar ship
Ġamb ass
Ġcond em
Ġn ik
Ġmain land
Ġcl ock
Ġmar ie
Ġcor on
Ġplan ets
Ġguitar ist
Ġs ony
Ġdefin ition
Ġbon us
Ġobserv ations
Ġrestric ted
Ġst ern
Ġgod d
l ings
Ġrev ival
Ġst ere
Ġcharacter ized
Ã º
Ġor th
Ġliber ty
Ġconstitution al
Ġfix ed
f ish
Ġm ik
Ġfl ower
Ġj ury
iet ies
Ġbar ry
ro g
Ġexpl ain
Ġgalax y
og a
Ġcommand ing
c ru
Ġd y
Ġfa ult
Ġp ill
Ġcur ren
Ġren t
Ġb one
Ġam y
Ġn i
Ġfe els
ath y
Ġultim ate
Ġpl ut
Ġwil hel
Ġmeet ings
id ency
Ġswim ming
Ġt iss
Ġl t
Ġth rew
Ġexpl ains
Ġs ig
Ġbomb ing
Ġathlet es
Ġdang er
Ġille gal
Ġamate ur
Ġdomin ant
ol id
Ġstat istics
Ġcar riers
Ġburn s
Ġmr s
e le
e qu
Ġdemonst rated
ow ed
un ction
est one
Ġart work
Ġexact ly
Ġsw itzer
h u
Ġhar vey
Ġaust rian
Ġpred icted
Ġeduc ational
Ġre aches
Ġfound ing
Ġart ific
Ġmultip l
Ġd ust
Ġparliament ary
ur er
Ġle x
Ġc af
Ġv anc
Ġy ield
Ġor n
Ġprep are
Ġswitzer land
Ġgr ave
Ġ190 1
Ġaer ial
r idge
Ġl en
th y
d i
Ġn ut
Ġmur phy
Ġre ver
Ġco at
Ġp ush
Ġsl ave
Ġexperiment al
Ġab und
Ġnorth ward
Ġar ist
Ġdeliver y
Ġf ile
Ġst ops
Ġcens us
est ed
Ġdel aware
an ian
Ġbe am
Ġjo h
ell i
Ġtr acy
Ġdecl ar
Ġinn oc
Ġpe aking
Ġste ps
Ġjohn ny
ou ver
Ġcompl iment
Ġconvers ion
Ġb erg
Ġab c
Ġapart ment
Ġconsc ious
Ġover t
Ġfeed ing
Ġl anes
Ġfun ny
Ġvi i
Ġb aker
ap olis
Ġric o
u ations
Ġb ones
Ġhousehold s
Ġl augh
b ec
Ġst ones
Ġover w
Ġer r
Ġliqu id
ter ies
Ġsymph ony
Ġacc um
ast s
Ġpro st
Ġwest ward
Ġserious ly
Ġuse ful
ors hip
Ġcru c
Ġh og
Ġmembers hip
Ġlay er
Ġm ate
ard o
Ġwell s
Ġcop per
Ġobt ain
Ġb ach
Ġrepeated ly
Ġconsid ering
Ġaud ition
Ġpredecess or
Ġf asc
Ġsh aw
Ġpal m
Ġnin et
Ġ190 3
Ġspr ings
Ġb od
Ġcon greg
um ps
Ġpat ron
r ast
Ġm ong
Ġcircumst ances
Ġg w
Ġ190 2
Ġconsequ ently
Ġkur t
Ġvanc ouver
im p
Ġatt ained
Ġpres erv
id ers
os a
Ġmel ody
Ġ0 1
Ġback ed
Ġmem or
su ing
Ġro ok
Ġju an
c s
Ġf ate
Ġto dd
Ġphys ics
t he
ic ut
Ġmad ag
Ġed wards
Ġles lie
Ġri hanna
y m
Å «
Ġh av
im en
Ġan at
Ġfe ather
Ġmill enn
Ġrevol t
Ġtoky o
Ġper ceived
et on
Ġsp ell
Ġflow ers
u ki
Ġren ov
ang el
Ġre vers
Ġv ig
Ġrec on
o ons
Ġp att
Ġp ages
is p
Ġmusic ian
Ġval uable
on ed
ab s
Ġdu o
Ġsun k
Ġsubs id
Ġeng age
Ġdin osaur
Ġda wn
Ġjon athan
Ġimprov ements
Ġdall as
Ġposs ess
Ġrem arked
Ġev e
Ġtrav els
Ġden mark
Ġtact ics
Ġm ent
est yle
Ġcomp ens
Ġret ain
Ġsun g
Ġprom ised
Ġperson ally
Ġball ad
Ġtur ret
Ġtow ers
Ġgu ar
Ä ĳ
Ġb ak
Ġlandsc ape
Ġk am
it ely
Ġbattle cru
Ġtheat rical
Ġv ik
Ġexec ution
ud ed
Ġsp art
Ġ11 5
Ġenl isted
Ġis a
Ġcomp ound
Ġair field
pl ace
Ġext ract
Ġencoun ter
Ġn ixon
Ġob st
Ġke ith
Ġsix teen
Ġman ga
Ġdem ands
onom y
Ġra ising
Ġjim my
v i
Ġstrengthen ed
ming ham
Ġprof ile
Ġcampaign s
Ġqual ified
m ith
l ow
Ġmechan ical
as a
Ġr al
Ġexpl an
Ġelev ation
Ġ16 5
Ġred e
Ġdem anded
Ġr uth
Ġ16 8
Ġrac hel
Ġarn old
in ian
ru ption
Ġpap ers
Ġillust rated
Ġexerc ise
Ġt ales
6 0
b ard
Ġsuccess ion
b ird
Ġag greg
Ġs ak
Ġinterpret ation
Ġcloth ing
Ġwas te
ov a
Ġm s
athe red
Ġcar p
row s
Ġst ress
Ġbe ats
Ġme nd
Ġins isted
Ġrang ers
Ġpers ons
Ġdre ad
gh an
Ġdiscover s
Ġen roll
Ġlim its
Ġd ressed
n ik
Ġbar on
Ġcomp ounds
Ġm ond
Ġh ugh
Ġpass ion
Ġrul ing
Ġelectric ity
Ġh ood
Ġmir ror
Ġsett lers
Ġl ag
Ġv enue
Ġcan ter
Ġfew er
Ġjud g
Ġl ying
em en
Ġgent le
Ġlight s
Ġstrong er
Ġstrugg led
Ġg lee
ack ed
Ġrang es
Ġep ic
Ġtrad ing
Ġsele ct
Ġdec isions
Ġhy br
Ġ0 2
Ġ Ï
Ġbl u
Ġway ne
Ġsuc ceed
Ġobl ig
Ġdemol ished
Ġen cl
Ġkill er
Ġere cted
g ie
est y
Ġst uff
Ġr iding
Ġfour teen
Ġcut ting
Ġo st
Ġb og
ac re
Ġ10 9
Ġincre ases
Ġconqu est
Ġsh ift
Ġpar as
ens is
Ġmill s
Ġcanc el
Ġcou p
Ġpurs ue
Ġinse cts
f olk
ut t
od ox
Ġgri ff
Ġf is
Ġd enn
Ġme ter
Ġremov al
ar o
Ġex ternal
Ġbir mingham
Ġdaugh ters
Ġsur pass
Ġobject ive
Ġwaters hed
Ġadvert ising
i y
Ġc raft
je ction
Ġcul min
Ġl ip
Ġbob by
Ġbur ial
Ġt ong
Ġwar fare
Ġdef ences
Ġdefend ing
Ġlov ed
x ual
Ġob ama
Ġdeter ior
Ġadvent ures
Ġconcent ration
3 5
l ock
Ġsh ak
Ġdevelop ers
Ġmcc artney
aver y
Ġal tered
Ġwealth y
Ġhud son
Ġoverw hel
Ġcomp rom
Ġres ol
Ġdis agre
Ġorgan ised
Ġmerc ury
om p
Ġmay be
Ġmagaz ines
Ġbac ter
Ġfoss il
n at
Ġsp ur
Ġbudd h
Ġf old
Ġg osp
Ġsend ing
k h
Ġemploy ment
Ġkar l
Ġheart s
Ġhydro gen
Ġacou stic
gr ad
Ġelect rical
Ġc ed
Ġapproach ing
Ġho ok
Ġeru pt
Ġev al
Ġdeb t
Ġy out
Ġcent ers
Ġarm oured
Ġtour s
Ġre nd
Ġj up
Ġsh orter
zz le
Ġmadag ascar
ct r
Ġra ids
Ġconnect ing
Ġconnect icut
Ġwarri ors
Ġgod s
Ġestablish ing
Ġexpos ure
Ġh oney
Ġmor rison
Ġput ting
Ġinvest ment
Ġcomment ary
ch a
ris es
Ġsurv ival
Ġaggress ive
Ġma id
Ġprof it
Ġbern ard
Ġon tar
Ġjur isd
Ġpro ve
Ġun less
Ġmat ure
Ġhen ce
m und
Ġc able
Ġpl aza
r ams
Ġpart ial
Ġstay ing
Ġarchitect ural
Ġontar io
Ġqual ifying
Ġg ary
au x
Ġl or
ens ively
Ġpar ach
Ġdec ide
Ġsl ip
Ġyout ube
Ġl iv
Ġg ren
Ġtr ick
Ġ15 5
Ġcanter bury
Ġex ter
Ġres ort
Ġpe nd
Ġappropri ate
h ous
Ġed ited
Ġindic ating
Ġdw arf
Ġon going
Ġarrang ements
Ġmark ets
Ġdeter min
Ġf c
Ġnapole on
Ġtr uck
Ġext rat
Ġrad iation
Ġplac ing
Ġis ot
Ġimpro vement
Ġcelebr ated
Ġevac uated
Ġwithdraw al
Ġannounce ment
ro us
Ġsult an
Ġsev ent
Ġt ube
Ġvol umes
Ġmc m
Ġthe ore
Ġpred ict
Ġstation ed
Ġcru ise
if ies
per t
Ġpr uss
Ġprepar ations
Ġbom ber
Ġdissip ated
Ġacknowled ged
Ġextrat ropical
Ġsc iences
ang er
Ġpar am
Ġrom ance
Ġfle ming
Ġprecip itation
Ġd ict
Ġg olf
Ġper mitted
Ġsl avery
Ġcl er
Ġreal ized
Ġsil ent
Ġvo ices
Ġdiscuss ion
ca a
Ġkill s
Ġhard y
Ġgrad uate
b ow
p in
r h
it ter
Ġn urs
Ġyoun gest
Ġt na
Ġdub bed
Ġinit iated
Ġdisappo int
Ġd istant
Ġw is
ul ous
Ġgrad uated
1 1
l ain
Ġhost s
ef a
Ġrecover y
Ġphotograph s
Ġindust ries
Ġc ort
Ġatt itude
Ġtransl ation
it is
as er
Ġv amp
Ġsign ature
Ġjup iter
ing ham
Ġu efa
Ġhyp othes
Ġconfron t
Ġch icken
Ġrequ ires
Ġlu ke
Ġc ash
ov en
Ġmon te
sh ore
Ġstrong est
Ġn erv
Ġre he
Ġfr act
ues e
Ġvoy age
Ġc elt
Ġus ers
Ġconv entional
Ġal ice
ell o
Ġover lo
Ġaff ili
ament al
Ġr p
Ġkn ock
Ġrefer ring
Ġorigin ated
Ġheav en
h ard
Ġst ol
Ġexclus ive
Ġrep orter
Ġtrans it
Ġhar mon
Ġestim ates
it udes
Ġb eng
Ġson ic
Ġrec all
pl ed
Ġburn ing
Ġe ug
Ġexper t
Ġdev il
Ġtub es
Ġech o
p y
Ġt rough
aut ical
Ġmos c
Ġc ord
Ġex ha
Ġdon ated
Ġdev ast
Ġt ak
ip h
Ġed in
Ġr us
ate ver
hip s
Ġend ors
Ġsupp lement
Ġpot ter
Ġearthqu ake
Ġman or
Ġcous in
Ġspec imen
Ġ16 4
Ġminor ity
Ġcolle agues
Ã ¦
it ively
Ġwh atever
Ġpar ody
Ġgu inea
Ġpak istan
Ġus er
Ġpromot ional
Ġsout heastern
Ġdrink ing
Ġindic ates
Ġax is
Ġbe aring
Ġm ant
re p
Ġl ac
Ġk ap
Ġchalleng ed
Ġscat tered
Ġout f
ĠÃ¦ thel
Ġvis its
Ġattend ing
Ġguest s
Ġsport ing
Ġdw ight
Ġportug uese
Ġw ool
ad ier
Ġleg it
Ġlaw yer
Ġtradition ally
Ġvictor ian
Ġg athered
iv ation
Ġ186 0
Ġbrad man
Ġemphas is
Ġcoff ee
c ase
Ġ um
Ġt ap
Ġal aska
Ġhan na
Ġdens ity
Ġstr ange
in ces
Ġre na
ak s
Ġmer ely
Ġident ify
Ġconcent rated
Ġn caa
Ġprogram ming
Ġj ama
Ġcertain ly
Ġcollaps ed
g le
Ġcot ton
Ġmor ph
Ġcoal ition
Ġp am
Ġd ale
p ers
Ġgovern ments
Ġbar n
Ġfac ult
Ġterrit orial
Ġsuppl ied
f eld
à ¸
Ġo v
Ġachie vement
Ġdif f
Ġann ually
Ġscreen play
Ġdemocr ats
Ġturn er
Ġblock ed
Ġsac rif
Ġartific ial
Ġt ai
ur ation
Ġsub m
Ġ189 3
Ġportra it
ic y
Ġind igen
Ġprincip les
Ġelect ro
Ġalph a
Ġphot ography
claim ed
Ġsp y
Ġ12 7
Ġprison er
Ġbuff alo
b al
gr aph
Ġaf ghan
Ġhamp shire
n ia
Ġf ed
Ġst al
Ġoff ense
Ġbo om
Ġ189 6
Ġopt im
Ġprov inces
Ġgl en
Ġp ond
Ġto pped
and y
so ft
Ġtermin al
Ġun com
Ġpred ators
Ġhe ir
Ġchem istry
Ġ ig
Ġdo ctr
Ġthe rm
Ġsm art
Ġter r
Ġter rain
Ġol iver
Ġaccompany ing
Ġpitts burgh
Ġinvestig ate
Ġpiz za
Ġdeclar ation
Ġl av
Ġse ized
Ġedin burgh
ag ger
Ġtal ks
Ġcra ig
Ġapplic ations
Ġn u
Ġcompet ing
Ġtur key
Ã¼ r
Ġfail ing
Ġre verse
Ġreinforce ments
Ġindigen ous
Ġrev enge
Ġvel oc
ir m
Ġste ad
Ġur anium
Ġportray al
Ġans w
Ġunivers ities
Ġlu x
Ġmay a
Ġ189 8
it i
Ġg az
Ġ3 50
Ġten ure
Ġgu id
Ġpen et
Ġsus pect
Ġch ord
Ġap oll
Ġbroadcast ing
Ġbene ath
Ġout put
Ġsm oke
b u
Ġc ros
Ġhit ting
Ġdur ation
it ch
Ġsp aces
Ġreg ime
Ġreconst ruction
Ġrecur ring
Ġy am
Ġtrou b
1 3
Ġexper iments
Ġcons olid
Ġshar ks
Ġvolunte ers
Ġbed s
imet res
Ġb ub
Ġd ual
Ġju ven
Ġhop ing
Ġflood ed
Ġk an
Ġprofess ion
Ġand re
Ġobs c
Ġjer ry
Ġgodd ess
Ġral ph
Ġbranc hes
Ġcontrib ution
Ġargent ina
Ġyor kshire
iet h
Ġred es
Ġvot ing
Ġce ased
Ġlord s
Ġr io
ell ation
olog ies
Ġtrib e
Ġassemb led
Ġimag ery
Ġi bn
r un
ro oms
Ġhe s
Ġge nder
Ġtex ts
Ġquestion ed
Ġsongwrit er
Ġhistor ically
f c
id al
ows ki
Ã °
Ġso x
Ġdec ay
Ã© s
Ġtrad ed
Ġdrum mer
Ġh ast
Ġmas ters
Ġen force
Ġimp ression
Ġrev ised
Ġcoll ins
Ġcomment ing
Ġcharl otte
ay an
Ġinf rast
Ġvir us
Ġrefle ct
Ġunderw ent
Ġchel sea
crib ed
ic ing
Ġcon ce
Ġel ig
Ġdestro ying
Ġd ors
Ġser ge
Ġ10 4
Ġcho ir
Ġmillenn ium
Ġredu ction
Ġchristian ity
man ia
Ġcompon ents
Ġre ward
i ary
Ġre organ
Ġf ulf
un c
ov iÄĩ
Ġhow e
Ġdev ices
Ġ189 9
Ġredu cing
Ġcompon ent
Ġuncle ar
Ġst amp
Ġinv ent
Ġrepl ied
Ġbe nd
Ġsur ve
at ra
Ġrul er
on ian
ham mad
Ġ10 8
Ġtri um
Ġpir ates
Ġreview ed
Ġreve al
Ġconsist ent
Ġqueens land
Ġappro aches
Ġhum or
Ġll oyd
Ġsam ples
Ġmyster y
Ġmar ge
Ġmar ines
Ġdire ctions
Ġident ical
Ġturn p
Ġmultipl ayer
pl er
Ġgar n
Ġlif etime
Ġgirl friend
Ġambass ador
ra wn
Ġnor folk
Ġcor rid
Ġpat ients
Ġfin land
Ġnight s
Ġs ings
Ġd ak
Ġrob in
Ġg aming
cast le
Ġfrequ ency
Ġpropos als
d ed
Ġf ier
ar r
Ġpart is
be at
Ġres ur
Ġut ah
Ġinterv ention
Ġplatform s
Ġsurrender ed
Ġre ed
Ġ15 2
Ġsw iss
ot ing
Ġun w
Ġsp oken
act ive
Ġches s
Ġwin ners
Ġconf lic
Ġhawai i
Ġsudden ly
n ell
ens ed
Ġclim b
Ġconne ctions
ill es
it ary
Ġfair ly
c ott
Ġcon ceived
Ġdon ald
Ġbur ton
Ġnich olas
Ġt ill
or ia
am pton
Ġ16 9
Ġresear chers
Ġw ii
Ġe ating
Ġmans ion
g om
Ġb anned
Ġre jo
Ġcelebr ation
Ġans wer
Ġas c
ric ts
Ġexclus ively
Ġt ape
Ġbel gian
Ġrepresent ation
Ġpract ical
Ġben ch
Ġvinc ent
Ġch ore
Ġvar ied
Ġcr imes
Ġbre w
Ġmosc ow
b orn
Ġfac es
ic ated
Ġ18 50
Ġcommand ers
Ġsty l
Ġs ample
ur as
Ġwe igh
Ġlight ing
Ġreb els
Ġburn ed
Ġcontinu ous
Ġfe e
Ġspe aker
oc y
Ġman if
Ġfin ance
Ġcolle ctions
Ġdav ies
Ġbenn ett
ist a
ib ilities
Ġcompet itive
itar ian
Ġconf idence
d les
Ġc atherine
Ġsail ing
Ġp od
Ġpre st
Ġdist ricts
Ġshould er
Ġpra ising
wor ld
Ġprogress ive
Ġdecor ated
Ġfl ames
ph al
Ġgu ild
Ġ10 1
Ġamaz ing
Ġhug hes
Ġlaure n
Ġp on
Ġscore s
Ġrival ry
g am
Ġbe er
Ġk ate
Ġdar win
Ġtax es
Ġreact ions
Ġthor ough
Ġc ott
Ġf ern
Ġdisp ers
Ġb ast
Ġab use
Ġadv ised
ro y
Ġsh ares
Ġcamp s
Ġsignific ance
Ġfilm m
Ġpri x
ici ency
Ġg if
Ġele ph
Ġconsid ers
Ġf oster
Ġu b
Ġscient ology
Ġwit ch
m ers
o ly
et hel
Ġr ivals
Ġcomp r
Ġboil ers
Ġm asc
Ġwor n
Ġinterse cts
Ġtransl ated
Ġmys elf
Ġvulner able
ter ly
ac les
Ġpro ceeded
Ġtr ig
ug u
ic ation
Ġshe p
Ġharv ard
Ġunderst ood
Ġf are
ell or
Ġdis char
z h
Ġpres idency
Ġos lo
Ġjud ges
ic an
ff ield
Ġopportun ities
Ġ Ã©
Ġloc ally
Ġhand led
Ġpresent ation
Ġvill a
Ġ189 7
c r
Ġp airs
Ġmin isters
Ġmed als
Ġrock y
Ġcompan ion
Ġn autical
Ġenthus i
Ġp all
en cing
Ġter ry
Ġge off
Ġrac ial
Ġmarsh al
h s
Ġmanufact uring
Ġphr ase
Ġcan yon
Ġass um
Ġnumber ed
Ġrepe at
po int
Ġbombard ment
Ġcrop s
Ġinfrast ructure
Ġb ind
Ġd s
Ġlo ver
Ġlay over
Ġobserv ation
Ġindones ia
Ġse al
Ġunl ik
Ġsax on
Ġc ards
Ġv ital
Ġex ceed
Ġfl ows
Ġknight s
h aw
Ġcommission er
Ġrespect ive
Ġpet ition
Ġm im
st rong
ig s
Ġdesc ent
ic o
Ġel ite
anc he
Ġca es
Ġcamer on
Ġh ide
Ġex ile
Ġanton io
u ating
her s
Ġpro of
Ġexpl icit
Ġp eng
Ġout l
Ġcle ared
Ġcycl ones
Ġtransport ed
Ġgross ing
Ġkit chen
Ġtrad itions
Ġcut s
Ġj tw
Ġinter medi
Ġrehe ars
Ġjtw c
Ġk ane
Ã¶ n
Ġextend ing
Ġv l
Ġsp ong
v ant
Ġg ift
ĠâĢ ¦
Ġ17 3
Ġprotest s
Ġ16 7
Ġx x
Ġtel es
ro ph
Ġrein forced
Ġrand om
Ġdr ain
ber ry
Ġco aches
Ġstruct ural
Ġthr iller
o a
Ġt iger
Ġd um
Ġex ists
Ġto ured
Ġto ler
Ġn ur
st s
Ġcour ses
Ġnon ethel
Ġparticip ation
Ġton nes
Ġnonethel ess
Ġcomm enced
Ġrest ore
Ġcharacter istic
Ã «
Ġh aven
Ġb ib
at oes
Ġtro op
er ce
Ġmil k
Ġb in
Ġd ri
Ġrel atives
Ġste ep
Ġrich mond
Ġwall ace
Ġmaint aining
Ġd aw
Ġf ert
Ġh ollow
Ġcol um
Ġtest ed
Ġprepar ing
Ġnavig ation
ing e
Ġvict im
Ġquar ters
Ġwithd rawn
f ace
h um
Ġd il
Ġrel ocated
Ġguer r
Ġthe ories
Ġc el
Ġb ert
Ġcos m
Ġm p
Ġcl an
Ġtheat ers
Ġsk ill
cul es
Ġw isc
Ġlar ry
Ġste f
Ġabs ent
Ġturnp ike
ar io
Ġg est
Ġe is
ill o
Ġreform s
Ġunex pected
Ġd ying
and ers
Ġwar nings
ons in
Ġsen ators
Ġcard inals
Ġto xic
as hes
Ġhon ours
Ġbou lev
Ġinqu ir
Ġp se
Ġlear ns
Ġj ess
Ġwrit ings
ah a
Ġmonth ly
Ġmicro soft
Ġne v
Ġn ord
Ġsy ria
min ster
Ġcl othes
ces ter
Ġorgan ic
it ious
od a
Ġdes per
Ġlou d
Ġdispl aced
Ġempt y
Ġup set
Ġrepublic ans
Ġsculpt ure
Ġbl o
Ġdo ors
Ġse ating
Ġcar ries
Ġsus an
Ġarchae ological
Ġf itz
ash i
Ġfle x
av ia
Ġman ip
Ġinterview s
Ġw w
Ġtr act
Ġbec k
Ġmix ing
Ġmagn itude
Ġinteract ion
Ġcol ors
Ġheavy weight
Ġconcer ning
Ġbry an
Ġv it
Ġjeff erson
Ġid ol
Ġshe ffield
Ġpark way
Ġvari ations
Ġstre ak
Ġlight ning
Ġcham bers
Ġtele graph
Ġhero es
Ġmalays ia
f i
Ġse ga
Ġsal ary
Ġmyth ology
Ġwisc onsin
Ġf bi
Ġinterpre ted
Ġdread n
is ive
Ġtrav elling
Ġ189 5
Ġdisplay s
Ġisrael i
Ġne il
Ġhurric anes
Ġcommerc ially
Ġow en
Ġmeteor ological
Ġadvert is
ke e
Ġjohn ston
Ġconf usion
Ġarg uing
Ġcorpor ate
Ġaf t
Ġrun ner
Ġpse ud
Ġdem o
Ġess entially
a ired
Ġp ock
Ġclar ke
re en
Ġair ing
Ġcre am
Ġseg ments
r ang
Ġto oth
Ġem my
Ġcy rus
Ġvolcan ic
Ġunlik ely
Ġvar iation
back s
Ġgr ap
Ġ17 4
Ġconstit u
er ts
Ġrele g
ades h
at is
Ġgrand father
Ġaccur ate
h al
Ġreg iments
Ġcost ume
Ġshif ted
Ġfacult y
Ġl on
Ġre y
Ġop ens
Ġmy c
Ġvers us
Ġreb el
Ġt ies
Ġpit cher
Ġbreak s
Ġdre ams
Ġbrazil ian
Ġintern ation
pr ised
Ġh d
Ġst all
Ġcirc ular
Ġemot ion
Ġcra zy
Ġpars ons
Ġsw ing
Ġoppos ing
ro t
Ġre h
ab e
Ġac re
Ġed itions
Ġshall ow
Ġcol ours
Ġ10 6
Ġ17 2
n an
Ġd uch
Ġsusp ic
Ġtast e
f ar
Ġg on
Ġori ent
Ġden ver
Ġspons ored
Ġc attle
am an
Ġcor p
Ġang ry
Ġval id
Ġmac ar
m al
t es
Ã ¢
Ġlast ing
Ã ¥
Ġarm strong
Ġhapp en
Ġk on
are st
Ġsur prised
Ġp ent
Ġdivers e
Ġmck in
Ġw ished
Ġem br
Ġdan ish
Ġmar l
Ġcomm erce
Ġ11 1
Ġdanc ers
le te
Ġnew castle
Ġworld s
Ġaf ford
Ġtig ers
r in
on ium
Ġf i
Ġv a
Ġsust ain
he ll
Ġc av
Ġnew ton
Ġa ber
Ġdeep ly
Ġg ru
Ġsn ake
Ġb ible
en ess
Ġque bec
Ġt ir
Ġrecre ation
Ġg amb
Ġen act
Ġboulev ard
uss ion
Ġprincip le
Ġdiplom atic
Ġw art
is ons
Ġm ild
Ġexam ination
Ġka iser
as ters
Ġl ift
Ġt ension
Ġham mer
Ġeff icient
Ġpl um
Ġin fer
Ġadv ancing
Ġnorth western
Ġpur suit
Ġp ok
Ġbe ating
Ġpros per
Ġrif le
Ġin clusion
Ġm g
Ġcivil ians
Ġh ul
Ġn ose
Ġn aming
ch i
Ġdra fted
Ġlin er
Ġdisturb ance
Ġc inc
Ġshe ep
Ġconstant in
y an
on ica
Ġre vel
Ġpar ad
Ġem er
Ġbi ological
Ġrat io
Ġparach ute
Ġstol en
ort ion
Ġkil ome
ars h
Ġprom ise
Ġrock et
Ġwonder ful
Ġin e
Ġre ich
Ġv in
Ġblack s
Ġrebu ild
g ue
ag i
Ġfer r
n or
Ġk y
Ġham let
Ġdivor ce
Ġwilhel m
w right
en on
Ġwh ale
ul es
Ġdi oc
Ġconcur rent
Ġal g
ose xual
Ġmid night
Ġlat est
Ġch ile
Ġis n
Ġcon ven
ab ilities
ik o
ash a
Ġinsur ance
Ġkid n
Ġ15 8
Ġhar old
Ġprocess es
Ġp ump
Ġke ys
Ġsettle ments
Ġsubstit ute
Ġver te
Ġ100 0
Ġvill ain
Ġconspir acy
it ted
Ġcom ed
Ġ186 1
Ġequ ally
Ġpot entially
i qu
l ane
ur i
Ġbeat en
Ġchalleng es
Ġsent ence
Ġmonaster y
it ate
Ġd ense
Ġre ct
Ġse b
Ġknow s
Ġfif a
Ġrook ie
Ġjust in
Ġ188 9
Ġserb ian
in is
Ġtw ent
Ġman age
Ġr ains
Ġ16 3
aff e
Ġfund ed
Ġcolum ns
ri fic
Ġsc r
Ġer ror
Ġchart ed
Ġcan on
Ġty ler
Ġbenef its
Ġproport ion
Ġfl av
Ġev ident
Ġfollow ers
et ed
Ġco x
Ġnov a
Ġalt itude
Ġb ore
Ġst im
Ġam id
Ġt et
Ġs ized
Ġ10 2
Ġ189 4
Ġsearch ing
Ġmu hammad
Ġscand al
Ġen zy
Ġrece pt
Ġexpl aining
re hens
Ġoff shore
Ġparticip ants
Ġm erged
Ġcap s
Ġveter an
Ġl amb
Ġper c
Ġfore ver
Ġadmin ister
Ġc bs
Ġext inct
Ġstu art
Ġl ud
Ġse min
Ġab u
Ġrequ iring
re ated
Ġb ent
Ġkn ee
h ill
v ised
Ġdev oted
Ġapoll o
Ġo z
Ġpersu aded
Ġjurisd iction
Ġkn ocked
Ġsimilar ities
Ġtem po
Ġmem oir
Ġa ar
Ġconstant ine
Ġreserv oir
Ġa a
Ġ16 6
Ġoper ates
Ġgoal keeper
Ġbor row
Ġnick el
Ġveter ans
Ġaccommod ate
Ġpregn ant
Ġx ii
Ġcounter p
Ġfarm ers
Ġble nd
Ġwitness es
v et
ad i
Ġ189 1
Ġstri kes
Ġjud icial
Ġimplement ed
Ġbl ast
Ġdiv ine
Ġeduc ated
Ġparal y
Ġbrook s
Ġdisord er
Ġt uck
ro v
Ġre ef
Ġg aining
Ġmass acre
Ġsocial ist
Ġstud ying
Ġwild life
Ġbarb ara
Ġori ented
at ched
Ġcard iff
Ġm cl
ac o
Ġpl ates
Ġadd ressed
Ġprot otype
Ġcateg ories
Ġiniti ative
c ription
Ġk yle
ia h
Ġstat ements
Ġtun e
Ġlin ks
ch y
Ġboy friend
Ġod d
Ġbound aries
m aster
Ġpe as
Ġvirt ually
Ġindones ian
pie ce
her ic
iz er
Ġn an
en os
am as
ri en
Ġle ices
Ġfavour ite
Ġcinc inn
Ġto ols
Ġfe ared
Ġperson a
Ġprote ins
Ġhost ile
Ġ18 00
Ġjo an
bo ards
Ġcompl ained
Ġweaken ing
Ġt ent
Ġp as
Ġâ ģ
Ġt ide
Ġd anny
oc ation
Ġtr apped
Ġhy per
Ġ189 2
cl iff
Ġke en
Ġan arch
Ġ24 0
ment ed
as hing
Ġm aps
Ġdeal ing
Ġch rom
p ine
Ġem ail
Ġthreat s
Ġmont gom
Ġtact ical
Ġh ipp
Ġpres erve
Ġpan zer
Ġch op
ron t
Ġhen ri
Ġz h
Ġcitiz en
Ġf ires
Ġthro wn
Ġext ensively
os ph
Ġmar it
Ġhonor ary
usal em
g ow
Ġse an
n els
Ġsch um
Ġtri o
Ġgoth ic
e ter
Ġfront ier
1 9
Ġso ap
Ġbill s
Ġrid er
Ġiv an
Ġtenn is
Ġgosp el
g us
at ers
Ġbo eing
Ġemb arked
Ġz oo
Ġislam ic
Ġjoh ann
Ġhelp s
omet ric
Ġsent enced
f ly
Ġam en
Ġtas ked
Ġconflic ts
Ġâģ Ħ
Ġhur t
Ġhighlight ed
Ġrem ote
au c
Ġfit ness
Ġjer usalem
Ġstret ch
Ġosc ar
Ġhon ors
h op
Ġsuper st
Ġtrib une
er ia
Ġl ions
Ġus age
oth y
Ġmad ison
Ġdis b
Ġcincinn ati
Ġteam mate
Ġrecru ited
Ġwarship s
Ġsur p
Ġtour ism
Ġobv ious
Ġmacar thur
Ġste in
Ġlod ge
r ically
Ġch ad
Ġprov isions
Ġres olved
Ġpart ners
Ġbar nes
Ġexpl ore
Ġdocument ed
Ġevac uation
Ġveloc ity
et o
Ġpu pp
ĠâĤ ¹
Ġhybr id
Ġsp o
Ġdark ness
1 4
Ġab road
Ġpolit icians
Ġord inary
Ġsat urn
Ġlack ing
Ġmach in
Ġre ass
Ġtele phone
Ġ188 8
Ġencoun ters
z ing
Ġregard less
Ġf us
Ġr ushing
Ġint ent
Ġcol ored
Ġdisc ontin
Ġhous ed
ÃŃ n
Ġrenew ed
j u
Ġno ise
Ġscholars hip
Ġresc ued
Ġelabor ate
Ġw are
cl ass
Ġass ert
uc hes
Ġdefend ers
Ġsor ry
ist ent
s ch
ubl in
ling ton
Ġorth odox
Ġd imin
Ġdo zen
Ġbu nd
Ġbelief s
Ġmontgom ery
Ġcon j
ack down
Ġbattle field
Ġhuman ity
Ġamph ib
Ġro gers
Ġpr ayer
Ġrece ives
Ġescort ed
Ġty r
uls ion
Ġbrill iant
Ġw iz
Ġp p
am ents
Ġbur ger
Ġauthor ized
Ġ188 5
Ġsepar ation
Ġpier re
en burg
ur st
Ġcompet itions
Ġpy ram
Ġimprison ed
ro id
ol ly
Ġen abled
Ġconsider ably
Ġpres ents
Ġa ce
Ġg au
Ġconf ident
Ġhand le
Ġc ats
Ġsc ots
Ġbrig adier
Ġpurs ued
Ġin hib
Ġ15 3
Ġcr ashed
Ġsusp ension
Ġinvol ves
ass y
Ġash ore
m el
Ġtr unk
Ġobser ver
u ters
Ġk os
Ġsink ing
Ġthe rap
Ġchrist ians
Ġic eland
Ġgarn ered
Ġj aw
Ġspec ulation
Ġin ning
Ġup rising
Ġmon itor
Ġdep icts
Ġpromot ing
Ġun ve
Ġsoc cer
oc a
oc ene
Ġhand ling
Ġbat teries
od ed
Ġf ru
an im
Ġsan ct
Ġbal tic
Ġbes ides
Ġat hens
ÃŃ a
Ġ97 8
Ġoccas ional
Ġlo ose
Ġb ars
Ġk rist
Ġhop es
Ġtrium ph
u z
Ġc age
Ġsu ites
Ġfl our
Ġswit ch
p ot
ops is
Ġbat ted
Ġremember ed
en berg
ak h
Ġapp ly
Ġarc ade
Ġbo oth
Ġdevelop ments
Ġ11 3
Ġleon ard
e g
Ġbe th
og le
Ġreg ulations
Ġit unes
Ġle op
Ġed die
Ġcapt uring
Ġthunder storm
Ġtru ly
v iew
É Ļ
Ġl aps
ov ak
Ġmagn etic
Ġimpress ive
Ġu pl
Ġ11 7
Ġmix ture
Ġur ged
Ġsus pected
Ġth ames
Ġmet ric
Ġevent ual
Ġbreed s
Ġorgan isms
Ġinternation ally
Ġed iting
Ġcl ip
Ġsa u
Ġens emb
Ġupd ated
Ġt int
Ġc s
Ġcompos itions
Ġw i
Ġpolit ician
Ġlic ense
Ġd at
Ġup coming
old s
Ġphot o
Ġow ing
Ġa est
Ġre agan
Ġassoci ate
Ġtiss ue
Ġ186 5
Ġsher man
Ġcustom ers
Ġd ug
rib le
Ġmet re
Ġdist ract
Ġ11 8
Ġcast les
Ġbur g
Ġrail ways
and o
Ġmcc ar
Ġvolunte er
Ġchanc ellor
Ġrestrict ions
Ġhoriz ont
Ġrel ation
Ġ15 9
Ġly rical
Ġrender ed
Ġch ron
Ġthere by
Ġaccident ally
Ġern est
Ġrom ney
Ġmechan ism
Ġbr is
Ġball s
Ġathlet ics
Ġdecre ased
Ġdisappo inted
Ġn ancy
Ġsouth western
Ġnat o
1 6
Î ±
d am
z ed
Ġintellect ual
Ġwar ned
Ġdirect ing
Ġtrack ed
Ġinh ab
Ġchamber lain
Å ¾
Ġsh ah
Ġun n
Ġgen u
Ġpos itively
Ġmark ing
Ġtit an
Ġconsum ption
Ġinher ited
Ġanticip ated
w ing
Ġen h
Ġcoun sel
Ġmut ual
Ġportug al
ag h
Ġpet e
Ġconvers ation
Ġhelicop ter
ud i
ren e
Ġpat ient
Ġdetect ive
Ġd ublin
Ġsp okes
Ġsac r
1 8
r age
is ition
un ning
Ġ4 50
oy s
Ġmach ines
Ġbrad ley
Ġcontract s
Ġjos Ã©
Ġc um
Ġinv aded
Ġmamm als
Ġmush room
Ġgl as
Ġphill ies
ent er
Ġbre ast
Ġaut o
Ġdu ck
Ġmem ories
Ġvol t
Ġdepend ent
Ġconstantin ople
nd a
Ġag u
ant on
Ġap olog
Ġclos ure
a ire
Ġhe b
id ia
end ed
Ġant ib
Ġread er
Ġdeleg ates
Î ¿
Ġro ot
Ġl ighter
rest rial
Ġassess ment
g ary
Ġ Äĳ
Ġw rap
Ġm ak
Ġinaug ural
z o
Ġr ally
Ġeas ier
Ġte a
Ġfund amental
Ġaccess ible
Ġpsych iat
Ġfoss ils
Ġgr id
ad ers
ov ic
Ġlaw suit
Ġdeb ris
Ġnep hew
Ġcorrid or
Ġs aints
Ġst er
ann on
Ġvo ters
col m
w ald
Ġd ud
Ġsp it
ner y
Ġconstru ct
1 7
Ġ13 5
Ã© n
Ġview ing
Ġtr am
ph an
Ġbord ers
Ġswe ep
Ġheight s
Ġnickn ame
h o
ad al
Ġsh aring
Ġche ster
Ġgib ral
Ġcomplic ated
Ġt ib
Ġme al
Ġmer ced
Ġ186 4
Ġgibral tar
Ġbo ost
Ġoccur ring
ugh t
Ġp and
Ġant ar
Ġcorn wall
Ġd olph
Ġpe op
Ġinf ection
Ġsher iff
Ġbe au
Ġpleas ure
á º
Ġv ick
Ġun re
Ġsha ft
p at
ne ys
Ġprel imin
ild a
Ġrem ind
Ġsl av
Ġtour ist
Ġfant astic
Ġmal colm
to ok
Ġles b
Ġmole cular
Ġmurd ered
l u
Ġhe ath
Ġk az
Ġrem ar
Ġsuggest ion
Ġsupport s
Ġpartic les
Ġic on
Ġfeather s
Ġc ena
Ġbe e
Ġx i
Ġcam b
Ġflag s
Ġbot an
Ġa j
Ġavo ided
h all
Ġs aving
Ġrec ruit
Ġcur ve
Ġkenn eth
in ated
Ġthrow ing
Ġarmen ian
en na
Ġi b
Ġprogress ed
Ġprotest ant
Ġp om
Ġ16 2
Ġ11 2
ed ia
Ġsy l
Ġeast ward
Ġdoctr ine
Ġwart ime
Ġnort heastern
Ġconsequ ence
Ġautobi ography
et her
Ġm ounts
Ġins pect
Ġisa ac
v ar
Ġm v
amp a
Ġimp osed
Ġconv icted
Ġpun ishment
Ġped ro
Ġgab ri
Ġintermedi ate
Ġt ier
ro e
Ġprodu ces
get t
Ġfort une
Ġwarri or
Ġl ung
iel der
Ġbrown s
Ġattract ion
Ġba iley
Ġintegr ated
Ġbr ut
ell ar
iz ers
Ġcr ane
Ġreport ing
Ġkil og
Ġnot iced
Ġ15 4
Ġmich a
Ġexhib it
Ġdepict ing
ri p
Ġclou ds
chang ed
Ġs ap
Ġres id
Ġ10 7
Ġexpl oration
Ġthreat ening
Ġtouchdown s
w s
Ġmon it
Ġback st
Ġvers es
Ġcould n
ob a
Ġtom my
Ġpeop les
h t
Ġanne x
Ġvic inity
Ġun h
Ġcour age
Ġ186 2
fl ow
Ġphilos opher
en cer
Ġpost s
Ġhol es
Ġbrook lyn
b ie
Ġ ãĥ
Ġinc red
heim er
Ġd ent
Ġh ier
Ġmathemat ics
Ġhe d
Ġse ar
oc ol
Ġmel od
Ġrot ten
Ġf ib
ch t
pe z
ach t
cc a
Ġline ar
Ġcoach ing
Ġconstant ly
Ġcapit ol
or f
Ġshe et
Ġve gas
Ġundert aken
Ġnash ville
Ġn s
Ġsh in
Ġrele asing
Ġremov ing
f ound
Ġs ulf
Ġent ert
Ġmart ial
Ġjournal ists
g Ã©
Ġbl ame
Ġdivers ity
Ġdecre ase
Ġign ored
Ġm k
Ġj ake
Ġmain e
Ġ15 7
ah l
Ġ å
Ġant hem
en er
Ġmon sters
Ġreal istic
Ġexec ut
Ġl an
Ġcl ergy
Ġeag les
Ġpredomin antly
Ġfac il
Ġcreat ure
b ach
el in
Ġaut hen
Ġcu is
Ġsacrif ice
Ġa ur
Ġk ru
Ġexpand ing
Ġ15 6
Ġw ick
Ġsub d
Ġeight een
Ġfocus es
ire ct
Ġ22 0
Ġlu ft
a is
Ġa ux
ol ia
Ġspring field
he ld
Ġis le
Ġgrow s
g ent
Ġcongress ional
Ġup s
Ġpay ing
Ġalbert a
Ġserb ia
Ġmarit ime
ap ing
ett a
Ġunf ortun
Ġdisappe ared
Ġwag ner
k ar
or row
Ġen orm
Ġdepart ing
Ġcho ices
Ġb il
ic us
Ġcontact ed
Ġch uck
Ġh ack
Ġro ster
Ġinter c
Ġgener als
Ġple ased
Ġindepend ently
Ġrelie ved
Ġml b
Ġtai wan
Ġtwent ieth
Ġa rose
it ure
Ġn es
Ġbar rier
Ġchurch ill
Ġbul gar
Ġpropag anda
um ped
Ġdo ctors
Ġdraw s
Ġteacher s
Ġrena issance
Ġsent iment
Ġ184 0
Ġc ale
Ġp i
Ġdel ight
Ġmeas uring
Ġcent ered
Ġmet ac
Ġscient ist
Ġexplan ation
Ġst ability
Ġgen res
Ġmusl ims
Ġacclaim ed
Ġen com
Ġsac red
Ġbet ray
Ġpar ade
Ġass erted
Ġprelimin ary
Ġne pt
Ġwor se
Ġest ates
Ġbar cel
Ġs ri
ul us
Ġfried rich
Ġcancel ed
Ġcomp iled
Ġsit uations
Ġmal ta
Ġox id
han ced
Ġsh iva
Ġwal t
Ġcelebr ate
Ġgrav ity
Ġyugoslav ia
Ġspeed s
Ġbul let
Ġcollabor ated
Ġindu cted
Ġt ren
Ġto ugh
Ġen hanced
Ġtw itter
Ġ11 9
Ġsubt ropical
Ġexter ior
Ġinc idents
Ġroad way
Ġlay ers
Ġfocus ing
Ġmas k
Ġabsor bed
Ġlocomot ives
Ġto l
Ġcontin ent
Ġbra h
Ġpl ains
Ġme ga
Ġdefin itely
Ġs ut
ul um
Ġcrit ically
Ġre iss
Ġachie v
Ġvary ing
am ine
ect ive
g ans
Ġt um
Ġa ided
Ġte nder
ac ing
Ġfl oren
Ġappe als
Ġsubmar ines
Ġto b
ut ely
os ion
Ġcar r
Ġpublic ity
Ġelev ated
Ġin ex
Ġm aced
Ġreg ist
Ġnet works
Ġoliv ia
Ġafghan istan
av an
Ġle o
Ġsm oking
Ġbur ke
Ġtom atoes
ett es
Ġnorm andy
reg ular
Ġtarget ed
Ġh ass
Ġat op
Ġbut ler
Ġfort ifications
Ġcreat ures
Ġdiscuss ing
Ġrit ual
Ġleices ter
Ġb old
Ġbet a
Ġangel ou
as m
Ġh ir
ig a
Ġconf used
Ġir regular
z es
Ġt ensions
Ġd ive
Ġr ays
op ol
rit ic
Ġscout ing
Ġle eds
Ġdro pping
Ġdisl ik
Ġgo ogle
Ġhel en
Ġtom orrow
ed ing
Ã© t
Ġposition ed
Ġshop ping
i ors
Ġmar ched
Ġrem inis
Ġfun gus
Ġ188 7
Ġpreced ing
Ġabsol ute
Ġsp ots
Ġsum mon
Ġswe pt
Ġm am
Ġle agues
Ġalb any
Ġtreas ury
z ac
Ġa ub
Ġresign ation
Ġcomprom ise
Ġauthen tic
Ã ´
Ġed mund
Ġtrans mission
ip her
Ġ186 3
Ġmechan ics
Ġmyster ious
Ġanch or
Ġspace craft
Ġgro ve
Ġmanif est
Ġpok Ã©
id d
Ġconcept s
Ġm entions
ros cop
Ġsail ors
or ious
Ġwant ing
Ġp ly
Ġ188 6
Ġdenn is
£ o
Ġmanag ing
Ġbrig ades
f ront
Ġpo ver
Ġcor ruption
Ġvi ii
Ġarg uments
Ġbond s
Ġgreg ory
Ġtre m
Ġdark er
Ġst air
Ġpro xim
Ġfar mer
Ġatmosp heric
Ġcinem at
Ġvent ure
n n
Ġj na
Ġbr ings
Ġwork er
Ġwal ks
Ġst ored
Ġtr ap
Ġfl own
umber land
h art
Ġlo aded
Ġsl am
Ġpur ple
Ġassass ination
Ġpover ty
ro gen
ac ular
Ġsacr ament
im ony
Ġse am
ak u
ab a
Ġsw an
Ġjul ian
Ġcorrespond ing
Ġschum acher
Ġm our
Ġcon ced
Ġmar ath
Ġknow ing
Ġdev ot
Ġinstru ctions
Ġgr aves
ane ous
Ġcondem ned
ick ing
Ġph yl
ug g
Ġir an
Ġe man
Ġor ton
Ġfin est
Ġmiss ile
Ġmckin ley
in stein
Ġn ass
Ġr ar
Ġ11 4
Ġ14 5
Ġlist ening
Ġm ouse
le ted
Ġhis pan
Ġbut t
Ġfl ot
Ġpr ide
Ġwid ow
Ġnas a
Ġf inger
ission ed
Ġang els
â Ģ
Ġpre ference
Ġbre ad
Ġfair y
Ġorchest ral
Ġ ËĪ
in ter
Ġis ab
Ġep it
Ġmo ist
Ġin ver
Ġd ining
Ġbut ton
Ġfav ored
Ġphys ically
Ġprinc eton
Ġrot ation
Ġmig ration
Ġret reated
Ġevery body
Ġtorped oes
Ġa ria
Ġf ing
Ġinh g
Ġshel ter
Ġpreserv ation
Ġdr ake
Ġdet ected
Ġchalleng ing
Ġceremon ies
st an
Ġbl amed
Ġh ok
Ġgen esis
Ġparticip ating
Ġgust s
Ġn athan
Ġmod est
Ġhol land
Ġm ock
Ġbarcel ona
ag g
Ġsu e
Ġ188 4
Ġmont ana
Ġhub bard
Ġdisb anded
Ġm ull
om on
Ġconscious ness
Ġdis abled
aj a
Ġachiev ements
ro d
ag ers
oc c
Ġmap le
Ġstead ily
Ġreb ounds
Ġmess ages
Ġcompos ers
m ill
Ġag encies
Ġfl esh
Ġrad ius
Ġse eds
Ġcomp rehens
Ġflu or
Ġglas gow
y ll
Ġpost er
Ġcalc ulated
Ġveget ation
Ġan ts
Ġsum mar
Ġcommit ment
Ġemerg ing
Ġvari able
Ġdist inction
Ġ13 2
Ġsoc i
Ġconv ince
Ġven ues
Ġprint ing
ust ers
Ġab st
Ġsing ers
Ġpost p
Ġs od
Ġqu it
Ġsm ackdown
Ġcon vey
Ġbel le
Ġcooper ation
Ġreserv es
Ġd ad
Ġcan ucks
Ġaust ro
Ġopin ions
Ġas cend
Ġconf ig
Ġelect oral
Ġwond ering
Ġin tend
Ġtr il
Ġsole ly
Ġv est
Ġqu oted
Ġmot if
s is
Ġg ig
Ġmen u
Ġpil gr
ed a
Ġend ang
Ġ12 9
Ġcondu cting
Ġg ast
Ġne uro
Ġprior ity
Ġsongwrit ing
Ġthe odore
Ġl az
Ġher bert
Ġwalk ed
Ë Ĳ
le m
Ġr ams
Ġwh ales
Ġman uel
Ġco pe
Ġem ma
Ġland mark
augh ter
Ġnev ada
Ġpock et
Ã¶ r
Ġcelt ic
Ġdep ot
Ġnat urally
Ġchief s
Ġexam ined
Ġextra ordin
Ġgrap hic
ar us
Ġweak ness
Ġn em
Ġhe in
Ġis les
let t
in us
Ġbar k
Ġscre ens
Ġess ay
Ġelig ible
Ġh arsh
ul ates
Ġind irect
Ġwest minster
Ġtrack ing
on so
it als
ic on
Ġj in
Ġint r
Ġdem on
Ġ23 0
Ġround ed
Ġheav ier
Ġjama ica
Ġb ce
Ġbe ast
Ġro uting
Ġpo e
Ġrem ake
Ġtem ples
Ġmad rid
Ġtint in
Ġa ids
Ġde er
Ġmar qu
Ġpat ro
Ġhom osexual
Ġvolcan o
re ls
Ġl ut
Ġal am
ish ops
Ġpr ay
Ġli bert
Ġdec isive
Ġcur ved
Ġ187 7
Ġaware ness
Ġfrag ments
Ġj ets
Ġcomp aring
Ġnew found
Ġdem ographic
Ġ13 8
ik i
Ġfar ms
Ġtax onomy
Ġconsider ation
Ġthem ed
Ġph on
Ġnational ist
Ġspect rum
Ġprompt ing
o i
ard ed
Ġver n
Ġleg ion
Ġ187 6
Ġlog o
Ġchann els
Ġmerced es
Ġto ol
Ġlike wise
Ġgu adal
Ġpost hum
ab ad
Ġ10 3
Ġang les
Ġnon stop
Ġcarl os
Ġaccompl ished
Ġ Ð
ie v
Ġper cy
Ġdesc ript
Ġpsych ological
Ġy d
Ġgl ou
Ġtour ists
Ġcontr ad
Ġron ald
Ġgather ing
Ġsurp rising
Ġman ning
Ġsil ence
Ġagre es
Ġbul garian
Ġelement ary
ac c
Ġafter ward
Ġcons ens
Ġperform ers
Ġmil an
Ġvirt ual
Ġdynam ic
ro c
Ġcon fer
Ġpro claimed
Ġun off
Ġposs essed
Ġpriv ile
Ġconnect s
Ġexpect ations
d an
l ake
as ia
om ing
Ġplay able
Ġem ig
Ġref uses
se ason
Ġmc g
Ġsens itive
Ġserge ant
Ġm ast
Ġfrig ate
Ġensemb le
Ġcomment ators
umber ed
Ġlad ies
Ġcomm ons
Ġsign als
Ġconsequ ences
Ġharv est
Ġro sen
Ġrefuge es
Ġkilome ters
Ġcuis ine
Ġn ak
Ġch ip
Ġch ains
Ġout come
Ġins uff
Ġuk rain
Ġcub ic
Ġmunicip ality
Ä «
Ġcomp rising
Ġgu it
Ġott awa
Ġn ig
Ġdiscip line
Ġs ans
is ations
Ġst om
Ġj oke
ist ical
Ġste ady
Ġemb assy
Ġfear s
Ġw r
at ar
Ġcon g
Ġdisc our
Ġadj ust
Ġtransform ed
Ġforg ot
ri um
Ġcol in
Ġunder water
Ġdep iction
á» ĩ
Ġfab ric
et a
Ġ18 30
enn ial
Ġintellig ent
Ġexerc ises
Ġpione er
Ġencom pass
ri ans
Ġpl a
Ġop ined
Ġcelebr ity
Ġemot ions
Ġm isc
Ġand r
Ġn ok
Ġr ational
Ġr anch
Ġab ra
Ġbanks ia
Ġdepos its
Ġproced ure
Ġch al
Ġstr ings
Ġwid th
Ġproper ly
Ġpay ment
d ers
Ġdis hes
Ġgr im
Ġ12 8
Ġstri ker
Ġmicha els
Ġdeliber ately
Ġmond ay
Ġexecut ives
ĠpokÃ© mon
ol an
Ġ187 5
Ġbarr acks
Ġrout ine
Ġs aga
Ġan ger
Ġus her
Ġreluct ant
Ġw er
Ġpro ud
att y
Ġph osph
Ġkey board
Ġg ale
Ġprocess ing
ank a
Ġsand y
Ġtw e
Ġform ations
Ġpow ell
Ġray mond
Ġan a
Ġper mit
Ġce o
Ġdial ect
Ġguit ars
i ens
00 0
Ġen ix
Ġcontrib ute
Ġcompliment ed
Ġb out
Ġbe ver
Ġvar ies
Ġher b
Ġdest ination
Ġgau ge
Ġs ul
Ġe cl
ig hed
Ġmid dles
Ġestim ate
Ġphot os
Ġven ice
Ġvocal ist
Ġextend s
Ġloyal ty
Ġg em
Ġun anim
Ġmet als
Ġcomple ment
Ġrichard son
Ġhend erson
in th
Ġd ome
am ation
Ġtrib ut
Ġenl ar
Ġon wards
Ġst ing
Ġk um
Ġbl air
Ġcar ved
Ġfar ming
Ġbow led
Ġfer din
Ġphilos oph
Ġnerv ous
ur d
et ary
Ġche n
Ġfun k
Ġce iling
Ġ188 3
Ġexpress way
Ġl amp
Ġcolle cting
Ġparaly mp
ist ing
Ġsp ite
Ġmill ions
Ġroman ian
he rent
or ic
Ġpol es
Ġ188 1
Ġcontrib uting
Ġcontem por
Ġrequire ment
Ġin put
Ġst aged
ch w
Ġâ Ļ
Ġrock ets
Ġroll er
Ġinstrument ation
Ġp ont
Ġr ag
Ġal umn
app a
Ġreve aling
Ġber m
Ġcompl aints
Ġst ir
Ġst abil
Ġche ese
Ġdise ases
a un
z i
Ġp ix
Ġd op
Ġass ets
Ġdam aging
Ġconsist ently
Ġteen age
y ers
al t
Ġun aware
Ġcl ause
Ġmon k
Ġrad i
Ġlem urs
Ġsu ite
act ic
Ġbl og
Ġcame o
Ġder by
Ġsymb ols
Ġphenom enon
Ġl ing
em a
Ġlanc ash
ant ed
ip er
Ġmid way
Ġpolit ically
Ġwat son
Ġdun can
Ġlocomot ive
Ġenviron ments
Ġell en
Ġjump ing
Ġsix ty
Ġpow der
Ġchap ters
Ġperman ently
ad ows
Ġfl oyd
Ġcal gary
Ġ186 9
Ġbelong ing
f s
Ġimpro ving
Ġlancash ire
Ġprevent ing
Ġadvis ory
Ġrefere e
Ġdisp uted
Ġrod rig
Ġdet achment
Ġdi ary
Ġaccept ance
Ġperc ussion
Ġ7 50
Ġgener a
Ġdisp atched
v ent
Ġn g
Ġtr inity
Ġver onica
Ġswit ched
Ġch lor
ian g
Ġwhe at
ater n
Ġless ons
Ġ186 6
Ġeru ption
Ġteles cope
Ġth ai
Ġal ly
Ġan x
Ġqu int
Ġcolle ges
Ġdest iny
Ġfact ion
Ġhabit ats
Ġretrie ved
Ġun rel
Ġfr ances
Ġhypothes is
Ġpatro ls
Ġf art
ri ages
Ġgl ory
Ġobject ives
Ġrede velop
b us
he nd
Ġcir cles
Ġarg ue
Ġblock ade
Ġwitness ed
Ġfra ud
Ġconsens us
i ar
Ġs ag
Ġplan es
Ġinteract ions
Ġunsuccess fully
ke ep
Ġgr ants
Ġiron cl
al ia
Ġbe ij
Ġres on
Ġcost umes
Ġlength s
Ġadapt ations
Ġexplos ive
Ġcraw ford
Ġsynd rome
Ġdimens ional
Ġacc us
Ġtrad em
Ġlov es
Ġfresh man
Ġinnoc ent
Ġseb ast
om ed
Ġec cles
Ġsuff er
Ġencour age
Ġalleg ations
Ġpublisher s
Ġbacter ia
st own
Ġper pet
Ġact ively
Ġ12 6
Ġhom eless
Ġimmig rants
Ġjudg ment
k ers
Ġb iz
Ġin cl
Ġe b
Ġren own
Ġsubm erged
on i
Ġdes ired
Ġdig it
b rien
Ġm bar
Ġl il
Ġre op
Ġacc ol
Ġbelong ed
Ġs ara
Ġcon vert
ab l
Ġfl anders
Ġhem isp
Ġabund ant
Ġthough ts
Ġtas ks
Ġdistingu ish
Ġpalest ine
z ig
Ġd ot
Ġland ings
Ġ188 2
Ġparam ount
Ġover d
en ues
Ġn aked
bo at
er m
Ġred s
Ġbal c
Ġnickn amed
om ys
Ġfe ver
Ġ12 2
Ġintrodu ce
Ġ187 3
Ġcongreg ation
Ġfis cher
Ġtuck er
Ġunus ually
Ġdud ley
Ġf usion
Ġl ava
Ġcontr ary
Ġbac hel
f in
ist le
Ġse af
land o
Ġship ped
Ġfr inge
Ġeld est
Ġcaf e
Ġaar on
Ġmachin ery
Ġe g
Ġdemocr acy
Ġproceed ings
Ġadvoc ate
Ġcyl inder
Ġcruc ial
Ġbeij ing
Ġi w
Ġ186 7
e on
Ġne arest
Ġcl if
Ġnew man
Ġninet eenth
Ġmccar thy
av ian
Ġ187 1
Ġgib son
Ġoverwhel ming
Ġt rench
Ġde als
Ġv iv
Ġpro c
Ġad equ
Ġsub ordin
Ġinst ruction
Ġfight s
Ġsurpass ed
Ġt il
Ġrep et
ring ton
Ġbig ger
Ġet c
Ġtriang le
Ġf ul
Ġf ount
Ġk em
Ġdef enses
Ġsouth ampton
Ġadv ocated
Ġwood land
Ġcha os
Ġvamp ire
Ã ł
Ġh il
ult ure
Ġke pler
Ġhorse power
Ġver d
Ġexp ort
Ġche t
Ġreview ing
Ġh oll
Ġdiv ing
Ġplat oon
Ġfest ivals
Ġhorn s
Ġpound er
Ġwol ver
Ġarist ocr
Ġamen ities
Ġc ric
Ġun ity
Ġtr uman
Ġmon uments
Ġz ones
Ġ11 6
Ġhun ters
Ġmal ay
Ġ187 8
Ġlun ch
Ġm ott
Ġsl ower
Ã¨ re
Ġm aker
Ġun e
Ġsp ores
Ġint im
Ġtri ps
Ġstory lines
Ġcompr ised
c u
m other
Ġsh an
Ġad ela
Ġrel ax
Ġ13 7
Ġnest s
Ġth orn
Ġch i
Ġhon est
Ġmanufact ured
Ġmos que
Ġabsol utely
w affe
Ġw ander
Ġr ushed
Ġch ances
Ġbo ot
Ġexpl ored
Ġliter ally
Ġcust oms
Ġvari ant
Ġnob el
in qu
Ġp ist
Ġd ere
Ġd orm
Ġge ography
che l
Ġbor ne
Ġelev enth
Ġr aven
Ġaver aged
head s
Ġmac donald
Ġendang ered
y stem
Ġsome where
ipp ing
Ġlog an
Ġturb ines
Ġunve iled
Ġhorizont al
ol ith
Ġresemb le
Ġvl ad
Ġf erg
Ġm ing
al id
Ġn h
Ġcomp act
Ġspec ulated
Ġeconom ics
Ġbr ass
Ġgr ain
Ġinde x
Ġath lete
Ġcub s
Ġspect ators
Ġcopy right
Ġcurren cy
Ġa ston
Ġunder took
Ġrel ating
Ġstri pped
Ġlength y
Ġshir t
Ġl p
Ġout s
Ġme yer
Ġdiss olved
Ġman ages
Ġadd s
Ġdam ages
Ġine ff
Ġenorm ous
Ġl one
Ġch in
Ġen suing
Ġover come
Ġchand ler
Ġprost it
Ġmetac ritic
Ġbalc ony
ig o
Ġk et
Ġtr ump
app y
p it
on ing
Ġl uther
Ġsw amp
Ġcoast line
Ġsel ena
Ġmaneu ver
Ġr ah
Ġany where
Ġadmiral ty
Ġbapt ist
Ġtrig ger
Ġm ick
Ġwell ington
Ġinstall ation
Ġguar ant
n ut
Ġn l
Ġan k
Ġsyn opsis
Ġeditor ial
oty pes
Ġcor al
Ġinterview ed
Ġdiscuss ions
Ġstro ke
Ġor al
Ġj ail
Ġk ay
Ġext inction
Ġan onymous
Ġle ather
Ġrel ied
Ġqual ities
Ġmist ake
Ġnom ine
Ġagu il
c ock
Ġint act
Ġmon roe
Ġlyn ch
Ġtril ogy
Ġw ishes
em ploy
Ġaw a
je ctions
Ġmerch and
Ġlem ur
Ġas p
h and
Ġad rian
Ġeng aging
Ġcas ino
Ġluft waffe
Ġmar x
Ġjo ins
ograp hed
Ġshel ley
Ġberm uda
en z
ich i
over ed
Ġsil k
Ġinsuff icient
Ġaguil era
Ã ª
um s
Ġbl ake
Ġbank rupt
Ġlif ted
Ġfunction al
Ġmax well
Ġsacrament o
or igin
as aki
Ġal ert
th rough
Ġrel ay
Ġadv ances
Ġsumm ary
Ġrap per
Ġg ains
ol o
Ġali ens
Ġt in
Ġsh ack
ov es
Ġnew port
Ġrev ived
Ġcult ures
Ġot to
Ġphill ips
Ġbattlecru isers
Ġwe ighed
Ġfle e
Ġproceed s
Ġgl am
Ġ186 8
Ġ187 2
Ġgross ed
Ġw ise
Ġneg le
Ġscreen ing
Ġflu id
Ġd ish
Ġg le
Ġcr ust
Ġjun gle
Ġbus y
Ġnob ody
Ġinstru cted
Ġa us
Ġfemin ist
Ġreminis cent
ov sky
Ġrul ers
mon ton
Ġell is
Ġbright on
Ġar ctic
Ġsuccess ive
Ġphot ographer
Ġmarc us
k as
Ġc ere
Ġc res
Ġb ik
ell s
Ġph ant
mit t
Ġsoviet s
Ġcurt is
Ġdak ota
Ġferdin and
Ġr iff
Ġsh ops
ub s
Ġincom ple
Ġenroll ed
gen er
Ġinterse ctions
Ġcoron ation
Ġit em
Ġde eper
Ġun employ
Ġdis gu
Ġrum ors
Ġgor ge
Ġbare ly
Ġsu ited
Ġor lando
ne ath
Ġlob by
Ġw ald
Ġr az
Ġr iley
Ġbl ank
Ġpe pper
Ġbow ie
Ġdeal t
Ġb ishops
Ġappe aled
Ġmass es
Ġdeploy ment
Ġfloren ce
he red
Ġwas hed
Ġle igh
ke ley
Ġmerch ants
Ġgram mar
l ia
r s
Ġtr ace
Ġman n
Ġbats man
Ġh ond
im er
Ġam p
Ġinter ference
Ġass ign
Ġsub sc
Ġter med
aur us
Ġpack age
Ġflo ating
at em
Ġsc rat
Ġcont ing
Ġimport ed
Ġrob ot
Ġpeng u
Ġsym met
Ġwrest le
Ġquant ities
Ġd art
ber y
Ġar bit
Ġsp encer
Ġdis rupt
Ġunder grad
Ġgames pot
Ġcal m
Ġdisp utes
Ġpan els
Ġinvestig ations
gu ard
od on
pt ic
Ġpriv ately
Ġadela ide
Ġs ier
e an
Ġh anc
Ġret ros
Ġpers ec
Ġgeoff rey
Ġcon form
Ġexhib ited
Ġmob il
Ġr as
Ġtw ins
ob ile
Ġsepar ately
Ġanal og
Ġthick ness
Ġjenn ifer
Ġww f
Ġal k
Ġesc al
Ġsurre y
Ġinquir y
h in
Ġbook ed
Ġcur ves
Ġdel ays
Ġsh oo
Ġun rest
olog ically
Ġec ology
Ġvi enna
Ġflo ors
Ġch an
all ing
Ġsupp orter
Ġinvol ve
Ġdies el
Ġbald win
re ct
iz z
Ġexp ense
Ġes sex
Ġrom ans
Ġreal m
g on
Ġt ables
Ġp agan
Ġv ander
Ġinter rupted
Ġbar rett
Ġmag ical
Ġpat ch
Ġcust ody
Ġpav il
Ġapprec iate
Ġdislik ed
Ġflot illa
Ġabra ham
Ġgen ius
Ġunder neath
Ġdec omp
Ġst ark
Ġla f
Ġtot ally
Ġanth rop
Ġmathemat ical
Ġcyl ind
Ġcheap est
Ġredes ign
k inson
Ġk ub
Ġco aster
Ġce ase
Ġpu zz
writ er
Ġcontest ed
Ġsurviv or
Ġply mouth
h ow
Ġpl astic
Ġrep aired
iss a
Ġdevelop er
Ġdet on
Ġexper ts
Ġprote cting
Ġunc on
Ġtrib al
Ġdun ge
Ġlic ensed
Ġtherap y
Ġproxim ity
ass ed
Ġwar rant
Ġref it
Ġbal let
Ġdescend ants
Ġautom atic
p ic
Ġf m
ĠâĢ ²
Ġpres um
ec hes
Ġmv p
in te
ut ors
Ġk es
Ġlim estone
Ġproject ed
Ġru ins
Ġlun ar
Ġmole cules
Ġplut onium
Ġne o
Ġloc ate
Ġcal iber
Ġpyram id
Ġc ec
Ġr ia
Ġseason al
Ġoper ator
Ġmy st
Ġcard inal
Ġseem ingly
Ġexcess ive
Ġ á
Ġ ump
Ġcapt ivity
Ġcoll ision
Ġmot ors
Ġped est
b t
Ġp orter
ic ity
ir i
Ġpl ed
Ġsec ular
Ġarchitect s
Ġjer emy
Ġferg us
Ġcom et
Ġcol oured
Ġnor se
Ġkeep s
Ġthr ust
Ġrequest s
Ġdeleg ation
Ġlt d
Ġl uck
Ġinv ented
Ġpron ounced
Ġhanc ock
ur g
Ġpre ston
Ġmon ks
Ġassoci ates
Ġflood s
Ġdaniel s
Ġbos nia
Ġmaid en
Ġo val
Ġh ate
ad d
Ġv ault
our t
Ġacqu isition
Ġt ul
Ġc rom
ach ing
Ġtro ut
Ġlif estyle
Ġall ocated
Ġtun nels
Ġbeng al
Ġsh at
Ġ12 3
Ġcolumb us
d ot
Ġdom ain
Ġimm un
Ġstrugg ling
Ġcompar able
Ġhawai ian
Ġextraordin ary
Ġc ree
Ġstr ang
Ġmo or
Ġgar c
Ġacqu ire
Ġsoph istic
Î ½
Ġnew er
Ġqu art
Ġed monton
hous es
st ad
ac on
Ġhe ct
Ġmar ble
Ġgar age
el i
Ġ20 2
Ġsub tle
Ġmc donald
athe tic
Ġf og
Ġle ban
Ġunder go
Ġdemand ing
Ġfor ts
id o
Ġind oor
Ġclim bing
Ġimmig ration
Ġark ansas
Ġs ne
ur bed
Ġcru z
Ġrefle cting
Ġsav age
im mer
Ġsub urb
Ġgener ations
gr ade
Ġfatal ities
Ġsevent een
x ide
Ġb rom
as i
Ġtw elf
ace ous
Ġhigh land
Ġpubl ish
Ġpop ulated
Ġroman ia
Ġtwelf th
Ï Ĥ
Ġre yn
Ġby r
Ġy u
Ġher gÃ©
Ġevolution ary
Ġdisappe ar
Ġdir ty
t an
er ies
Ġad ri
Ġstar r
Ġscrap ped
w ig
Ġn un
Ġback up
Ġ187 9
Ġpier ce
Ġau ction
Ġenforce ment
Ġfier ce
Ġa i
im ir
Ġmus cle
Ġgen es
Ġtrans p
Ġmod ifications
Ġdod gers
Ġaccompl ish
d o
os ity
Ġperfect ly
Ġn ost
Ġwor ried
Ġdiscontin ued
Ġjan et
Ġopen ly
Ġcrown ed
Ġdescend ed
Ġneighbour ing
Ġlesb ian
ed e
Ġsh ank
Ġtr aged
Ġper imeter
Ġcrit eria
Ġdemonst rate
ish n
Ġconf ess
Ġmcc ain
Ġbit ter
Ġdemonst ration
Ġamaz on
Ġsubur ban
Ġo re
Ġper th
Ġmin er
Ġstre ams
Ġmer it
Ġinteract ive
Ġpav ed
Ġadminister ed
Ġar cher
Ġmin ogue
na e
Ġhal ted
Ġlanc aster
Ġlith uan
Ġgon z
ir ts
ab et
Ġbes ie
b el
Ġd io
Ġy ok
Ġspe akers
Ġskin ner
Ġupgr ade
Ġsket ch
Ġreg ained
Ġart if
Ġ27 0
Ġre writ
Ġj okes
Ġ13 4
Ġsubst ance
l ies
is le
Ġcre ates
Ġval ent
Ġnecess arily
Ġnewfound land
he ro
Ġs es
um i
Ġatt achment
Ġvac ation
Ġconfirm ation
Ġgriff in
Ġcler k
he ning
Ġoper as
Ġer osion
Ġcontract ed
Ġscen ario
Ġhealth y
Ġban ner
Ġelder ly
Ġpl ug
Ġdecl aring
Ġrid ic
Ġmod es
ator ial
Ġho ff
Ġtur ks
Ġkore ans
Ġhaw k
Ġpregn ancy
Ġerr ors
Ġcale nd
Ġsp iel
Ġanti qu
nat ural
Ġc ure
Ġ12 4
Ġmonarch y
g el
s l
ov ich
Ġbl ond
Ġtor ch
Ġb alk
Ġp us
ent ric
Ġamb itious
Ġca ution
Ġopt ed
ro ads
Ġk om
Ġdr unk
Ð °
Ġsc outs
Ġbl ade
Ġspecial ized
Ġam pl
Ġret ro
Ġche er
Ġident ification
Ġbi ology
9 9
Ġc ig
Ġf ool
Ġm ath
Ġro de
Ġar row
Ġfind ings
Ġstra it
Ġprohib ited
Ġgr ab
Ġdiv ide
Ġsomet ime
Ġnorthwest ward
Ġo g
Ġf ond
le w
Ġper m
Ġstr at
Ġharm ony
Ġbuddh ist
Ġsier ra
Ġj g
Ġle ase
Ġres erved
Ġem ily
Ġdec omm
p ro
Ġinv itation
Ġpal mer
less ly
Ġlou ise
Ġmotor way
Ġstrengt hening
Ġthro at
Ġaggreg ate
Ġcric ke
o ft
Ġl ingu
Ġr ust
Ġk le
Ġsp are
Ġl au
Ġwould n
Ġdet ached
Ġspecial ist
Ġlack s
Ġspong eb
b ank
g ins
Ġcarol ine
Ġri ot
Ġmemor able
Ġk ra
Ġdec iding
Ġmo z
Ġmer ger
Ġremark able
Ġcomprehens ive
av ed
Ġro th
Ġcont ents
Ġlo ading
Ġhar per
Ġcorn ers
Ġliber ation
Ġeleph ant
Ġst uck
Ġk ens
Ġsp here
Ġteam mates
Ġsoc ieties
Ġfre ight
Ġrecogn ize
p ost
Ġh ab
Ġg ut
Ġsp ark
Ġrun way
Ġcolle ctor
Ġb j
Ġr ut
Ġrun ners
Ġanat omy
c ore
w ic
Ġm old
Ġinter fer
Ġcent res
Ġfrag ment
Ġjuven ile
Ġj ag
Ġtr an
Ġbachel or
Ġc ater
ub a
Ġcal vin
Ġtop ic
Ġbus ch
Ġber ry
Ġalleged ly
an us
Ġro chester
Ġintrodu cing
Ġlay out
Ġmeasure ments
Ġobser vers
Ġh ann
Ġwh ites
Ġk ath
Ġar d
ens on
Ġmet ab
ina e
Ġfranc o
l ist
Ġw elf
ant o
Ġreal izes
Ġbass ist
st ock
Ġhop kins
Ġprogress ion
Ġlegend s
Ġdiagn osis
Ġcompens ation
Ġdesper ate
Ġbas ement
Ġdro wned
Ġconsum er
Ġsubur bs
Ġincomple te
Ã £o
Ġm ere
Ġh iding
Ġk as
ul u
Ġmu zzle
Ġmaur ice
y e
Ġp ian
Ġd ys
Ġg ir
Ġk ot
Ġ21 0
Ġdefe nder
Ġsurf aces
Ġattract ive
Ġdiamond s
Ġcomfort able
Ġt ampa
Ġun pre
Ġgener ate
Ġreserv ations
Ġfro zen
o op
Ġn ed
Ġe ase
Ġed ges
Ġgar field
Ġdoub les
Ġelimin ate
Ġv ow
Ġspe eches
Ġmore over
Ġsuper man
Ġdev on
Ġgrand e
Ġsyn th
Ġprov en
Ġp ushing
orm al
Ġover th
Ġcons ent
fic ial
Ġrand y
Ġdrain age
h d
ach i
Ġgu atem
Ġrevers ed
Ġcr ack
hol m
p erson
Ġd ian
Ġsl ot
Ġsuper vis
Ġcla ire
p ow
Ġr na
Ġconj unction
Ġb io
Ġcomp uters
Ġsec uring
Ġloc ked
Ġcolle ctive
Ġir ving
Ġwinds or
m m
Ġb red
Ġsol utions
Ġcho osing
Ġpan ic
Ġbac on
Ġsufficient ly
Ġunp op
n ar
Ġf uck
Ġd h
Ġreg ulation
Ġ184 8
Ġcatal og
Ġspiel berg
Ġrhodes ia
Ġrif les
Ġsubd iv
Ġwelf are
Ġhosp itals
Ġemb arr
Ġhang ing
Ġtreas ure
r ators
Ġt at
Ġhard ware
Ġ187 4
Ġpan ama
Ġlu is
Ġcamer as
bro ok
Ġt iny
Ġh od
ur ers
Ġsc ales
Ġhel m
Ġprom ising
Ġbas il
Ġhemisp here
Ġair play
Ġs op
ay ette
Ġev ol
Ġbus es
Ġput s
Ġapprec iated
Ġmichel le
Ġspongeb ob
Ġch at
Ġsol omon
Ġhol mes
Ġw o
Ġcon tend
Ġvol unt
Ġexc iting
Ġraid ers
bird s
Ġed win
Ġel im
Ġplate au
Ġaux ili
Ġde gener
Ġgu ess
ern ess
ĠÂ µ
Ġeas ter
Ġbreak through
Ġcounter att
Ġemphas ized
Ġmurd ers
Ġarmen ia
Ġch ick
Ġprev iew
Ġra pe
Ġspecific ations
Ġarab ic
Ġfinn ish
Ġread s
Ġstan ford
Ġillust rations
Ġreserv ation
Ġjac ques
Ġnap les
Ġa ster
ed ed
Ġch im
Ġman ual
Ġass essed
Ġvari ants
Ġski ing
el ines
Ġtr in
Ġi x
Ġbu zz
Ġinf ected
Ġmer cy
Ġcompet itors
Ġdou g
Ġdimens ions
Ġd ow
Ġk ang
Ġnot ion
Ġab origin
Ġpres ley
Ġgrad uating
Ġber keley
Ġincorpor ates
Ġdinosaur s
Ġlegit imate
Ġgabri el
Ġh ale
Ġcomp at
Ġser bs
Ġfrust rated
Ġb ree
Ġv ect
ov o
Ġinc ons
Ġfle t
Ġbur st
Ġrh ode
Ġlind wall
Ġfro st
Ġw ounds
qu er
Ġline up
osp here
Ġcou pled
Ġblood y
Ġcub an
Ġcitizens hip
Ġglac ier
w y
ist ically
ck er
Ġass ignment
Ġter restrial
Ġaugust us
Ġmiss iles
Ġund ers
Ġcontroll ing
Ġdiagn osed
' ve
Ġf en
Ġm oss
al ous
Ġst unt
Ġal c
Ġv es
Ġor gans
qu al
Ġdu et
Ġham burg
Ġstal in
Ġartif act
Ġdri ft
ag ic
Ġmar tha
Ġger ald
Ġbreak down
Ġphys ician
Ġinvestig ated
Ġpup ils
ol ine
Ġnorth bound
Ġship yard
Ġcirc us
Ġinhab ited
Ġg av
Ġwe ird
Ġbl az
Ġdr ives
Ġprev al
Ġconf ined
Ġrang ed
Ġqual ify
Ġtend ed
Ġ Å¡
Ġr Ã©
Ġad mit
ra id
Ġ28 0
Ġaccol ades
Ġelim ination
re z
el ia
Ġpress ed
Ġfact s
Ġcaes ar
Ġt us
Ġmon key
Ġz el
Ġcare fully
Ġpat ent
Ġtest imony
Ġsex ually
Ġmaint ains
el ing
Ġst ance
Ġcar riage
Ġgrand son
Ġske leton
Ġunfortun ately
Ġs z
Ġo ber
Ġsat ir
Ġemploy ee
Ġlay ing
Ġoccup y
Ġkenn y
Ġsumm ers
Ġhelicop ters
Ġcarp enter
oca ust
Ġsu nder
Ġ201 7
Ġmanag ers
Ġgenu ine
Ġf et
Ġn c
Ġtra vers
or o
os hi
Ġle an
Ġgo ver
Ġgl enn
Ġsleep ing
Ġjenn ings
Ġbulgar ia
Ġfor get
qu et
Ġdel hi
Ġred d
Ġpain ter
Ġsand wich
Ġfit ting
Ġen able
Ġev angel
Ġwar wick
Ġdisc o
Ġhaz ard
Ġexha ust
Ġbl own
Ġdesign ers
ats u
Ġreform ed
Ġvac c
Ġentert aining
Ġunoff icial
Ġc auc
om es
Ġhe ter
Ġse iz
Ġchap man
Ġenthusi astic
Ġl ig
Ġtop ics
Ġstat ute
Ġec os
Ġcivil ization
Ġmaneu vers
m atic
Ġp ard
ish i
Ġprof its
Ġciv ic
Ġinnov ative
Ġwas h
Ġsuccess es
Ġdefe ats
Ġmist aken
k el
Ġb ism
Ġas hes
ros se
Ġhon ored
Ġbox ing
Ġeu rop
Ġenh ance
Ġb icy
ail ing
Ġtechn ologies
Ġ185 1
Ġgover ning
Ġsc ope
Ġwater line
Ġesc apes
can al
Ġbol ton
Ġpro se
Ġprosec ution
Ġflet cher
Ġr ises
Ġm umb
ac ement
Ġgu ided
Ġprote ctive
Ġhol ocaust
Ġhay es
Ġproced ures
Ġisot opes
Ġb ust
Ġd uches
Ġmin eral
Ġ14 8
Ġbed room
Ġdisappoint ment
Ġste pped
Ġfur ious
Ġaccur acy
Ġnur se
Ġphyl ogen
Ġd ign
ons c
Ġed gar
Ġneighbor ing
a o
ri pp
Ġgo eb
Ġass ume
ne um
uch i
Ġins cription
Ġang lic
Ġgrad uation
Ġrefere nd
Ġrecon cil
Ġguadal canal
Ġsc orer
Ġbr andon
Ġ14 9
Ġspa wned
Ġc ement
Ġreg ret
Ġins pe
Ġmoment um
Ġperform er
Ġla ura
Ġnation ally
ĠÎ ¼
Ġtong ue
Ġd up
Ġtr ails
ru p
pl ing
Ġjo el
Ġsub mit
Ġdemocr at
Ġtra its
Ġimprison ment
h urst
Ġt ac
Ġstrugg les
Ġsynthes is
Ġunn amed
5 5
Ġf ake
ou d
Ġex ceeded
Ġacad em
Ġslow ed
Ġincorpor ate
Ġforgot ten
Ġre ly
Ġear s
Ġarr ay
Ġconclud es
Ġcustom er
Ġeis enh
Ġav al
Ġreal ize
Ġconv inc
Ġread ily
Ġmun ich
Ġsh out
Ġir re
oph one
Ġsh ale
Ġluc y
Ġbang l
Ġreh abil
Ġphilosoph ical
Ġtradem ark
Ġto ss
Ġas yl
Ġr iv
od ia
Ġst up
Ġat oms
Ġroll s
Ġven us
Ġhend rix
Ġshep her
b age
Ġv as
Ġcons umed
Ġpit ching
Ġkey boards
Ġrefle cts
rif ied
Ġaffect ing
Ġunpop ular
ib al
ten ham
cy cl
Ġdreadn ought
Ġv and
Ġthird s
Ġder iv
Ġ37 0
Ġnob ility
Ġgrav el
Ġpatt on
Ġw u
Ġst ap
ap a
Ġcomb ine
Ġwars aw
Ġnegot iated
Ġthe ft
Ġu g
Ġpreced ed
Ġb am
Ġdemol ition
g ro
Ġe cc
Ġrele vant
Ġpos ed
Ġcr an
Ġbar ber
rew s
Ġstom ach
Ġp ose
Ġcap abilities
Ġmort on
Ġille g
Ġpredecess ors
Ġb av
ess a
Ġem ble
Ġdist ances
Ġcast ro
Ġanth ology
Ġalumn i
Ġeisenh ower
Ġwill ie
Ġcrow ds
Ġlimit ations
a ul
Ġl ia
Ġat hen
Ġres pected
Ġancest ors
cliff e
i ott
k at
Ġw als
Ġne br
Ġavail ability
Ġcert ific
Ġsexual ity
Ġl ined
Ġbrit ney
Ġeth an
Ġalt ar
Ġplac ement
Ġsh o
Ġcl uster
Ġsp ike
Ġlo os
Ġinf in
Ġham mond
Ġalt og
Ġargent ine
Ġhut ch
Ġfergus on
Ġecos ystem
Ġg ore
id ian
ber ger
cl amation
Ġter rible
Ġvar ieties
Ġsal mon
Ġconv iction
Ġcher ry
Ġreyn olds
Ġaltog ether
Ġte ars
Ġstef ani
e it
f o
Ġn ie
Ġk ab
Ġtim ing
Ġwill is
Ġruss ians
Ġexc ited
Ġdig est
Ġvictor ious
Ġclim ax
Ġincor rect
b ul
Ġk re
og ical
Ġeff iciency
Ã¡ r
Ġbad ge
Ġoak land
Ġcorrespond ence
Ġsett ings
Ġobserv atory
Ġhat ch
Ġkick ed
v an
Ġh ort
Ġde x
Ġext ant
Ġha un
Ġprec ise
Ġtrust ees
Ġinse ct
Ġfount ain
en es
ters hire
Ġac ids
Ġsl opes
Ġjeff rey
Ġfran z
Ġnam ely
ol ics
Ġor ch
Ġfe es
Ġret aining
Ġdoub led
Ġspr int
Ġmat urity
Ġsus sex
Ġadopt ion
ist ence
Ġtr ucks
Ġsouth bound
Ġgif ts
Ġunder lying
Ġann ie
Ġord in
Ġ26 0
Ġrank ings
Ġhighlight s
chang es
rim ination
Ġin ade
Ġconqu ered
l ined
u ates
Ġ umb
Ġbe ef
Ġam ino
Ġins ult
Ġiv y
Ġsem if
Ġeug ene
Ġinade qu
Ġc p
Ġcl ash
Ġendors ed
Ġsol ve
Ġconclud ing
a ic
u ania
Ġper ception
Ġsecret ly
Ġsle e
Ġrect ang
Ġgu ys
Ġste ering
Ġserv ants
Ġachie ving
Ġpleas ant
Ġtheore tical
or p
is bury
Ġhigh lands
Ġviol in
Ġsatisf ied
Ġunh appy
j ud
Ġf ol
Ġf ails
Ġun st
Ġfil ter
Ġpoint ing
Ġdepart ments
Ġw an
Ġam al
Ġapp rent
Ġcountry side
Ġfort ified
Ġwrest lers
Ġlands l
Ġlith uania
Ġnebr aska
Å Ħ
Ġ nd
ac er
Ġy ar
Ġdece ased
Ġstop ping
Ġboard ing
Ġconfron ted
Ġrecre ational
Ġabol ished
Ġsc hem
Ġmus ically
Ġprim itive
Ġhom age
Ġtransform ation
Ġeat en
Ġgree ks
v ae
Ġcomp rises
Ġste w
Ġresemb les
Ġcow boy
Ġsubsid iary
Ġwe nd
Ġ14 6
Ġpa wn
Ġsal ad
Ġdere k
ic ia
Ġse ize
Ġacc idents
Ġsub c
Ġboy d
b one
i ast
j ar
um ble
Ġsc i
Ġsome body
Ġactiv ated
Ġbah amas
Ġform ats
Ġbind ing
r ained
Ġro c
ber n
Ġdraw ings
Ġchronic les
Ġtimber lake
Ġspar row
Ġcalend ar
Ġph ases
Ġann oy
Ġaccord ance
Ġsaf ely
Ġreferend um
d rop
io let
Ġdisp os
Ġblo om
it ating
an u
Ġpar an
Ġmed ley
Ġsuper hero
Ġbusiness man
Ġ185 9
Ġdioc ese
Ġlithuan ian
Ġball ot
Ġnegot iate
Ġorb ital
ĠâĤ ¬
Å Ľ
Ġspec ified
Ġsubstant ially
Ġdors al
Ġw oll
Ġst am
Ġal pine
Ġy ang
Ġgen et
Ġrh ys
Ġprec urs
Ġcath olics
w alk
Ġat he
Ġconc ord
Ġwhit ney
Ġfran Ã§
Ġl ighth
Ã¡ l
Ġinher it
Ġenact ed
Ġfr aser
Ġalb eit
Ġlo is
Ġcare ers
Ġshr ine
n as
Ġs g
id el
Ġsu z
Ġco ch
sh i
Ġfact ions
Ġtotal ed
ãĥ ¼
cript ions
ic ations
Ġn im
Ġcol omb
Ġele g
Ġaver aging
Ġimag ination
Ġmemoir s
Ġnew ark
Ġ13 1
Ġsal am
Ġcou l
Ġmagn ific
Ġshut tle
Ġroberts on
Ġterr ace
Ġdescript ions
j ord
Ġre pt
ip el
Ġmill imetres
Ġ13 3
Ġsal isbury
Ġsand stone
Ġthin ks
Ġdecomm issioned
Ġres ist
Ġcan ber
ict ions
Ġste al
Ġge ographical
Ġpap al
Ġlind a
Ġker r
Ġresol ve
âĢ Ļ
Ġc ogn
Ġge ological
Ġorder ing
Ġarch ives
Ġmot ivated
Ġwel com
Ġr uther
Ġsp ont
Ġsw all
Ġconcept ion
Ġjoy ce
Ġth urs
Ġcapt ive
Ġcook ing
Ġsha wn
Ġancest ry
Ġthe or
ru cted
Ġbl aine
Ġeffect iveness
Ġtor res
Ġcontroll er
Ġp ipe
Ġl g
ab ling
ĠâĢ ĺ
Ġrece iver
Ġ12 00
Ġmed ian
Ġcle aring
in ely
Ġp ub
Ġg ly
Ġed itors
Ġphilipp ine
Ġh iv
Ġg ott
ri et
Ġmon ica
Ġinfl icted
Ġnort on
Ġprop ulsion
Ġcompar isons
Ġhug o
Ġo ath
Ġal d
Ġcomm odore
Ġmon so
Ġmor ale
Ġcondu ctor
Ġfart her
ar u
Ġex pend
Ġlaw yers
Ġpoll ution
Ġintercept ed
Ġsunder land
v ik
in ks
Ġp neum
Ġk aren
ime ters
Ġcal iph
Ġcro c
Ġangel a
agon ists
Ġ184 5
Ġell iott
Ġabol ition
Ġasyl um
Ġair ways
Ġcour ty
Ġadm ission
Ġacceler ated
Ġtr igg
Ġind ie
Ġadm ired
Ġreprodu ction
Ġtyr ann
g un
Ġd iction
ad ic
ace ae
Ġqu inn
Ġcommand s
Ġexhib its
Ġdepend s
Ġmort al
Ġisol ation
c at
Ġday ton
Ġintrodu ces
Ġdomin ican
Ġtend ency
Ġreun ion
Ġjen na
Ġb ened
Ġf ow
it ic
Ġand ers
il ia
Ġk end
Ġoper ators
Ġvis uals
Ġorgan isations
Ġrub ber
Ġesp n
Ġm Ã¼
Ġk un
Ġac ute
Ġfound ations
Ġ14 7
Ġpoll s
Ġdrop s
Ġavo iding
Ġria a
Ġp ike
Ġde ar
Ġmat ched
Ġdep ress
Ġpit t
agon al
Ġmanuscript s
Ġbutter fly
Ġthurs day
Ġ æ
Ġt rop
Ġshe d
Ġreal ised
Ġinte g
Ġconqu er
Ġpeters burg
Ġa zer
op p
Ġins ight
Ġ14 4
Ġwat ches
Ġden omin
Ġsatis fact
Ġports mouth
m ons
Ġw ang
ro ke
ch ild
Ġv eto
Ġrel iable
Ġsuggest ions
Ġarab ian
Ġbreat h
o an
Ġg ills
Ġk or
Ġspe ar
Ġlar vae
Ġaust en
Ġbow ler
Ġconserv atives
Ġincorpor ating
Ġundergrad uate
Ġsophistic ated
Ġk ann
Ġsh apes
ov an
Ġbu enos
Ġz inc
Ġdur ham
Ġattrib utes
Ġforb es
is ch
om orph
Ġdomin ance
Ġmcm ah
Ġremar ks
Ġ ãĤ
Ġd iana
Ġret iring
Ġleg ally
Ġactiv ist
ij i
b ane
Ġd ull
Ġh ik
Ġg and
Ġst oke
Ġpresent ing
Ġscot ia
Ġpeace ful
Ġborrow ed
Ġs aves
Ġst ake
Ġle nd
Ġfin s
Ġwhen ever
Ġaccount ing
Ġclin ical
Ġecc entric
Ġd ol
Ġl ucky
Ġcomm ended
Ġrecommend ation
Ġhall ow
Ġcla ud
Ġcur ric
Ġ... .
Ġly rically
Ġfav oured
Ġl ance
ke ys
Ġdown ed
Ġcolle ague
Ġpat roll
Ġaccept ing
Ġhapp ens
Ġamb ig
Ġw ong
Ġin ev
ar med
Ġv ene
Ġend e
Ġsing h
Ġ14 2
Ġfull er
Ġnation wide
Ġscand in
Ġpartis an
Ġpuzz les
Ġduches s
z el
il is
ith m
Ġgovern ors
bor o
Ġmagn et
Ġdetermin ation
Ġt ired
Ġmar in
Ġ18 20
Ġz omb
Ġgard ner
Ġimm ort
Ġsic ily
Ġbib l
Ġkr ish
Ġpoison ing
Ġferr ari
Ġauxili ary
it ory
Ġro vers
Ġam ber
Ġsm s
Ġge ographic
Ġhum ph
Ġtest ament
yl on
Ġrespons es
Ġworth y
Ġastronom ical
Ġmonit oring
Ġe ject
Ġr ats
Ġcommission ers
Ġreason able
Ġgal ile
Ġweb ber
Ġremix es
Ġsovereign ty
e ctions
Ġc ly
ro ck
Ġst ab
ot on
Ġhard er
Ġpeak s
Ġaccommod ation
Ġom aha
g ence
x ton
Ï ģ
Ġbe et
id ad
est ock
Ġcomp art
Ġstr ain
Ã© r
Ġham pton
Ġphys ic
Ġg ur
Ġmin ne
Ġcolle g
ik h
Ġol ive
Ġimplement ation
Ġthunderstorm s
ro ft
Ġj a
Ġph arm
Ġbrit t
Ġsound ed
Ġscript s
Ġtalk ed
Ġjes se
Ġinstall ment
Ġpriest s
b in
f old
u ana
Ġw igg
Ġnum er
Ġdep r
Ġpers isted
Ġta un
ÅĤ aw
Ġconfig uration
Ġj agu
Ġdis k
Ġlo pez
Ġdiss ent
Ġshel ters
Ġjosh ua
Ġcel est
Ġabst ract
Ġt i
Ġex agger
Ġmill imeter
Ġgovern ed
Ġval ued
ret ion
Ġsib lings
Ġtherm al
Ġm erg
Ġr er
Ġchart ing
Ġexplicit ly
art e
Ġint entions
Ġover time
Ġvis itor
Ġrespons ibilities
Ġspir its
Ġle aked
Ġwed nes
Ġenthus ias
r ina
Ġl ots
ir med
Ġas pir
Ġacc ent
Ġ13 6
Ġdepart s
Ġfro g
Ġquant um
Ġmumb ai
Ġcanber ra
or us
ac co
Ġperform s
Ġking ston
Ġyes ter
Ġimm une
Ġtourn aments
Ġrecommend ations
Ġimag ine
Ġreun ited
Ġ185 4
Ġod ds
Ġnit rogen
Ġwrestle mania
Ġtraged y
Ġwh is
Ġy ank
Ġcons ort
Ġdist urbed
Ġmag ist
Ġfre estyle
Ġdev ils
Ġcontempor aries
Ġint rig
Ġexp elled
Ġactiv ists
Ġcommitte es
Ġresour ce
Ġneighborhood s
Ġlect ure
Î ¹
ig ious
Ġsp or
Ġdisc rimination
Ġpruss ia
Ġb m
Ġp oul
Ġl ent
Ġn me
Ġout lets
Ġpo etic
unc iation
oun ce
Ġsa ff
Ġep id
Ġwin ters
Ġshort ened
Ġ185 7
Ġpear son
Ġruther ford
ell ers
Ġradio active
mar ks
Ġinvestig ating
Ġmoder ately
Ġfrig ates
Ġregist ration
Ġsh ocked
Ġpo ets
Ġprim etime
Ġcost a
Ġflor a
Ġrh ine
Ġfinanc ially
Ġens ured
Ġic onic
Ġorb its
Ġaccum ulated
Ġguid ance
Ġresur re
Ġunw illing
Ġreg ener
Ġamb ul
Ġcert ifications
Ġrebuild ing
l on
Ġt ailed
Ġwh ip
Ġinter im
Ġhel ium
m ir
Ġp ony
Ġover ha
Ġover see
Ġap oc
Ġsy rian
Ġdevelop s
Ġcr ater
hy d
3 8
Ġa ires
Ġa unt
Ġbo ards
Ġlaun ching
Ġlegend ary
Ġconvoy s
Ġtornado es
Ġf alk
th rop
Ġcas c
Ġben z
Ġ à
Ġt ense
en ary
Ġg ag
Ġint imate
Ġdo z
Ġbro ck
Ġopp en
Ġnortheast ward
Ġroof s
onsc ious
he y
an or
Ġam c
Ġall an
Ġmin ers
Ġrev enues
Ġsuper v
Ġcontinu ously
Ġsymb olic
Ġdisagre ed
Ġliv estock
Ġenthusias m
ou fl
Ġscre ened
Ġlink ing
Ġexpress ing
Ġpromin ence
Ġrejo ined
d al
Ġb ury
Ġl ich
Ġn Ã©e
qu in
Ġhold en
Ġnar rator
Ġreleg ated
em pl
Ġport al
Ġval ve
Ġsuper natural
Ġlas er
Ġconfront ation
ovak ia
Ġin ability
Ġfr atern
Ġ13 9
Ġ32 0
Ġsanct uary
Ġenlar ged
Ġyester day
Ġwhe els
Ġorgan ize
Ġtele vised
Ġportray s
Ġnarrow ly
Ġbes ide
Ġing red
Ġbibl ical
j ack
Ġlow ered
Ġill umin
Ġdi á»ĩ
Ġw ages
Ġcom pton
Ġle is
Ġreg ain
Ġjud ged
Ġstaff ord
Ġdan ube
Ġpsy ched
Ġpersu ade
h orn
t or
in os
air d
Ã© l
Ġsmall est
Ġgrand mother
Ġrain bow
Ġseg reg
Ġdedic ation
Ġdiá»ĩ m
Ġper ipher
Ġover night
Ġview er
Ġpur suing
Ġantar ctic
el ic
Ġj aws
Ġher s
Ġent ries
Ġindian apolis
Ġprol ong
Ġced ar
b en
Ġw ade
Ġp orn
Ġaf raid
Ġcap com
Ġinv ention
Ġjohn s
Ġdex ter
Ġh r
op l
Ġtr im
Ġfl ame
ail and
Ġfre ely
Ġcompan ions
Ġcollect ively
Ġhanna h
Ġmcmah on
Ġwednes day
he art
Ġwor s
te nder
Ġrow s
Ġlect ures
k an
s wick
Ġhe ating
Ġship ments
Ġeight eenth
Ġknow les
Ġsymp athetic
Ġadri atic
u i
Ġh omet
il ian
Ġth ailand
au er
Ġash ley
Ġbub ble
Ġm its
ac ious
Ġst un
Ġen cycl
Ġfr ames
Ġcas em
Ġmother s
Ġrenown ed
Ġc unning
it ational
ic les
if ax
Ġclass ics
Ġshort age
Ġfood s
Ġexclud ed
Ġeccles iast
Ġbangl adesh
Ġf ry
Ġg ould
Ġpl as
Ġab rupt
Ġ5 50
Ġbu ying
Ġpat ric
Ġceremon ial
Ġc ia
Ġm iz
Ġd ame
id ity
Ġinter face
Ġdo ver
Ġmake up
Ġsit com
Ġalexand ria
Ġbattlecru iser
Ġt ides
Ġm ating
Ġg aza
ow ing
Ġcl ad
Ġke yn
Ġsk ip
Ġdecl ining
Ġconsolid ated
Ġm und
Ġhe ated
Ġdivision al
Ġquant ity
Ġaest hetic
im an
Ġcon clus
Ġbet ty
Ġcoun ted
Ġcam oufl
Ġhall s
Ġpred ator
Ġpun ch
Ġencour aging
Ġver t
sp ring
Ġl oun
Ġper t
Ġfield ing
Ġ185 8
Ġdispl acement
Ġrp g
Ġcomed ian
Ġpostp oned
Ġpavil ion
Ġhomet own
Ġw ives
Ġl ans
el age
Ġhe x
Ġport able
Ġcle ver
Ġcru el
Ġmort ar
Ġmort ality
Ġprovision al
Ġre id
us a
Ġdis cl
Ġsupp ress
Ġprop eller
Ġcontact s
Ġwheel er
Ġb ard
ic ular
Ġbr ide
Ġrem aster
Ġdon na
Ġros a
Ġqual ification
Ġthir teenth
Ã¤ n
Ġsupposed ly
Ġbah rain
Ġdeterior ated
v as
Ġb ail
Ġcent imetres
Ġwrest ler
Ġxii i
Ġd ana
om er
ut o
Ġprom ises
Ġkind s
Ġjul ia
Ġhut ton
Ġtort ure
Ġaffili ated
Ġinfer ior
Ġmerchand ise
Ġbe a
per ed
Ġz ool
Ġcal ib
Ġsubject ed
Ġstrict ly
Ġsebast ian
Ġwelcom ed
ov ina
Ġ3 30
Ġaccording ly
Ġyour self
Ġ181 2
w oman
at in
Ġpe ers
Ġlighth ouse
Ġk ol
op us
ang a
Ġcap ability
Ġhal t
Ġsuper n
Ġaver ages
Ġnucle us
Ġnest ing
Ġevac uate
Ġneighbour s
Ġexha usted
a id
Ġsc roll
Ġrec apt
Ġvir al
Ġreact or
oe uv
Ġovers aw
c aster
Ð ¾
Ġc c
Ġfl ies
Ġstand ings
Ġtib et
ĠÂµ m
Ġm are
Ġcat ches
Ġmc cl
Ġcanc ellation
Ġcov enant
Ġtroub les
Ġtob acco
Ġn iger
Ġun ne
Ġsuperst ructure
Ġl omb
Ġv ince
Ġrepl ay
Ġnat ives
Ġmanufact urer
Ġla uded
Ġhand ful
Ġ184 9
Ġ185 6
Ġbot tle
l ance
r ance
Ġc oke
Ġbe ings
Ġav on
Ġlos es
Ġfavour able
Ġrum ours
Ġnept une
Ġj ak
Ġshow c
Ġsk irm
ai ro
Ġmeant ime
Ġforb idden
Ġp amp
Ġbe aches
ass ic
og an
Ġpres by
Ġwin chester
Ġhal ifax
br ates
com mun
Ġcra fts
w au
Ġcomp ass
Ġemp ress
Ġguard ians
Ġgy mn
ir t
ys s
Ġref usal
Ġri ots
worth y
Ġpruss ian
Ġmiddles ex
Ġmonso on
Ġmat rix
Ġdress ing
Ġpatri arch
Ġdischar ge
Ġheb rew
olith ic
p m
Ġo c
it ative
Ġd ed
ur ance
ast on
Ġpop ul
Ġconf isc
Ġcle ment
Ġmanufact ure
Ġbreat hing
Ġpartis ans
y d
is a
Ġk amp
Ġv augh
Ġfr ight
Ġinf ect
Ġtraff ord
Ġamphib ious
Ġdoz ens
v or
Ġt ut
Ġch ant
ah o
Ġassoci ations
Ġkingdom s
Ġwear s
Ġadvertis ement
Ġpilgr im
w ord
Ġh ank
Ġcommun ists
Ġdram atically
Ġportra its
Ġpupp et
o ids
Ġa in
ag ara
ting ham
Ġrest art
Ġobs erve
Ġplant ed
Ġdiss atis
Ġcelebr ations
Ġconcent rate
Ġex empl
Ġoff spring
Ġadm its
Ġbrad ford
Ġmig uel
Ġt ina
Ġhe p
Ġfor k
id ium
Ġj oker
Ġman ned
wn ing
Ġgen eric
Ġexp enses
Ġpass ages
b les
se nd
Ġair pl
Ġgre ene
Ġarch ipel
Ġplant ation
Ġg Ã¶
Ġsu ed
Ġ12 1
Ġfeed back
Ġjess ica
u its
Ġm oth
Ġst ur
Ġfl aw
Ġnor wich
Ġer ie
Ġlim bs
Ġinvest ors
Ġportray ing
Ġfill ing
Ġtro y
Ġinspect or
u ka
th ouse
Ġcl ient
Ġher m
gr aded
Ġnat al
Ġconv entions
Ġsend s
Ġrhodes ian
Ġlaf ayette
h im
Ġc aves
Ġh p
Ġinter ven
Ġrep orters
Ġbro od
Ġsl ope
Ġprem ise
Ġg oss
Ġal arm
Ġso f
Ġlo ch
Ġbox es
Ġpure ly
Ġp t
av o
Ġor phan
Ġrel at
gest ion
Ġhalf way
Ġaff ection
Ġautom atically
Ġende av
k ov
Ġb f
Ġkn ife
Ġmed i
Ġtend s
Ġgam er
Ġpref ect
Ġfilmm akers
Ġtrigg ered
Ġsou p
Ġmo h
Ġspect acular
Ġcourty ard
Ġr ama
Ġevery day
Ġobserv ing
Ġaccus ations
Ġto uc
Ġre x
Ġ6 50
Ġfear ing
Ġindu ced
Ġrectang ular
Ġbo ots
Ġstat istical
Ġdon ations
Ġcinem atic
bu ild
Ġstew ie
he res
Ġper u
end ers
Ġsk illed
Ġrefle ction
Ġparalle ls
Ġshield s
Ġdat ab
Ġshoo ter
Ġpresum ably
Ġst ip
Ġj ava
Ġk i
Ġro gue
Ġinst ances
m ass
s burg
at ri
om i
Ġal der
iz able
Ġdef ining
Ġshar on
Ġcateg or
Ġoutf it
Ġminne apolis
Ġunne cess
Ġn erve
am ous
Ġch ak
Ġdam asc
Ġtest ified
Ġrich ards
Ġcome back
Ġeag er
Ġspeak s
Ġshak ira
o qu
Ġre per
Ġg el
op ter
red ited
Ġball ads
Ġbrun swick
Ġadequ ate
Ġencycl op
b ai
Ġepis cop
Ġjam ie
Ġverd ict
ac a
Ġbe es
ze g
Ġwy att
Ġbats men
Ġglou cester
wau kee
Ġs ack
Ġro pe
Ġdis qual
Ġhi atus
es ters
art a
Ġco hen
ik k
Ġbas al
Ġinstru ctor
Ġshir ts
c ence
u y
Ġf als
Ġz o
Ġke eper
Ġcanad iens
Ġcorn ell
Ġlouis ville
Ġcomplex ity
Ġassass in
Ġencl osed
w ind
Ġs ided
Ġc aut
ar re
Ġsh oes
ov ed
Ġlabel ed
Ġremn ant
Ġmush rooms
Ġwiz ard
Ġcolleg iate
h ist
y th
Ġg onna
ov ny
cl air
Ġpurch asing
Ġt ens
il us
ard y
Ġstar ter
Ġviol ation
Ġcommunic ate
Ġiraq i
Ġduch ovny
Ġoppen heimer
Ġcl usters
Ġam ounted
Ġreg ards
Ġinf ilt
Ġcr ist
Ġserv ant
Ġje alous
Ġcat aly
Ġox ide
Ġ185 2
Ġintegr ation
Ġdownload able
Ġcros so
f ires
l en
Ġc ay
ar ms
Ġst raw
Ġam ster
Ġmarch ing
omet ry
Ġreal ism
Ġsex y
Ġthor pe
Ġinnov ation
b es
Ġhe ming
Ġfr on
Ġinvest ed
Ġru ined
Ġobject ed
Ġrecip ient
Ġhier arch
á ¹
Ġs its
Ġf ou
Ġse ated
Ġinv as
Ġappe nd
Ġaccept able
Ġcolon ists
Ġexcept ional
Ġfaith ful
Ġtack le
Ġdolph ins
Ġr he
th ood
ra h
Ġbr aves
Ġinst ant
Ġprov idence
Ġwild e
Ġhyd ra
Ġpant hers
Ġyank ovic
r ag
if ier
Ġab du
Ġwe ber
Ġbre ach
Ġfun gi
Ġquar ry
Ġancest or
ontin ental
Ġv ine
Ġdead ly
Ġmanufact urers
Ġhind i
Ġbl anc
Ġmet ap
Ġins criptions
ik es
Ġpartic le
Ġcoun ts
Ġmi y
Ġfund ra
Ġ184 7
Ġsed u
Ġmetro id
Ġsurve ys
Ġbo hem
che v
Ġcoll ier
Ġfarm land
Ġdissip ating
Ġcoin age
f ax
Ġw ax
Ġl umin
Ġg m
Ġfour teenth
Ġsm ash
Ġmil ton
Ġjack et
Ġdead line
Ġdivor ced
Ġexclud ing
r imin
Ġpres umed
Ġav atar
Ġref using
Ġcomb ining
Ġmuseum s
Ġ185 5
Ġculmin ated
Ġleban on
l ot
Ġman a
Ġcur se
Ġund ef
Ġpsych ology
Ġcool er
Ġconvinc ing
Ġvene z
Ġm um
Ġcal der
Ġpet ro
Ġprin ces
Ġelectron ics
Ġamster dam
Ġle y
Ġshe n
Ġchar m
Ġstr and
Ġexpl orer
Ġannoun cing
Ġdar ren
c in
z on
Ġco ached
Ġass ured
Ġloc als
Ġjul iet
Ġrend ition
Ġrevel ation
Ġarchipel ago
Ġs ene
Ġr ash
Ġwin n
Ġpay ments
Ġclar ks
Ġpenal ties
Ġsket ches
Ġconced ed
el ong
ig on
Ġun ified
ord ination
Ġposs essions
Ġstat ues
Ġhast ings
Ġredd ish
en stein
Ġu pt
Ġ184 6
Ġcart e
Ġa ims
Ġl ass
Ġsa udi
Ġdecl are
Ġru f
Ġuncertain ty
Ġdanc er
Ġadvertis ements
ass ing
Ġrec k
Ġser p
Ġdis rupted
Ġem ir
Ġtre ason
Ġlem on
umber ing
Ġterror ist
Ġorient ation
Ġdimin ished
Ġdamasc us
u ke
Ġtw il
Ġmil waukee
Ġconst ellation
Ġopen er
Ġemb ry
Ġschem es
g irl
n t
Ġdef ine
Ã³ w
Ġgeorg ian
Ġlex ington
Ġmong ol
Ġlegit im
Ġposthum ously
Ġsans k
Ġzel da
d ock
Ġb Ã©
os ure
Ġte ar
Ġsp iders
Ġman oeuv
Ġdev ised
Ġru pert
Ġhaw ks
Ġjul ie
Ġapprec iation
Ġhispan ic
Ġinadequ ate
r ush
u ity
Ġn olan
Ġg ael
Ġal onso
Ġj al
Ġem i
Ġmet s
Ġever ton
ĠÃ ¥
Ġcrus ade
Ġgw en
Ġdio xide
Ġh ail
Ġe uras
Ġse j
Ġinter rog
Ġbar rel
Ġaddition s
Ġsuper in
Ġ183 2
Ġsed iment
m are
Ð ¸
at as
Ġk Ã¶n
ok a
Ġtem pl
Ġstock holm
Ġplum age
Ġinspe ction
Ġleis ure
Ġtwil ight
3 00
v y
Ġj ed
Ġar b
ell es
Ġad olf
Ġback drop
Ġge ology
Ġkilog rams
d p
Ġro k
Ġtr aces
Ġla ur
Ġastron aut
Ġazer bai
Ġ ich
Ġt idal
Ġd ances
Ġbar o
Ġaut onom
Ġdog gett
hold ers
0 5
h aven
Ġf ug
Ġf ont
Ġp ag
or an
as p
id i
im on
ound ed
Ġgener ating
Ġopt ical
Ġrecru iting
b red
b rit
Ġm ered
ely n
Ġev a
Ġret al
Ġsub f
ator ies
ki en
Ġlov ing
Ġpull ing
Ġrelie ve
f ight
i op
at z
Ġl ament
Ġre e
ap or
fl ies
Ġb ess
Ġlo vers
Ġsequ els
Ġmechan isms
Ġip h
Ġtrin idad
Ġg ul
Ġne u
Ġsl ate
Ġmel odies
Ġspir al
Ġmans field
Ġpatri ot
Ġcommemor ate
Ġhallow een
av el
Ġinter l
Ġcharacter ised
Ġprof ound
Ġelect or
Ġdiss olution
Ġconstitu ency
Ġbris bane
h ot
Ġde ity
ain ted
Ġen abling
Ġprom o
Ġmor oc
Ġvir uses
Ġmemorial s
Ġpack ed
Ġexped itions
Ġlisten ers
Ġbuck ingham
Ġrenov ation
Ġassum ing
Ġguarant ee
Ġnomine e
Ġsuperin tend
Ġb b
Ġv ed
rain ts
Ġfurn iture
Ġtroub led
Ġmered ith
Ġse aled
Ġsp arked
sc reen
Ġrein st
Ġstore y
Ġdevast ated
Ġshack leton
Ġcurric ulum
Ġs acked
al us
ib i
Ġtur tle
Ġphys i
Ġthrow s
Ġst iff
ur t
Ġk iel
Ġwor cester
Ġap ost
Ġdown s
Ġland own
ik er
Ġbroad ly
Ġmethod ist
Ġteen ager
Ġdynam ics
Ġprohib ition
h aus
p op
Ġ Ø
Ġuniform s
Ġ Ì
er os
Ġad ul
Ġpr ints
Ġsouth ward
Ġexp osition
Ġhum our
Ġfront al
Ġ185 3
Ġrid ges
Ġframe work
Ġshepher d
l ay
or rh
as is
Ġto ys
Ġl anka
ge e
Ġtw ist
Ġjack ie
Ġagre ements
Ġflow ing
Ġgaz ette
ar ck
Ġch ocol
Ġalb ion
Ġbroad er
Ġsansk rit
b ot
st ead
am y
Ġr b
Ġwat ts
Ġtot tenham
Ġstat ic
Ġske let
Ġbe atty
Ġfor um
Ġr age
Ġde leted
Ġv il
Ġex empt
Ġle ip
Ġar che
ens ing
Ġset h
Ġemb ed
Ġboil er
b ors
c ies
Ġo de
Ġsh ane
Ġpre jud
Ġcol bert
Ġsl ide
Ġleop old
h ail
Ġf oul
Ġsp ans
Ġcar roll
Ġent ity
Ġsl ant
Ġcryst als
Ġvin yl
ab i
Ġcontem pl
Ġrecover ing
Ġaqu atic
Ġpatron age
ces tershire
Ġnorth umb
Ġgu am
led on
Ġmatch ing
Ġcryst all
Ġenzy me
Ġunpre ced
É ª
Ġs v
Ġh are
Ġv end
ry s
Ġrem emb
Ġelect rons
Ġconcent rations
Ġsharp ly
Ġansw ers
Ġunpreced ented
Ġf rit
le nd
im o
ul ent
Ġcl are
Ġman ila
ru ctive
Ġsub way
Ġdeb ated
Ġsuper vision
Ġboy cott
Ġgas oline
Ġcurren ts
Ġses ame
an as
Ġcl ut
Ġrev ision
Ġment or
Ġandr Ã©
Ġthe od
Ġd ash
Ġcon ning
Ġse ym
Ġy ale
ag ne
if a
Ġno on
Ġkilomet re
Ġlyn n
ion ed
os l
Ġpl enty
Ġmus cles
Ġtrans act
Ġexpl oring
sh adow
Ġclim bed
Ġmotor cy
Ġresemb lance
Ġstret ched
Ġlac rosse
Ġseaf ood
Ġhoff man
Ġinteg ral
ir k
Ġab n
Ġpe gg
Ġkn ox
Ġver de
Ġant agonist
Ġcalc ium
Ġsulf ur
Ġsu cc
Ġsh y
og ne
Ġcy n
Ġshoot s
Ġnob les
Ġdisapp ro
Ġkap oor
Ġemer ge
Ġbe friend
Ġor k
Ġwin ston
Ġgeor get
Ġdism ant
book s
Ġvik ing
ch air
Ġse als
Ġsp ray
Ġinc umb
Ġeast bound
Ġgrad ual
Ġscen ic
Ġmic roscop
Ġvalent ine
Ġseym our
om o
ud er
Ġsp ore
Ġgr at
Ġpers ians
Ġwest bound
Ġworks hop
Ġcompos ing
Ġwes ley
Ġpalest inian
Ġdiff ers
ad os
Ġtr aced
Ġsou ls
Ġste als
Ġdiscover ing
Ġtransport s
Ġgal v
Ġhung ry
Ġe instein
Ġor y
Ġpe er
Ġsl ayer
Ġsimilar ity
Ġcle m
Ġ184 1
ante ed
Ġthe ology
Ġm t
Ġro uted
Ġwhere by
Ġbar ons
Ġdet ection
Ġhard ly
Ġmission ary
Ġdrag ons
Ġmg m
Ġtren ches
Ġp ile
Ġon set
Ġse ab
ill on
Ġinc arn
Ġunc onscious
Ġvalley s
Ġpromin ently
Ġspread ing
Ġbull s
Ġberg en
Ġguar anteed
Ġtouc hed
Ġe ternal
og s
Ġrep ly
ann i
Ġx en
Ġmater nal
Ġrow ing
Ġcres cent
Ġhect ares
Ġsupervis or
Ġkrish na
Ġe ly
Ġfac ial
Ġrab bit
Ã± a
Ġmetall ica
Ġphant om
ou x
ig ation
Ġal ley
Ġk yl
Ġwell es
Ġcreat ors
Ġcele brit
Ġmob ility
Ġcott age
ir us
Ġde uts
Ġlong time
Ġhit ch
lin ing
Ġgro ves
Ġven ge
Ġsin atra
Ġabund ance
Ġcec il
ar ians
Ġd und
Ġg an
am us
Ġbel arus
Ġeth ics
Ġpath s
Ġlad der
Ġadvis or
Ġanch ored
l ord
l ike
Ġd ixon
Ġjo ey
aw ak
Ġgu ilt
Ġdec ent
Ã© d
Ġhost ing
Ġhero ic
Ġ184 4
Ġsculpt ures
Ġts ar
Ġsword s
Ġexcav ations
Ġdaw son
Ġhok ies
Ġcrosso ver
Ġd as
our se
Ġbel grade
ues day
Ġess ays
Ġlux ury
Ġsummon ed
f le
t ra
Ġb raw
Ġh ire
Ġbill ed
Ġhy mn
Ġbell s
Ġcompl aint
Ġkr ust
Ġvenez uel
Ġcelebrit ies
st en
op oly
Ġcl o
ys is
Ġaw k
Ġvac ant
Ġneut ron
Ġchore ography
Ġheming way
Ġb inary
Ġex changed
Ġli u
Ġday light
Ġlo ans
Ġant io
Ġget ty
Ġvill ains
Ġpun ct
Ġbroadcast s
Ġoccup ying
Ġexcept ions
Ġconsult ant
Ġsoph om
Ġecclesiast ical
Ġpresby ter
m id
z an
Ġt uesday
Ġb ren
Ġb oul
Ġg n
Ġj ab
Ġpl ots
Ġcomp uls
Ġdef icit
Ġdesign ing
Ġbar row
Ġfact ories
Ġhard ing
mar ine
hr er
Ġcounterp art
Ġ. .
it us
Ġcontin uation
Ġequ ality
Ġpract iced
Ġaccept s
Ġtheat res
Ġlik es
Ġjoint ly
Ġgri p
Ġlad en
Ġdepict ions
Ġconcur ren
Ġutil ized
Ġovert urn
Ġninet een
Ġb ip
Ġj ma
Ġen er
Ġqu ot
Ġdef ect
Ġven om
Ġplanet ary
Ġbart on
Ġcens orship
Ġgamb ling
ĠâĻ Ń
p i
Ġd ong
Ġy o
op y
ph is
Ġamb ition
Ġsymp ath
Ġorn ith
h ara
ic he
od ied
Ġdec oration
Ġeight y
Ġconvers ely
Ġearthqu akes
Ġmetap hor
Ġawk ward
k ill
Ġg um
Ġsu pers
Ġun ions
Ġinter f
Ġver b
Ġinc on
Ġ14 1
Ġden y
Ġdoc ks
Ġell ip
rell a
Ġcla ude
Ġpamp h
3 2
Ġs izes
it he
Ġreg ent
Ġele anor
Ġstr anded
Ġjust ified
Ġperiod ic
Ġneg ro
Ġut ility
Ġintens ification
Ġblock ing
Ġ179 0
Ġ177 6
Ġreop ened
Ġunemploy ment
Ġanglic an
k ind
Ġbe ech
us ive
Ġout post
Ġpers istent
Ġold s
Ġpost ing
Ġrap ids
Ġpun t
Ġpu zzle
Ġ183 6
Ġauth ored
Ġgran ite
Ġconting ent
Ġw and
Ġw imb
Ġc ites
Ġem inem
Ġreg ul
Ġend emic
Ġel ong
Ġsound ing
Ġstory t
Ġresp ir
Ġprop he
Ġ183 7
Ġdeliver ing
Ġcounterp arts
at um
Ġshe er
Ġpr adesh
Ġste aling
hy l
Ġbackground s
Ġsand wic
Ġwild erness
Ġwis den
Ġresid ences
Ġmoist ure
Ġener get
Ġp ere
ur ai
Ġatt ain
Ġunder m
Ġgovern ance
Ġpri ory
Ġur ging
Ġburn t
Ġmountain ous
Ġarab ia
Ġfal con
Ġautom obile
Ġcatal ogue
Ġmcl aren
Ġpeas ants
Ġwrap ped
Ġincred ible
Ġunst able
n c
Ð µ
Ñ Ģ
Ġt ud
Ġf isc
Ġher zeg
Ġblack burn
Ġmel ting
Ġimpact ed
t rip
ul ing
Ġbr ack
Ġfri es
mans hip
Ġbyzant ines
Ġcroc od
r ill
Ġfe ast
aw i
Ġspec ially
Ġnar c
Ġweb ster
Ġoverl ap
Ġaborigin al
g ard
r ano
is en
Ġst o
Ġha iti
Ġgi ro
Ġsle nder
Ġkr ak
Ġastron omy
Ġnut ri
Ġlag una
Ġlon ely
Ġbened ict
Ġl ore
st a
Ġmar ina
Ġcr ush
Ġmod ule
Ġant illes
Ġdeb ates
Ġital ians
Ġnation als
Ġguatem ala
is y
ir th
Ġv ishn
Ġgro ove
Ġobt aining
er oy
id en
Ġem issions
Ġsub mission
Ġimp ed
Ġfeder er
Ġattract ions
Ġtal ented
Ġcant ata
Ġmaur it
Ġansw ered
Ġconcurrent ly
Ġtrem end
Ï Ħ
Ġl akers
Ġk its
Ġun beat
Ġz imb
Ġtrans mit
Ġbre t
bo ats
Ġgun nery
Ġexpl or
Ġlab els
Ġhard core
Ġdom es
Ġarab s
Ġcertific ate
j un
Ġd ess
Ġl Ã¼
Ġpe ac
Ġbook ing
Ġoccur rence
Ġcov ent
Ġquad ru
Ġmelod ic
Ġwimb ledon
b ad
Ġst ellar
Ġk ins
Ġpr one
Ġinf ra
Ġmc n
Ġinform s
Ġresemb ling
Ġintim id
om ans
Ġdr inks
Ġz agre
Ġste ak
Ġsol itary
Ġaub urn
v ous
Ġd os
Ġal igned
Ġgr un
Ġham m
Ġaccess ion
Ġjew el
ux e
Ġtel ugu
far lane
Ġemble m
Ġun in
ane y
Ġhy ph
Ġid aho
ogen ic
Ġfru its
Ġh ilton
Ġan ten
Ġv ag
ty m
Ġec ological
Ġball oon
Ġprompt ly
Ġcad ets
Ġrit uals
Ġprest igious
Ġpla que
or um
Ġat p
Ġres ume
Ġacc ounted
Ġdec ree
Ġown s
Ġshort s
Ġiss uing
Ġchrist ina
Ġdu ff
Ġunf av
Ġguerr ero
Ġapoc aly
Ġzagre b
Ġd rif
Ġmon etary
Ġep s
Ġecl ip
Ġwander ers
e a
ul ative
Ġcre t
Ġext ras
Ġvis ibility
Ġhapp ening
Ġpick ing
Ġairport s
Ġcry pt
Ġkid ney
Ġdetermin ing
Ġbankrupt cy
f ork
Ġs f
Ġh ailed
Ġg ases
el ius
Ġis m
Ġcon go
Ġv ass
Ġsec rets
Ġstar board
Ġcand y
Ġvirt ue
Ġm ell
Ġst akes
Ġr im
Ġr all
Ġun av
Ġind o
Ġbl ess
Ġunder c
Ġsy ll
Ġty ing
Ġdem ons
Ġmor ality
Ġsee ks
su its
Ġcann ons
Ġtermin ated
Ġconfron ts
Ġupd ate
Ġfel ix
Ġrecall s
Ġdevast ating
Ġartifact s
Ġs ire
Ġy oga
Ġle ver
Ġi uc
Ġreal izing
Ġcampaign ed
Ġgoal tender
Ġsev enty
Ġtext ure
Ġdismiss al
Ġundert aker
Ġerupt ions
Ġvers a
Ġorgan izing
Ġdeb ts
Ġbur den
Ġhy de
Ġsun set
Ġdor othy
Ġuncom mon
Ġoutl aw
Ġgael ic
Ġw emb
am oto
Ġcl own
Ġcomp ose
Ġcons oles
Ġsy rac
Ġche ek
Ġshould ers
Ġide ology
Ġident ifying
u pp
Ġp its
Ġcon rad
Ġex otic
Ġloc ks
Ġbook er
Ġdel uxe
Ġprot esters
Ġbank ing
Ġsyn ag
Ġcorrect ly
Ġcarn iv
Ġcros by
Ġsubordin ate
Ġprolong ed
Ġsuperintend ent
Ġiuc n
Ġp ater
Ġcapt ains
ape ake
Ġ183 9
Ġdir t
Ġhein rich
Ġd Ã©
Ġl s
st ep
Ġro x
Ġwe y
Ġsub pl
Ġroyal ist
Ġinform al
Ġenc ir
Ġcongress man
Ġreprodu ctive
Ġprosper ity
Ġtol kien
Ġpersec ution
Ġdian e
È Ļ
Ġk au
ass ium
Ġint ensive
Ġmo ff
Ġcycl ing
Ġgam ma
Ġveget arian
Ġbombard ed
Ġparad ise
v ia
v ara
Ġd itch
Ġj ain
Ġob jections
Ġmemb rane
Ġkh rush
Ġ46 0
Ġwol ves
Ġsurge on
Ġunnecess ary
Ġc us
Ġb ung
Ġg im
Ġne b
Ġcare ful
Ġprop on
Ġcad et
Ġerupt ed
Ġfert il
Ġenzy mes
Ġbrut al
l ore
al an
Ġh ag
ic ol
Ġkn e
Ġpress ures
Ġprogram mes
Ġsurv ives
Ġbed e
Ġfirm ly
Ġabb ot
Ġobv iously
Ġdispers ed
Ġfus elage
Ġloos ely
2 00
e ur
m ph
n ant
in as
Ġn ave
Ġe k
Ġj ill
ab we
Ġsc rew
ib les
Ġprof itable
ãĥ ³
Ġvoy ager
Ġmarath on
3 7
4 9
p arts
ou k
Ġe tym
Ġk art
Ġno ir
Ġref r
Ġcat cher
Ġmem phis
Ġimpact s
Ġcer am
don nell
Ġsuspect s
Ġank le
Ġwemb ley
Ê »
Ġt z
Ġen vision
Ġab ortion
Ġliber als
Ġintegr ity
Ġwy oming
Ġabb as
Ġstup id
Ġsyrac use
n em
Ġ à¤
ent e
im i
Ġfl att
Ġcr im
Ġsat ire
Ġlog ic
Ġsin clair
Ġcurt ain
Ġkhrush chev
Ġs urn
ar in
Ġd l
ic z
Ġle ased
Ġaf c
ath a
Ġmat ilda
Ġhum orous
Ġhun ger
Ġemotion ally
Ġverte bra
Ġshan gh
Ġt apes
Ġl ak
Ġl umber
Ġsh adows
Ġcomp elling
Ġinfl ation
Ġbal anced
Ġscre am
Ġspan ning
Ġwa ited
Ġsett ling
b ands
oc ar
Ġout flow
Ġbr ave
Ġtrans mitted
Ġcor rupt
be ck
onom ic
lo o
Ġpot assium
Ġgrav itational
Ġshif ts
Ġweigh ing
Ġware house
f ied
s ay
Ġj ut
Ġmar ion
Ġdes k
Ġexp ired
Ġ30 5
Ġfun nel
Ġcult ivated
Ġpra ir
Ġham pered
Ġhost ilities
Ġnin ja
Ġlibr aries
Ġpin ned
Ġretreat ing
Ġmini ature
ĠÏ Ģ
Ġandre a
Ġkann ada
r aged
Ġt uls
Ġg ong
Ġv id
Ġar ches
ue z
Ġarm ist
Ġcr ushed
Ġsol ic
Ġprote ctor
Ġwood y
Ġches apeake
Ġconsc ience
Ġrecru its
Ġabd ul
Ġnurs ing
Ġbesie ged
Ġpsyched elic
Ġcamoufl age
Ġincumb ent
Ġkrust y
Ġzimb abwe
Ġhyph ae
Ġt rent
Ġb ates
ag her
Ġtr agic
Ġad vers
Ġrefer enced
Ġcert ification
Ġork ney
Ġherzeg ovina
Ġm w
Ġg rie
ur red
Ġdown stream
Ġgun fire
Ġrepl ica
Ġru in
Ġinnoc ence
Ġvern on
ol ar
Ġpl ag
Ġinc ap
Ġmag gie
Ġdiffer ently
Ġpa ired
Ġdomin ion
Ġcompos ite
Ġexpedition ary
Ġbelong s
Ġmamm al
Ġloun ge
Ġconcurren cy
Ġbreak away
Ġcart oons
Ġstrateg ies
Ġtu ber
Ġdepos ited
Ġab yss
Ġhot sp
Ġlat itude
Ġmart y
Ġ183 5
Ġsas kat
Ġobst acles
Ġprecurs or
Ġbritt any
Ġs cl
Ġb ie
at l
est e
Ġsh annon
Ġchar itable
Ġmaj esty
Ġmo ons
Ġmagn us
Ġaccur ately
enh agen
Ġecho ed
Ġduch y
occ up
t les
Ġs ally
Ġc ripp
Ġp d
Ġm ates
Ġn k
Ġer ik
Ġmad ras
Ġreact ed
Ġven et
Ġris ks
Ġhoriz on
Ġm oll
iv o
Ġbre tt
Ġbas ically
Ġentire ty
Ġconstit uted
Ġrand olph
Ġble eding
Ġdiction ary
Ġshangh ai
2 8
Ġt ant
Ġcomm ence
Ġameric as
Ġcirc ulated
Ġ179 9
Ġmand atory
Ġconfeder ation
Ġpitch fork
Ġlam bert
Ġinsur g
Ġfisc al
Ġa e
Ġc odes
Ġin ception
Ġcar b
Ġcar son
Ġstr icken
Ġdiffer ed
Ġang ered
Ġwall ed
Ġdim ension
Ġisot ope
Ġoverlo oking
Ġleip zig
in ished
Ġst ack
Ġch au
Ġcl ips
Ġsc an
ach y
Ġant o
Ġpost season
Ġmind s
Ġhip per
Ġom n
Ġcoinc ided
Ġhutch inson
Ġp iers
Ġst ained
Ġmar ian
Ġdist ress
Ġbroad side
Ġott omans
Ġcomplic ations
Ġreleg ation
Ġaber de
Ġcounteratt ack
Ġclarks on
Ġh orm
Ġan zac
ters on
ah u
Ġins ane
Ġins erted
Ġgood man
Ġsent ences
Ġtechn ically
Ġpract ition
Ġnovel ist
Ġtas mania
Ġspl its
Ġpip eline
Ġbrun o
Ġcob b
Ġir rit
Ġrender ing
Ġrelax ed
Ġdatab ase
Ġgalv eston
Ġc is
Ġsub du
ins ki
Ġstri ps
Ġbon o
ding ton
Ġ183 8
Ġexpect ing
Ġbaro que
Å Ł
Ġrob ust
sc ale
Ġcinem as
Ġdownlo ads
Ġamal gam
a a
Ñ ģ
Ġp Ã©
Ġre appe
Ġhe aling
ck in
ract ed
Ġexper ien
Ġdiscuss es
Ġteach ings
Ġexcav ated
Ġeval uation
Ġironcl ad
Ġp uck
ud ing
Ġno ct
Ġpat ches
Ġhun gar
Ġprem ium
Ġtax i
Ġprotest ed
Ġfolk lore
Ã° r
Ġunbeat en
Ġw age
at os
Ġg ad
Ġvis c
Ġtre vor
Ġtechn ological
Ġbul ld
Ġmission aries
Ġmut iny
Ġjul ius
och ond
Ġastronom ers
Ġmetall ic
Ġpian ist
c ill
er ie
en za
Ġd it
ou b
Ġn wa
Ġex eter
Ġmore no
Ġins cribed
let te
Ġlab elled
Ġcoff in
Ġsuspic ion
Ġc i
op ot
Ġwest on
Ġrang er
Ġwebs ites
Ġ182 9
Ġbarr age
Ġgentle man
Ġdigit ally
Ġkem p
f u
Ġcop enhagen
Ġexcell ence
Ġredevelop ment
pow der
Ġrehabil itation
Ġiph one
Ġexperien cing
Ġh pa
Ġbe aver
Ġr bi
Ġal ike
Ġse w
Ġfl int
Ġsl ug
Ġcour thouse
Ġsix teenth
Ġnight mare
Ġbay ern
Ġbomb ay
ograph ies
Ġweb b
Ġh airs
Ġg anes
ater al
Ġ4 10
Ġaugust ine
Ġgun powder
ps y
Ġtot als
Ġfa una
Ġattract ing
Ġintention ally
Ġadvis ories
Ġthorough ly
Ġexceed ing
cc i
Ġup stream
Ġcontin ually
Ġcr ab
Ġaw aken
Ġunf inished
Ġhed ge
Ġchocol ate
r ice
Ġy uc
ast rous
Ġdis astrous
Ġpre hist
ens en
Ġdavid son
Ġsurf aced
Ġmarket ed
Ġcontinu ity
Ġric an
Ġnaz is
chw ader
Ġretros pective
Ġre jection
Ġhe w
Ġk ry
cl ed
Ġdis par
Ġatt itudes
Ġfound ers
Ġra iding
Ġvi j
Ġwil f
Ġadminist rator
Ġfail ures
Ġreign ing
Ġcock pit
Ġukrain e
Ġb ould
Ġst alk
Ġk ant
Ġpre tend
Ġprest ige
gam er
Ġc ull
Ġm ould
le x
Ġam ids
Ġout rage
Ġinvest ments
Ġ184 2
Ġens ued
Ġandrew s
Ġconve x
Ġwire less
Ġczech osl
Ġvig il
Ġparas ites
Ġfing ers
Ġunrel ated
Î µ
Ġst ressed
Ġde ities
Ġsp erm
Ġfe y
Ġpres idents
gr at
Ġdu el
Ġcouncil s
Ġ48 0
stone craft
Ġbowl ers
Ġdefin itive
Ġsab b
Ġmant le
Ġvect or
Ġwoll stonecraft
Ġto k
id ays
Ġle h
Ġle ak
Ġad oles
Ġrev is
Ġappe aling
Ġheav iest
Ġsurround ings
Ġsymp athy
Ġplas ma
s m
ill ance
Ġsh Åį
Ġpres e
Ġhel met
Ġinst antly
Ġvis ually
Ġsal ford
Ġemerg ence
Ġreconst ructed
Ġdisappoint ing
Ġeug en
Ġdispos al
Ġlg bt
Ġin herent
Ġd well
Ġis h
Ġy a
Ġnot tingham
Ġgr ill
Ġche f
Ġcoun cill
Ġtem p
Ġmist akes
Ġroy als
Ġvishn u
Ġamids hips
r ust
on ne
ro b
Ġth ief
Ġhe ss
Ġrem atch
Ġsl ed
Ġgrant ing
Ġmic key
Ġexam ine
Ġ183 1
agn etic
Ġcliff s
Ġepiscop al
n ance
Ġh abs
Ġim min
Ġbl ades
Ġtall est
Ġmist ress
Ġmargin al
Ġvib e
Ġmetab ol
Ġbicy cle
Ġcret aceous
iv ia
Ġse ap
Ġwill ow
Ġdiv erg
Ġlim iting
Ġcult iv
Ġmaster piece
Ġreform ation
Ġ180 1
Ġprese ason
ã Ģ
Ġb oring
or th
ic le
Ġnot orious
Ġbu chan
Ġbos n
Ġnik ol
Ġh v
us ions
id an
Ġ20 5
Ġcar m
Ġinfl amm
Ġstrong hold
Ġsal em
Ġmc le
Ġprob able
Ġtrunk line
v ana
Ġt ah
Ġt empt
Ġth y
ul i
Ġgr ades
Ġed it
Ġnorth umberland
oy a
Ġopp ose
ĠÂ ½
Ġconstru cting
ett i
Ġren ted
Ġren umbering
Ġsac rific
Ġbapt ism
Ġsurve illance
Ġd m
Ġre be
Ġage nda
field s
Ġtemper ate
Ġens uring
Ġchor al
Ġsevent eenth
Ġunexpected ly
f inger
Ġc ake
ast ically
orm an
Ġche aper
Ġfre eman
Ġindivid ually
Ġpriv y
Ġindic ation
Ġpu ff
Ġcit adel
Ġ181 5
Ġarchae ology
Ġpir ate
at ches
Ġn ir
il iation
ard i
Ġout n
ough ts
ib ald
Ġgr ind
Ġext r
Ġref ined
Ġ184 3
Ġinterse cting
Ġescort ing
Ġn er
Ġbl unt
Ġref urb
lo ad
Ġmodel ed
Ġjuven iles
Ġa if
el ly
Ġsh ake
Ġcl over
Ġwe aker
Ġcent s
Ġcat ching
Ġcorre l
mark et
Ġremix ed
Ġprofession als
Ġn p
am orph
ag ements
Ġcl aren
Ġen light
Ġno el
Ġsm ugg
Ġexpl oded
Ġriver a
sh aw
Ġcult ivation
Ġder ives
for ward
Ġta vern
Ġcock t
Ġspokes man
g ame
Ġ ãĢ
Ġp hel
st idia
Ġj or
Ġcritic izing
Ġroll ed
Ġmatthew s
Ġwinn ipe
r ors
Ġb aja
at ics
Ġn os
le ased
Ġfir ms
Ġfin anced
Ġinv inc
Ġcy ber
Ġfut ur
Ġpersonal ities
Ġhapp iness
Ġamb ush
Ġquestion ing
Ġta ft
Ġsod ium
Ġautonom ous
k ie
Ġt ips
Ġo mitted
Ġsu its
Ġco ined
Ġout sk
Ġsun ny
Ġident ifies
Ġmiddle ton
Ġprin z
Ġcorp se
Ġinex per
u en
Ġd ucks
ot he
Ġj ol
ill as
ign e
Ġhand ic
Ġ23 5
Ġdu pl
Ġinterpret ations
Ġdeliber ate
Ġgentle men
Ġminer als
Ġgeorget own
2 7
ad ian
Ġtr unc
ne ill
Ġbi ke
Ġstra its
Ġnom en
Ġisab ella
Ġinfin ite
Ġsophom ore
Ġc airo
Ġd us
av ier
urn al
Ġep onymous
Ġsl oven
Ġmark ings
Ġsat an
Ġsun sh
bor g
Ã¡ s
Ġmit ochond
Ġnic ole
Ġconsult ing
Ġoverth row
b ons
Ġb ly
Ġj umped
Ġ8 50
Ġeng agements
Ġdisc arded
Ġsuff rage
Ġenjoy able
Ġretrie ve
Ġsandwic hes
Ã Ł
Ġbu g
Ġunc overed
Ġpenn y
Ġcool ing
Ġexplos ives
Ġmaria h
Ġrepr ise
Ġflex ible
Ġrepet itive
Ġvlad imir
Ġpresbyter ian
Ġoutsk irts
c ule
e em
Ġoff s
Ġbr uss
Ġrep uls
Ġpar agu
Ġrel ate
Ġbel ly
Ġer in
Ġord nance
Ġsex es
Ġbene ficial
Ġ38 0
Ġtow ed
Ġingred ients
Ġgovernment al
Ġcoordin ated
Ġkidn apped
Ġcunning ham
d r
Ġsu ck
Ġkill ings
Ġfle eing
Ġpig eon
Ġsuperior ity
Ġaggress ion
Ġshif ting
Ġd rought
Ġst anton
Ġtim eline
ann ers
Ġcolumn ist
Ġalg or
Ġdart mouth
i ago
Ġp iv
Ġk any
ish a
Ġloc ke
Ġback l
Ġnumber ing
Ġche v
Ġru ff
Ġcou ples
Ġdefend ant
Ġtun es
ĠÎ ±
Ġlev ine
Ġmathem atic
Ġglac iers
Ġfitz ger
c are
Ġb ite
Ġd umb
ast ed
rit ion
Ġform id
Ġel vis
Ġbar ometric
Ġsuper b
Ġeurope ans
lo ok
Ġlik ened
Ġ180 9
Ġrot ating
Ġrand all
Ġmagnific ent
Ġwinnipe g
y ch
Ġb ols
Ġex iled
Ġhim m
Ġ14 3
Ġexc it
Ġdomin ate
Ġ179 4
Ġ179 8
Ġdoub ts
Ġdreadn oughts
f unction
Î »
Ġt res
Ġp act
ch am
Ġinv is
Ġbar ric
Ġdam s
Ġfrust ration
Ġcorp us
Ġoxid ation
Ġw ig
Ġst ain
ul d
Ġi o
Ġres isted
Ġapp lying
Ġaut onomy
Ġdest ructive
Ġcoll ided
Ġaud itor
Ġtom bs
ĠÃ ¶
Ġupgr ades
Ġleaf s
Ġpsychiat ric
Ġcylind rical
Ġimmin ent
qu est
pp en
Ġdep ressed
Ġfif teenth
Ġros es
Ġlot us
Ġdemonst rations
Ġintercept ion
Ġalexand ra
Ġfitzger ald
Ġde e
if fer
Ġlet hal
Ġtarget ing
Ġp es
ap y
Ġus af
Ġver mont
Ġteam ed
Ġback s
Ġgerman ic
Ġresemb led
Ġtrend s
Ġobsc ure
Ġscr ut
Ġl ips
Ġn ull
Ġmon ten
Ġz ach
Ġob sole
Ġdel ic
Ġir rig
Ġinfl ict
Ġmal aria
Ġmcc le
Ġaffili ate
Ġchrom os
Ġembed ded
Ġt ails
Ġst ems
Ġhe ather
Ġem in
Ġbar ker
Ġcoll ar
Ġcat ast
Ġhuman itarian
clus ive
Ġadj o
Ġflu ct
Ġalleg iance
Ġbism arck
Ġremaster ed
Ġp emb
ind a
Ġbar ack
Ġgre eted
Ġchrist ine
Ġsar awak
Ġvac u
Ġaudition ed
Ġw ad
Ġl oren
Ġre work
Ġend uring
Ġacqu iring
Ġlif es
Ġbry ant
Ġlen in
Ġineff ective
Ġeurop a
ĠfranÃ§ ois
Ġeleg ant
Ġhabs burg
Ġm b
Ġm ash
ok i
Ġim ax
Ġdo om
Ġsuper vised
Ġlight ly
Ġgib bs
Ġcant on
Ġsalv ador
Ġuncom fort
Ġcornwall is
Ġfacil itate
Ġobsole te
Ġst ole
and ra
Ġi os
Ġunder going
Ġtouch ing
Ġcly de
r ide
ar th
Ġn ude
Ġpart ition
Ġcan ning
Ġposs ibilities
Ġface book
Ġgate way
angel o
Ġhass ett
Ġpreval ent
Ġclaren ce
w yn
es co
st age
Ġst alled
Ġcl ap
Ġrec y
Ġdis organ
Ġev an
Ġjust ices
Ġhar ald
Ġequ ity
omb at
Ġmad ness
Ġrelig ions
bour g
Ġdisplay ing
Ġdisord ers
Ġbruss els
c ip
Ġch asing
ant i
Ġover c
Ġco y
Ġany way
Ġsl aughter
Ġdem ise
Ġsn akes
Ġsyn ch
Ġess ence
Ġcinemat ography
Ġenerget ic
p ace
w i
Ġm orm
ond heim
Ġcol ts
Ġinc ent
Ġgu ides
Ġstr ained
Ġ22 5
Ġproblem atic
Ġstrip es
Ġalter ations
Ġyield ed
Ġspart an
i em
Ġt ik
ak ov
Ġu c
Ġfil ip
Ġalb ania
ĠÂ ²
Ġgreen land
Ġ181 9
Ġmim ic
Ġb rent
Ġv ett
Ġapp ar
Ġprov oked
Ġgroup ed
ob e
ming ton
Ġviol ated
Ġexpress es
Ġbol t
Ġrum ble
Ġcorrespond ent
Ġ ç
is ely
Ġd ried
ad vant
Ġst aging
Ġj ub
Ġk ron
Ġcl ients
Ġup scale
Ġass erts
Ġsub gen
Ġnight cl
ĠÂ ±
Ġbat ista
Ġill usion
Ġthom son
Ġrac ism
Ġfinanc ing
Ġ181 4
Ġaffect s
imet re
Ġt att
Ġon o
Ġman it
ond er
Ġcol t
Ġinter changes
Ġunder way
Ġback wards
Ġpop mat
Ġcontrib utor
Ġgy m
Ġjenn y
Ġanticip ation
Ġmasc ot
Ġwals h
Ġenvision ed
Ġpopmat ters
Ġw anna
ri o
Ġdis advant
Ġshow case
ism atic
Ġhold ings
Ġtar iff
Ġtrib un
Ġintens ify
Ġhep burn
Ġcrim son
Ġbols he
c ourt
al g
Ġout line
Ġcre m
Ġold ham
Ġsan ction
Ġfootball er
Ġmac l
Ġwal ton
Ġdefend ants
Ġles ter
Ġble w
Ġbun ker
Ġpengu ins
Ġtremend ous
ers ed
Ġne ville
Ġpol o
Ġok in
Ġever gl
Ġgl ut
Ġview ership
que z
Ġtru ce
Ġfare well
haw k
Ġrer out
Ġl um
Ġcent red
Ġmod ification
Ġgold man
Ġground ed
Ġvel vet
Ġconsult ed
Ġchord s
Ġaberde en
x es
Ġb ax
Ġd ing
Ġmill imeters
Ġlast s
Ġgl orious
Ġra o
Ġden ounced
Ġow l
Ġrod gers
Ġshir ley
Ġmunicipal ities
hard t
Ġhab its
Ġcl aus
Ġfe as
Ġsl im
Ġins ert
Ġmid st
Ġtake out
Ġvol ley
Ġmart yr
Ġhero ine
ij uana
Ġspin ning
Ġculmin ating
Ġyuc at
Ġevergl ades
un ct
Ġch icks
pp ers
Ġmar co
Ġme gal
ang o
Ġcar ne
app ers
Ġelect rom
Ġvi able
Ġdischar ged
Ġtitan ic
Ġdevot ion
Ġhomosexual ity
Ġinherit ance
Ġmoff at
l ass
Ġs ard
at on
Ġn ails
Ġy ah
Ġsh ores
Ġtrans f
Ġpun ish
Ġ179 3
Ġcriticism s
Ġdecor ations
Ġjagu ar
Ġh uff
Ġe bert
Ġne ur
Ġâ Ĩ
Ġ18 10
Ġrel oc
Ġconst raints
Ġcommand o
Ġanim ators
Ġcost ly
Ġstrike outs
Ġnh c
Ġtaun ton
Ġf oli
Ġv ie
Ġv hs
Ġwor ry
Ġwe in
Ġfather s
Ġtun is
Ġprogress es
Ġcart man
Ġelimin ating
Ġgalax ies
p us
qu el
Ġun se
Ġare n
Ġad s
Ġreg ency
ins ky
Ġdam on
Ġve in
Ġgene va
Ġwis dom
Ġrehears als
Ġreper to
Ġrebe cca
Ġa pe
Ġto sh
Ġre el
Ġr ita
ab y
Ġcont amin
Ġam us
ail able
Ġcommun ism
Ġhom icide
Ġult ra
anth a
Ġambul ance
Ġ ~
Ġcon grat
ers e
Ġy uk
Ġy osh
Ġpr att
Ġ15 00
Ġsk ating
Ġref use
Ġcampaign ing
Ġtreat ments
Ġlic ence
Ġwheel chair
Ġcrimin als
Ġanx iety
Ġpegg y
ar ity
Ġbe an
id as
Ġcom edic
Ġpl ank
Ġco ordination
Ġwar ming
Ġbra un
Ġenter p
Ġkick off
p ole
Ġb land
Ġp anc
Ġp ension
if i
Ġsp elling
Ġup held
Ġstation ary
Ġvo id
Ġprot agonists
Ġsus cept
Ġspan iel
Ġpick s
Ġillust ration
Ġ177 5
Ġspons or
Ġdick inson
Ġfulf ill
Ġborne o
Ġsunsh ine
Ġformid able
Ġc w
at ile
Ġl Ã©
et e
Ġz u
Ġins ign
uss y
ii i
Ġmind ed
Ġsund ays
Ġimpl ied
Ġclay ton
Ġguid elines
Ġnig el
Ġbosn ian
Ġa ve
Ġm Ã©
Ġn ero
st ones
Ġi oc
Ġnot re
ke f
Ġme als
Ġwar b
Ġz en
Ġter ra
its u
Ġx v
Ġdet ention
Ġlind say
Ġgill ian
Ġbuff y
Ġgust av
Ġpatri ots
Ġern st
Ġbotan ical
y t
it ian
Ġm ound
Ġsh am
ost ic
Ġprev ention
Ġtop s
Ġjud ici
Ġtreat ies
Ġcelebr ating
Ġaim ing
Ġvolunt ary
Ġairpl ane
f an
Ġre int
il ib
Ġe go
Ġch ili
Ġch rys
Ġmon opoly
Ġstr anger
app ropri
Ġdest inations
Ġcooper ative
Ġcrus aders
Ġreward ed
Ġkeyn es
Ġtud or
Ġhimm ler
r and
ar c
ut a
ch us
Ġbre st
Ġgod win
Ġprol ific
Ġoliv ier
Ġfern ando
4 8
Ġw enger
Ġe ater
Ġpr ague
Ġmin aj
Ġma z
Ġcor v
Ġrehears al
Ġmarl borough
Ġtribut ary
ĠÎ¼ m
le igh
Ġpro clamation
Ġfort unes
Ġemploy ing
Ġori ental
Ġredes igned
Ġhul k
Ġhumph rey
Ġt ae
Ġthe sis
Ġl act
Ġit v
ch amp
ok u
Ġmar se
Ġpar at
Ġsing ular
Ġmand ate
Ġsant iago
Ġcelest ial
Ġarmist ice
on n
nd on
ar ius
Ġl ah
st aff
Ġst aun
ir able
Ġne c
ass ment
Ġcl ade
Ġchar ming
Ġhun ted
Ġbreed ers
Ġcharl eston
Ġfix ture
Ġsight ed
Ġmalays ian
Ġetym ology
b ral
m ium
Ġo y
qu it
Ġadd iction
Ġhold er
Ġcommission ing
Ġplant ations
Ġwel ding
Ġspect ral
Ġsalv ation
Ġrend ez
Ġw agon
Ġcon gestion
ag asy
od er
Ġrest oring
Ġshort ages
Ġcase y
Ġwil kinson
Ġpay ne
Ġ179 2
Ġmos es
Ġsculpt or
Ġrever end
Ġassum ption
Ġjohann es
f oot
Ġthe ological
Ġs is
ar ag
Ġcomp are
Ġso ils
Ġlater al
Ġatl ant
Ġfeed s
Ġrome o
Ġappoint ments
Ġspons orship
Ġc umberland
or able
Ġin acc
Ġto il
Ġth res
le af
Ġj ug
Ġ20 3
Ġwe aver
Ġmil ky
Ġever ett
Ġcy t
Ġequ ation
Ġsal on
Ġarg u
Ġinde fin
Ġclim bs
Ġscript ed
Ġrab bi
Ġprel ude
Ġdisagre ement
Ġblond e
Ġumb rella
Ġinacc ur
Ġb ian
Ġne on
Ġres istant
ans en
Ġmat s
Ġje op
Ġinterv ene
Ġocean ic
Ġow ed
Ġvolcan oes
Ġspell s
Ġwolver ines
Ġcricke ter
Ġr het
ist ani
Ġreg al
Ġdiv erted
Ġrest ing
Ġfre ak
Ġhit ter
Ġcomment ator
Ġsam ar
Ġrub y
Ġdisappear ance
Ġinfra red
z as
pl ant
Ġmal agasy
Ġwid ened
Ã¸ r
Ġphenom ena
Ġredesign ated
inte gr
Ġm og
Ġl ana
Ġun changed
ody nam
Ġgeor ges
Ġfresh water
Ġron nie
Ġpeas ant
g il
Ġfor aging
Ġtim othy
Ġrel ates
Ġinc ub
Ġcal d
Ġ21 5
Ġfact o
Ġtrad ers
Ġhi ros
Ġale c
Ġsand ers
Ġchap lin
ĠÃ ³
Ã¼ hrer
Ġtal ents
Ġsav oy
Ġfro gs
Ġpig s
Ġlion el
Ġsupplement ed
Ġmorph ology
Ġparalymp ics
Ġclif ton
Ġcrom well
Ġl und
Ġse ct
Ġk aw
Ġk ash
ab ul
Ġall ison
ath am
Ġbro oke
Ġmon itors
Ġland marks
gr ass
Ġmot iv
Ġesc aping
Ġtraff icking
Ġcamb odia
Ġshank ar
i ya
Ġl ub
Ġn r
il ated
Ġwh ig
th or
Ġtrans cend
Ġprov ing
Ġconf ession
Ġlist ened
Ġpak istani
Ġscholar ly
Ġoverl ord
g iving
w es
w al
Ġ é
it ution
Ġth ie
Ġfin ed
Ġem ission
Ġalb anian
Ġevery where
Ġprem ises
Ġgrad uates
Ġ178 9
anth rop
Ġchop ra
Ġreperto ire
2 2
Ġc f
Ġp inn
Ġl ump
Ġn od
et us
ber ht
Ġex its
Ġtown send
Ġ180 4
Ġveget ables
Ġump ire
Ġquart et
b ins
u ard
Ġgame c
any a
Ġir anian
Ġdav en
Ġhom eland
Ġ182 4
Ġ182 5
Ġchemical s
Ġsoph ia
Ġip ad
s son
Ġh iring
Ġn ons
Ġal ma
igh ters
Ġi rene
Ġall ot
Ġnew com
pl us
Ġz ack
Ġneg atively
Ġemploy er
Ġske pt
Ġaval anche
Ġazerbai jan
Ġrendez vous
f k
Ġm uk
Ġn ets
Ġbu cc
Ġrel i
Ġgar bage
Ġexplo it
Ġbiz arre
enz ie
Ġfow ler
Ġcasem ates
Ġsynag ogue
y ards
Ġ ions
Ġp est
Ġin und
Ġm akers
Ġn mi
Ġde ception
az e
Ġ179 5
Ġbid en
Ġnass er
Ġn oun
Ġty res
Ġdev i
Ġredu ces
Ġmcc oy
ba um
Ġdeleg ate
Ġprospect s
Ġoblig ed
Ġexagger ated
Ġsej m
Ġb enson
Ġe ul
na i
Ġspecial s
Ġperf ection
Ġconsum ers
Ġphill ip
g roup
Ġp istol
Ġn j
Ġal um
ass es
Ġle p
Ġaltern ating
Ġcommemor ative
Ġsatisf ying
haw ks
Ġvick ers
Ġory z
Ġr ift
Ġwh olly
Ġen ric
Ġover head
Ġhel ena
Ġdiffer ing
Ġdiscover ies
Ġinvestig ators
Ġze pp
Ġneigh bors
Ġheadquar tered
Ġturb ine
Ġpip es
Ġdors et
Ġuncomfort able
it ivity
ly wood
ut nant
Ġk ah
od ing
Ġmar riages
Ġbr ady
Ġmon keys
Ġrel inqu
Ġany body
Ġdisc s
ob ic
Ġlet ting
Ġcolor ation
Ġdiss ol
Ġsell ers
Ġfold ed
Ġcolomb ia
nem outh
Ġdaven port
w ith
he ed
es i
Ġh ib
Ġcomm issions
Ġconc ession
Ġexpl ores
Ġcommercial s
Ġ179 7
stre et
Ġmeasure ment
Ġconte nder
Ġkilog ram
Ġsear ched
Ġjudici ary
f ielder
g io
y ah
Ġc in
il on
Ġcan e
Ġtreat ing
Ġwil mington
Ġrh in
Ġconcert o
Ġtrain er
Ġ180 5
Ġ180 6
Ġundert ake
Ġah mad
Ġmonaster ies
Ġg ol
ist on
Ġ20 6
Ġ34 0
Ġ182 1
Ġc ory
ĠâĢ ĳ
Ġen forced
Ġsand s
Ġburn ley
Ġ178 0
het amine
Ġrefr iger
i Ã³n
r ÃŃ
is k
Ġk ombat
Ġch it
if iers
zz i
Ġ183 3
Ġcompens ate
Ġsurprising ly
Ġaccomplish ments
Ġacadem ics
Ġsaff ir
Ġundef e
u ce
w en
Ġr ans
Ġcon an
eng th
Ġconclud e
Ġprec ision
Ġeth n
Ġmit ch
Ġstraight forward
Ġoverlo oked
Ġmoz amb
Ġundefe ated
Ġand ri
ol and
ong s
Ġfr amed
Ġret ains
Ġma f
Ġten or
Ġmac le
Ġnomin al
Ġnatural ist
Ġven er
Ġdoll s
Ġdock yard
Ġexcav ation
Ġgriff ith
Ġunre leased
Ġethan ol
v ol
Ġt ate
Ġf ay
Ġf ence
om ac
od ont
Ġi z
Ġher d
Ġfl air
Ġsm ile
Ġphot ographed
Ġgro ening
Ġplut o
Ġtribut aries
Ġbik ini
Ġhungar ians
ĠâĨ Ĵ
Ġc ors
Ġb rib
Ġd ove
Ġst ub
Ġsp ine
Ġme gan
Ġ6 10
Ġz an
Ġgl aston
Ġmid fielder
ett o
ipp ers
Ġvic ar
Ġpale ont
Ġstevens on
Ġeleph ants
Ġnass au
Ġeuras ian
h oe
Ġan te
Ġv ale
Ġla x
Ġcharacter ization
Ġang ular
ple as
ae a
Ġprec isely
Ġvolunte ered
Ġimprov ised
Ġunanim ously
Ġfratern ity
Ġw avel
oc o
Ġpe el
ob il
Ġprop elled
Ġpress ing
Ġsteam er
Ġdecre asing
Ġtack les
Ġoverha ul
Ġvertebra e
Ġkany e
u j
Ġh bo
Ġdis ag
Ġapp la
Ġgu in
Ġcompet itor
Ġboard ed
Ġign or
Ġhan over
Ġflo at
Ġhaz el
Ġalph abet
Ġglac ial
Ġrav ens
Ġinver te
Ġunanim ous
b ase
Ġp oker
it ting
Ġd ix
Ġam mon
Ġmus s
Ġma ver
Ġke el
Ġfore ns
Ġmal vern
ox ide
Ġapart ments
Ġramp s
Ġhog an
Ġrodrig uez
Ġelong ated
er un
Ġadv iser
Ġpat terson
af i
Ġvarious ly
Ġ300 0
Ġfisher men
Ġcarn ival
Ġhydra ul
Ġmaurit ius
Ġargu ably
Ġin ject
oc ative
ia e
Ġtw isted
Ġair st
Ġger m
Ġpass ive
Ġtra uma
Ġnad u
ut z
Ġk atherine
Ġad en
Ġsc rib
Ġsm ell
Ġdec ks
yn t
Ġbon nie
Ġbarb ar
Ġdecor ative
Ġinnov ations
Ġpip er
Ġreluct antly
Ġoverwhel med
Ġfilmm aker
Ġtoler ance
c ell
d es
al ine
Ġres ent
ll an
Ġpost ers
Ġer lew
Ġpri zes
Ġsuff olk
har mon
Ġbol lywood
Ġflash back
Ġrhythm ic
Ġconven ed
Ġglaston bury
Ġerlew ine
Ġn ab
ur ated
Ġj as
Ġam ir
ok s
Ġout right
Ġfin ances
Ġmy a
Ġequ ilib
Ġarch ie
less ness
k u
Ġto ul
Ġl ys
Ġal ger
Ġk c
Ġv ain
Ġbo one
Ġprodu ctive
Ġlo ft
Ġra ided
Ġscreen writer
Ġclean ing
Ġalam os
Ġwavel ength
Ġ ^
Ġt rom
al ach
Ġpo ols
Ġma o
Ġexp orts
Ġgl ider
over s
Ġsty led
Ġvill agers
Ġ29 0
Ġsepar ating
Ġpul p
Ġcatholic ism
Ġcatch y
Ġhond uras
nae us
build ing
Ġenterp rises
en b
Ġar ise
Ġsome how
Ġinv ade
Ġinf ections
Ġjun ta
Ġcolle ctors
Ġsn ap
Ġpot omac
Ġprem ature
Ġgi ov
ij a
Ġclin ic
Ġax e
Ġautobi ographical
Ġleop ard
Ġstoryt elling
Ġprair ie
ch urch
oc he
Ġover ly
Ġbr as
Ġbl uff
Ġchar ging
Ġed dy
Ġ27 5
Ġreason ing
Ġsubst ances
Ġhear ings
Ġteen agers
Ã± o
w aters
re illy
Ġw augh
Ġn ell
Ġhe red
Ġk ip
th on
Ġbl itz
Ġqu ater
port s
Ġpred iction
Ġbay s
Ġregiment al
Ġaltern atively
Ġcomplex es
Ġsoundtrack s
greg or
Ġassist ing
Ġkat y
Ġvul can
Ġprosec utor
Ġsynd icate
Ġmasc ul
Ġparalymp ic
t land
Ġp ud
Ġp aus
Ġk ell
ick er
ind y
Ġla wn
Ġbre ckin
Ġcomb ines
Ġhost age
Ġmac farlane
Ġdeal er
Ġmic row
Ġcow ard
Ġcoordin ator
Ġphr ases
Ġni agara
Ġcogn itive
g age
l ov
is se
Ġst int
all i
Ġtr it
ian ces
ial s
ll a
Ġnin ety
Ġlic ensing
Ġsche er
Ġconfeder acy
Ġpron unciation
Ġbour nemouth
Ġastronom er
Ġjed i
9 0
c ut
Ġw ip
Ġj umps
ich o
Ġshe ets
oll a
Ġinf ring
Ġbomb ed
eli hood
Ġderiv ative
Ġfrit z
Ġad verse
Ġbr anded
Ġhal ft
Ġhy der
Ġclear ance
Ġpenn ant
Ġtal bot
Ġos wald
Ġpack aging
Ġlif elong
Ġsurre al
Ġsplit ting
Ġadvant ages
Ġconvin ces
Ġrig id
Ġairfield s
Ġinvis ible
Ġt iles
Ġg in
Ġg lands
Ġfin ishes
ib an
Ġent rep
pend ing
Ġwat ford
ves ter
Ġpit chers
Ġjournal ism
Ġtreas urer
Ġjar rett
Ġrepr inted
Ġchlor ide
Ġkyl ie
Ġm ps
Ġco oke
Ġwar n
Ġstret ching
Ġexplo itation
Ġokin awa
r ar
Ġher man
Ġdis integr
Ġinter mitt
Ġpreced ent
Ġwes sex
Ġpeters on
Ġtriang ular
Ġsuspic ious
Ġvaugh an
Ġphel ps
b ling
t el
Ġal ign
Ġfl anks
Ġcr ude
Ġide als
Ġber ger
Ġmour ning
g ren
Ġst ipe
Ġr amb
Ġend ured
ident ified
Ġlim b
Ġjour n
Ġamb rose
Ġtun ed
Ġunl ock
Ġmir anda
Ġcorpor ations
Ġfisher ies
Ġster ling
Ġcompat ible
Ġexcit ement
Ġvett el
t ures
am ily
ow itz
Ġunder world
Ġep stein
Ġcal ais
Ġrespond ing
Ġtransl ations
Ġcrowd ed
Ġsynt hetic
Ġvolt age
Ġvacu um
Ġw igan
Ġn ina
id y
ct ric
Ġpro be
Ġdis g
Ġsystem atic
Ġnecess ity
Ġ183 4
Ġvik ings
Ġmotorcy cle
n otes
Ġt ug
Ġin k
Ġver bal
rop ods
Ġmy stic
Ġgar rett
Ġabs urd
Ġbed ford
Ġdecomp ression
Ġmanit oba
Ġto by
st ed
Ġfor c
Ġk ara
ne v
Ġbar rels
Ġcast ell
Ġarch ive
Ġgar ner
Ġmic he
Ġris en
Ġcrow ley
Ġanalys es
Ġbun ch
Ġstair case
Ġmotif s
Ġseiz ure
Ġeclip se
b eth
o ise
Ġw rought
Ġh m
Ġas cent
Ġcan als
Ġover run
Ġap ology
amp ed
Ġcons ul
Ġcons pic
Ġdep osed
und a
Ġgar land
Ġpot tery
Ġamb ient
Ġoce ans
Ġpier cing
Ġcapit als
Ġcole man
Ġinvent ory
Ġrey es
Ġroc kef
Ġinterf ere
Ġreint rodu
u f
w it
Ġt ire
Ġt ally
ar ios
Ġl ust
Ġis tan
ul ator
Ġpl ural
Ġel iot
Ġjust ify
Ġline age
oph on
Ġs inc
Ġse ctors
Ġk ok
and ro
oc hem
cl ing
Ġag round
Ġsk ys
Ġinterv als
Ġkar nat
Ġadj usted
Ġfellow ship
Ġcarl isle
Ġancest ral
Ġnich ol
Ġtiss ues
Ġrenov ated
roph ic
Ġnost alg
Ġquater mass
Ġistan bul
f ried
st yle
el ope
ap arte
Ġrest ed
ott a
Ġeconom ically
Ġamb itions
Ġeth ical
Ġexhib itions
Ġow ls
j on
Ġin appropri
Ġn w
le z
Ġch ased
Ġbut cher
Ġag ing
Ġgr is
Ġdet ained
Ġ31 0
ma id
Ġstay s
Ġconnect or
Ġconver ting
Ġdepth s
Ġadvoc ates
Ġconfisc ated
Ġunav ailable
Ġjourn als
p ur
Ġl ur
il er
em ann
Ġsh ame
ars ity
Ġmy ers
Ġext rav
Ġmot ivation
Ġrequest ing
Ġsupre m
Ġjur assic
Ġmott o
Ġsop rano
Ġhalft ime
4 7
Ġ ida
ly ss
Ġse ism
Ġpl ague
Ġsp at
Ġpar a
ph ones
Ġge ometry
Ġaug mented
Ġauthor ised
Ġcanad ians
Ġhol idays
Ġbi as
Ġphys icians
Ġker ry
Ġcosm ic
Ġmarin ers
Ġsurn ame
Ġoutn umbered
Ġv iolet
her ical
Ġar te
Ġad orn
Ġcont empt
Ġsch ne
Ġz ap
Ġel k
ik ovsky
enn es
Ġlist ings
Ġhere ford
ãĥ «
Ġrow land
Ġ182 8
Ġ74 7
Ġdescend ing
Ġimpl ies
Ġwick ed
Ġeman cip
Ġkub rick
Ġmoroc co
Ġyucat Ã¡n
Ġe z
ol le
Ġk ul
Ġcomp ares
Ġbr ush
att a
Ġ15 1
Ġref res
Ġarr ange
Ġtotal ing
Ġobs essed
Ġtur bo
Ġsil va
Ġexec ute
Ġmcc ay
Ġ44 0
Ġhang ar
Ġterror ism
Ġcod en
Ġnegle cted
Ġinev itable
Ġamus ement
abul ary
p ical
Ġb ount
as ian
Ġk ou
av i
ie u
Ġplay wright
Ġbr am
Ġred empt
Ġbur rit
Ġmess enger
Ġ179 6
Ġkit ty
Ġexerc ised
Ġbuddh ism
Ġpix ar
Ġsatir ical
2 6
c z
p ants
p ox
Ð ½
Ġp ry
Ġd res
Ġand roid
Ġl ens
el o
Ġv ind
Ġcomm od
Ġcons ume
Ġbel fast
ern er
Ġey ed
Ġprob ability
con nor
Ġtoll s
Ġtheore m
Ġmozamb ique
Ġp ens
Ġh os
un ion
Ġnot ices
Ġaf l
Ġste phan
Ġaccess ed
Ġpassion ate
Ġguerr illa
Ġbuchan an
Ġkarnat aka
ver y
Ġwhe don
Ġfle ets
Ġlow e
Ġrail s
Ġ181 6
Ġgri ef
Ġlibert ies
Ġgarc ia
m ere
ing o
Ġr ko
Ġse mit
Ġam n
Ġam in
Ġexp orted
Ġav engers
Ġcur s
Ġhistor ies
Ġadvance ment
Ġfal c
Ġearn ings
Ġquiet ly
Ġpup il
Ġsucceed ing
Ġnord ic
Ġzh ang
d t
ir s
Ġr ory
Ġch ass
Ġor ion
Ġmid ship
Ġfly nn
Ġadop ting
Ġdra ught
Ġlev y
Ġswit ching
Ġlith ium
Ġwreck ed
Ġpedest rian
Ġspont aneous
Ġm ons
Ġby ron
Ġpl aster
Ġma har
Ġbrit ten
Ġsl op
Ġbar riers
Ġdem os
Ġemploy s
Ġpad res
Ġdrag ged
Ġdepos it
Ġpneum onia
Ġvenge ance
g one
Ġm ab
Ġk od
Ġsh rews
are z
Ġed en
Ġly on
Ġfort un
Ġbri ar
Ġq f
Ġexpress ions
Ġles nar
Ġbureau cr
Ġrecruit ment
Ġcontrad ict
Ġbie ber
Ġf ury
Ġn ike
Ġpe ck
ll er
Ġinf ants
Ġcy p
Ġthreat en
Ġemb ark
Ġtrail ing
Ġaddress es
Ġaddress ing
Ġagree ing
keep ing
Ġrerout ed
Ġzepp elin
Ġrockef eller
e i
Ġf ission
Ġst ig
Ġv atic
os o
Ġex acer
Ġar rows
Ġsa igon
Ġel m
Ġmount ing
Ġsil icon
Ġalco h
Ġsau ce
Ġdunge ons
Ġpiv ot
Ġbreckin ridge
Ġexacer b
Ġd ic
ur ities
Ġv int
Ġger ry
Ġmer ge
Ġphil harmon
Ġpal er
Ġsil ly
Ġpain ters
aj i
Ġsav anna
Ġnapole onic
Ġspart a
Ġprivile ges
Ġkum ar
Ġimmort al
b anks
l ian
Ġmar ijuana
Ġsch war
Ġgl oria
Ġbon aparte
Ġadvert ised
Ġcode x
Ġdeput ies
Ġfulf illed
Ġdunge on
c asters
Ġd ental
ame ters
Ġsp un
Ġdis gr
Ġap h
Ġmin h
Ġsupp ressed
Ġinst ability
Ġline back
Ġext ensions
Ġprec ious
Ġrow ed
po ints
Ġabsor ption
Ġcinemat ographer
Ġs age
Ġd ahl
Ġto pping
Ġmay er
int osh
Ġphil anthrop
Ġham mers
Ġprocess ion
Ġjud y
Ġinstit uted
Ġsud an
Ġken ya
Ġinterc ontinental
Ġincl ined
Ġentrep rene
Ġa cl
Ġw oo
Ġc ic
Ġb ash
Ġp ter
em i
Ġex h
Ġem erson
Ġmon astic
Ġcandid acy
Ġ39 0
Ġpatri otic
Ġghost s
Ġm ug
al m
Ġd red
Ġg os
Ġab bre
Ġdis reg
Ġim pending
Ġfl aws
Ġup wards
Ġqu ote
Ġsw ear
Ġtrav is
Ġengine ered
Ġcab les
Ġamend ments
Ġsalv age
Ġbraw l
Ġt ara
Ġas ym
ong o
ub le
Ġfl ats
Ġwar mer
Ġreg ina
Ġsever ity
Ġinf amous
Ġvis ions
Ġcomb inations
Ġod in
Ġamend ed
Ġsid ney
Ġkend rick
Ġsubpl ot
Ġt art
in ald
Ġs ake
Ġw att
Ġd ose
Ġreg istry
Ġpol ished
Ġattack ers
Ġmark er
lo e
Ġstan za
Ġcontest ants
ev iÄĩ
Ġeject ed
Ġpater nal
Ġd amp
Ġr w
Ġdes erted
Ġpar odies
Ġdown graded
Ġdisc ography
Ġappro ve
Ġpaul ine
Ġpet ty
Ġbenef ited
Ġpend ing
Ġlud wig
Ġuncon v
Ġridic ulous
Ġencyclop edia
Ġscl er
Ġb res
ar is
Ġcount ing
int o
Ġins ists
Ġstruct ured
Ġprot ocol
Ġol ga
Ġgall ip
Ġdism ay
Ġactress es
Ġnic arag
Ġdecre ases
Ġsurvey ed
Ġscar let
Ġexplo ited
Ġembr ace
Ġepit het
Ġphysic ist
c ats
Ġs iber
Ġo me
Ġh ilar
Ġg rit
Ġpl under
Ġab e
Ġsur g
Ġz ur
Ġsupport ive
Ġgl oss
Ġelev ator
Ġcharl ton
Ġdub ai
Ġimpl ications
Ġrivers ide
Ġcelt ics
Ġgest ure
Ġsear ches
Ġretal iation
Ġmccle llan
or se
Ġh s
im ited
Ġv arsity
em po
Ġy ak
Ġout look
Ġprov es
port ed
Ġprefer ring
Ġuns ure
Ġrhyth ms
stad t
Ġincons istent
fle et
g au
Ġre lying
Ġsc utt
Ġout ages
ick ed
Ġcre te
hor st
Ġdon key
Ġwood ed
Ġden is
Ġacqu aint
Ġconvers ations
Ġexplos ions
Ġsab ot
Ġmarg ins
Ġment ally
Ġlandsl ides
shadow ed
re ads
es y
Ġhe t
Ġk appa
if ting
ak on
Ġcomp elled
Ġfl ip
Ġcons on
Ġday time
Ġest uary
Ġbar red
Ġsam antha
Ġga ud
Ġgallip oli
Ġw s
at hed
Ġd ion
ag ram
Ġsp lend
ck i
Ġsing led
ten stein
Ġlow ell
Ġbat ter
Ġsele ctive
Ġur ugu
Ġminor ities
Ġtax ation
Ġexam ining
Ġspend s
hous er
run ner
Ġlan tern
Ġplag ued
l itz
m ire
Ġo ch
Ġp our
Ġd ag
Ġst airs
ur us
Ġcont ention
Ġman gal
Ġint ric
Ġcomm uter
Ġass im
Ġsur plus
Ġpers ia
Ġcapt ained
Ġrail roads
Ġtun g
Ġari el
Ġproport ions
Ġconce aled
Ġcompuls ory
Ġg ond
Ġal ge
Ġen ch
Ġship ment
Ġpit ches
Ġsele ctions
Ġguard ed
Ġpossess es
Ġnir vana
r r
Ġs ina
Ġd ul
ac s
Ġsc are
Ġbl oc
Ġorgan ism
ĠÂ ·
Ġcry ing
Ġ181 8
Ġjane iro
Ġneighbour hood
Ġanaly zed
Ġneutral ity
Ġmaced onia
gro ve
Ġabn ormal
in ating
op ath
Ġall oy
Ġeng rav
Ġrel iance
hes is
Ġconstit ute
Ġod i
Ġsolid arity
Ġcommemor ated
Ġmarry ing
Ġextract ion
Ġnurs ery
Ġsustain able
1 00
Ġv or
Ġdec im
velop ed
Ġpred ation
tr ak
Ġmaster ing
Ġobserv es
Ġassault ed
Ã¨ res
Ġantib odies
Ġathen ian
Ġsemif inals
Ġpatric ia
Ġin ert
Ġwh ist
Ġcon e
Ġv ivid
Ġun sc
Ġher n
pr int
Ġca ud
Ġod ys
Ġcontrast ing
Ġdivers ion
Ġsymbol ism
Ġcompr ise
c ard
at ops
os c
Ġbr ands
Ġatt ach
Ġz a
Ġprev ailing
Ġec w
Ġjer icho
Ġpel oton
Ġshep ard
Ġupl o
Ġkle in
Ġl j
Ġtr icks
Ġtr ondheim
Ġear p
Ġpres cribed
sh a
rict ion
Ġcause way
Ġkh mer
bre aking
Ġrevol ver
Ġclif ford
Ġnomen cl
Ġgamec ube
Ġequilib rium
Ã ¯
Ġth umb
Ġg at
ad h
Ġwor m
Ġass umes
Ġinv alid
Ġlet t
Ġprop het
Ġequ ator
Ġhold ers
Ġgall eries
Ġgra pe
Ġtransition ed
Ġreorgan ized
Ġgand hi
Ġgalile o
Ġfundra ising
Ġelectrom agnetic
Ġw ow
Ġr n
Ġan ter
Ġpro claim
Ġpro jection
Ġper ce
Ġbest s
Ġgl iders
Ġfle m
Ġmass a
Ġcam el
Ġhon oured
Ġinform er
go vern
Ġlib ya
Ġdw elling
Ġtra it
oz o
Ġpic ard
Ġrb is
Ġjut land
Ġatlant is
Ġp aced
is an
ing ing
Ġh oy
Ġch un
Ġdis ability
Ġover he
Ġshow er
Ġgold s
Ġ29 5
Ġple aded
Ġcru ising
Ġsimultane ous
3 9
Ġc et
ot le
Ġal umin
Ġat ari
Ġj ard
Ġy og
Ġus c
Ġout ward
Ġph yll
Ġnow here
Ġnomin ate
Ġnic ol
Ġsel en
Ġhart ford
Ġexception ally
Ġnich ols
Ġsimpl icity
Ġosc ill
Ġhierarch y
h m
Ġp ants
Ġg our
Ġg ull
Ġst ump
Ġde af
Ġch ast
Ġac et
Ġsupp ression
Ġfre ighter
Ġhig gins
Ġpul se
Ġjac qu
Ġpenet rate
Ġembr aced
Ġreson ance
Ġtrump et
Ġpatroll ing
Ġw ik
Ġp ug
Ġn iss
ol ation
Ġr ca
cl c
form ed
Ġgr ate
Ġcar riages
Ġend urance
Ġconf essions
che wan
Ġprim ates
Ġbir ch
Ġspokes person
Ġevol ve
Ġdrif ted
Ġb oun
Ġb isc
Ġin ad
Ġch u
Ġen am
Ġall ig
Ġmet aph
Ġopen ings
che z
pend icular
Ġinflu enza
Ġbegin nings
Ġur ine
Ġrac ist
Ġbor is
Ġcollabor ator
Ġmicro phone
Ġcoordin ate
ãģ ®
Ġwitch craft
Ġswan sea
Ġambig uous
c rap
Ġt ard
Ġin act
Ġh ick
Ġper pendicular
Ġcommit ments
Ġenjoy ing
Ġha ul
Ġjackson ville
Ġconfl u
Ġunf air
Ġbru ins
Ġkick ing
Ġmes a
Ġrick y
Ġbackst age
Ġvenezuel a
Ġk ad
ome ter
Ġfil ters
Ġrev ive
Ġgener ous
Ġdep leted
Ġbrit ann
af ts
Ġur s
Ġunc onst
Ġcell ular
Ġ64 0
Ġassault s
Ġlav ish
Ġwer en
ro be
Ġl ily
ill and
Ġsh ap
Ġad he
Ġins istence
Ġwater loo
sh ot
Ġtransfer ring
Ġproceed ing
Ġblow ing
Ġspart ans
Ġredempt ion
Ġalcoh olic
t hen
w orm
Ġb ery
Ġm ou
Ġhe br
ov ar
ign y
Ġwill s
Ġmid land
Ġsele cting
Ġcycl es
Ġsteven age
Ġjudg ement
Ġaest het
Ġsaskat chewan
Ġto x
Ġg aps
Ġr t
ce phal
em ia
Ġher mann
Ġtim b
Ġind ul
Ġpar th
Ġhel ms
Ġunivers ally
Ġlog ical
Ġcontrast ed
Ġhat red
Ġdram as
ĠrÃ© union
Ġsabb ath
Ġgiov anni
Ġskys crap
l f
Ï ħ
Ġb ored
Ġro uge
Ġen ig
Ġfl am
Ġexp o
Ġdiv ert
Ġstar gate
Ġber th
Ġbud dy
Ġexperiment ed
Ġori oles
Ġpic nic
Ġfeud al
Ġtram way
Ġpled ged
Ġpilgrim age
Ġimped ance
Ġrepuls ed
v re
Ġc erv
Ġn ay
Ġdef le
Ġdisc retion
Ġgal actic
Ġwit ches
Ġadmir ation
Ġcheck ed
Å¡ iÄĩ
Ġfashion ed
Ġtoxic ity
Ġhaun ted
Ġadjo ining
t ter
Ġp ork
Ġin gen
ay ana
Ġcl ashed
iz a
Ġsch mid
Ġbuild s
Ġpost al
Ġpract ically
Ġfly ers
Ġber k
Ġmcc orm
Ġdun n
kin en
Ġsynthes izer
Ġinaug uration
Ġindirect ly
Ġantiqu ity
Ġprejud ice
8 0
d ar
i q
Ġj um
Ġcom bs
Ġsp herical
Ġbar ney
Ġcop ied
Ġconcept ual
Ġmong ols
Ġsoci ology
Ġzomb ie
Ġextr ater
o ok
t ford
Ġm fr
Ġth ur
Ġk ov
Ġpar ap
Ġhar riet
Ġty re
Ġsmall pox
Ġsun light
Ġpain ful
Ġpenn ed
Ġhav illand
Ġsuz uki
Ġb is
Ġf its
ut ory
ill ion
Ġme adow
Ġdo yle
Ġgener ators
Ġany more
Ġisland ers
br and
Ġsent iments
Ġrob bery
Ġcontest ant
Ġimmig rant
Ġere ct
Ġdetail ing
Ġbudd ha
Ġincred ibly
Ġflatt ened
Ġtuber cul
Ġvenet ian
Ġpractition ers
i ard
Ġo ught
Ġf iji
Ġp ity
or g
es a
le en
Ġdis ruption
Ġthan houser
Ġsub l
Ġpres ided
Ġgre ens
Ġaver y
Ġtransport ing
Ġeth iop
Ġlin naeus
Ġ182 6
Ġka hn
Ġthanks giving
Ġsad dle
Ġearn est
Ġwag ons
Ġsubstit uted
Ġnorthumb ria
f rey
g ang
Ġa uck
Ġcon way
Ġpre quel
Ġinter red
Ġbr an
Ġbu oy
Ġsuccess ors
Ġmo e
Ġequ est
Ġsal ads
Ġtur tles
Ġ182 7
Ġarchae ologists
Ġconsum ing
Ġches hire
Ġpseud onym
rang ed
Ġsymmet ry
Ġhitch cock
Ġcarne gie
h ound
Ġp ied
Ġh ak
st ick
ac ies
ri k
Ġsh u
ond o
Ġz ion
Ġmed itation
ting u
ah an
Ġtro ph
Ġpast or
Ġpaul o
Ġsubst rate
Ġrow ling
ogen esis
Ġcort ex
Ġded u
Ġw ield
Ġre iter
if iable
Ġint ro
Ġ4 20
ace ans
Ġreg ulated
Ġbar g
Ġpat rons
Ġcup s
Ġ177 7
Ġconven ient
x y
Ġw ulf
Ġf aint
ad le
Ġse aw
Ġch alk
op a
our g
ell us
Ġwe hr
Ġout c
Ġbo o
Ġrel ocation
Ġair bus
Ġhun ts
Ġmc d
Ġet ty
Ġemphas ize
Ġhay nes
Ġreconcil iation
l iest
m aker
Ġa ide
Ġw en
Ġc ove
it ations
Ġd ump
Ġr ides
Ġsc ary
Ġup beat
Ġatt aining
Ġchar ters
Ġgen oc
Ġsch iz
Ġste alth
Ġconst able
Ġwilliam son
Ġhur on
Ġmc gu
Ġfavor ably
Ġash ton
Ġmechan ic
Ġcoch rane
p el
s i
Ġt iber
in et
Ġm ls
Ġg ert
Ġk ess
if erous
Ġyear ly
Ġnational ists
Ġsw orn
Ġtele gram
Ġfire arms
Ġcoast s
Ġpromot ions
Ġmal t
Ġatl as
Ġfrank f
Ġunl imited
Ġ49 0
Ġjer ome
Ġpropos es
cha ikovsky
Ġoutl ined
Ġreiss ue
Ġconclus ions
Ġshrews bury
f il
m ind
w old
Ġ ips
Ġh id
og ene
Ġsch arn
Ġref in
Ġforest ry
Ġvent ures
Ġsatisf y
Ġintend ing
Ġbyr ne
Ġauck land
r atory
Ġw rist
Ġd air
Ġab dom
Ġam or
Ġsp urs
Ġcomm end
Ġover view
Ġpe at
Ġact in
Ġinv aders
Ġz ah
Ġnational ism
Ġfort ification
Ġbi ographical
Ġillust rate
Ġ66 0
Ġmys ore
Ġremind ed
Ġbe ers
Ġr ack
Ġy as
Ġdis emb
Ġoff ence
Ġpo ole
iss on
Ġed ible
Ġsuff ers
Ġbrown lee
Ġmac beth
Ġimm ense
Ġtransform ers
Ġmerc ia
Ġsymph onic
Ġhans en
Ġoblig ations
Ġironcl ads
Ġabrupt ly
he a
ac ter
Ġst unning
Ġsh i
Ġex clusion
Ġwe iss
Ġann als
Ġsoc ially
Ġten ants
Ġbow s
ĠÃ ł
Ġot ter
Ġaz ores
Ġchron o
Ġschne ider
h ops
Ġo ste
Ġv ogue
Ġrem od
Ġorigin ating
Ġeast enders
Ġho oper
Ġsocial ism
Ġbad en
Ġrepe ating
Ġ181 7
Ġsell er
Ġhang ed
Ġincom ing
Ġjen kins
Ġcav ity
Ġalumin ium
an ity
Ġj ov
Ġv om
Ġun ic
Ġbr ace
Ġcap ped
Ġmil ne
na h
Ġemper ors
Ġdepend ed
Ã¨ ne
Ġmamm oth
Ġorn ament
Ġsurpass ing
Ġbrew ers
Ġconfer ences
Ġslee ve
f est
l oss
r ise
Ġt ad
Ġa q
Ġc nn
le um
Ġhe al
Ġse ward
Ġro g
Ġman ners
Ġev id
Ġqu otes
oll en
Ġless on
Ġhol t
Ġcrew men
Ġbreak up
Ġtreat ise
Ġradio head
Ġmel anch
Ġgall ons
Ġ180 3
Ġpack s
Ġeu ph
Ġsimpl ified
Ġlauren ce
Ġfert ile
Ġrespir atory
Ġmaf ia
Ġdres den
2 9
b uck
Ġv apor
Ġle vin
Ġcl ara
Ġgr ac
Ġem m
Ġtrans ylvania
und ers
Ġhar b
Ġshort est
Ġer otic
Ġhall uc
Ġrap t
Ġsteel ers
Ġdescend ant
Ġrenew al
Ġoutf its
Ġnichol son
Ġt ones
al is
Ġwh istle
Ġcom r
Ġex tingu
Ġar j
Ġtr ams
Ġcan opy
ult ural
ft a
Ġhen son
tt i
Ġ180 8
Ġuss r
Ġparad ox
Ġemer ald
Ġimmun ity
Ġtribun al
Ġbucc ane
Ġn ac
il ocy
om al
Ġch ol
Ġun le
Ġcl air
Ġsp ok
Ġspe ctor
ual a
Ġmet amorph
Ġaust rians
Ġeuro gamer
Ġx l
Ġthreat ens
Ġheart ed
ĠÃ ¸
Ġsort ies
Ġhighlight ing
Ġshore line
Ġwilhel ms
Ġlingu istic
Ġprehist oric
Ġnightcl ub
p he
v ie
Ġd ante
Ġth i
le ep
Ġbe gg
Ġbl ur
Ġem il
Ġdown ward
ret to
Ġcit ation
Ã¨ s
Ġreass igned
Ġirrig ation
Ġskept ical
y en
Ġdef ault
Ġwhite head
Ġprem iers
Ġrob son
Ġfunction ing
Ġ182 3
Ġcra fted
Ġgarc ÃŃa
Ġyok o
Ġnumer ical
Ġphilharmon ic
Ġscharn horst
v ine
z ko
Ġc n
an ne
Ġth read
ad ium
ig i
ct ica
Ġme h
Ġim aging
Ġob jection
Ġger ard
Ġbre nd
Ġreal igned
Ġsol ved
Ġdestro ys
Ġtur f
head ed
Ġwid ening
Ġwil co
Ġsyn onym
Ġast ros
Ġast rol
Ġbag hd
Ġenroll ment
Ġamid st
Ġsynch ron
Ġinappropri ate
Ġb s
Ġp asha
Ġr Ã¤
ill ard
Ġi k
Ġher r
Ġoff set
are th
Ġav ant
Ġsqu ir
Ġbur rows
Ġly d
Ġscen arios
Ġtext ile
Ġlov ely
Ġmis under
Ġ181 1
Ġfranch ises
Ġinstall ations
Ġcha ired
Ġfract ion
Ġilleg it
Ġv iz
Ġcl ich
og ly
Ġ4 30
Ġplay boy
Ġdet ach
Ġcy pr
Ġemp ower
Ġfavor ites
Ġkr atos
ropol is
Ġsimpl er
Ġoptim istic
child ren
haus en
v s
Ġa kin
Ġs Ã£o
Ġc es
Ġo clc
Ġto pp
Ġg ian
Ġwas p
Ġj oc
ab out
Ġcl ashes
Ġcent ennial
Ġnor ris
Ġexp on
Ġprev ents
Ġdel icate
Ġrock ies
Ġhy m
Ġden ial
osaur s
Ġkh alid
Ġcheck ing
Ġspin al
Ġdisgu ised
Ġwors ened
z t
Ġe ats
Ġst icks
Ġk ai
Ġco hes
Ġinf inity
Ġob it
Ġcoun tered
Ġhur ley
Ġscre aming
Ġgall ant
Ġgall agher
Ġlandsc apes
Ġtoy ota
Ġphylogen etic
Ġsegreg ation
Ġantio ch
3 6
l ig
Ġs if
Ġc ac
it ud
Ġnot ified
Ġsp ice
Ġup right
Ġtrad es
Ġemploy ers
iser ies
Ġ179 1
Ġdod d
Ġresear cher
Ġinaug urated
Ġscrat ch
Ġaster oid
Ġquadru ple
ä ¸
or ian
al am
Ġst ocks
Ġv h
ine as
Ġen erg
Ġen for
ra e
Ġmon o
Ġfun n
lo id
Ġprot otypes
Ġmig ratory
Ġwithdraw ing
Ġbath room
Ġwilling ness
zh ou
Ġscandin avian
Ġarte fact
Ġconflu ence
Ġspok ane
Ġa hl
nd e
Ġk ak
Ġar id
Ġsever ed
Ġinv ites
Ġ16 1
che m
Ġmac mill
Ġfa Ã§
Ġforest ed
Ġsher idan
Ġrevol ves
Ġpill ars
Ġpom pe
Ġresurre ction
Ġserp ent
Ġhered itary
c us
Ù Ħ
Ġk rie
th ard
Ġch ips
ab h
az ar
Ġrest r
Ġbox er
ste en
Ġsens itivity
Ġmd ot
Ġtact ic
Ġuns igned
Ġcomed ies
Ġanarch ist
Ġannex ed
Ġdialect s
m b
Ġv ang
if ully
Ġi ro
Ġres um
Ġsec re
Ġel i
Ġgun ners
Ġbas eman
Ġlow land
Ġconv ective
Ġwing ed
Ġdra fts
Ġforth coming
Ġstef an
Ġsupern ova
Ġoverturn ed
Ġabbre v
c ia
g art
n ets
Ġf idel
Ġto uches
Ġne al
Ġcan vas
Ġdis band
other apy
Ġaut ism
Ġocc ult
Ġtake over
Ġdu nder
Ġcam den
Ġprocess ed
Ġactiv ism
Ġrecogn izes
Ġtravel ers
Ġdomin ation
Ġiniti atives
Ġdisorgan ized
Ġmacmill an
Ä ±
iv ided
Ġpl aint
Ġpr iced
Ġcar lo
Ġdel ivers
Ġ30 1
bo o
vers ion
Ġmer ry
Ġbal zac
umb led
Ġell iot
Ġ178 3
Ġhyder abad
Ġvint age
g em
m acht
Ġo asis
an ish
Ġh int
Ġh Ã¤
Ġg es
Ġhe is
Ġv uk
Ġinter sp
Ġqu ir
Ġste amed
Ġsl ated
Ġmil estone
Ġdist orted
che ns
Ġ40 4
Ġhost ility
Ġund ivided
Ġhaw kins
Ġtrust ed
Ġ181 3
Ġgra ff
Ġappl ies
Ġmonarch s
Ġrecip ients
Ġstyl istic
Ġslav ic
Ġns b
Ġbyr ds
Ġcowboy s
Ġsuperv ising
Ġsuscept ible
2 4
l ene
t te
É Ľ
Ñ Ĥ
Ġm ice
Ġm asts
Ġhe ars
Ġk ro
qu is
Ġsl ogan
ling er
Ġread ings
Ġsus hi
Ġkes ha
Ġgoss ip
Ġdismant led
Ġschwar z
Ġ è
Ġs uther
Ġun ac
Ġmill imetre
Ġtrans verse
Ġdisc ont
Ġhar p
Ġrecogn ise
Ġq ing
Ġopt ional
Ġdemonst rating
Ġsel dom
Ġrab b
Ġbark ley
Ġpengu in
Ġlaur ie
Ġreinst ated
Ġbount y
ĠrÃ¤ ikk
b ys
h ou
r ine
Ä Ļ
Ġb w
Ġl al
ol t
Ġsh it
Ġgun men
Ġer oded
Ġhard est
Ġviol ations
Ġoccup ies
Ġcand le
Ġprincip ally
Ġacknow ledge
Ġabsor b
Ġliqu or
Ġelabor ated
Ġslip ped
Ã¶n en
Ġlung s
Ġincarn ation
Ġwehr macht
Ġm elt
Ġm iff
Ġcl ues
ace y
Ġstar craft
Ġrad ial
Ġnucle i
Ġmir acle
Ġcalc ulations
Ġbutt ons
Ġnicarag ua
h is
er ton
Ġs anche
Ġf used
it as
Ġm aw
Ġv ulture
Ġu lyss
Ġpe cul
Ġwhere in
Ġmill wall
Ġcal ed
Ġmot ives
Ġcontrovers ies
Ġcasual ty
Ġshel by
Ġalt itudes
Ġpref ers
Ġdal ton
Ġstick y
Ġdict ator
Ġukrain ian
Ġneb ula
ĠrÃ¤ikk Ã¶nen
Ġulyss es
Ġt ink
Ġf ian
Ġr att
Ġinter st
Ġbr icks
rop od
Ġmed all
ets u
for th
Ġoffer ings
Ġdemonst rates
Ġgate house
Ġvic eroy
Ġunders ide
Ġsanche z
n ick
Ġt chaikovsky
Ġg Ã©
am ination
Ġy el
Ġno ah
Ġdep ort
Ġdon ation
Ġnegoti ating
Ġencl osure
Ġelig ibility
Ġhollow ay
Ġnem esis
Ġparat ro
Ġtubercul osis
Ä ĵ
Ġg ue
Ġfor erun
Ġr agn
Ġsh ade
Ġsh oe
Ġbl ink
Ġgen ome
Ġrece ip
ital ia
Ġsol ving
Ġrob bie
Ġfat ig
Ġgra zing
Ġech oes
Ġflash backs
Ġaristocr acy
Ġdign ity
Ġlandown ers
Ġforens ic
Ġpecul iar
g ae
Ġb aj
Ġn ug
st r
Ġal to
em atsu
Ġher cules
Ġsp lin
Ġstre aming
Ġwater fall
Ġinflu x
Ġworks hops
wer ff
Ġlis bon
Ġundert aking
hell o
opot am
Ġinad vert
Ġin mates
Ġm Äģ
Ġl ille
Ġbe ts
Ġbe ams
Ġi ke
att on
Ġbel oved
Ġaff irmed
Ġcho oses
Ġdig ging
Ġcorn ish
Ġcolor ful
Ġtorpedo ed
Ġscar ce
Ġdod ge
Ġnie ce
Ġmangal ore
Ġs amp
on al
Ġc t
Ġc ody
Ġp asc
Ġl ively
Ġn ile
Ġg dp
Ġse p
Ġk uala
Ġsh afts
Ġu ematsu
Ġam anda
Ġmar vin
Ġcr ashes
Ġbre wer
Ġju ice
Ġdam n
Ġlocal ized
Ġgard e
Ã¶ l
je vo
Ġcompar atively
Ġrus so
Ġmonit ored
Ġannex ation
Ġvander werff
Ġfron ts
Ġczechosl ovakia
Ġwilhelms haven
is co
Ġh ated
Ġfor ge
Ġcomp uting
Ġmin iseries
Ġz am
Ġdevelopment al
Ġhom est
Ġreb ound
Ġdro wning
Ġkh al
Ġconflict ing
Ġflank ed
Ġextract ed
Ġpenet rated
Ġreiss ued
Ġcompart ments
Ġhotsp ur
Ġtrunc ated
Ġcypr us
in ia
Ġs way
Ġl c
Ġis is
ul se
ell ery
Ġind ict
Ġconf using
Ġyork er
Ġroyal ty
Ġpur ana
com be
Ġha j
Ġmight y
Ġcann ibal
Ġsav ings
Ġabandon ing
Ġnic olas
Ġadvoc acy
Ġrepr ised
Ġendors ement
Ġtorch wood
Ġdissatis fied
i ks
Ġc gi
Ġl ug
Ġcl one
og ram
Ġdiv a
Ġfore most
Ġspeed way
Ġyellow stone
Ġsynthes izers
Ġauditor ium
Ġabdom en
Ġbaghd ad
p ath
y the
an ar
Ġl ets
Ġbe ak
Ġun esco
Ġle ap
Ġsc apa
Ġam ar
Ġme lee
Ġdes erved
Ġcar pet
Ġrel ies
Ġinv ading
Ġinst inct
Ġprev ailed
Ġche w
Ġrat ified
Ġdistrib ute
Ġ56 0
Ġraf ael
Ġlev i
Ġstret ches
Ġsongwrit ers
Ġdens ely
Ġjacob s
Ġreprodu ce
Ġlob b
Ġyanke e
Ġhav ana
Ġvit amin
Ġauthentic ity
Ġdisgu ise
Ġrewrit e
Ġapprent ice
Ġpetro leum
Ġtuls a
Ġsuther land
c ely
y o
Ġbe ans
Ġfor rest
Ġne ct
ab lo
ib a
oy ne
Ġcrit ique
Ġcor inth
Ġconc essions
Ġenjoy s
Ġmountain e
uff le
Ġsail or
Ġenl ist
Ġwet lands
Ġsoph ie
Ġrecip es
Ġsemin ary
Ġmiche le
Ġf aw
il o
Ġe ust
and ez
ap o
ment ioned
ary a
Ġacc using
Ġneed ing
Ġcy an
Ġwall ach
Ġinsp iring
Ġah med
Ġdal mat
Ġantar ctica
Ġprivile ge
Ġinexper ienced
Ġ Ê
Ġp ect
Ġg land
Ġv ort
ag uchi
ess es
Ġtim or
Ġdef ic
aut hor
Ġ180 2
Ġincorpor ation
Ġshut out
Ġfu j
Ġgates head
Ġul ster
Ġnad al
Ġforecast s
Ġaa a
Ġsyl vester
Ġmerg ing
Ġmarse ille
3 3
o it
u ky
Ġs cept
Ġb ale
Ġb its
Ġf riction
le utnant
Ġwith stand
Ġcl aws
Ġcount down
Ġdiv iding
anc ies
Ġhand held
Ġprot o
oss a
Ġpriv acy
Ġdar ius
Ġell ie
Ġalbert o
Ġtra um
Ġchanc el
Ġcoul thard
Ġrept iles
Ġcalib re
Ġconspic uous
on te
Ġw ither
Ġf oll
or os
Ġg op
Ġy uan
Ġup ward
Ġup anish
Ġ00 7
Ġfac ade
Ġtra verse
Ġrenew able
Ġbreat he
Ġfemin ine
Ġretail ers
Ġgenet ically
Ġsatisfact ion
t imes
Ġto e
Ġsh im
Ġbr ake
Ġapp et
Ġstates man
Ġbar th
Ġdecl ares
Ġquarter f
Ġlog istics
Ġlabor atories
Ġreject s
Ġmurder er
Ġintercept ions
Ġsatell ites
Ġanaly sts
Ġrever ted
zh nev
Ġspit fire
Ġbetray al
Ġrams ay
Ġsubsc rib
Ġa ro
Ġw ah
Ġm oul
Ġd rom
ress ive
Ġlar a
Ġship building
Ġ25 4
Ġbur gers
Ġtor rent
Ġburn ham
Ġbul lets
Ġens ign
Ġsav a
Ġyellow ish
Ġimag ined
Ġ177 8
Ġstamp s
Ġpump ing
Ġvatic an
Ġthe ss
Ġw ards
Ġc un
op ers
Ġar s
og ist
ach lan
Ġrel ics
Ġeast wood
Ġjack ets
Ġinterv al
Ġfig ur
Ġboy le
Ġhell en
Ġsens ation
Ġfrag ile
Ġrede em
Ġisab el
Ġillumin ated
Ġbung ie
b rough
Ġs d
ul in
Ġtr aps
ond s
Ġchar tered
Ġbro ws
Ġimp r
Ġsim s
Ġtimes lot
Ġsn out
Ġcaptain cy
fl ix
Ġfavour ites
mal ley
Ġherb iv
Ġepid emic
Ġjak arta
Ġenlight en
Ġa pt
Ġw aff
Ġcom ets
Ġdes erv
Ġsl ash
Ġaugust a
Ġra ja
Ġros berg
Ġforeign ers
Ġ180 7
Ġkat rina
Ġbag s
Ġmorph ological
Ġbever ly
Ġnutri ents
Ġanto ine
Ġinvinc ible
w ulf
Ġf and
Ġe ck
Ġst rom
Ġhe el
Ġk ram
Ġor ang
ĠâĢ ³
pl ess
Ġcur ving
Ġprop ose
Ġfun er
Ġvir gil
Ġpal ae
Ġbat ch
Ġour selves
Ġtax onomic
Ġcapital ism
Ġexperiment ation
Ġdisturb ing
Ġchest nut
Ġcondem n
Ġchore ographed
t op
Ġc ain
Ġk eller
Ġu bs
Ġsp ock
Ġent ities
Ġcost ing
Ġmel issa
Ġrespect s
Ġacqu itted
Ġ182 2
Ġta o
Ġkick s
Ġdram at
Ġspar se
Ġbacter ial
Ġsummar ized
Ġarbit r
p itz
Ġf ooth
Ġm uc
Ġn gu
te ch
Ġsp ines
Ġ21 3
Ġfav re
Ġcut sc
Ġregular s
Ġgrad ed
Ġcha otic
Ġupd ates
Ġpor ch
gue z
Ġaur ora
Ġinfect ious
occup ied
Ġbackl ash
Ġdisag ree
f ol
h ima
Ġd yer
Ġen qu
int y
Ġdistrib utor
Ġspot light
Ġtrail ers
Ġrod rÃŃ
Ġimag in
Ġsor a
Ġlaure l
Ġcoc on
Ġbak shi
Ġced ed
Ġcasc ade
Ġillegit imate
u ve
el ton
Ġal erted
ord er
Ġman son
Ġwar ns
Ġfinal ist
Ġir res
Ġdest ined
Ġbur t
ges chwader
Ġmel an
Ġaer on
Ġmyth s
Ġerr one
Ġscrut iny
ĠrodrÃŃ guez
a ud
on o
Ġl w
ag us
Ġpro d
Ġun ite
rit e
Ġreg gae
Ġdr ained
Ġdiv er
ink a
Ġir is
Ġpa ula
Ġhealth care
Ġbul b
Ġbypass ed
Ġabb ott
Ġstere oty
Ġrecept ions
ĠmÃ¼ ller
5 00
Ġ ×
Ġfor wards
ol ini
Ġwh arf
ie g
Ġman power
Ġim pe
Ġsever n
az i
ys ical
Ġhead line
Ġmal aya
Ġbrown ish
Ġcustom ary
Ġsynthes ized
Ġpione ers
Ġhook s
Ġsacrif ices
Ġrodrig ues
Ġniger ia
w ill
Ġt ing
Ġb ic
al le
un s
Ġk af
Ġsp ars
Ġim d
Ġchar ities
Ġapp alach
Ġoper ative
Ġhar lem
Ġmid lands
Ġsk ate
Ġbur ma
Ġrepresent ations
Ġsaw yer
Ġps i
Ġkir by
Ġcourts hip
Ġrib s
Ġtir pitz
Ġemancip ation
Ġome ga
h og
Ð ²
Ġh ust
Ġe in
ad en
Ġst ela
Ġwh oles
Ġj fk
Ġun ch
Ġle a
ical s
Ġen o
Ġcomp ly
Ġrec ounted
Ġfin es
Ġimp air
Ġinit iate
Ġtur mo
Ġham lin
lin ary
Ġdefence man
Å¡ e
Ġlincoln shire
Ġpredict ions
Ġdiff usion
Ġdolph in
Ġluther an
Ġinverte brates
Ġtimb aland
n is
r ab
Ġt ic
Ġm h
Ġh au
Ġh uss
Ġk are
Ġbo is
Ġwill am
ron es
Ġbill ie
Ġstat utory
Ġhor ace
Ġnet flix
Ġple a
Ġward robe
Ġtight ly
Ġfault s
Ġasc ension
Ġposthum ous
Ġemig rated
Ġbalk ans
Ġpamph let
Ġc ary
Ġh ards
Ġr ak
Ġrec ipe
ren s
Ġpar rot
Ġep ile
Ġcre ed
Ġke ats
Ġstory board
Ġbus iest
Ġcommit ting
Ġbrown e
Ġol af
Ġencour agement
Ġmerc en
ĠÎ ²
Ġted dy
Ġteles cop
Ġbackst ory
Ġfalc ons
b ut
h ole
m ot
u ber
v ic
he aster
al u
Ġde w
ap est
Ġsc her
Ġ9 50
osp ace
Ġarrest s
Ġaccident al
Ġwhit ish
Ġcoinc ide
Ġpredict able
Ġdistract ed
Ġsubdiv ision
Ġdepr ived
Ġturmo il
Ġw ishing
Ġm ugh
ar se
Ġout let
Ġdem ograph
Ġdebut ing
Ġlif ting
Ġga ul
Ġdiplom at
Ġtort ured
Ġbetray ed
Ġwigg ins
Ġsurg ical
heaster ly
h as
Ġc ag
Ġn ess
Ġch is
Ġro land
Ġhim al
Ġimp ose
Ġfinal ists
ob o
Ġide ological
Ġ28 7
Ġsuff ix
Ġjour neys
Ġprogress ively
Ġpair ing
Ġmedic ation
Ġliz ard
Ġ ers
Ġw ies
Ġin active
Ġl ure
Ġbe ard
Ġbo let
ress es
Ġsch wart
Ġgre et
Ġcur ious
Ġrequ iem
Ġchrist ie
Ġmer idian
Ġ22 2
Ġdisp atch
Ġpun ished
Ġha as
Ġbud apest
Ġweekend s
Ġobl iv
Ġnom ura
Ġassass inated
Ġsant os
Ġhob bs
Ġeval uated
Ġgav in
Ġunconst itution
Ġ Åį
Ġm aus
Ġk v
op ods
Ġun for
Ġun identified
Ġle one
Ġnorth wards
Ġdr ac
ode on
Ġdisc rimin
Ġir win
Ġvi ad
Ġcontest s
Ġmars hes
Ġdisl ike
Ġsig ism
Ġknock out
Ġchile an
p en
Ġh ord
Ġh af
Ġg ros
Ġal ison
Ġspe er
Ġgu bern
Ġrest ruct
Ġequ ations
Ġphot ographic
Ġconfir ming
Ġcart ridge
Ġgraph ical
Ġarchae ologist
Ġspons ors
Ġlock heed
Ġvig orous
Ġexter min
Ġphilosopher s
Ġcontamin ated
nd ez
Ġd uc
Ġto ad
ou ch
Ġon stage
um o
Ġsec ession
Ġbar low
Ġcur ry
Ġred isc
Ġcat ap
Ġrob ots
Ġlog s
Ġclar ified
Ġsor row
Ġiceland ic
Î¿ ÏĤ
Ġincorrect ly
Ġmiff lin
Ġschwart z
h oun
r c
Ġn ascar
ud ge
Ġi j
Ġsc rant
Ġmid west
Ġsqu id
Ġtit ans
Ġbroad caster
Ġwood stock
Ġrh od
Ġrac co
Ġoil ers
Ġelev ations
Ġvic ious
Ġstere o
Ġpill ar
Ġdwarf s
Ġlux emb
Ġdiscour aged
Ġvacc ine
Ġparagu ay
Ġalum inum
Ġgrate ful
Ġintersp ersed
Ġgubern atorial
z ier
Ġw ifi
Ġb um
Ġp ius
Ġl Ã³
ri ott
Ġsu ez
Ġar rog
ra il
Ġem ailed
Ġbel ize
erv ille
Ġhor rible
Ġpal at
tt a
ien ne
Ġmas ks
Ġsax ophone
Ġparent al
Ġbiographer s
Ġhybr ids
Ġxx x
Ġnickel odeon
Ġlia ison
Ġs iv
Ġh mas
Ġn m
am eric
Ġcl ans
ans on
Ġmor ales
Ġpit ted
Ġgreen wich
Ġconn or
Ġconsider ations
Ġdang ers
Ġ178 8
Ġweapon ry
Ġrefuge e
Ġrecip roc
Ġlineback er
Ġg c
Ġe h
Ġi ber
cc o
Ġmus cular
Ġass ent
Ġunder gone
ley s
Ġtax a
Ġharm ful
Ġpref ix
Ġexplan ations
Ġpray ers
Ġjag d
Ġmistaken ly
Ġbav aria
Ġalgor ithm
c ot
d ings
Ġm ard
Ġh ue
Ġas leep
Ġr ites
Ġch ir
Ġbec ky
Ġdef ines
Ġpass er
Ġtake off
Ġcro ft
Ġbor on
Ġwes ter
Ġimpress ions
Ġmood y
Ġtren ton
Ġanx ious
Ġcatap ult
Ġo mar
Ġg iles
Ġe f
Ġk ling
Ġco bra
Ġgr amm
Ġgu ang
Ġz y
Ġx iv
aren ts
Ġgrad ient
Ġreason ably
Ġliter acy
Ġsmith son
Ġwit t
Ġconsec rated
Ġmig rated
Ġchor ale
Ġaer ospace
Ġalle v
Ġfashion able
Ġgif ted
Ġsweep ing
Ġmagist rate
Ġpopul ace
Ġscrant on
2 1
j ina
p pe
w at
Ġthe olog
Ġs ass
Ġc air
un ken
Ġv ita
Ġ00 00
Ġke ating
Ġbre zhnev
Ġwind ing
Ġcontract or
Ġemp ires
isl av
Ġmut ations
Ġcanc ell
Ġroy ale
Ġgam ers
Ġrebell ious
Ġfasc ist
Ġlifes pan
Ġevid enced
n h
t ry
Ġs acks
Ġf ancy
Ġun real
Ġsc al
Ġman kind
Ġper kins
Ġ5 30
Ġpr icing
iew icz
Ġ16 00
Ġhead lining
Ġlab yr
Ġsun s
Ġeye wall
Ġrespond s
Ġveget able
Ġkiss ing
Ġrib bon
Ġfold ing
Ġcricke ters
Ġrelat ivity
Ġextrav ag
Ġbrend an
b ear
Ġc indy
Ġsh ades
og ens
Ġass et
Ġmix es
Ġimpro per
Ġcycl onic
Ġmaster ed
Ġemphas ised
Ġ177 0
Ġstir ling
Ġequest rian
e ger
Ġr ink
Ġint ake
Ġatt ested
Ġjo a
Ġconf essed
Ġche ro
Ġfall out
Ġchief ly
Ġamb ushed
Ġfox es
Ġcous ins
Ġstere otypes
Ġmoll us
Ġinsurg ents
Ġan j
Ġtr ash
Ġaf ore
Ġall oys
Ġbl izz
Ġpe ppers
Ġdo b
Ġmon aco
Ġph ones
Ġdep osition
Ġpost war
Ġmer cer
Ġham asaki
Ġbreak out
Ġgreen wood
Ġsam us
Ġut terly
Ġnic o
Ġhyp oc
Ġts un
Ġnas al
Ġinstitution al
Ġflower ing
Ġgenet ics
Ġtransact ions
Ġappar atus
Ġjeop ardy
Ġbriar cliff
Ġartefact s
v ich
Ġan ast
Ġk ag
Ġper l
Ġbo er
Ġmil o
Ġmaj ors
Ġfur t
Ġjud ith
Ġmyster ies
Ġleon ardo
Ġbrew ery
Ġfluor ide
Ġgetty sburg
Ġhiros hima
Ġlabyr inth
c ad
r t
t est
Ġa quar
Ġb har
Ġh ap
Ġand es
ut ta
Ġne olithic
Ġu d
cl ock
te xt
Ġall ah
Ġthem atic
ily n
Ġsign atures
Ġant is
Ġhum ili
Ġreal ms
Ġscen ery
Ġglob ally
Ġprepar atory
Ġgri zz
Ġeat on
Ġswim mer
Ġpione ered
Ġkos ovo
Ġnatal ie
Ġfutur istic
Ġguin ness
Ġhydraul ic
Ġodys sey
Ġnomencl ature
Ġmercen aries
r ack
Ġl ime
her ty
Ġsh un
Ġam assed
Ġnew born
Ġlit ter
Ġref uel
Ġpat erson
tt es
Ġthr ill
Ġdrum mond
Ġsar at
Ġegypt ians
Ġcarl ton
Ġbarb ados
Ġsant ana
Ġnegle ct
Ġshat tered
Ġecosystem s
Ï ĥ
Ġp g
it ism
Ġag nes
Ġpre acher
Ġsl ice
Ġfre el
Ġneg lig
Ġpract icing
Ġut tar
Ġlik elihood
Ġps p
Ġdom ains
Ġaltern atives
Ġdun k
Ġmir rors
Ġrod ney
rif ying
eg ro
Ġmonten egro
Ġacl u
c reen
d aughter
Î ·
Ġw yn
Ġb ae
ar am
Ġu sta
Ġsp elled
Ġcan nes
ult imate
Ġsur m
Ġgames py
Ġfree zing
Ġden ying
fact ion
Ġlot tery
Ġhonor able
Ġjon as
Ġsi oux
Ġpilgr ims
Ġcere bral
urg ical
Ġvand al
Ġhebr ides
Ġwillam ette
j ust
n itz
Ġf ishes
Ġat roc
Ġj ok
Ġun used
Ġwor ms
Ġres ided
Ġrec ession
Ġcol oss
Ġinter rupt
Ġalb at
Ġrev isions
Ġgener ator
Ġbar ge
Ġju vent
Ġur anus
Ġroll ins
Ġdeliver ies
Ġcass ette
Ġdisagre ements
Ġanalog ous
Ġkens ington
Ġkrak Ã³w
er l
re cht
am iliar
Ġab rams
Ġmon a
Ġend ow
Ġimp erson
Ġlo ops
Ġsim ulation
Ġgl o
Ġcut ter
Ġren umbered
Ġnar r
of sky
Ġexc use
Ġker ala
Ġpartn ered
Ġlaugh s
Ġsting ray
Ġpist ols
Ġawa iting
Ġappla uded
Ġbuccane ers
Ġchero kee
f man
t aker
u o
Ġw ires
is o
Ġd ard
Ġg b
Ġu h
Ġland lord
Ġport o
Ġgre co
Ġra ises
Ġeuro vision
Ġparticip ant
Ġq ur
Ġpropos ing
Ġba fta
Ġroy ce
Ġpione ering
Ġbod ied
Ġrenov ations
Ġost ens
Ġpod ium
Ġarbit ration
Ġparan ormal
Ġamn esty
z one
re hend
Ġw ain
en as
ar ium
Ġto ug
Ġn abl
Ġk och
Ġpro ps
Ġres upp
Ġser mon
Ġest eem
Ġhum ble
Ġpur ported
Ġactiv ision
Ġdefin itions
Ġcook ed
rm ec
Ġsem ic
Ġflav or
Ġips wich
Ġnabl us
c roft
w r
Ġn ate
Ġst el
Ġk iev
Ġv u
Ġor r
Ġor ator
Ġi a
Ġman ch
Ġwe ir
Ġreg ulate
Ġmon mouth
Ġbel ts
Ġcare ll
Ġ47 0
sp oken
Ġmik hail
Ġcompliment ary
Ġgrun ge
Ġclover leaf
Ġscutt led
Ġschiz oph
b et
r iment
Ġ >
Ġb ony
ar an
Ġr anc
Ġj ing
Ġher tford
ile e
Ġann ih
Ġmor an
Ġcommun al
Ġcross roads
Ġfire place
Ġec st
Ġlib retto
Ġbor g
Ġ37 5
Ġstrength s
Ġconfeder ates
Ġsax ons
aret te
Ġboss es
Ġglou cestershire
Ġdair y
ĠlÃ³ pez
Ġafore mentioned
le ading
Ġpro w
pe ople
ign ant
Ġgo at
Ġjo hor
Ġrel ent
Ġair men
com es
Ġden oting
Ġconn ie
Ġfair banks
Ġmun itions
Ġbeaut ifully
Ġglass es
enc ia
Ġrestrict ion
Ġstap le
Ġordin ance
Ġruf us
Ġexplor ers
Ġdemograph ics
i ards
Ġw ic
Ġh ath
Ġj ade
Ġv c
Ġv ague
ill ary
Ġun inter
Ġtr aw
Ġinc urred
Ġsch w
Ġcap ac
Ġperiod ically
Ġprop osition
Ġgold berg
Ġbrown ing
Ġpen ultimate
Ġguard ing
hold er
Ġwond ers
Ġresol utions
Ġhes it
Ġswall ow
m oor
Ġs ins
ig ated
Ġal s
Ġj olla
Ġbec ket
we ek
Ġinto xic
Ġimp aired
Ġlar kin
Ġcr aters
Ġactiv ation
Ġscore less
Ġsam pled
Ġexam inations
Ġanat om
Ġgren ades
Ġknock ing
Ġlauren t
Ġinterven ed
ĠbÃ© la
Ġgenoc ide
Ġhym ns
Ġvang uard
Ġhomest ead
Ġschizoph ren
f ighters
s by
Ġp aw
Ġp umps
Ġde cept
Ġex cer
Ġso b
Ġver ge
Ġmin us
Ġinst ruct
Ġhelp ful
Ġtit us
Ġstat utes
Ġaff inity
Ġfell ows
Ġpun j
Ġbirth place
Ġdocument ation
Ġcontrast s
Ġunf amiliar
Ġsell s
Ġinstall ments
Ġark ham
Ġskull s
Ġinund ated
Ġfrankf urt
h ra
Ġo le
Ġre class
if olia
Ġar lington
Ġass y
Ġshow times
Ġbook let
Ġgl az
Ġhum id
Ġcomb ust
Ġpay s
Ġmcc ool
Ġliving stone
Ġplant ing
Ġassistant s
Ġtable ts
Ġdial og
Ġaz te
Ġresear ched
Ġcommemor ating
Ġgren ade
Ġriff s
Ġsubsc ription
Ġmicrow ave
Ġflem ish
Ġexcer pt
Ġc act
Ġb unk
Ġan ec
Ġde fer
ag s
Ġdes irable
Ġtrans m
Ġche cks
Ġtit anium
Ġsuper star
Ġbur d
Ġur gent
Ġbra very
Ġstra uss
Ġpaper back
Ġkr as
Ġshel f
Ġpoly gon
Ġgrass es
Ġremark ably
Ġpreserv ing
Ġadmit ting
Ġgue vara
r anes
u w
Å ¼
Ġse mes
Ġcom a
Ġro oted
Ġen ables
Ġgo b
ru z
oll ah
Ġcar ac
Ġimp ass
Ġwhere ver
Ġmat su
Ġbuild er
ob ia
Ġ40 1
Ġfa ul
Ġign oring
Ġluc rative
Ġcorpor al
Ġ77 7
Ġhub ble
Ġoverl apping
Ġharmon ies
Ġexpert ise
Ġmicroscop ic
Ġinadvert ently
Ġsarat oga
Ġf anny
Ġl anth
Ġth wart
Ġg ne
Ġat oll
Ġgo ose
Ġover shadowed
led o
Ġrepl en
be e
Ġanim ations
Ġtell er
Ġbell a
Ġbarb ec
Ġsupply ing
Ġthor ium
pin wall
Ġecl ips
chw itz
Ġbrom wich
Ġiro qu
h ir
is i
Ġl m
Ġst ree
Ġal v
Ġop us
Ġang lia
ham mer
Ġho over
ĠÃ ®
Ġadminist rators
Ġfair fax
Ġign ore
Ġexplo its
Ġcob ain
Ġperm its
Ġlau nd
Ġseiz ures
Ġcaut ious
m ic
r ama
at ore
Ġn ud
ol it
ist o
Ġshe tland
ons on
Ġimp lying
Ġlong itud
Ġ17 1
Ġter rific
Ġcamp ing
Ġarch ibald
Ġdecl ines
Ġdi aries
Ġdun stan
Ġdale y
Ġsanction ed
Ġbax ter
Ġstephan ie
Ġjard ine
Ġfian c
Ġunconstitution al
z b
Ġ Å¾
Ġs aus
Ġch loe
ip es
Ġsp heres
Ġup ro
Ġz x
Ġz immer
Ġel aine
Ġhar ness
Ġav i
Ġchrist gau
Ġimport s
Ġunc redited
Ġ59 0
Ġlisten er
Ġdelight ed
Ġmock ing
Ġretros pect
ĠgÃ¶ ring
Ġsubf amily
ĠpÃ© rez
m ie
s ley
Ġc umb
ic able
Ġl us
ol in
ot hed
Ġthat cher
os em
Ġi bra
Ġcl ive
Ġte aser
so hn
Ġpar ameters
Ġland is
Ġport ed
Ġred sh
Ġrock well
Ġdi abet
Ġmart ÃŃn
Ġrh ino
Ġbarb ettes
onc ile
fr ame
Ġmason ry
Ġpredomin ant
Ġoblig ation
Ġsut ton
Ġug ly
Ġplaint iff
Ġlobb ied
b uster
o j
at ical
Ġre used
Ġr s
Ġun m
Ġar bor
Ġ20 8
Ġrec oncile
Ġover land
Ġdr ill
Ġel ias
Ġparis hes
grad ation
Ġdict ators
Ġwend y
Ġemin ent
Ġo ro
Ġf ren
Ġg ome
Ġr aced
Ġat e
Ġch Ã¢
Ġtr uss
Ġint est
ib us
Ġreg inald
Ġexp ose
Ġmed ina
Ġmid field
Ġpat ience
Ġant it
Ġsuper f
Ġunc ont
Ġfer mi
Ġlegisl ators
Ġbit ch
Ġencoun tering
Ġmedi oc
Ġlegitim acy
Ġelector ate
r ard
w he
Î ¼
Ġ ï
Ġto ledo
et he
ab outs
ial e
Ġser en
Ġme adows
Ġrep atri
Ġlo ads
Ġel bow
Ġclass ifications
Ġtit ular
Ġobs ession
Ġmart ine
Ġfa ire
Ġrain y
Ġpet it
Ġhud ders
Ġvulner ability
Ã¦ d
Ġconce al
Ġfacil itated
Ġcylind ers
Ġmitochond rial
Ġsigism und
b els
ur u
Ġar v
Ġar ter
rop s
Ġconf uc
Ġref rain
Ġsoc io
Ġcontain er
Ġneut rons
Ġmole cule
Ġspur red
Ġhudders field
r one
s ing
Ġh ides
Ġun iqu
Ġbr ink
Ġcar c
ath i
Ġend less
Ġcapt ures
Ġgun n
Ġfar rell
Ġcoun ters
Ġrain fore
Ġsand ra
Ġmodel ing
Ġsar c
ari at
Ġow ens
Ġchronic ler
Ġunsu itable
Ġexpect ation
Ġshr imp
Ġrip ley
Ġrent al
Ġcott ages
Ġamphib ians
Ġconfer red
Ġregener ation
Ġree ves
Ġtransf ers
Ġsuprem acy
7 0
c w
Ġc en
et ics
ri ous
Ġinter d
ren ched
Ġnov ak
Ġstr as
Ġge ometric
Ġra ider
Ġmo ly
co e
Ġ23 9
Ġmc govern
Ġple ist
Ġbab ies
Ġring o
Ġ178 1
Ġko hl
Ġpriest ley
Ġhu bert
Ġparas ite
Ġweakness es
Ġperipher al
Ġhilar ious
e ck
Ġs ik
en ko
Ġch airs
ore sc
Ġun author
Ġnot ch
Ġrec ons
Ġed ith
Ġsk ies
Ġant ig
Ġdet riment
mit te
Ġca o
Ġcollabor ations
rain e
Ġfuel ed
Ġaer os
Ġmyth ological
Ġarmen ians
Ġhob art
Ġpon ies
Ġprostit ution
Ġdegener ated
Ġcompart ment
Ġunconv entional
Ġt b
Ġf aded
Ġre z
Ġe ct
Ġfor fe
Ġv rs
Ġch app
Ġy us
um ont
Ġpl un
Ġdes mond
Ġbr onc
Ġtele commun
Ġcro ats
Ġsam oa
Ġfa ust
Ġrecogn izing
Ġinsp ire
Ġshoot out
Ġtas man
Ġdefin ite
Ġsort ie
Ġweigh s
Ġmcg ill
Ġlich tenstein
Ġcompass ion
Ġbless ing
Ġw ired
Ġb oll
Ġre claim
Ġv r
um en
ah aw
Ġsmall ville
af a
Ġanal ogy
Ġquarter ly
Ġmut ation
Ġencour ages
Ġindu ction
Ġmonument al
Ġpseud o
Ġsap ph
Ġhik ing
Ġsucc umb
Ġversa illes
Ġtard is
k amp
Ġb ain
Ġd har
Ġk uch
Ġch ino
cl osed
Ġunder wood
Ġimp osing
Ġintern ally
Ġfore head
Ġmodern ization
Ġid i
Ġ178 7
Ġll an
Ġrout inely
Ġgenu inely
Ġsene ca
Ġasym met
Ġpremiers hip
ĠfaÃ§ ade
v d
er i
Ġl att
Ġfor ks
Ġu cl
Ġdes ires
Ġbu gs
Ġfam ine
Ġmag ma
Ġneed le
su le
Ġfoc al
Ġfer al
bre aker
Ġuns atis
Ġexpos ing
ni ks
Ġsick ness
Ġinvent or
Ġwr ath
Ġsemif inal
5 6
r ans
s ka
Ġr d
Ġal ps
Ġse in
Ġk ud
em ason
Ġam an
Ġso y
Ġ17 00
Ġx er
Ġnort her
Ġsal aries
oon er
Ġclos es
isl aus
Ġchall enger
Ġgoals c
Ġgil m
Ġthorn ton
Ġkerr igan
Ġdund ee
Ġdiabet es
n en
Ġs ach
Ġm n
Ġm ural
ill usion
Ġus ur
ra f
Ġag ar
Ġdis illusion
Ġind ec
Ġbl essed
Ġqu ag
Ġph ara
ug a
gr ave
Ġyork town
Ġtro ll
Ġmer maid
Ġaud rey
Ġident ities
Ġbay on
Ġattend ees
Ġdepend ence
Ġmedic ations
Ġmes opotam
Ġwolf gang
Ġyor ke
Ġbutter flies
Ġlaugh ing
Ġvamp ires
Ġcald well
Ġrapt ors
Ġibra him
h ler
Ð º
Ġt and
Ġre wards
Ġst ow
Ġy ong
all a
ok o
Ġmar ilyn
Ġcent aur
Ġcar men
Ġz erg
Ġcr acks
ris ons
Ġ23 8
ald i
Ġarg on
Ġmad ame
Ġpot ent
Ġnar uto
Ġaw ful
asc ular
Ġca ul
Ġbord ered
Ġlog ging
Ġcollabor ators
Ġfal un
Ġdaniel le
Ġsid el
Ġaus chwitz
Ġinvas ive
Ġgim m
Ġenlighten ment
Ġusta Å¡e
Ġgome z
k al
Ã ²
Ġg aut
Ġse pinwall
Ġne um
Ġro us
Ġsp ared
Ġ20 9
ry l
Ġma ud
Ġcap sule
Ġer as
Ġbur sts
Ġaff irm
Ġdirector ial
Ġpot ato
Ġvoc abulary
Ġimportant ly
Ġcorps es
light s
Ġconver gence
Ġmig rate
Ġnarrow s
Ġfix tures
Ġkim ber
Ġrud der
Ġmaced onian
Ġconvey ed
Ġcauc us
Ġmedioc re
p ark
Ø §
Ġc z
Ġl up
ur ia
Ġch ie
Ġfir th
Ġmar riott
Ġdo o
Ġz oe
Ġhouse w
Ġsqu all
Ġcompet ent
Ġvo ter
Ġrich ie
Ġprofess ors
Ġrobert o
Ġdomin ic
Ġlu zon
Ġnecess itated
Ġram sey
Ġorb iting
Ġmack enzie
Ġchen nai
Ġsg t
Ġlans ing
Ġadul thood
erse ys
Ġpleist ocene
j av
w ave
Ġin let
Ġn ou
id us
ut ant
Ġus eless
Ġher mit
Ġsp ru
Ġshe en
ib or
Ġ7 20
Ġbu ch
Ġtrans itions
Ġpublic ized
Ġdesp air
Ġhi jack
Ġsus que
Ġgot ten
Ġscar borough
Ġloyal ist
Ġcoc aine
Ġreef s
Ġwiz ards
Ġbj Ã¶r
Ġcouncill ors
Ġtroph ies
k owski
Ġa isle
Ġd are
Ġth igh
ad t
Ġret ract
Ġwork force
olog ic
ah i
Ġhum idity
Ġstat ure
Ġbur row
Ġpur ity
Ġmot te
Ġreact ors
Ġbott les
Ġsnow fall
Ġentr ances
Ġsusp ense
Ġfried man
Ġvow el
Ġnoct urnal
Ġresent ment
Ġlanth an
Ġbronc os
n om
n ected
Ġre ele
im ar
ag han
Ġsh ik
Ġun imp
ab is
Ġfl ick
Ġpe e
Ġlar s
Ġir vine
Ġdifferent ial
Ġtechn o
Ġreplac ements
ĠÎ ´
Ġhyp n
opter a
Ġwilf rid
Ġdiscont ent
Ġbw v
Ġluxemb ourg
c rew
Ġh ints
Ġj od
Ġse oul
Ġde eds
Ġsh ine
Ġdis asters
Ġtom ato
Ġpen is
Ġult rav
Ġassemb le
Ġhands ome
Ġ54 0
Ġ73 7
Ġmah ler
Ġbah Ã¡
Ġpard on
Ġclut ch
Ġpropon ents
Ġfatig ue
Ġs Ã©
Ġp ills
Ġd oses
Ġg t
Ġhe els
Ġpro k
Ġmar oon
Ġadv isers
rap h
Ġsqu ares
Ġmor row
Ġsal ts
be g
umb ling
Ġca en
Ġdoctor ate
Ġgene al
Ġjub ilee
Ġsmithson ian
Î º
Ġd aring
Ġg age
le ments
Ġon ward
ay ne
Ġde gradation
Ġcom o
Ġcont amination
Ġrec u
ons hire
Ġsm ok
Ġsim mons
Ġvo or
Ġlay ered
Ġfrequ encies
Ġban ana
Ġdistingu ishing
Ġhind ered
Ġpant her
Ġcartoon ist
Ġpossess ing
Ġc ds
as ium
ad as
Ġro st
ĠâĢ ł
Ġcol ogne
ang s
Ġpurch ases
Ġtank er
Ġrhy me
Ġpig e
Ġmol ars
Ġvalid ity
Ġsara jevo
Ġune ven
Ġtrit on
Ð »
ed ience
Ġb k
Ġj ockey
Ġun pa
Ġres ide
Ġpe ps
Ġloc ker
Ġdr unken
Ġel is
Ġgre ed
ball s
Ġlocal ization
Ġec u
Ġinj ection
Ġcou rier
Ġcompl aining
Ġbrand enburg
Ġ68 0
Ġnotice able
Ġrevel ations
Ġvern acular
Ġconfess es
Ġinterfer ed
Ġbam boo
Ġnarc iss
o os
p ack
r ish
Ġt ann
Ġp to
Ġl id
em ate
Ġab el
Ġmil ford
Ġaward ing
Ġsk ins
Ġsound sc
che t
ops y
Ġ23 2
Ġve ins
Ġpopular ized
Ġbody guard
Ġnar ration
ios ity
Ġintens ifying
Ġmort ars
Ġ177 9
Ġwhit man
Ġbyzant ium
Ġcul ver
Ġthunder birds
Ġtransition al
Ġmud dy
Ġjen ner
Ġdeton ated
Ġtransp arent
Ġcig arette
Ġathen ians
Ġhort on
Ġiroqu ois
3 1
p se
Ġt f
Ġp ett
Ġg add
Ġhe ctor
ill us
Ġnot or
Ġte c
ire z
Ġadd ict
Ġob ey
up s
Ġrepl ic
Ġcirc uits
Ġsam pling
Ġmac ro
Ġrefle ctions
Ġtree house
Ġresc ues
Ġdelay ing
Ġmarc eline
Ġrud olf
Ġobst acle
Ġentreprene ur
v il
Ġv t
ant ine
Ġfl ux
Ġpr er
Ġgr ams
Ġcar ls
ath ing
Ġsl ick
Ġ16 60
Ġjun o
Ġport fol
Ġprop riet
Ġsum s
Ġmot ions
Ġdom est
Ġrid den
Ġ76 7
Ġvent ilation
Ġnurs es
Ġprofession ally
Ġbalk an
Ġrework ed
Ġgilm our
Ġpige ons
b led
i u
Ġt aped
ad ors
Ġr Ã¶
ag ar
Ġmus ket
Ġmat ric
Ġbar ris
Ġra e
Ġsk iers
Ġcast e
Ġlaw suits
Ġ21 7
Ġcoll oqu
Ġcreat ivity
Ġbeat rice
tr ans
Ġweight s
itt i
Ġreluct ance
Ġmarl ins
Ġgem ini
Ġaristocr atic
Ġeps ilon
m ast
Ã ¬
re a
Ġc ork
Ġf use
an j
ac ruz
Ġro ch
Ġu ter
pp o
Ġall iances
ton es
Ġdr ury
Ġinv ite
Ġdesign ations
Ġmal one
Ġhost ages
Ġyard ley
Ġban quet
Ġram irez
Ġspect acle
Ġanaly st
Ġsubsid ies
Ġrejo in
Ġspit fires
Ġprophe cy
Ġreli ability
Ġkrie gs
e ous
g re
Ġ Äį
Ġst ard
Ġk ern
Ġap es
Ġfilm ography
Ġmon ter
ank ing
aim an
Ġrom a
Ġbow man
Ġze us
Ġcompar ative
Ġmeg ad
Ġstall ion
Ġintend s
keep ers
Ġchet nik
Ġassign s
d orf
Ġt ile
Ġa ure
he id
Ġch r
ak an
Ġpr ud
Ġbr akes
Ġph i
Ġbar ges
Ġla e
Ġgreen house
Ġabandon ment
nam ara
Ġtall er
Ġrab aul
Ġbast ion
Ġzh ou
Ġantib ody
Ġbotan ist
Ġblame y
Ġmarqu is
Ġescal ated
Ġfilip ino
Ġextrater restrial
Ġwain wright
Ġw erner
Ġb aird
Ġf ade
Ġis t
if ix
Ġam man
Ġbl iss
Ġbu cks
Ġimp art
Ġsl ovakia
Ġcal ig
Ġball ard
Ġball room
Ġinform ing
Ġesc orts
Ġ- -
Ġemerg es
Ġwa ist
Ġrow an
Ġmand ela
Ġsculpt ed
Ġshock ing
Ġprol ogue
Ġremark ing
Ġflex ibility
Ġdiscour se
Ġnarr atives
Ġprer og
Ġw int
Ġf ielder
Ġh ats
Ġe ad
am o
Ġal p
Ġsc ent
Ġher ring
Ġver acruz
Ġrecord er
Ġgu nd
Ġrev ital
Ġsl ovak
iam en
Ġroyal ties
Ġtor o
Ġshot gun
Ġjose f
Ġbc s
Ġdisappe ars
Ġflank ing
Ġana heim
Ġunrel iable
Ġpus an
Ġconsort ium
Ġporn ography
4 2
as ki
ent in
Ġam trak
Ġser ver
Ġco en
Ġcent enary
Ġfilm fare
Ġmain line
Ġoct opus
Ġang us
Ġmo ose
Ġ22 9
Ġdw ind
Ġapplic able
ãĤ ¹
Ġtrou pe
Ġcalc utta
Ġjes uit
Ġcorrespond s
Ġhyp ot
Ġshear er
Ġdeterior ating
Ġpetition ed
Ġflour ished
Ġmanifest o
Ġprostit ute
Ġvert ically
Ġarj ona
Ġobit uary
f our
É Ķ
Ġw akes
Ġh inted
Ġim b
Ġpr at
Ġatt ire
Ġcor ros
Ġcal houn
ham pton
ator ium
Ġmer lin
Ġfant as
Ġpath way
Ġattrib ute
Ġshr ub
Ġaqu ed
Ġsig ma
Ġlandsl ide
Ġshowc ased
Ġprefect ure
Ġpect oral
Ġtorrent ial
4 6
ad der
Ġk ink
Ġun int
Ġcol er
Ġpar v
Ġcar ic
Ġinc urs
Ġbar ns
Ġfam ously
Ġbest owed
Ġche e
Ġannoun ces
Ġhill ary
Ġliter al
Ġapproxim ate
uk u
Ġbab e
Ġod or
Ġcub e
Ġrod den
Ġmis ch
Ġhorn ets
Ġmack ay
Ġwreck age
Ġfemin ism
Ġboot leg
Ġcatast rophic
Ġinaccur ate
Ġchass is
Ġurugu ay
m akers
y ar
in ate
ay ing
Ġat kinson
Ġch ong
est own
Ġro ost
Ġun ification
se in
oc l
Ġstr ains
Ġfree ze
Ġ28 5
Ġbrother hood
Ġren Ã©
Ġcontract ors
Ġsquare pants
fact ory
Ġpoll en
Ġgang ster
Ġkat ie
Ġsi han
Ġniss an
Ġphara oh
h off
Ġb n
Ġb iod
Ġm ersey
Ġit er
od ic
art y
ough ton
Ġed ged
Ġsch ul
Ġmat hew
Ġdiv as
Ġfinal ized
Ġ22 8
Ġroyal ists
Ġpal my
Ġbat avia
Ġru pt
Ġolymp us
Ġos s
Ġkel ley
Ġgill igan
Ġpig ment
Ġnavig ate
Ġconspir ators
Ġconstitu ent
Ġascend ed
ĠkÃ¶n ig
Ġanter ior
al om
st airs
Ġbe acon
Ġy acht
art en
Ġun lo
Ġsp anned
Ġpar ry
Ġsa fer
Ġship w
Ġmillion aire
Ġpopular ly
Ġmel ted
Ġcontroll ers
Ġic ons
Ġcorre cted
Ġnic he
Ġ177 4
Ġrub ble
Ġcruc ifix
Ġeval uate
Ġneuro l
Ġchim ney
Ġnd h
Ġmetabol ism
Ġthres hold
Ġostens ibly
Ġt uc
Ġg us
st y
Ġor icon
Ġ5 20
Ġbo on
Ġel ton
Ġsw arm
Ġstand out
Ġund oub
Ġdun es
Ġnames ake
Ġcool ed
Ġpros pective
Ġpin fall
Ġoak s
Ġbeau champ
Ġeman uel
Ġlut on
Ġchet niks
Ġindefin itely
Ġrhet oric
Ġnorther ly
Ġp ang
Ġd ared
Ġh ain
Ġl ull
Ġst en
Ġan ark
ast e
Ġad ren
Ġ20 20
Ġdef ens
Ġpop ulous
Ġconv ent
Ġspecial ised
Ġbi ographies
Ġund is
Ġutil ize
Ġcaps ized
Ġcease fire
Ġtatt oo
Ġeater y
Ġexacerb ated
Ġsihan ouk
j et
w ara
z ep
Ġs b
Ġm ish
Ġd ab
Ġj ared
Ġfin ite
Ġcr ushing
Ġgun ner
Ġant agon
Ġir ons
Ġposition ing
Ġmust aine
Ġemp ir
Ġhero in
Ġdv ds
Ġminim ize
Ġorchest rated
Ġcondition ing
Ġoak ley
Ġconsc ription
Ġreich s
Ġevangel ical
Ġilleg ally
Ġrememb ers
Ġunse en
Ġbarbec ue
Ġundoub ted
c ote
k r
t ings
as im
Ġex che
Ġsp aced
ning ton
ik en
Ġorgan ising
Ġsuper c
ae an
Ġstri pe
Ġrecogn izable
wer p
Ġol ig
Ġcm ll
Ġbra at
Ġimm ature
Ġrid d
Ġmeaning ful
Ġdetect ives
Ġgent ry
Ġadvoc ating
Ġloan ed
Ġcaf Ã©
Ġunfav orable
Ġsavanna h
Ġp estic
Ġg ing
el man
Ġtr iv
Ġsc av
Ġju xt
Ġpra ises
lin er
Ġpast oral
Ġfisher y
Ġunp red
Ġmurd och
Ġincom pet
Ġnag asaki
Ġcoordin ates
Ġprosper ous
Ġassert ing
Ġdad dy
Ġcripp led
Ġunac cept
Ġkaf ka
Ġmegad eth
Ġexche quer
l ius
Ġc g
Ġm ama
es que
Ġro oft
Ġcl ones
Ġte j
Ġsp ill
Ġper ished
Ġout spoken
Ġup hold
Ġmin ed
Ġend ings
Ġlit igation
Ġpost ure
hen y
Ġpress ured
Ġinj uring
Ġoccup ants
pr ints
Ġsor or
Ġhast ily
Ġrecept or
Ġrepet ition
Ġhond a
Ġape x
Ġrodden berry
Ġ urn
Ġb ump
el iness
Ġex ited
Ġhad n
ond a
Ġph all
ony ms
Ġnat asha
Ã¡ ndez
Ġconsist ency
Ġrepe al
mark ed
Ġaccompan iment
Ġtransform ing
Ġnerv es
class ic
Ġcontend ers
Ġspor adic
Ġskelet al
Ġhedge hog
Ġcomr ades
Ġgraff iti
j in
Ġs orts
Ġs Ã¡n
Ġw ines
Ġl illy
Ġn ail
Ġg own
Ġan sel
Ġi od
Ġher ds
Ġte ens
Ġres idency
Ġpar c
anc a
Ġrepl ies
Ġhistor ia
Ġlat itudes
Ġpur su
Ġnar rated
Ġwel ch
Ġpsych o
Ġinteract ing
rid ges
Ġpy g
Ġstem med
Ġfract ured
Ã« l
Ġspo of
Ġsentiment al
Ġmathematic ian
Ġblizz ard
ĠsÃ¡n chez
m ars
Ġc ues
Ġl ining
Ġfor age
ge an
pp ard
Ġsp ikes
vel ope
Ġexp ulsion
Ġfar n
Ġnight ing
Ġmo ors
Ġearl s
Ġgrand daughter
Ġcred ibility
Ġdar ryl
osaur ids
Ġspl ash
Ġmention ing
Ġsteam ship
Ġtam ar
Ġbour ne
Ġpp v
Ġinex p
ÅĦ ski
Ġfoli age
Ġairst ri
j ak
Ġs ot
Ġp anned
ic ultural
Ġse k
Ġne ared
Ġu fc
ond ition
ace ut
Ġspe e
Ġmon olog
Ġdef unct
Ġel sa
Ġest onia
Ġdisc ern
Ġtop ography
augh ty
Ġaud itions
Ġwood lands
Ġexec utions
ÃŃ s
Ġtrust ee
Ġspect ator
Ġbol ster
Ġsor cer
Ġdiscip lines
Ġfurn ace
Ġaggreg ator
Ġshak ur
Ġlumin osity
Ġincap able
Ġbould er
ĠmÄģ ori
. ,
x i
Ġt Åį
Ġthe res
Ġb ors
Ġp ets
or ously
en i
Ġand rom
Ġto re
Ġl h
um ar
Ġar ising
Ġi q
Ġsc aled
Ġen velope
ign on
Ġco ats
Ġbl ows
Ġver a
Ġeng ra
Ġback ward
Ġche et
Ġant werp
Ġwater ways
Ġcle ments
Ġconv ict
Ġalex ios
Ġdar ling
Ġpack ers
Ġcool idge
Ġtransform s
Ġbrid g
Ġpel op
Ġrosen berg
Ġunemploy ed
Ġpawn ee
Ġdisqual ification
Ġastronaut s
Ġinterl ude
Ġsloven ia
Ġintric ate
Ġb ites
Ġin equ
Ġre ctor
Ġhe zb
od ian
qu ito
Ġcl itor
ra pe
Ġmar ches
Ġimp ly
ull ah
Ġconc ussion
Ġmag na
Ġnorthern most
Ġprot r
Ġbridge head
Ġenc ore
Ġlu igi
Ġgard iner
Ġsched uling
Ġcollabor ate
Ġsust aining
Ã¤ r
Ġsin ister
Ġshr ink
Ġacknowled ging
Ġcrus ader
Ġglad i
Ġfasc inated
Ġheir s
Ġdioc let
Ġgrab bed
Ġunpred ict
Ġp are
Ġl ill
iv ities
Ġch ill
Ġne at
Ġun equ
pl an
Ġ9 10
Ġjust inian
Ġled ger
Ġer ad
Ġ21 6
Ġsent in
Ġmot ive
Ġvac ated
Ġdeterior ation
Ġdepress ions
Ġperipher y
Ġbefriend ed
Ġchev ro
Ġoryz omys
Ġdioclet ian
7 5
Ġp au
Ġin sec
Ġl oth
ow ay
em ma
Ġbo og
Ġstate wide
Ġhand el
Ġread iness
Ġgar risons
Ġliber ated
Ġtal iban
Ġpsych ic
Ġlind en
Ġcul p
Ġphilip pe
Ġconsult ation
Ġrena ult
Ġthorough bred
Ġhammer stein
Ġtum or
Ġmiddles brough
Ġdop amine
Ġpled ge
Ġpatroll ed
Ġskelet ons
Ġdeuts ch
Ġregul atory
Ġtoil et
Ġcutsc enes
Ġultrav iolet
Ġjuxt ap
r ach
v ir
Ġin gl
un i
oc les
ast ing
ell ular
Ġbr ighter
Ġrem edy
aus ible
Ġlim a
Ġce phal
ĠÃ ¾
Ġchem ist
Ġstephen son
Ġjul es
Ġattor neys
Ġaggress ively
Ġruth less
Ġhod g
Ġgoeb el
Ġgoeb bels
Ġapprent ices
Ġneum ann
Ã ½
is al
il and
ad ar
Ġwh aling
od rome
Ġro pes
Ġsc orp
Ġter rier
Ġprov ocative
Ġpat io
Ġorgan izers
Ġdet ract
Ġ21 2
Ġpal aces
Ġbusiness men
Ġbrig gs
Ġol m
Ġrod ents
Ġsight s
Ġinver ted
Ġmagist rates
Ġcockt ails
Ġhezb ollah
l io
l ob
am ore
et own
Ġy emen
Ġun he
Ġar throp
Ġres et
Ġbl oss
Ġel gar
Ġwin throp
omin al
Ġbelie v
Ġrock star
Ġ24 9
Ġcover t
Ġspring steen
Ġye oman
Ġiv ory
Ġtable t
Ġdub rov
Ġ98 0
Ġdiet ary
Ġtu ition
Ġkl aus
Ġhog g
Ġpatt y
Ġlobby ing
Ġrecapt ured
Ġflaw ed
Ġceram ic
e aux
k omm
at io
Ġl una
Ġn ih
im us
Ġj elly
Ġcan oe
Ġqu asi
Ġcount ess
Ġbeh ave
Ġsn iper
Ġtar ant
Ġlib el
Ġestablish ments
Ġassemb lies
Ġbound ed
Ġmut ant
Ġfear less
Ġmis f
Ġsens es
Ġbehavi ors
Ġbulk heads
Ġtill man
Ġsustain ability
Ġnept un
Ġstam ford
Ġinvas ions
Ġawaken ing
Ġbarric hello
Ġdisg ust
Ġhammers mith
o ter
v ald
Ã ®
Ġc b
Ġd ocked
Ġit iner
Ġv ista
ag le
Ġsm ythe
Ġste pping
Ġmod elled
Ġcommand ant
Ġaff iliation
Ġenc ro
Ġpast a
Ġwound ing
Ġstock port
ãĤ ¤
Ġbishop ric
Ġmyster io
Ġot is
Ġshr ubs
Ġsant o
Ã¼r st
Ġmarqu ess
Ġalk ali
Ġvolunt arily
Ġclap ton
Ġreloc ate
Ġadorn ed
a en
j ans
Ġc ute
Ġb auer
Ġg p
ct on
Ġr c
Ġr ica
ag os
um er
Ġex ert
Ġdis se
Ġco herent
Ġpar odied
Ġgroup ing
Ġge ared
Ġleg o
Ġsound ers
Ġfund ament
Ġgall and
Ġkar ma
Ġluc ia
Ġcorre ction
Ġsens ational
Ġreun ite
Ġfasc inating
Ġhenri k
Ġhann ibal
Ġspont ane
Ġrecapt ure
Ġkriegs marine
Ġ |
Ġt ipp
Ġs val
ch ool
Ġan gr
Ġk ers
Ġk ali
Ġun opp
Ġar ched
Ġen raged
Ġmar i
ren ts
Ġpos es
Ġnorth ampton
Ġbuild ers
Ġvol atile
Ġmass ac
Ġbat ters
Ġjew ellery
Ġpick ett
Ġiron ic
Ġcompl iance
Ġtowns hend
Ġmand ated
Ġindu ce
Ġbypass ing
Ġkal am
Ġdesper ately
Ġarche ty
Ġtoul on
Ġsabot age
Ġwaff en
a ise
on er
Ġp elle
or ax
Ġn ant
Ġn ib
Ġg ed
Ġk orn
Ġinc is
Ġinc ar
Ġpers ist
Ġintern ed
ott o
Ġdet ain
Ġcross ings
Ġsouthern most
Ġcomment aries
Ġros em
Ġrein v
Ġvul gar
Ġ176 0
Ġyield s
Ġpond s
Ġsummers lam
Ġgymn asium
Ġcovent ry
Ġchevro let
Ġunopp osed
g um
i ov
Ġp f
or b
Ġm ce
Ġd ief
Ġn ah
ut able
ge nder
Ġcl aw
pl ain
Ġsa unders
Ġz hu
Ġste ered
ier i
Ġwater front
Ġsan ctions
Ġdun ham
Ġram on
Ġmos ley
Ġ74 0
rad ar
Ġreinforce ment
chang ing
omorph ic
Ġpivot al
Ġalge bra
f Ã¼hrer
h ore
Ġt ires
Ġp oc
Ġe uk
Ġst av
et es
Ġtr ich
Ġper cept
Ġoff ences
Ġfl ocks
Ġind ist
Ġcar v
Ġmin ig
Ġbatt ling
Ġmod ify
Ġsqu ee
Ġmor i
Ġ25 5
Ġec le
Ġeconom ist
Ġrob es
Ġdyn ast
Ġliver y
Ġdoub ling
Ġpref ace
Ġfo ley
Ġnik ki
Ġreorgan ization
ocy tes
Ġproc ure
Ġjor ge
Ġforc ibly
Ġkram er
Ġappalach ian
Ġbraat hens
Ġdief enb
v ation
Ġt su
Ġt utor
Ġa il
Ġre claimed
ir y
Ġk olk
Ġab ort
Ġbr ant
iet al
Ġdown fall
Ġins isting
Ġhead lines
Ġ25 2
ĠÂ ¥
Ġeas terly
Ã¡ d
Ġalex is
Ġqual ifications
Ġwrest led
Ġcold play
Ġpul mon
Ġrub in
Ġbath s
Ġdenn y
Ġdenomin ations
Ġoversee ing
Ġcoden amed
Ġdrac ula
Ġlaund ry
Ġdubrov nik
Ġdiefenb aker
Ġp anch
Ġn uts
Ġg ail
Ġg ator
ch o
Ġis th
Ġro che
Ġcl amp
Ġnew est
Ġag n
Ġfe nd
Ġout comes
Ġem pl
ll i
Ġcontin ents
Ġschool ing
Ġlow lands
Ġdu ly
enth al
Ġfleet wood
Ġrap h
Ġdar lington
writ ers
Ġ178 2
Ġpull s
Ġmetropol is
Ġburial s
Ġvisc ount
Ġlongitud inal
c omb
t ong
Ġt ama
Ġs asha
Ġf eld
ad ia
Ġk ors
ld on
Ġtr un
Ġall oc
Ġgr ains
Ġdef iciency
Ġsch u
Ġset list
Ġdiv es
Ġmilit ants
Ġtest ify
Ġbat tered
Ġemb ank
Ġund es
Ġhaw ker
Ġmile y
Ġrud d
Ġhindu ism
Ġrp m
Ġfert ility
Ġscr ub
Ġgast ro
ĠâĻ ¯
Ġhil ary
Ġrah man
Ġmyst ical
Ġnons ense
ogly ph
Ġalbat ross
Ġundis closed
Ġnighting ale
Ġw ur
Ġc ared
Ġb ok
Ġf ist
Ġd azz
Ġn fc
Ġk ob
th ia
and um
ag in
ie gel
Ġsp ies
Ġwe aving
Ġpeter borough
Ġwal ters
Ġquestion able
Ġshare holders
Ġcrown s
Ġunp ro
Ġkidn apping
Ġhazard ous
Ġtibet an
Ġyah oo
Ġlump ur
Ġrestr aint
Ġreclass ified
k kinen
w ski
Ġ Ë
Ġf ost
or io
Ġsh ab
Ġex iting
Ġman zan
Ġkn ees
Ġob verse
Ġcr ashing
Ġserv ic
Ġref itted
Ġer ich
Ġsuper ficial
Ġsum ner
Ġsum med
Ġpain e
Ġpan hand
Ġchic o
Ġlog istical
Ġstephen s
Ġpul s
Ġwhit lam
Ġdress es
Ġshr ines
Ġfortress es
Ġspar ks
Ġconsolid ation
Ġbeth le
Ġphosph ate
Ġhaun ting
Ġganes ha
Ġrevis ited
Ġinsign ia
Ġarbitr ary
Ġcancell ara
Ġpto le
p ill
Ġt ess
ay as
et z
Ġr ite
Ġal ias
se au
Ġcomp ressed
Ġli am
Ġunder parts
Ġver di
Ġcap ita
ful ness
Ġbar re
Ġgre tz
Ġdem obil
Ġshort stop
Ġx avier
Ġfield ed
Ġmal m
itar ies
Ġlog ar
Ġtext ures
Ġheight ened
Ġvari ables
Ġbright est
Ġconsolid ate
Ġaub rey
Ġfing leton
Ġencompass es
Ġcrust aceans
Ġcement ed
Ġpharm aceut
ĠhÃ¤ kkinen
i ola
Ġt up
Ġp ablo
an elles
Ġn il
Ġth rom
Ġg Ã¼
Ġr ims
Ġam using
Ġrec olle
Ġdis abilities
Ġfl ute
Ġqu inc
ple x
Ġ21 9
Ġmad h
Ġsun rise
bur ger
Ġsir ius
Ġmol ar
Ġbun ny
Ġcrest ed
Ġparam il
Ġbeng ali
Ġmetab olic
Ġscandin avia
Ġsemes ter
Ġangr ily
f ig
p arents
r b
r iver
Ġa ali
Ġw ÅĤ
Ġg ild
Ġan onym
Ġor t
Ġfl ock
oll s
Ġcar o
Ġreg roup
Ġdr astically
Ġrece ivers
Ġche ers
by n
Ġrad cliffe
Ġfront man
Ġsepar ates
Ġprefer ably
Ġunl ocked
Ġreign s
Ġtall on
Ġbron x
Ġshout ing
Ġae gean
Ġrefurb ished
Ġlyd ia
Ġsval bard
Ġincar cer
Ġecle ctic
l und
z ef
Ġg ently
Ġwh igs
ch rist
Ġ9 20
gr av
Ġgre gg
Ġhum ber
Ġcy ril
Ġmilit ant
Ġ21 1
Ġsol os
Ġprogram med
Ġround about
Ġinj ust
Ġthr ash
Ġrefle ctive
Ġdeterm ines
Ġrecomm issioned
Ġstro kes
Ġproport ional
Ġrecept ors
Ġorch ard
Ġdefect s
Ġcommence ment
Ġsidel ined
Ġbethle hem
n ity
Ï Į
on ies
Ġm apping
Ġbe eth
Ġhe pat
Ġse izing
Ġsc ared
Ġme e
Ġout set
Ġpe ach
Ġsch n
ful l
ys ÅĤaw
Ġfam ed
Ġmag nes
aff ected
Ġje ter
Ġcertain ty
Ġcell o
Ġca vern
Ġbab a
Ġmas ked
Ġdirection al
Ġmos quito
Ġlis zt
Ġdict ated
Ġandre as
Ġstyl ized
Ġmoz art
Ġmorm on
Ġforerun ner
y der
Ġm ald
Ġre inc
Ġst acy
Ġfor ged
ut ic
Ġse ph
est ones
Ġab used
Ġoff season
Ġrep uted
Ġz appa
Ġra ff
Ġbur gh
Ġredu nd
Ġjud a
Ġvan ity
Ġhus sein
Ġfat im
Ġry der
Ġspin ner
bro ken
Ġay y
Ġutil izing
Ġpoison ed
Ġlen o
Ġrus hes
Ġbib li
Ġdaw la
Ġhier oglyph
Ġgonz Ã¡
Ġincons ist
Ġunderm ined
Ġapocaly pse
Ġstaun ch
Ġuplo aded
Ġchie ft
Ġaali yah
er man
Ġc ess
Ġto d
Ġk ut
ant ically
Ġcl ippers
Ġint entional
Ġrest rained
Ġhand ing
inc hed
Ġfle es
Ġdon ovan
Ġ23 4
Ġcolon ization
Ġsle pt
Ġmort imer
Ġeliz a
Ġlic enses
Ġlam ar
Ġdangerous ly
Ġwag ga
Ġfrust rating
Ġcomprom ised
Ġnomine es
Ġpreval ence
Ġtyrann osaurus
ĠkÃ¶n igs
ĠgonzÃ¡ lez
g reen
Ġn ansen
av is
ap ul
te au
Ġsim ulated
Ġhar lan
Ġrest s
Ġav id
Ġcor ro
ene uve
Ġmark ham
af e
Ġpur d
Ġiron ically
Ġq a
Ġsens ibility
Ġdiplom acy
Ġsib elius
Ġgoth am
ele ctric
Ġhoney e
Ġchore ographer
Ġdispers e
Ġfrances co
Ġgorge ous
Ġsatisfact ory
Ġrefriger ator
Ġmascul ine
Ġc oss
Ġb ov
Ġf ia
Ġy un
Ġpl agi
Ġman gan
Ġco el
Ġim itation
Ġform ulated
Ġmark ers
Ġprop ri
Ġ26 2
Ġsele ctors
Ġale ppo
Ġwil kes
Ġlower ing
Ġdig its
Ġwild er
Ġ32 5
Ġentr usted
Ġpoly mer
Ġpin ch
Ġbot any
Ġovers ight
Ġviad uct
Ġundoubted ly
Ġbeeth oven
k ets
Ġs ain
Ġb p
Ġb ids
Ġf iber
ar as
Ġe wing
ot ech
rit es
Ġlo xton
Ġord ained
Ġrevolution aries
Ġsurvey or
Ġsad d
Ġtast es
Ġarist otle
Ġanchor age
Ġcauc as
Ġanders en
Ġellip tical
i ating
o in
ion age
Ġn ue
Ġj avan
Ġcon tended
os cop
Ġli ability
Ġblack m
ĠÂ §
Ġbur ge
Ġwood ward
Ġchap lain
Ġsyn onymous
ograph ically
Ġdrum ming
Ġgra f
Ġgib bons
omy c
Ġrecall ing
Ġencompass ing
Ġmarx ist
Ġsne ak
Ġcataly st
Ġcaud al
Ġgretz ky
h uman
k t
k ap
r ador
w atch
Ġp ing
Ġg ou
Ġr itz
Ġcon ject
Ġint u
ath us
Ġpres iding
Ġpos ing
Ġshow runner
writ ing
Ġconcent rating
Ġunf old
Ġclar inet
Ġgrey hound
Ġintegr ate
Ġmanip ulation
Ġbeck ham
Ġblaz ers
Ġannoy ed
Ġvass al
Ġrans om
Ġrecu per
Ġa ol
Ġfor s
Ġk athy
Ġv all
ak o
Ġsc or
Ġtim ed
Ġres h
Ġplay ground
Ġgame pro
ivers ity
Ġfam itsu
Ġdem ean
Ġhum e
Ġorgan ise
Ġarch du
Ġ32 2
zz o
Ġstrateg ically
Ġpath ways
Ġadj utant
Ġot ters
Ġhob by
Ġjewel ry
Ġdl c
Ġimpr int
Ġsusque hanna
l ace
u aries
Ġt j
Ġw ary
Ġf y
Ġm ord
Ġm oy
id uous
ide a
Ġsch ooner
ale a
Ġsl ap
Ġgovern orship
Ġweek day
Ġmodern ist
Ġsn yder
Ġos borne
Ġ175 8
Ġfu ji
Ġdiagn ostic
Ġlor is
Ġdispers al
gett able
Ġengrav ed
Ġschmid t
inty re
Ġcocon ut
Ġanark y
h ang
Ġw ich
Ġc ough
Ġth ru
Ġr icket
ib u
Ġste vie
Ġeast wards
Ġant an
Ġexpl ode
bert o
Ġstri fe
ett led
Ġburn ett
Ġgro oves
Ġcann abis
Ġbol ivia
Ġsight ing
Ġrug ged
Ġforb ade
[...]
