#version: 0.2 - Trained by `huggingface/tokenizers`
a n
Ġ t
e r
i s
a s
Ġt h
o u
an t
Ġ a
is t
Ġ i
as s
ass ist
assist ant
u s
Ġ h
Ġ o
us er
Ġ y
Ġ s
Ġ w
a t
i n
Ġy ou
r e
Ġ f
Ġ m
Ġ c
Ġth e
Ġ l
Ġ p
Ġ b
e l
a y
in g
e s
Ġ an
o r
Ġt o
Ġ g
o n
Ġ d
e n
a r
o m
Ġ n
t h
Ġth at
Ġo k
Ġh o
k e
Ġok ay
Ġan d
o o
l l
Ġf or
Ġ is
Ġo n
i c
Ġl i
Ġi t
Ġi n
e d
Ġw h
l e
v e
Ġli ke
g h
Ġw i
Ġ r
Ġc an
l d
v i
Ġh el
Ġm o
i gh
igh t
Ġo f
' s
Ġh a
Ġ re
er e
e t
ou ld
Ġm e
Ġho t
Ġwh at
Ġb e
Ġmo vi
Ġhel p
Ġha ve
i t
om e
Ġhot el
Ġth an
c h
i l
o w
Ġon e
Ġwi th
a l
Ġthan k
Ġn e
s e
Ġho w
ou t
Ġmovi e
Ġs t
Ġs e
Ġb y
Ġw ould
n d
Ġa re
Ġo r
Ġyou r
s t
oo k
oo d
Ġd o
in d
en t
Ġan y
Ġa t
th ing
Ġs u
Ġg ood
Ġ j
ou nd
Ġp l
Ġg o
i on
Ġy es
Ġc h
c t
e a
u r
Ġf r
Ġl ook
Ġn o
Ġa b
Ġ 1
Ġth ere
Ġs ome
Ġh i
Ġf ind
' m
a il
Ġr o
Ġ $
Ġ el
i m
Ġ e
Ġab out
d er
Ġ 2
Ġ k
Ġa l
l o
Ġp er
Ġel se
Ġth is
i d
on g
Ġg re
i r
' d
Ġgre at
es t
Ġs h
a d
Ġlook ing
Ġwi ll
Ġ u
Ġw ant
v er
Ġs ong
Ġse e
a ll
f er
a m
el l
c e
Ġf l
Ġn ight
us t
u t
Ġro om
Ġpl ay
r i
ic e
Ġfr om
c k
Ġa ll
re e
Ġl et
Ġh ere
b le
le as
Ġp r
Ġne ed
Ġsu re
c on
Ġp re
Ġor der
leas e
Ġhel lo
Ġby e
o p
as t
Ġs ound
Ġa m
Ġp lease
Ġany thing
Ġs o
Ġh e
Ġt im
' ll
i f
at er
Ġj ust
b y
Ġt w
Ġsome thing
Ġa r
Ġtw o
g e
Ġ en
Ġl o
0 0
n t
Ġs p
Ġfl ight
o y
Ġm u
Ġc o
f e
Ġt r
th er
t t
Ġr at
Ġsound s
ou r
ar d
Ġst ar
Ġ out
Ġp m
' re
u l
Ġy ea
es s
at ion
Ġyea h
q u
Ġmu ch
ke t
an d
j oy
a k
Ġsh ow
Ġen joy
a ke
l y
Ġ 3
t er
a ble
by e
Ġpre fer
Ġst ay
Ġh as
Ġp ar
r ight
u n
ic ket
Ġt icket
at ch
in k
Ġal right
Ġ 4
oo l
Ġtim e
Ġa ct
Ġm in
Ġgood bye
Ġf ree
Ġthe ater
Ġch e
con d
Ġm y
Ġa v
c ome
en d
Ġse cond
Ġw el
Ġne w
Ġmo re
Ġwel come
e w
Ġf ound
ic k
u m
i es
Ġw as
Ġav ail
Ġw atch
Ġavail able
Ġc ould
Ġpr ice
Ġ 7
Ġb ook
Ġ as
Ġrat ing
Ġt ell
Ġc om
Ġg et
Ġfind ing
s o
ic h
Ġ2 0
Ġa d
Ġr ight
in e
Ġgo t
Ġb re
Ġm om
Ġi f
Ġre st
Ġmom ent
' t
Ġche ck
Ġm ar
Ġk n
Ġt ake
Ġth ink
it y
p e
all y
Ġdo es
Ġd e
Ġal so
Ġu p
ver y
s s
a ur
Ġplay ing
Ġno t
aur ant
Ġmovi es
Ġd et
Ġkn ow
Ġrest aurant
Ġm ay
Ġ1 0
Ġf i
Ġd ay
ail s
Ġb ed
Ġbre ak
Â ł
Ġroom s
re ct
Ġdet ails
at e
a v
Ġc all
Ġhe ar
Ġ vi
Ġc on
d ay
or t
Ġ 5
Ġw e
fe ct
Ġn ow
f ast
Ġbreak fast
Ġ v
Ġper fect
Ġne ar
b e
Ġb ut
Ġw ell
Ġcall ed
x t
Ġm us
Ġp e
Ġl ea
a ch
Ġm an
or k
s on
Ġ &
Ġl a
Ġar t
Ġthe y
Ġb ar
Ġp ool
a in
a c
Ġf ir
Ġmin ut
Ġfir st
Ġ 9
Ġf e
Ġart ist
Ġwh ich
p t
Ġth ree
n i
Ġth ing
Ġsu it
am e
Ġo ther
Ġp o
Ġpar k
Ġmus ic
Ġticket s
ar y
Ġgo ing
r y
Ġwh en
Ġd r
Ġc l
a ck
Ġne xt
Ġ 6
d e
Ġc ent
Ġho ld
Ġb o
r o
Ġd on
Ġminut es
i z
c o
Ġa w
Ġto day
Ġg u
i ve
an s
ow n
ur n
u p
op le
Ġ qu
Ġbe ach
Ġpe ople
ou gh
a re
1 5
a ce
Ġa p
at es
Ġe m
u re
n ight
Ġ very
Ġ -
Ġto m
Ġstar s
Ġl ist
Ġlo c
Ġ 8
Ġhotel s
f i
Ġsuit es
Ġd id
o se
Ġk ing
er s
Ġo h
Ġprefer en
ion s
Ġman y
Ġd if
Ġp ick
Ġper son
Ġe x
Ġdif fer
v en
c es
Ġd i
Ġthe n
Ġto night
b er
Ġl e
ad y
Ġc ity
at ed
Ġre t
it e
Ġwh ere
Ġre ally
Ġtr ail
Ġre s
tt y
Ġth ose
Ġpl us
u b
Ġc or
Ġpre tty
f or
Ġk ind
Ġdiffer ent
Ġtrail er
id e
Ġ (
Ġret urn
st ar
Ġw on
Ġf our
Ġa ir
Ġb al
a le
Ġthe m
it ies
ul ar
Ġcom ed
a x
Ġd ates
Ġpr o
Ġbal con
Ġcor rect
Ġthank s
v ing
r ow
p l
d o
Ġg ive
Ġin n
3 0
Ġre ady
o ther
Ġan other
es ome
c i
Ġwon der
5 0
Ġaw esome
Ġmar ch
t s
Ġpreferen ces
Ġad d
Ġam en
Ġcl ass
Ġh ome
i ll
Ġu nd
Ġs an
Ġamen ities
Ġin ter
Ġshow ing
Ġi m
Ġc al
at o
s c
Ġh igh
Ġw ork
Ġg en
u ll
Ġc ar
Ġre nt
al k
Ġund er
Ġcent er
Ġs a
r it
if or
Ġact ion
ni a
ifor nia
Ġem ail
ea d
Ġcal ifornia
a g
Ġto o
for m
is h
Ġsh ould
an ge
Ġfr an
is co
Ġof fer
Ġf it
e en
Ġlist en
r ough
Ġcomed y
re ss
Ġfi le
e m
Ġj o
Ġth rough
do or
a z
Ġbalcon y
Ġgen re
f fe
Ġc lo
Ġrat ed
Ġco ffe
Ġpark ing
Ġpar t
Ġu n
Ġt y
Ġs end
Ġar ri
Ġperson al
p ar
Ġhe ard
Ġtom ato
Ġtim es
u e
at t
t on
Ġt v
Ġlea ve
Ġj un
Ġl ess
1 0
i g
Ġact or
n ess
Ġf il
Ġh is
Ġinter est
Ġwh o
ri p
ke d
Ġfil m
a b
vi ew
u ary
Ġn on
Ġsp e
n ing
om an
Ġo pt
g le
r ing
Ġg r
Ġvi ew
Ġs et
i e
Ġf ine
Ġfran c
Ġs im
er v
Ġjun e
t im
ss i
Ġfit ness
Ġdr am
iz e
Ġfranc isco
Ġrating s
oo se
re en
Ġcon f
Ġam c
2 0
Ġpo ssi
Ġstay ing
Ġf ood
m an
Ġn ice
i an
i re
Ġch oose
Ġdi rect
c l
Ġon ly
ver s
p p
Ġb l
if ic
ou p
de o
Ġb et
Ġty pe
Ġre view
Ġvi deo
Ġg oo
g g
v es
ro om
' ve
b r
e k
Ġfl at
ir m
id ay
Ġ1 6
Ġs ame
Ġgoo gle
re n
Ġconf irm
r a
Ġs qu
Ġr ange
Ġtomato es
Ġlo ve
Ġa f
u d
b o
Ġl ar
Ġb ur
Ġlook s
i x
el y
Ġch o
il ar
Ġc our
Ġthe ir
on e
Ġc a
o re
tt le
Ġpart ic
Ġc ool
Ġa g
Ġal b
Ġcoffe e
ic es
Ġres ort
Ġpartic ular
nt own
Ġtr y
o s
Ġt ub
Ġalb um
ow ntown
Ġm il
ar ch
Ġpl ace
Ġsim ilar
Ġh er
st op
Ġshow tim
Ġad ul
g er
Ġf ew
tt en
Ġmin i
Ġmay be
Ġl ast
Ġre qu
Ġco st
m ent
Ġd owntown
ur y
Ġse arch
Ġbed s
Ġe very
Ġdram a
Ġlar ge
Ġs or
Ġn ame
Ġu nt
Ġp al
o l
Ġf ull
Ġh our
Ġb ack
Ġ1 9
1 7
Ġpl an
Ġsor ry
Ġle ast
p ort
ou s
Ġbo th
Ġch ick
Ġe ven
Ġpossi ble
e p
Ġopt ions
f in
Ġre g
Ġbe en
Ġro tten
Ġw oman
f ri
ble m
Ġpro blem
ation s
Ġsp a
4 5
Ġde par
Ġchick en
Ġli ttle
Ġunt il
Ġor le
Ġorle ans
3 00
Ġap r
Ġspe c
4 0
er ic
Ġs w
Ġs ide
Ġm ind
Ġl ater
Ġt rip
Ġar ound
m it
Ġst and
i a
Ġ assistant
Ġloc ated
Ġaf ter
Ġapr il
9 9
Ġpal m
Ġs ay
Ġspec ific
is s
Ġo ce
Ġmil es
t ing
av or
Ġb est
Ġout door
t a
Ġoce an
Ġl ou
Ġb r
Ġs erv
Ġin form
Ġreview s
g o
Ġy ork
an ce
Ġf avor
Ġre d
Ġh ou
ri ll
t o
t u
Ġair l
Ġs al
Ġm ad
en ce
Ġw ar
Ġinform ation
i le
Ġw est
Ġsqu are
Ġstand ard
Ġc ur
f ul
es e
Ġa h
Ġm ake
Ġag ain
Ġtake out
op s
p er
Ġthe se
Ġre c
n e
Ġam eric
Ġfe at
Ġw ere
Ġd es
Ġb u
Ġof f
u ally
Ġb a
Ġl and
Ġin cl
Ġgu est
v ent
Ġloc ation
y n
Ġn a
Ġg l
id ge
or y
Ġevery thing
Ġt alk
Ġo ld
a ge
Ġc r
Ġinterest ed
m er
Ġah ead
at h
Ġwe ek
Ġ x
Ġm or
Ġfavor ite
Ġg al
Ġd own
br uary
as h
Ġclo se
Ġb us
k s
Ġact ually
Ġlea ving
Ġs c
Ġfe bruary
Ġg y
Ġli mit
Ġhi m
Ġshowtim es
2 00
l s
ou nt
Ġm ak
Ġch ea
Ġrequ ire
2 5
i um
re nt
Ġeven ing
Ġ us
Ġf in
Ġare a
ment s
l f
Ġa c
Ġsu gg
Ġ1 1
Ġsugg est
sc reen
er t
in ess
Ġam az
Ġtr av
i ld
en n
Ġw alk
Ġcur rent
a p
Ġ1 5
Ġgu ard
ar l
Ġfl y
ax y
pl es
Ġ1 2
Ġserv ice
Ġgal axy
1 3
Ġp h
ine m
Ġs m
Ġex c
Ġbus iness
Ġap p
Ġna ples
h n
in es
Ġl ay
Ġbur rit
Ġmor ning
Ġtheater s
Ġcho ice
Ġb and
Ġo ver
1 2
is e
att le
Ġre pe
it ch
Ġflight s
Ġc ome
Ġmo st
Ġrepe at
Ġday s
Ġtrav el
Ġlo t
Ġm on
o t
Ġfr i
Ġsp ring
i ans
Ġc re
Ġcon t
Ġ "
Ġsu m
Ġchea p
Ġst re
en s
Ġlay o
Ġs yn
oo ked
Ġc inem
Ġpr ices
Ġameric an
Ġjo hn
Ġk id
Ġfi ve
u de
Ġr ound
Ġactor s
ll e
at or
a w
Ġt e
il ton
r d
Ġqu est
Ġche ese
Ġv ac
Ġh ilton
Ġp op
Ġm ust
Ġyou tu
Ġd av
Ġamaz on
Ġvac ation
Ġyoutu be
b ad
ops is
Ġsyn opsis
â Ģ
Ġwi fi
Ġdav is
m ber
Ġrestaurant s
Ġlou is
Ġrequire ments
Ġguard ians
Ġth rill
Ġgl ad
Ġme et
Ġairl ines
w een
Ġ ke
Ġdon e
Ġin to
Ġqu een
n a
Ġbet ween
Ġs k
Ġb ooked
Ġguest s
Ġsu nd
Ġdo g
Ġdirect or
Ġh or
Ġhe y
Ġcent ury
Ġadul ts
l es
ing s
Ġj an
ell ent
Ġincl ude
Ġexc ellent
Ġd el
n er
Ġs ent
Ġclo s
Ġnear by
Ġc rit
f ore
Ġair port
Ġcurrent ly
Ġse attle
Ġbe fore
ls bad
Ġfr iday
Ġcar lsbad
y le
Ġw a
Ġ20 17
ant ic
sc ale
r or
Ġcour se
i p
Ġl ong
fri ger
Ġ z
friger ator
ri o
Ġup scale
Ġhour s
Ġr om
id a
Ġfi re
Ġf am
f l
ar k
Ġim ax
âĢ Ļ
f r
Ġcheap est
Ġm et
st on
Ġsp end
ure s
e ar
Ġrom antic
Ġc oup
Ġcoup le
re ci
Ġfl or
Ġapp reci
Ġc ust
Ġto p
s ide
Ġho l
Ġoffer ing
Ġflor ida
Ġcust om
Ġs ize
Ġd ate
Ġm iss
Ġm ood
Ġw or
el f
it ion
Ġreg al
Ġsal ad
un es
Ġsong s
Ġappreci ate
Ġhol iday
s ize
Ġt er
Ġfam il
4 9
n o
Ġm ic
Ġd in
Ġch ild
Ġf ar
vi lle
5 5
Ġw ay
Ġmak er
Ġlayo ver
is on
Ġc as
Ġ1 4
ad o
ren ch
vent ure
Ġspring s
Ġthrill er
Ġre l
Ġhor ror
Ġit unes
Ġno thing
3 5
er c
ant a
Ġb as
ic t
f f
l or
Ġwith in
Ġsh e
Ġhou se
Ġt enn
Ġthink ing
w h
Ġst op
ish ed
Ġjan uary
Ġc are
Ġch ic
Ġu ni
iz z
ab ly
Ġfri end
Ġin door
a ct
i ous
m in
Ġf rench
Ġb ig
Ġb it
Ġex p
Ġba by
Ġwa it
Ġ user
Ġp izz
1 6
g ers
Ġp ur
Ġstre et
i b
Ġb lo
ar ter
Ġsum mer
Ġfr ies
Ġmo der
Ġwonder ing
0 5
c a
Ġwh ile
Ġ ed
g es
ur ing
u g
on t
Ġre frigerator
Ġab le
Ġn et
st er
Ġgr ound
Ġk itch
Ġe con
un a
Ġclos est
fl ix
Ġmoder n
d y
Ġsund ay
Ġnet flix
Ġqu arter
Ġmic row
Ġn ash
i al
Ġ2 5
Ġsc reen
er n
Ġnash ville
Ġst ory
Ġbet ter
Ġpop ular
Ġecon om
an a
Ġper form
Ġnon stop
Ġold er
Ġl u
Ġ2 4
Ġarri ve
Ġse at
ir l
bo x
a ve
Ġwant ed
Ġtv s
s elf
Ġto t
i ther
t y
Ġho pe
Ġde ce
Ġv an
Ġeconom y
Ġcustom er
Ġs anta
Ġgo ld
Ġgo lf
ci al
Ġsa id
Ġch r
ut e
Ġn um
15 0
rio tt
Ġdece mber
Ġmar riott
Ġla g
Ġbook ing
Ġd ri
Ġaw ay
Ġred box
c ess
Ġs ci
Ġconfirm ation
Ġtot al
Ġy ear
ic al
it ed
Ġadd ress
Ġpizz a
Ġuni vers
w ay
Ġadul t
. ,
g ue
u ce
Ġf ant
Ġl at
Ġe ither
Ġh ul
Ġw ater
on d
Ġarri ves
ing ton
Ġs ing
Ġs oup
Ġr un
Ġde c
Ġe xt
c ked
d b
Ġcinem as
Ġunivers ity
Ġha d
n y
ent ary
g et
Ġim db
Ġemail ed
Ġhul u
Ġha ven
Ġcom p
Ġdepar t
Ġs and
ir d
s h
id ges
Ġnight s
Ġdr ink
Ġinterest ing
Ġnum ber
l and
Ġp ull
Ġorder s
Ġde fin
Ġgy m
Ġsm all
Ġst ill
or row
i o
om m
ch as
Ġfe el
l it
u al
Ġf o
Ġpur chas
Ġb el
el e
Ġco ver
Ġtom orrow
Ġlag una
ou ble
ar a
Ġwas h
Ġtravel ing
Ġneed s
Ġrec ent
g el
Ġ ea
Ġf un
Ġnew er
Ġplan ning
Ġwest ern
min ute
Ġground s
1 8
Ġpreferen ce
fin ity
Ġchild ren
) ,
re d
Ġd ist
Ġgu ess
Ġwonder ful
wh ere
Ġm erc
ac es
Ġbo x
Ġtry ing
f ort
Ġdirect ed
Ġx finity
Ġquest ions
Ġwar s
Ġbl ack
1 9
d en
f t
v al
Ġh ar
Ġspecific ations
Ġsk i
Ġre m
Ġs l
Ġhou ston
a i
in a
00 0
Ġsuit e
Ġfin ished
h er
Ġb ad
Ġan gel
Ġd ouble
Ġ1 7
Ġwash ington
n g
in s
Ġl ink
vi l
Ġse c
Ġe ar
Ġlea ves
Ġmad e
Ġsu per
Ġhigh est
Ġbu y
Ġdin ing
e f
Ġr ice
it ely
Ġafter no
Ġdefin itely
Ġafterno on
Ġth ough
Ġ1 3
Ġfire pl
) .
Ġd ark
Ġli ving
Ġsa uce
Ġgold en
2 50
p es
as on
Ġh it
Ġun ited
1 4
w ich
ay lor
Ġli fe
ent al
Ġcl ub
Ġburrit o
Ġbas ed
Ġad venture
Ġst ad
Ġblo cked
Ġstad ium
or s
Ġbalcon ies
Ġburrit os
Ġcrit ic
Ġwor ld
Ġext ra
Ġmerc ado
Ġ1 8
ck s
Ġsand wich
Ġp ri
m y
Ġco ke
Ġwork s
Ġb ow
th e
Ġch ar
Ġt aylor
Ġso f
ale t
Ġv alet
w ard
Ġr i
Ġim port
Ġs er
Ġdel ta
Ġea ch
us e
Ġp a
Ġp et
Ġd ead
if t
Ġlo d
Ġgy ro
Ġimport ant
Ġminut e
em p
Ġfeat uring
t rip
in o
re am
Ġm ain
Ġha m
Ġdi e
t e
i er
Ġd a
fr ont
ar row
om in
Ġha pp
Ġse par
Ġneed ed
Ġdoes n
Ġoff ice
Ġpri v
Ġm ed
im e
em ber
g an
Ġfr idge
Ġlo s
Ġcom ing
Ġview s
Ġsw e
Ġper ry
c le
Ġan im
Ġperform ing
c om
Ġn or
Ġin side
Ġab o
am es
Ġv ol
Ġpe pp
Ġrec omm
Ġrecomm end
u nd
Ġc ount
Ġh ist
Ġyou ng
Ġp ast
ll ow
Ġlike d
vi d
Ġcheck ing
Ġgr and
fri end
Ġdes c
Ġit s
Ġe arl
Ġact ress
Ġcho ices
o k
y l
c ed
Ġh an
ll a
Ġro ck
Ġcomed ies
Ġpriv ate
s ite
Ġy ep
Ġk at
Ġfamil y
t le
es se
Ġte x
Ġsepar ate
Ġswe et
Ġabo ve
Ġc ir
Ġb ay
Ġfilm s
% .
Ġst yle
Ġdie go
Ġdesc ri
Ġtex as
w n
Ġf ur
ne y
e y
Ġs n
em ak
Ġ vers
Ġb at
on es
Ġdepar ting
Ġweek end
a el
Ġa ug
Ġm ount
Ġp at
id ent
Ġcoffe emak
Ġmad ison
Ġkat y
Ġn ess
Ġj ack
Ġel e
Ġthing s
Ġdog s
Ġaug ust
o d
p h
Ġs ou
Ġg ard
Ġbe at
Ġst r
Ġe y
Ġfi g
Ġbed room
Ġsearch ing
Ġr oman
pt on
iz ed
a ir
at ely
Ġin d
ad e
ag o
ta h
Ġfo llow
Ġme al
Ġbe a
Ġro gue
Ġu tah
Ġ2 1
Ġsee ing
Ġshowtim e
Ġcont in
Ġmeet ing
p ing
Ġn arrow
Ġter r
Ġlat est
i der
p en
Ġr an
ow er
Ġrequ est
Ġangel es
r ic
Ġsh ut
Ġmount ain
Ġh y
Ġne ver
Ġcir cle
ou ri
Ġopt ion
Ġbat man
g ing
Ġth ird
Ġs co
Ġw ick
Ġp ut
Ġme an
Ġmiss ouri
Ġchic ago
Ġb row
Ġha lf
ich ael
Ġreturn ing
Ġarri val
Ġfeat ure
Ġke ep
Ġt ea
Ġn omin
Ġre leas
Ġbe ef
Ġbre ad
Ġbe ca
Ġca pt
Ġpurchas e
Ġbeca use
Ġ assist
Ġ3 0
Ġprefer ably
Ġmy self
Ġvers ion
1 00
g r
Ġ ve
Ġtenn esse
Ġear ly
Ġg irl
Ġse ver
Ġ2 3
Ġstar t
Ġstar ring
Ġres erv
Ġmust ard
Ġmicrow ave
Ġroman ce
i en
Ġsome where
Ġbar be
Ġbea ut
Ġtennesse e
d den
m on
Ġ '
Ġd is
ic a
Ġtr ue
Ġpo in
Ġairl ine
Ġkitch en
Ġsever al
Ġsu r
Ġpl az
Ġro ll
Ġcas ual
Ġplaz a
c um
Ġth ai
Ġp ir
Ġli ve
Ġr y
ast ic
Ġtim ings
Ġking s
Ġt our
Ġs le
Ġf all
Ġ2 8
ition al
c ue
k es
p ool
Ġm at
Ġit al
um an
Âł and
be an
Ġexp ress
Ġw ow
tt e
a h
Ġle go
Ġcar ib
Ġcarib bean
ou se
Ġb ill
Ġreg ular
emp or
Ġfig ures
x ic
Ġb ring
Ġdepar ts
empor ary
Ġb oy
Ġbe ans
Ġfirepl ace
Ġhy att
Ġpir ates
1 1
Ġb ud
Ġal ong
Ġcom es
Ġcoffeemak ers
i am
Ġp ea
Ġare as
Ġhi dden
lo g
as y
Ġd isco
ar s
ar t
Ġne are
Ġno pe
Ġpar is
Ġlea d
Ġsw ift
Ġchr ist
Ġneare st
Ġdo cum
Ġshut tle
Ġital ian
p ire
on i
st yle
Ġat t
Ġj ul
Ġ2 7
Ġdr ury
Ġshowing s
Ġsa us
Ġfollow ing
Ġm ichael
Ġcont emporary
Ġtenn is
m a
n ge
Ġme xic
id es
Ġclass ic
5 00
e ver
er ia
Ġh ard
Ġp ass
Ġgre ek
Ġhigh er
Ġc able
Ġb on
Ġd am
Ġsp ace
Ġas k
Ġdid n
Ġph one
u ff
Ġh ead
el s
Ġe gg
Ġe vil
Ġmu m
Ġph o
Ġfant astic
fort un
av es
Ġpepp er
Ġbarbe cue
Ġo sc
Ġs our
Ġb our
Ġr oo
Ġmo on
Ġterr ace
m s
Ġs ale
lo tte
Ġpr ic
Ġchar lotte
Ġs en
ag es
Ġrel ax
Ġcomp le
Ġham pton
g ant
i th
k i
o st
Ġp ac
et t
Ġst e
Ġtr ack
Ġbar s
Ġarri ving
Ġspe cial
2 2
w ood
in ce
Ġf ight
Ġg e
Ġmy ster
Ġpro b
Ġlou nge
Ġcapt ain
Ġry an
Ġb ath
or d
vi t
Ġch an
Ġgre en
Ġco tt
Ġun fortun
Ġcontin ental
Ġprob ably
j i
Ġse pt
Ġ2 2
Ġartist s
pt ion
Ġle g
Ġcrit eria
Ġele gant
Ġpho en
Ġm ater
urn s
ress ing
Ġkid s
Ġunfortun ately
Ġphoen ix
Ġmater ial
y s
Ġw ind
Ġpr op
Ġsp lit
Ġcom pl
Ġdrink s
Ġsale m
Ġw is
Ġm a
am ed
Ġsa fe
ud i
Ġyear s
i ar
Ġp ay
Ġp ork
Ġj ames
Ġex act
Ġseat ing
Ġb ro
Ġ2 6
ket ch
Ġbo ss
ig n
Ġpossi b
bo dy
Ġbur gers
Ġincl ud
ert ain
Ġdri ver
Ġpoin t
Ġ ketch
ad ed
con s
Ġsp ot
ath er
Ġfamil iar
Ġkitch ens
Ġlink in
Ġpast a
Ġketch up
Ġc up
Ġl as
Ġp leas
Ġho ping
Ġon es
Ġso on
Ġpool s
Ġmed ium
Ġjul y
Ġt ac
Ġd an
ct ion
Ġe ver
be at
Ġpo t
Ġdi et
Ġoffer s
Ġac cess
ict ion
p s
Ġsu n
Ġfe m
Ġadd ed
Ġdist ance
Ġcompl im
o c
Â ´
Ġs ch
Ġty pes
ip s
Ġlod ging
Ġhapp y
Ġhan ks
Ġcomplim entary
i est
Ġs at
le y
Ġpo l
Ġfeat ures
Ġmicrow aves
ty ard
Ġwis cons
Ġwiscons in
l ing
u gh
v in
Ġm c
Ġli gh
Ġre lease
so l
Ġcour tyard
Ġfriend ly
Ġdocum entary
Ġfem ale
o le
Ġf if
Ġd ressing
Ġch ap
Ġem b
Ġquest ion
Ġsept ember
Ġf lo
Ġc ree
vi de
ge ther
Ġtr ad
Ġpro vide
ert y
Ġgard en
Ġosc ar
Ġprop erty
Ġpleas ure
Ġchap ter
Ġto gether
Ġup beat
Ġsaus age
Ġpossib ly
Ġwh ite
Ġr a
Ġab sol
Ġdri ve
Ġd en
co l
g on
Ġp g
it es
Ġsuggest ions
Ġcinem a
Ġo ct
Ġw all
Ġf t
Ġre al
ea k
ut ely
Ġmoment s
Ġjo lla
Ġsci ence
Ġfant asy
Ġsco re
Ġabsol utely
Ġm ight
Ġl am
en gers
al s
Ġbow l
Ġearl iest
Ġdram as
Ġcost s
ert ino
uman ji
Ġa ust
Ġj umanji
Ġsp ider
" .
b ur
Ġs ele
Ġm ur
Ġin st
Ġwi fe
Ġlet tu
Ġco kes
qu e
ni e
Ġinter n
Ġba con
Ġac c
Ġreleas ed
Ġcup ertino
Ġlettu ce
Ġo m
Ġs ite
Ġf iction
Ġwh irl
Ġst uff
Ġse en
ent ion
Ġch ange
Ġen d
Ġgr oup
Ġchr is
p ic
Ġm ax
Ġvi ll
Ġmus h
Ġdec or
Ġhist or
friend ly
gr aded
Ġcott ages
Ġpot ato
v el
Ġo pen
Ġm ix
Ġb urns
Ġbe ast
Ġres ident
Ġunder st
Ġsqu aw
Ġplan et
Ġpac ific
Ġcree k
Ġmush room
Ġm ile
ke y
ed d
Ġme at
Ġal ien
Ġup graded
Ġbill y
Ġdam on
Ġmum my
x x
Ġm att
Ġl ond
Ġaust in
Ġlond on
2 3
s y
Ġ ass
Ġc row
Ġmon day
Ġbud get
Ġrelax ed
s u
ant s
Ġon ions
Ġpl aces
Ġen ough
Ġri ver
Ġkings man
Ġpea ks
Ġom ni
2 7
re at
or der
Ġbeach front
Ġcar s
Ġdescri be
Ġfur ious
Ġs on
th ur
Ġch in
Ġfr idges
Ġprefer red
Ġget ting
Ġpepper oni
Ġtrad itional
Ġwhirl pool
l ight
s ized
Ġf ate
Ġm atch
Ġd ream
ll y
Ġtr ain
az z
Ġfin al
Ġstre am
Ġgyro s
b ed
b all
k a
an e
er a
ad venture
Ġact i
ag n
Ġfri ed
Ġsen i
in er
ve mber
Ġda vid
l in
u es
Ġno vember
Ġar thur
Ġagain st
ft op
Ġnor th
Ġroo ftop
u th
Ġ our
Ġt ur
Ġf an
or ge
Ġj ones
Ġj azz
est er
Ġey es
Ġ ent
ass y
Ġf ac
Ġf ish
Ġc u
Ġst ra
Ġst one
ur day
Ġtr ans
Ġcon s
Ġla und
fin ed
Ġbr own
Ġind ian
Ġlaund ry
c y
r ated
u nt
Ġf ast
Ġg rill
all ey
Ġbar b
Ġsof a
Ġpa id
Ġsat urday
Ġemb assy
l if
s es
an g
Ġc ame
Ġre ce
Ġlo gan
Ġcom mer
Ġca ge
iss ance
Ġte as
Ġjack son
Ġsele ct
Ġcommer cial
e z
f o
on a
Ġre y
ation al
Ġwatch ing
Ġv alley
na issance
Ġsandwich es
Ġsof as
Ġpet er
Ġmur der
4 00
f k
Ġt ak
Ġm en
Ġm id
Ġl ake
Ġj fk
if r
Ġmin ifr
Ġun ion
Ġdes ks
Ġcr ime
Ġfriend s
way s
Ġi d
Ġo re
Ġm r
il ity
Ġ5 0
Ġv is
Ġexact ly
o ber
an der
Ġt ill
at ing
Ġp it
Ġmo ana
Ġst ation
Ġch arl
Ġ2 9
Ġsh er
Ġloc al
Ġus e
Ġsum mit
Ġbel ie
o bo
p ants
r am
Ġth or
Ġh and
Ġn amed
Ġwh y
Ġco l
Ġco lor
Ġmeet s
Ġed ge
Ġbel ow
Ġran ch
Ġoct ober
Ġchin ese
Ġore gon
s a
Ġm ention
Ġl ady
oo t
il i
Ġj our
im um
ad a
Ġstar ts
Ġmar s
Ġim p
Ġunder pants
Ġpass engers
Ġbon obo
Ġfif th
Ġunderst and
Ġc ry
Ġc ertain
Ġl ow
Ġg lo
Ġdo ing
Ġj ason
Ġmar ket
for d
Ġquarter s
com ing
Ġbeaut y
Ġminifr idges
h our
l ed
v d
Ġt it
Ġy et
Ġc am
Ġp ad
Ġameric a
Ġser ving
Ġmoon light
Ġbarb ara
b ar
c as
c ent
i el
i ent
at on
Ġm ill
Ġp ower
ch ester
Ġv o
Ġsal t
Ġr ib
Ġre naissance
all ica
Ġrequest s
Ġge orge
v ed
Ġs av
Ġf ore
Ġl ate
Ġb rit
ic y
Ġse a
Ġhear t
Ġtub s
Ġmet allica
Ġmexic an
Ġligh t
g in
Ġt ree
Ġs am
Ġf re
Ġl ub
en a
Ġon ce
ent y
Ġch ips
Ġch ili
Ġshow s
ens ive
iam i
vit ies
Ġwind ow
Ġacti vities
p m
Ġw ood
Ġg ame
en ces
Ġst ate
Ġe at
Ġk ill
op h
Ġstar ting
un o
Ġx xx
Ġanim ated
Ġcomple te
p le
Ġ es
Ġs us
Ġw in
Ġpart y
bo ck
Ġx ander
Ġfly ing
Ġmyster y
Ġjour ney
Ġlub bock
l er
m ing
r ise
Ġm iami
Ġd ish
Ġn ood
Ġorder ed
ber g
Ġhigh ly
Ġlayo vers
Ġrun ner
ric s
h ouse
u ck
an k
or n
Ġsee ms
un k
Ġpe ps
Ġoffer ed
Ġca pe
Ġsuggest ion
Ġmiss ion
Ġpric ing
Ġleg end
2 8
b on
w atch
ist ic
Ġs ix
Ġl ed
Ġcom fort
Ġstra ight
v is
z z
Ġ ant
er ve
Ġro b
Ġorder ing
Ġco ach
Ġother s
Ġpo sh
Ġbr uno
vent ion
Ġexp ensive
Ġlu x
Ġdepart ure
Ġchan n
Ġsher aton
2 4
o log
s p
Ġs om
Ġto wn
Ġhi ll
br idge
Ġcour t
Ġcr u
Ġwalk ing
Ġcount ry
Ġsou th
Ġa udi
Ġs lo
Ġp an
Ġp ort
Ġd est
Ġr ough
Ġbe y
Ġst eak
Ġse ven
Âł h
Âł i
Ġap es
Ġcre am
Ġroll s
Ġbath room
Ġseni ors
as is
Ġme m
ell ow
Ġtim ing
Ġlo st
Ġsing le
Ġhist ory
i ke
Ġo asis
Ġs it
Ġs ides
re t
Ġb b
Ġbe ing
Ġj ac
Ġro y
Ġstay bridge
Ġaw ard
Ġem pire
ven ant
one y
Ġbu ild
Ġte ch
Ġbeat les
Ġpeps i
an y
Ġo wn
Ġb er
Ġd uring
Ġli ter
un g
cl ass
Ġa ri
Ġh ea
Ġm ach
el le
Ġcon do
Ġpo lit
Ġap art
Ġbl ade
Ġbur ger
Ġchann els
g en
w or
Ġt een
Ġi ced
Ġp sy
Ġwi ld
Ġre fined
Ġpl enty
ir k
Ġqu ite
Ġrent al
Ġbay watch
Ġbrow s
Ġnomin ated
Ġdisco ver
re s
Ġf air
on na
Ġse ason
Ġsh all
Ġpre m
Ġpo ke
Ġcar ol
Ġnon e
Ġsal sa
Ġcre ed
Ġlod ge
Ġreserv ation
Ġsle ep
Ġvo ice
Ġrib s
Ġbb q
r al
us h
Ġs il
om en
id ence
fer ence
Ġar ch
Ġ3 1
Ġsay ing
Ġgrand e
Ġbour ne
Ġlas ag
Ġaudi ence
Ġpsy ch
2 6
Ġr ad
Ġro chester
Ġde al
Ġbo ttle
ig ner
Ġbu ff
Ġmon th
Ġdin ner
Ġglo be
r is
r ict
Ġg i
Ġg un
st ream
Ġsu b
Ġhe ated
Âł the
Ġcon ference
Ġanim ation
Ġcrow s
Ġmention ed
Ġcarol ina
u ard
v o
Ġh ur
Ġs ir
Ġs ac
Ġp ie
Ġis n
it z
Ġst yl
Ġgo es
Ġk ab
Ġcre pe
fr idge
Ġbeaut if
Ġtour s
Ġintern ational
i que
Ġl y
Ġb out
ar ok
Ġr agn
Ġcan n
Ġst ops
ct or
im p
Ġpre s
Ġsp icy
Ġcon vention
Ġmus e
Ġbo b
star s
Ġwork ing
Ġmon ster
Ġmain stream
Ġrece i
Ġragn arok
2 9
f ic
r on
s ling
u ki
Ġit iner
st al
ir ls
Ġ20 16
Ġex erc
Ġlat in
Ġearl ier
Ġnomin ations
Ġbeautif ul
Ġitiner ary
% ,
o ld
Ġs ara
Ġs oph
Ġg h
Ġg irls
Ġd ies
Ġhelp ing
Ġpl at
Ġgo d
Ġsome body
Ġgreat est
Ġjust ice
ul t
Ġle e
Ġres idence
Ġsend ing
Ġsm ith
Ġsund ance
Ġfun ny
Ġrem ember
Ġcount ing
Ġreserv ations
Ġbour bon
Ġbelie ve
8 0
a pe
i ed
Ġt al
Ġt urn
Ġth ur
Ġc ast
Ġc atch
Ġn ick
Ġr ich
st ic
Ġgo sling
Ġch edd
Ġ1 00
Ġen g
Ġco venant
Ġbr idge
Ġsun ny
Ġlam b
Ġslo pes
Ġkab uki
Ġexerc ise
Ġchedd ar
3 7
y nd
Ġth reat
Ġw ale
Ġf et
Ġm ac
Ġm ag
Ġor land
ent o
Ġup lif
Ġap olog
Ġloc ations
Ġlu cas
Ġfirepl aces
Ġcritic s
Ġdescri ption
Ġpat i
Ġsur vi
Ġmat ter
Ġtur key
Ġcry stal
Ġuplif ting
Ġt ri
Ġb attle
Ġn ir
Ġhow ever
Ġst ud
Ġj oy
Ġco ll
Ġde ep
ac am
Ġ9 3
Ġhome coming
Ġgen er
Ġtrans form
Ġlasag na
Ġstyl ish
Ġorland o
g est
m as
n es
r u
r id
v ana
ist er
Ġthe at
el d
Ġis land
Ġin c
il ities
Ġare n
Ġro se
Ġwant ing
Ġlo ver
Ġgu acam
tim e
Ġcour ts
Ġfavor ites
Ġhar mon
Ġve get
Ġste ven
ram ento
Ġsac ramento
Ġguacam ole
6 0
l ess
m al
s day
t ree
v ely
w ater
Ġs ally
Ġw ine
Ġm er
Ġb en
Ġany where
Ġe ast
Ġsh r
Ġu c
ake d
Ġbo ston
ber t
ian a
Ġsw im
Ġhar ry
Ġstr ange
Ġbrow nie
ugh ter
Ġsav ing
. ?
c ar
er man
Ġi ce
Ġs ince
ed i
Ġmo t
Ġsu ch
Ġhi p
Ġsh op
ck t
pe ct
Ġcon d
Ġex per
Ġdouble tree
Ġpa ul
Ġchrist mas
su ite
Ġvis it
b ack
h am
an na
Ġg arl
gh ett
Ġwith out
Ġsh ad
Ġenjoy ed
Ġnew est
Ġwe b
ain s
for ward
Ġcre ation
Ġz oo
Ġrel ish
Ġdist rict
Ġpol ice
Ġsom et
Ġbey ond
Ġmach ine
ghett i
7 5
i k
z el
Ġt re
ou ch
Ġp ant
Ġha ving
Ġor ig
Ġplay s
Ġpr ince
Ġco ckt
Ġvi a
Ġlisten ing
Ġspa ghetti
Ġcru ise
Ġbathroom s
Ġbout ique
Ġmuse um
Ġharmon y
v ale
Ġc le
Ġc ate
Ġd vd
Ġr idge
Ġall ow
Ġpr in
Ġco ld
um e
Ġad ele
Ġlea gue
Ġmad rid
Ġoff ic
Ġrecent ly
Ġfur ther
Ġsch ool
Ġden ver
Ġstraight forward
wor ld
Ġly rics
Ġsunny vale
Ġgarl ic
Ġorig in
c an
p od
Ġi pod
Ġon ion
Ġre ad
Ġj am
Ġco lle
Ġcom m
Ġkn ight
Ġde ath
ack s
Ġfin ally
Ġclos er
Ġdec ide
Ġbow ie
Ġmexic o
Ġinclud ed
Ġtac o
Ġinst ead
unk irk
istic ated
Ġbuild ing
Ġthur sday
Ġshr imp
Ġcate g
r op
t in
w er
Ġw ent
Ġw omen
Ġf ace
Ġd unkirk
Ġst ick
Ġj im
Ġfind s
Ġv in
Ġdr ake
ro ss
Ġpro vid
Ġfit s
pp ed
ren ce
Ġcas a
Ġsec ret
Ġhistor ic
Ġbrit ish
Ġbrows ing
Ġsoph isticated
Ġtransform ers
g a
u el
z y
at ive
Ġli ves
Ġdo cks
Ġat l
Ġsome one
Ġad am
Ġvi r
ac y
Ġ9 0
Ġpo st
Ġfran k
Ġjo el
Ġsim ple
Ġbl ue
Ġocean front
Ġcheese bur
act ress
Ġfac ilities
Ġgun s
9 0
c c
l t
m es
m en
u x
in ing
il t
il ad
Ġe ater
Ġe vent
Ġwill iam
Ġco vers
Ġla x
Ġres erve
Ġfran ce
Ġjun gle
enn y
Ġjohn son
Ġed ward
Ġgh ost
Ġpati os
Ġnir vana
3 3
j o
v ol
Ġh on
Ġf ut
Ġf ather
on y
Ġin fo
Ġr itz
il y
Ġj edi
Ġro ses
Ġal as
ast er
Ġsp ir
Ġmar ble
em y
Ġdes igner
Ġcr own
Ġhim self
Ġbig gest
Ġstr ong
pen se
log y
bed room
Ġsus pense
Ġtech no
b ers
m ore
Ġc i
Ġp as
es ar
Ġwhat ever
Ġal ways
un e
Ġbut ter
15 9
Ġim ag
Ġlisten ed
Ġwait ing
Ġsn atch
ett es
Ġhistor ical
Ġcu is
Ġbuff et
Ġswim ming
' .
h a
o on
p end
Ġ ver
Ġs ort
re ady
Ġb right
Ġr am
Ġr ap
Ġal ready
Ġsh ack
Ġjust in
Ġco co
Ġloc ate
Ġadd itional
Ġunder world
Ġbr ad
Ġamaz ing
Ġda ughter
Ġgard ens
Ġreleas es
Ġkitchen ettes
Ġboy s
Ġask ing
Ġpric ed
Ġpol ished
Ġden zel
Ġvill age
Ġass ass
Ġroy al
Ġdies el
Ġalas ka
Ġtechno logy
. "
Ġs ized
re frigerator
Ġp ow
Ġp ub
Ġse th
Ġde m
Ġfe e
Ġem ma
Ġwho le
Ġca fe
Ġlouis iana
Ġperform ed
Ġlu ck
Ġrun ning
Ġey ez
pire d
oc ado
Ġpolit ical
Ġtheat re
Ġcuis ine
4 6
d u
l ine
m are
Ġh unt
Ġs y
Ġp ier
Ġb an
Ġb ell
Ġd ance
en ue
Ġfor ward
ic s
al a
al y
lo ck
Ġsh ort
Ġnight mare
Ġmin imum
Âł s
Ġcur ry
Ġjohn ny
Ġsk y
Ġvill as
Ġselect ing
Ġcondo s
Ġjoy ner
Ġcockt ail
Ġprin cess
Ġvir gin
ou stic
Ġf le
Ġm ass
Ġin s
Ġr ace
Ġro gen
Ġlo b
Ġ7 0
Ġla w
Ġgu ys
pl ace
Ġjo b
Ġca esar
Ġher o
Ġbu ble
aw ay
Ġchic o
Ġear th
Ġdark est
Ġtea m
Ġinclud ing
Ġflo or
Ġpit t
Ġprem ium
Ġpant her
h ip
m os
u zz
y ing
an go
Ġo per
Ġb all
Ġd j
Ġin t
Ġwh e
Ġr ise
Ġor ange
Ġdo ll
Ġro ad
Ġel l
Ġsp iel
Ġ4 2
um p
Ġmar vel
Âł m
are nt
Ġpick les
Ġdiffer ences
Ġle ar
Ġsa ve
fri ed
Ġpepp ers
Ġsn acks
ign ed
Ġmeat ball
Ġcons ider
Ġcharl ie
Ġtit le
Ġcann ot
Ġapolog ize
Ġcond ition
Ġfut ure
d es
re on
Ġp itch
Ġd ew
om ic
Ġha ll
Ġbe an
Ġdo ctor
ent s
Ġj en
Ġ4 0
Ġmar k
Âł it
Ġbo dy
Ġex ce
Ġwar m
Ġchea per
Ġpull ed
omm od
Ġhit s
Ġmyster ious
Ġacc ommod
Ġhand ful
Ġcateg ory
Ġspiel berg
i ble
u cks
v y
an u
in ch
Ġm all
Ġl ine
Ġp in
Ġd yl
th ouse
Ġho st
Ġst ore
Ġat mos
Ġe pic
Ġsh ape
Ġshow man
Ġbar ry
Ġqu in
Ġ8 0
Ġca p
Ġac oustic
Ġmet reon
Ġgirl friend
Ġdyl an
Ġatmos ph
b or
w ork
z ona
Ġd ur
om a
Ġn at
Ġfor go
Ġha w
Ġhelp ful
Ġfr ont
Ġk ra
Ġ4 7
ull y
Ġbl ood
Ġmak ing
Ġmak ers
Ġdead pool
Ġdream s
Ġtak es
Ġjac uzz
Ġari zona
Ġsomet ime
Ġlob by
$ .
m e
Ġ .
Ġo b
Ġw ed
Ġm oney
Ġp il
Ġst udi
Ġor ient
Ġany one
Ġk iss
am o
Ġsp an
Ġsp ell
Ġmu lt
pl ay
ill a
Ġlimit s
ap s
19 7
Ġdisco vers
Ġma j
Ġplat ter
4 7
f re
r ick
in ation
re st
Ġp ian
Ġp ict
Ġb aked
Ġd u
Ġmo ther
Ġbe g
it al
Ġplay ed
Ġso l
Âł is
ag on
ab les
ne ct
Ġfeel ing
Ġsl ow
Ġsn ow
Ġassist ance
Ġhead s
Ġsnatch ed
Ġquin ta
Ġstudi os
6 00
c arl
d a
e ves
k ing
r ist
r ay
Ġh um
Ġm as
Ġm ail
Ġb ird
Ġr h
Ġre eves
al ity
Ġany time
Ġe qu
op her
Ġrat her
ak ing
Ġfound er
Âł th
iz es
Ġdiffer ence
Ġjo e
Ġke vin
wh at
Ġfeel s
Ġpurchas ed
Ġrem ind
Ġsl ower
Ġstream ing
Ġnood le
Ġgener al
carl ton
3 9
r in
er an
Ġa le
Ġh en
Ġy o
Ġy ellow
ar f
Ġwh it
ow s
Ġst or
Ġal amo
ver n
ther n
ak i
Ġpar mes
Ġ20 49
Ġcent ral
Ġbo tt
Ġbo ard
Ġspecific ally
Ġdes pic
Ġmon ica
Ġz e
fr idges
Ġter ri
Ġsing er
Ġhapp en
Ġroll ing
Ġatt ra
Ġdecor ated
Ġsit ting
Ġlear n
Ġjacuzz i
Ġparmes an
Ġdespic able
3 8
b l
c ing
e x
v a
Ã ©
Ġs q
Ġw rit
Ġf urn
en cy
Ġli br
Ġr ings
Ġbe e
Ġe ur
lo ss
ut ion
Ġco ast
Ġco loss
av en
Ġcl am
os ed
Ġalbum s
Ġserv es
aw n
Ġke anu
Ġdel ight
Ġcomple t
Ġmax imum
Ġpower ful
Ġmag ic
Ġatmosph ere
3 50
8 00
b ell
c ount
g ed
g uard
l ook
o b
o ff
p y
Ġ er
Ġt am
Ġt ues
Ġth ous
Ġa ver
us s
Ġh uman
Ġc ure
Ġc ab
Ġr ust
Ġha cks
Ġre ach
ri es
Ġpr att
Ġout side
Ġav enue
Âł w
ain t
ab ility
pp el
Ġmak es
Ġshe eran
Ġchrist opher
Ġintern et
Ġsea f
Ġwood s
Ġnood les
Ġaward s
Ġber lin
Ġrad io
Ġban ks
Ġbeg ins
Ġlibr ary
Ġcoloss al
Ġtues day
Ġthous and
Ġhacks aw
5 8
a im
b ilt
c lock
i et
o or
Ġ ?
Ġa ge
ist s
Ġo p
Ġs ail
Ġf act
Ġf oot
Ġm ale
Ġc ard
Ġl in
Ġb ri
Ġfor mer
Ġli l
ed y
Ġj u
Ġch ance
Ġal m
Ġco ca
Ġtr a
Ġget s
ach el
Ġlist ed
ol is
Ġreg ency
ta ct
Ġdes ert
Ġsou thern
Ġdan ger
Ġcolor ado
Ġseason s
Ġspir it
Ġassass in
Ġmeatball s
Ġze ppel
Ġzeppel in
a f
d le
l aw
p ed
Ġ 0
Ġt emp
us ion
Ġs ister
Ġc ash
Ġb ag
Ġwh arf
Ġj et
end ed
Ġcon tact
Ġv ud
ain ing
Ġmusic al
ry an
Ġap pe
Ġbl ink
Ġwest in
Ġrel ations
18 2
ins pired
Ġtac oma
Ġdish es
nes day
des igned
Ġwed nesday
fre do
Ġseaf ood
d i
f ully
g ar
h aps
l a
p a
r ite
t r
Ġ ,
Ġt ouch
er y
Ġa er
Ġa ud
Ġi ll
Ġf and
Ġb ould
Ġd ave
Ġho p
Ġfor t
Ġfor ces
Ġmo lly
Ġch ow
Ġal fredo
Ġper haps
ad ena
op e
if y
Ġco le
Ġcom ic
ine e
Ġmar ri
Ġkn o
Ġcl ar
iz ing
Ġview ing
Ġdirect ions
Ġ19 7
17 9
ca pe
Ġsco tt
Ġid ent
Ġlux ury
Ġsil ver
Ġweb site
Ġpas adena
Ġaver age
Ġvud u
Ġrelations hip
Ġbould er
a e
b it
f s
i ki
m ark
r ison
u er
Ġt and
Ġw et
Ġto wer
Ġg ro
Ġg ift
Ġg ang
Ġfor get
il ing
Ġsu pp
der s
Ġ2 00
Ġal amed
Ġknow n
ort s
Ġman h
Ġfe b
co ver
Ġle ft
Ġguard ian
rio ts
Ġwor d
Ġblo ck
Ġvan der
Ġcomp any
Ġthough t
Ġvol ume
Ġpat riots
Ġsou l
Ġsle ek
vit z
Ġent ertain
Ġfast er
Ġfore st
Ġteen age
Ġpsych o
Ġoffic ial
Ġorigin al
Ġcheesebur ger
Ġwilliam s
Ġkra vitz
Ġtand oor
Ġalamed a
5 9
b ook
d am
e pl
Ġt en
Ġf oo
Ġc ra
Ġb es
Ġg ar
ar ies
Ġli f
Ġli ft
al i
Ġne cess
Ġst ates
Ġk ung
Ġtim ber
Ġ9 2
em pt
Ġsw iss
Ġus ed
Ġcas ino
her o
Ġbro ther
Ġfish erman
Ġid ea
Ġcharl es
vis ion
Ġport land
Ġrecei pt
Ġshad es
Ġhon or
Ġdur an
Ġvander bilt
Ġtandoor i
epl ess
b a
b re
g y
h ead
l son
t own
z en
Ġh u
at i
Ġc op
Ġp arent
Ġb are
on de
Ġfor ced
Ġr ain
Ġmo d
Ġre fried
Ġst ep
Ġst ones
am a
Ġso ld
Ġsp y
Ġtr ucks
Ġget away
Ġvi lla
Ġgu y
fi eld
Ġwork out
Ġbl onde
Ġgl ass
Ġtalk ing
Ġz ac
Ġsuper hero
Ġkings men
Ġsle epless
Ġtak ing
Ġes cape
Ġmem bers
Ġhur t
Ġcomm un
Ġeater y
Ġalm ost
4 8
9 5
b and
k n
p on
v an
Ġ est
Ġt ele
Ġa ve
Ġh d
Ġs ia
Ġw at
Ġl ing
Ġan n
Ġto ny
ar ian
Ġre ason
Ġme gan
Ġbe gin
st ers
Ġj on
ur b
Ġpr om
Ġar my
Ġen ch
Ġhas h
Ġwas n
Ġmar oon
Ġde vil
Ġgu it
ta ge
Ġserv ices
Ġus ing
Ġsm ur
Ġthrill ers
ip le
Ġmet ro
Ġuser s
Ġpizz as
Ġed ison
ster dam
Ġdead ly
ok ay
Ġbedroom s
Ġmountain side
Ġson s
Ġcolor ful
Ġcertain ly
Ġfet tu
Ġveget able
Ġmult iple
Ġpict ure
Ġmas ala
Ġterri fic
di rect
1 49
4 2
k ins
r ong
r um
Ġt us
ist ro
us band
Ġh usband
Ġs ad
Ġw edd
Ġf ist
Ġb ir
Ġb orn
Ġg ary
om b
Ġon line
Ġit self
Ġwh ose
Ġbe come
Ġgo vern
ct ions
Ġsh ell
ell y
by rin
Ġco les
Ġtr uth
ak es
Ġavail ability
Ġperfect ly
Ġman il
Ġla byrin
ain ed
Ġqu ick
Ġdi ana
Ġbl ues
Ġcour ses
Ġparticular ly
Ġreg ard
Ġbr is
Ġdown s
12 9
Ġdel ux
Ġcas e
Ġve g
Ġstart ed
Ġbring s
Ġapart ments
Ġedward es
Ġci vil
Ġfand ango
direct or
Ġcoles law
Ġlabyrin th
Ġdelux e
1 45
i ence
l ake
l ie
w in
y on
Ġs elf
Ġw ynd
at ic
Ġf u
Ġf are
Ġm el
Ġl ord
Ġan s
Ġto ld
Ġd ating
Ġho lly
Ġfor m
Ġli on
Ġin v
Ġcan yon
Ġre order
Ġany more
Ġj ay
Ġch ill
Ġro bert
Ġsh ops
ell ing
ck er
Ġsp eak
Ġv al
Ġv ict
Ġqu ality
Ġ8 5
Ġair ways
Ġun able
Ġmil k
Ġpal ace
ol i
Ġsw ord
Ġserv ed
Ġwar ri
Ġcr az
Ġblo cks
Ġser ies
Ġmum ford
Ġbro c
Ġlam ar
Ġcol on
cent er
Ġfre ed
Ġcolle ge
Ġatl anta
cc ine
Ġmaj or
Ġrust ic
Ġfettu ccine
Ġwedd ing
Ġmanil ow
Ġvict or
3 6
d ed
Ġ ast
is m
Ġi ron
Ġw es
Ġc ook
Ġl enny
Ġg ad
ar i
ar ing
ic ked
Ġmo ve
it o
it s
Ġpl ot
Ġch es
Ġel m
Ġk ate
Ġam y
Ġam ong
Ġam sterdam
ew ay
Ġas ked
Ġmar tin
Ġcon c
Ġem inem
Ġle mon
ag a
Ġbl vd
Ġcho col
Ġag ree
Ġweek s
13 9
Ġph ys
Ġcre w
Ġke y
Ġsalad s
Ġdark er
Ġsur f
Ġmat inee
col i
Ġwindow s
Ġhea ven
Ġhea vy
Ġpow ers
Ġspan ish
Ġentertain ment
Ġbes ides
Ġtimber lake
Ġtus can
Ġdowns izing
Ġveg as
Ġwynd ham
Ġbroc coli
1 25
h al
l ou
t om
y a
Ġ eric
Ġt une
Ġh und
el ic
or ies
Ġg as
Ġg ate
Ġg one
Ġg aga
Ġd ad
Ġr achel
Ġwould n
Ġal ice
est a
Ġmin e
end rick
Ġbre ath
Ġmar y
Ġde v
Âł pm
Ġv en
Ġ9 4
ni fer
Ġdr af
Ġ6 0
iz ation
up er
Ġreview ed
Ġlast ly
17 2
ia h
Ġmad onna
Ġcr aven
air s
Ġpea ce
Ġbath s
Ġtac os
Ġmc c
Ġfif ty
Ġcam p
Ġgi ven
Ġstick s
kn own
Ġwat son
Ġregard ing
Ġchocol ate
Ġhund red
Ġdraf thouse
1 20
c el
c ut
m ar
p ir
t ch
w ell
Ġt est
Ġs ign
Ġc oo
Ġp en
Ġp ink
Ġp ug
Ġho sp
Ġit em
Ġin de
Ġr u
Ġdo or
Ġat omic
Ġsu c
Ġch op
Ġk endrick
Ġsh are
ri x
Ġsp ain
Ġco zy
ul f
Ġprefer able
Ġdet ro
Ġhear ing
Ġplus h
em ed
par k
Ġher es
Ġbr uce
Ġover look
Ġter min
Ġcare er
16 9
Ġlag uard
Ġrem aining
Ġser ve
Ġnor mal
Ġcount y
ok ing
Ġflo rence
col a
Ġcrow d
Ġmatch es
lif e
Ġmid night
Ġshop ping
Ġluck y
Ġjen nifer
Ġyo ga
Ġattra ctions
Ġeur ope
Ġdanger ous
Ġclar ion
Ġident ity
Ġtele vision
Ġsmur fs
Ġpug et
Ġhosp ital
Ġdetro it
Ġlaguard ia
3 49
8 9
b ound
h anna
l ic
l ish
p re
p ose
s m
w est
Ġt a
er ry
Ġs fo
Ġw ish
Ġw ol
at ure
Ġm agn
Ġc ous
Ġl or
Ġp ap
Ġb ra
el ph
Ġg at
Ġg ave
th emed
Ġfor mal
Ġr ay
Ġhel l
Ġre iner
it ive
Ġne igh
Ġj r
Ġj ess
ea pp
Ġe ight
Ġsh el
Ġwill ing
Ġso da
fe e
Ġ3 4
un ch
Ġde f
Ġbreak ing
Ġart s
Ġsuit s
Ġpo s
Ġclass ical
Ġjo ins
att an
Ġsim on
20 9
Ġland s
Ġna an
Ġph ilad
Ġdepart ed
Ġpurchas ing
18 0
Ġri hanna
Ġbrow se
Ġchrist ina
Ġinst rum
Ġfac ility
cent ury
Ġtal es
Ġsurvi v
Ġsurvi val
Ġcondition ing
Ġpin eapp
Ġpian o
Ġbri ef
Ġtemp o
Ġmanh attan
Ġbir th
elph ia
Ġphilad elphia
Ġpineapp le
c us
g i
m o
n am
r av
w e
Ġ âĢ
Ġs ick
Ġw ings
re y
Ġm is
Ġc e
Ġc ut
Ġb istro
Ġbe h
al ito
Ġor gan
Ġj e
Ġj ud
Ġwant s
am eric
Ġen emy
Ġsp orts
Ġrat e
cond ition
ew s
Ġas ada
Ġtell s
ate ful
Ġ5 5
Ġres ur
Ġcar ne
cl aim
Ġac ross
Ġapp et
Ġmon sters
Ġcre ole
Ġpur pose
Ġseat s
Ġrecommend ations
Ġpat io
Ġrequest ed
Ġve vo
Ġsen se
27 9
Ġmill ion
Ġwin ter
Ġsil ence
Ġrecei ved
Ġexper im
Ġfle et
Ġforgo tten
Ġremind s
Ġcomplet es
Ġradio head
Ġguit ar
Ġcraz y
Ġvictor ian
Ġsuc cess
Ġcous in
Ġlor de
3 4
4 15
5 7
c er
o f
o ts
w alk
z at
z iki
is es
Ġo pp
Ġs el
Ġw age
in i
in y
Ġf a
Ġm i
Ġc ynd
Ġd om
oo p
Ġli es
Ġbe ck
it er
al ing
Ġper ks
ver se
Ġlo ving
Ġsp rite
and a
Ġ3 7
um b
Ġde pend
Ġup on
Âł f
av ocado
Ġcon st
Ġcon nect
Ġla uper
Ġcl ay
Ġspe ed
Ġevery body
Ġplan e
Ġexc use
Ġbas ic
Ġwater front
Ġdec is
Ġdis aster
Ġge es
Ġligh ts
Ġacc ident
Ġmid dle
Ġlegend ary
Ġfair ly
onna ise
Ġsara h
ilad as
Ġimag in
Ġlaw rence
Ġwhe ther
Ġpil ot
Ġkno cked
Ġtermin al
zat ziki
Ġcynd i
1 30
1 19
b oy
d in
e ct
g s
g al
j ust
k ra
o e
o ll
r oy
y ear
as era
Ġi i
Ġo ak
Ġw rong
Ġm ir
Ġm ia
Ġd all
en ed
om as
it ing
Ġyour self
st een
ion al
Ġch am
Ġal ter
Ġsh ak
Ġu t
Ġall en
Ġso cial
Ġ4 8
Ġ7 5
Ġcom b
Ġmay onnaise
ort on
Ġdr agon
up ac
ag ed
Ġlast s
Ġsw itch
Ġtrip le
Ġus her
Ġrepeat ing
Ġbas e
way ne
Ġsl ight
Ġri vi
Ġanim als
Ġrecommend ation
Ġcoffeemak er
Ġterr aces
Ġbring ing
Ġlead s
Ġsteak house
Ġari ana
Ġpie ces
Ġtal ent
Ġbell asera
Ġbody guard
Ġexce pt
Ġtony a
Ġgovern ment
Ġbeh ind
claim ed
kra ut
Ġdall as
7 0
h l
h an
h ow
i pp
i pped
l ike
m et
m ont
Ġt reat
Ġo w
Ġf at
Ġf ury
Ġp up
el lo
Ġg all
Ġn ine
Ġin ch
Ġr d
Ġr ome
Ġr ig
et te
al o
Ġj al
Ġpl ans
Ġal ive
Ġsh ake
Ġsh ot
ad ded
ut es
Ġco de
Ġpar am
Ġ4 5
Ġav ocado
Ġad vent
Ġde p
Ġ9 8
Ġdr ug
Ġpro te
Ġhome wood
Ġrent als
Ġtoo l
Ġjo in
Ġleave y
Ġaf ric
Ġag o
Ġevery one
Ġrec ru
Ġspring steen
Ġmet rop
Ġwor ked
Ġrel ati
Ġexp lo
Ġperform ance
Ġhope fully
19 0
Ġhit man
Ġchar act
und er
Ġele ct
Ġind ie
Ġsur p
art ney
Ġatt empt
Ġsaus alito
ost or
Ġwind s
Ġra e
Ġedge water
Ġdest ination
Ġinc red
Ġcle ar
Ġhen ry
bl ue
Ġjet blue
Ġling u
Ġholly wood
Ġinv est
Ġgad ot
Ġmcc artney
Ġcoo per
Ġresur rect
Ġrivi era
1 10
2 1
4 4
5 6
8 8
c ra
i ant
k y
l tim
n ic
t ed
u gg
an o
Ġt ah
Ġt zatziki
Ġt upac
er o
Ġw oo
re as
Ġf ab
Ġl is
Ġp ill
ay er
or a
Ġg erman
Ġd ine
Ġd wayne
ar le
Ġn ames
oo th
ic ide
le v
Ġpl ate
Ġch az
Ġfr o
Ġal one
Ġper io
Ġlet s
ak a
ter s
Ġcon vin
Ġpe ar
Ġcent ric
Ġdon nie
Ġex e
Ġex pl
Ġtrail ers
Ġreturn s
Ġund e
Ġjo sh
Ġjo lie
Ġun for
Ġun rav
Ġrec ord
Ġland mark
Ġcr ash
Ġac claimed
Ġph ill
Ġhor se
Ġlong er
Ġmet ers
Ġext ended
Ġcover ed
Ġrem ix
Ġdocum ent
Ġegg s
Ġdan cing
Ġpotato es
Ġseni or
Ġlux e
Ġhill s
Ġjac ob
Ġseason al
Ġrich ard
Ġthreat en
Ġmot els
Ġcle an
Ġprovid ed
Ġevent s
Ġchow der
uer kraut
Ġfreed om
Ġrelati vely
Ġchaz elle
Ġperio d
Ġunrav el
b ies
d ie
f ather
g n
g th
h ire
r ound
is le
is son
Ġa qu
Ġo il
Ġf ame
Ġb ull
Ġg row
Ġn ut
th m
vi e
vi ous
Ġre f
Ġhelp s
it a
st em
Ġany way
ail y
Ġe asy
Ġk elly
Ġal i
ir ty
ad emy
Ġu ltim
con tin
Ġlo vers
Ġtr ust
qu ent
ak er
Ġ3 00
Ġfree bies
Ġmar t
Âł p
Âł sh
Ġqu es
ub on
Ġsa uerkraut
Ġun ch
10 9
Ġgr ad
pp er
Ġvideo s
rill iant
Ġba ld
25 4
Ġke ith
Ġuni que
Ġangel ina
Ġchar ge
Ġri vers
Ġjack ie
Ġcontin ue
Ġnomin ation
Ġpoin ts
Ġfall s
Ġboy friend
23 9
Ġstud io
Ġveget arian
vol ution
Ġaccommod ations
Ġequ ipped
Ġwhit ney
Ġaud ubon
Ġnecess ary
Ġench iladas
Ġgat eway
Ġfleet wood
Ġunde fined
2 12
2 49
9 8
b el
b ast
h ood
i ac
j ac
m ile
o ke
o ver
o ssi
p or
v ich
y ou
Ġ era
Ġt urns
Ġth r
ist an
ist ence
Ġi de
Ġh un
Ġs in
Ġw al
re et
Ġm al
Ġm am
Ġm ild
Ġm ellow
Ġc ross
Ġl ines
Ġl ane
Ġp uth
Ġb i
Ġto n
Ġd aily
Ġn as
Ġfor ce
Ġr uth
vi oli
Ġre gg
et y
it led
ch ris
Ġst ri
Ġse bast
st reet
Ġch a
ur al
im in
Ġk ay
Ġgreat er
Ġsh y
ree p
Ġso ci
Ġar cl
Ġlo cker
Ġout bound
Ġnew ark
Ġrest ore
Âł a
Âł at
av oy
Ġpe arl
Ġcl a
Ġair y
Ġrent ing
Ġsa w
ab elle
Ġaf f
Ġsw ish
Ġsay s
Ġbr ick
Ġover night
Ġcont ro
Ġsk yl
Ġdirector s
Ġz oot
Ġway s
Ġcomp os
18 9
Ġey e
Ġfig ure
Ġlead ing
Ġdam ien
Ġroo f
Ġfight ers
Ġinclud es
Ġra violi
Ġpeter son
Ġimp ostor
Ġfore ver
Ġsam os
Ġcomfort able
Ġrad isson
Ġmer yl
Ġvisit ing
jo hn
Ġcrown e
Ġsy stem
Ġale x
Ġlearn s
Ġpsycho an
Ġbris as
Ġches hire
Ġdad dy
cut ive
Ġinde pend
Ġinvest ig
Ġexe cutive
Ġdocument aries
Ġbald win
Ġsebast ian
Ġarcl ight
0 8
1 99
6 9
c our
h il
h ill
h ole
i or
m ax
m ond
o in
r ane
s ome
s erv
t en
u c
Ġt una
Ġa vi
Ġa isle
Ġh ous
Ġs aint
Ġw anna
Ġf er
Ġm ess
Ġm ig
Ġm ental
Ġc it
Ġc ia
Ġc ult
Ġb ou
Ġb ass
Ġb ub
Ġb ike
Ġb rilliant
Ġan ne
Ġg ome
Ġg ab
on ard
Ġd c
Ġn ation
Ġn ational
ll ed
Ġr out
it i
al an
Ġst reep
Ġse x
st e
Ġpl ain
Ġch ina
Ġch ains
Ġno body
Ġro le
Ġe v
Ġk im
ad es
Ġu h
Ġu m
am alan
ut er
ut ch
Ġall an
if f
Ġlo v
ly rics
Ġcould n
Ġfi eld
Ġcon ven
Ġv oc
Ġ9 1
Ġwhich ever
Ġpick ing
Ġdi ary
Ġpro du
Ġadd ition
Ġjo vi
Ġcoffe es
10 2
Ġag ent
Ġbr and
Ġland ed
Ġfin est
Ġac res
Ġac ademy
13 6
Ġcont ain
Ġter ror
16 4
Ġlu cy
Ġsci ent
Ġdec ent
sh ip
Ġsuper bad
14 6
Ġpet ty
com es
Ġnor man
gr ound
Ġmat th
Ġbro ad
Ġmc avoy
Ġbeast s
Ġkill ed
Ġrob in
Ġdest roy
Ġmem ories
fic ult
Ġeng lish
Ġoffic er
Ġjam ie
Ġjim my
Ġrh y
Ġappe aling
Ġgift ed
Ġfoo tage
lou is
ĠâĢ ĵ
americ an
Ġsel ena
Ġslight ly
Ġafric an
Ġresurrect ion
Âłsh ow
Ġregg ae
Ġshy amalan
Ġgome z
5 1
5 4
7 00
g u
j am
k ish
l en
p ac
s ion
t an
t able
Ġt ables
Ġo cc
Ġm aster
Ġc at
Ġp ine
ing er
ing ly
Ġg ould
Ġd ying
th y
Ġfor d
ed u
Ġr id
Ġr ush
vi or
et s
se y
Ġsu ng
Ġpl ac
Ġgre y
ri b
Ġam ount
Ġ3 5
Ġpar ad
Ġav engers
Ġfe ars
Ġqu iet
Ġex pect
Ġpro cess
ill es
Ġinter contin
em ma
Ġjo ining
ig o
Ġgr ateful
Ġsqu ad
Ġaf ford
17 5
Ġbr ide
ash ion
Ġsc arle
Ġph il
Ġmon t
Ġcinem ark
Ġqueen s
Ġter ms
Ġfar m
Ġnum b
Ġran gers
Ġran ging
Ġtur kish
Ġimp ossi
Ġlow est
Ġtit an
Ġpan ic
Âłh ere
Ġpie ce
Ġplat form
Ġnick el
Ġtre nd
Ġadam s
Ġeater ies
Ġimag ine
Ġshort est
Ġfro zen
Ġconvin ced
Ġques ad
Ġruth less
rane an
Ġrhy thm
Ġintercontin ental
6 7
a vi
b al
i ers
l ict
m py
n ed
z ard
Ġt ax
Ġt ik
Ġa uth
Ġh oney
Ġo pe
Ġs f
Ġl ower
Ġp ush
Ġb ond
Ġb ones
Ġb ank
el ine
Ġan ch
Ġan na
Ġd ic
Ġand re
ic o
Ġwi mpy
Ġr ag
Ġre un
Ġme g
Ġme in
Ġbe comes
it an
il es
st ay
ent ial
Ġsu gar
Ġsu icide
Ġj ere
Ġch ose
Ġch airs
ur ious
Ġno on
id s
id ious
Ġsh ar
ell s
ce ption
ri el
Ġsp arrow
um a
Ġmar ina
Ġvi ol
Ġwe ez
Ġla id
Ġaw ak
are lla
Ġem ot
Ġem ily
Ġdif ficult
Ġpro f
Ġun known
Ġconf lict
Ġbl t
Ġdes per
Ġcr an
Ġsc ary
Ġsc ream
ap le
Ġsk ill
fl u
Ġbas ket
16 0
Ġstreet s
Ġstreet car
Ġsing ing
tle y
Ġsur round
Ġtour ist
Ġfall ing
Ġatt ention
Ġma ison
oc aly
Ġmax well
Ġcu z
Ġbrown s
Ġfre quent
Ġwin ner
Ġlux urious
Ġgod father
Ġturn er
Ġcoll ide
Ġinc reas
Ġcold play
Ġcheesebur gers
Ġpow ell
Ġdoll ars
Ġill ino
Ġbare illes
Ġoverlook ing
Ġeurope an
Ġbra ve
Ġexperim ent
Ġdecis ion
Ġpup p
Ġadvent ures
Ġskyl ine
Ġmig uel
Ġgab riel
Ġparad ise
Ġtrend y
Ġope th
. .
0 4
1 40
6 6
a ire
c al
d d
e bell
l i
l m
l Ã©
m ichael
n ich
z e
Ġ :
Ġt or
Ġt ast
Ġt ale
er m
er son
Ġo x
Ġw ea
Ġf ences
Ġm end
Ġm az
Ġl yn
Ġb ie
Ġan ni
Ġto pp
Ġg ames
on s
Ġd um
ar ium
Ġn ic
Ġand y
Ġli vely
Ġin f
Ġwi lson
Ġr ac
Ġr ide
Ġr uss
Ġre bel
Ġne il
Ġst ew
Ġj ose
Ġch uck
ail able
Ġro ast
ri e
Ġall ian
Ġtw in
Ġar k
tt ing
ul es
Ġnew s
ick s
Âł 7
Âł what
av ailable
Ġvi br
Ġman sion
Ġcl ara
Ġ6 4
Ġap ocaly
Ġinter view
Ġhigh way
Ġcar ly
bo ard
Ġfull y
Ġcr imin
Ġrequire d
Ġus ually
ap en
13 4
Ġsk ull
Ġdel i
22 9
Ġwall s
bur g
Ġmushroom s
Ġson esta
Ġfish ing
Ġmr az
Ġcol ony
Ġant ebell
Ġbey on
Ġstud ying
Ġcolle ction
Ġpub lic
Ġdem i
Ġsy m
Ġins idious
Ġdoll ar
Ġforgo t
Ġstor ied
Ġbott les
Ġcoast al
Ġann abelle
Ġans wer
Ġchop ped
Ġwol f
Ġappet iz
Ġdepend ing
Ġjal apen
Ġincred ible
Ġgerman y
Ġcit iz
Ġbub lÃ©
Ġimpossi ble
Ġweez er
Ġfrequent ly
Ġillino is
Ġbie ber
Ġantebell um
0 6
0 7
4 3
5 2
a ugh
d own
d ale
e ck
i ara
j ect
l aki
p ent
v laki
w ise
y d
y aki
Ġa in
Ġa ut
us ual
Ġs ist
Ġw ra
at ow
Ġm ich
Ġm itch
Ġm ike
Ġl ad
Ġb ab
Ġd ess
ar ily
ke ep
Ġand erson
Ġon site
ic ial
Ġli king
ed s
Ġcan s
Ġmo zz
Ġme ant
al ie
Ġst an
st ate
Ġsu pre
Ġj ord
Ġpl ates
Ġe p
Ġk ong
Ġam b
Ġlo ews
Ġsp in
Ġsp ies
Ġmu nich
qu es
Ġshow er
Ġas h
Ġ20 13
Ġad jac
Ġnot e
Âł $
Âł j
Âł by
Ġv ars
Ġdr um
Ġqu ill
Ġap pl
Ġap atow
Ġ8 40
Ġperson s
Ġex istence
Ġcor n
Ġkind s
ci ent
Ġim m
ish ings
Ġfran co
Ġoffer ings
ress es
ress ive
Ġun usual
Ġgr ab
Ġback street
17 0
go ing
Ġbu cks
Ġus ual
Ġsm ooth
Ġcre ature
Ġmet al
Ġrel ated
ious ly
Ġlu ke
Ġwater s
lit er
18 4
Ġdist urb
Ġsl aw
14 8
Ġbow ls
Ġactress es
Ġsou vlaki
Ġstr ugg
Ġput ting
Ġdis count
Ġosc ars
Ġmoon rise
22 2
Ġunderst ated
Ġent itled
Ġimp act
Ġsalt water
Ġfore igner
Ġant h
Ġcru z
Ġbrows er
Ġeng land
Ġprovid es
Ġvirgin ia
Ġfurn ishings
off icial
Âłw ith
Ġcard i
Ġlin ens
Ġfort une
Ġmarri ed
Ġparent s
Ġwarri or
Ġphys ical
hal f
Ġbreath e
Ġven ge
Ġcamp bell
Ġjud d
condition ed
Ġattempt s
Ġphill ips
Ġzoot op
Ġindepend ent
hil ation
Ġavi ara
Ġbroad way
Ġwea pon
Ġvibr ant
Ġmozz arella
Ġadjac ent
Ġvars ity
' ,
9 4
b ul
b ars
b orn
c ci
f ell
f oot
i ques
l ton
n on
n ers
u it
v ic
Ġt ort
is ing
is ed
ou d
Ġh om
Ġf ashion
Ġc ow
Ġc ooked
Ġl ew
Ġb ound
Ġb ryan
Ġb omb
el ess
or ter
Ġg ri
Ġg av
Ġg onna
Ġd ub
Ġd omin
en e
en der
ar on
ar io
th rill
Ġli ly
Ġr ick
Ġr ip
it ol
ch ez
al uma
Ġne ither
Ġhow ard
Ġst y
Ġst at
Ġat ri
Ġsu f
Ġj ur
ur a
ur ch
Ġk enn
Ġk rist
Ġal an
id ian
Ġsee m
Ġplay ers
Ġpre view
Ġpre vious
Ġar c
Ġrat es
icket s
Ġmy stic
Ġnew ly
Ġ7 1
Ġcom mon
ss on
Âł b
Âł t
Âł am
Ġcon cl
Ġman e
Ġman chester
son ic
Ġbar cel
pt ed
ack ers
Ġgu cci
Ġloc ally
ub ali
Ġpro g
ci ally
Ġsan chez
Ġjo vo
Ġgenre s
Ġun available
Ġlar ry
ile t
Ġdes p
Ġsc ors
screen s
Ġapp le
Ġover ly
Ġwa ve
Ġfam ous
Ġter i
Ġmic key
Ġway ne
Ġhar bor
Ġski ing
14 4
Ġcritic ally
Ġpet s
Ġpet aluma
air ie
Ġbud den
Ġchan ged
Ġleg acy
ather ine
ction al
Ġsch ind
Ġtrans port
Ġcons ist
Ġmarket place
Ġsus pect
Ġsouth west
Ġliter s
26 9
Ġbuff alo
Ġpres ident
Ġcast le
Ġben jam
Ġexper ience
Ġshad ow
Ġcap itol
Ġhaw th
Ġdu et
Âłth is
Ġreach es
Ġop ry
Ġfoot ball
Ġsupp osed
Ġbrother s
Ġhu ge
Ġsold ier
sm oking
Ġneigh bor
Ġorgan ization
Ġsuccess ful
Ġconnect ed
lev ard
Ġexpl or
Ġaqu arium
Ġcha os
Ġsoci ety
Ġrestore d
Ġlov ato
Ġgould ing
Ġnickel back
Ġquesad illa
Ġtik ka
Ġdesper ate
Ġbasket ball
Ġmend es
Ġanni hilation
Ġjord an
Ġdisturb ing
Ġzootop ia
Ġlew is
Ġgav in
Ġatri um
Ġjovo vich
Ġscors ese
Ġbenjam in
" ?
0 1
9 6
: (
a j
a ff
b b
b ill
d ing
d om
d owntown
d ington
f all
g ie
k en
r ano
s en
s ue
s yn
t ub
Â ¨
as e
Ġth under
Ġa ce
Ġh ilar
Ġh ush
Ġs izes
in ct
Ġf elic
Ġc y
Ġl enn
Ġl una
Ġp ul
Ġp icked
es is
Ġan cient
or ia
Ġto ilet
Ġd re
Ġd or
en ger
en omen
Ġn ach
Ġn syn
th o
th an
ic ious
Ġwi zard
Ġr ail
Ġr ack
Ġr ab
Ġr aw
Ġr unt
Ġmo tley
Ġre p
Ġre con
it ary
Ġst rip
st and
Ġdo om
Ġch erry
Ġfr ost
Ġab du
im es
Ġk y
Ġper ri
id ed
est ic
est one
Ġsh aw
Ġsh ip
am ond
op us
Ġso aking
Ġen count
Ġlo ved
Ġsp are
Ġtr op
ul a
ess ion
and y
Ġmar ley
Ġ10 1
Âł or
Ġvi be
Ġbreakfast s
Ġv ar
Ġbar t
Ġ9 20
Ġmusic ian
Ġbo tan
Ġ8 9
Ġpick up
Ġres pon
Ġcor por
Ġjo han
Ġspe ct
ire d
Ġmil itary
Ġmini bars
ol itan
17 4
ep h
Ġrec all
Ġameric as
Ġcr ue
Ġfin ish
13 5
Ġph enomen
Ġband s
12 7
Ġspring hill
Ġmiss ing
Ġdefin ition
Ġfo x
ph is
Ġind ia
Ġfollow s
Ġve gg
Ġbud dy
Ġdisco very
Ġrelax ing
Ġste vie
Ġcott age
Ġdan iel
Ġra ise
Ġra pper
Ġoct opus
Ġsele ction
Ġcu be
Ġselect ed
Ġvis ion
Ġbrit ain
Ġwin ning
Ġsix th
Ġdest iny
Ġteen ag
Ġgi ant
Ġpres ent
Ġthreat ens
Ġapolog ies
Ġmer idian
Ġedward s
Ġram ada
Ġheads et
Ġale c
Ġmod est
Ġreason able
Ġitem s
Ġshel ter
Ġinstrum ental
Ġsurviv ors
Ġbeck y
iter ranean
Ġprote ct
Ġwinds or
Ġlingu ine
Ġali ens
Ġgrad u
Ġide al
Ġbou levard
onard o
ste in
Ġprof ess
Ġincreas ingly
thrill er
Ġconcl usion
Ġbarcel ona
Ġteri yaki
Ġschind ler
Ġtoilet ries
Ġnsyn c
Ġrab bit
Ġrunt ime
Ġabdu ct
Ġjohan sson
" ,
9 00
b ender
c in
d ome
d ining
f ree
g m
h ar
h ear
i vid
l ive
m ith
m aker
o h
o ath
o tting
r ac
s el
t op
u be
v ada
Ġ [
Ġ urb
an gle
Ġt ar
Ġt able
Ġt rio
Ġth ug
ist ance
ass ic
ass bender
Ġy en
re ll
re ck
Ġm ou
Ġm oo
Ġc in
Ġc ath
Ġl ang
Ġp ack
Ġb un
Ġb one
el and
ing o
Ġd awn
Ġn y
Ġho ll
ke vin
Ġin fer
Ġin ception
Ġin flu
Ġr ai
Ġha len
et ickets
Ġmovi etickets
Ġne vada
Ġst aff
Ġse as
Ġdo ors
Ġj ude
Ġj esse
ur ig
ir t
Ġsh ore
Ġsh awn
ri ption
Ġall ies
Ġsound ed
Ġsound tr
Ġsp aces
Ġ4 1
Ġmin aj
Ġsecond s
Ġas ian
Ġas pir
Ġcom par
Ġmar in
pe cially
Ġde an
Ġde er
Ġup town
Ġknow ing
Âł in
Ġwe ird
Ġlea der
Ġfe ed
Ġfe et
Ġ6 5
Ġdi p
Ġdi amond
sc ription
Ġcar t
Ġcar ry
Ġcar pent
Ġunder oath
rough t
ress ed
Ġfranc is
Ġdram atic
Ġbl ake
Ġbet ray
Ġflat screen
Ġca j
Ġag u
Ġresort s
Ġmini bar
17 8
Ġba ham
Ġcr ackers
ap ed
ap rio
Ġkid na
Ġke urig
Ġmet airie
Ġmiss iss
Ġcas ey
min utes
Ġbel ong
Ġsuper sonic
Ġsuper dome
14 7
Ġmed iterranean
Ġind ivid
Ġmeal s
Ġtea ch
ien ces
Ġry e
Ġtour nam
Ġmat rix
ah ubali
Ġatt ack
Ġpass ion
Ġste ve
Ġbath tub
Ġsch edu
ugh t
col n
Ġopen ing
Ġstra it
Ġrece ption
Ġranch o
Ġpad dington
Ġfre sh
Ġes pecially
Ġdest ru
Ġber ry
Ġpolit ic
wor th
Ġsub scription
Ġrich mond
37 9
Ġmot el
Ġsomet imes
Ġdj ango
Ġell ie
Ġexce ption
Ġpil ots
Ġsol id
Ġhum ans
Ġstor m
Ġcab in
Ġlin coln
Ġbag s
Ġcommun ity
Ġwarri ors
Ġcolon el
ari us
Ġlemon ade
Ġclay ton
Ġaccident ally
Ġshak ur
Ġcharact ers
Ġlis a
Ġcla pton
Ġmatth ew
Ġocc up
Ġtitan ic
Ġdic aprio
Ġskill s
Ġsist ers
Ġlad ies
Ġ840 60
Ġjur assic
Ġkenn edy
Ġsuspect s
Ġfelic ity
Ġbotan ical
sel ves
Ġsoundtr ack
Ġaspir ing
Ġbaham as
Ġschedu le
3 2
4 1
7 7
9 7
b i
b an
d an
d on
d id
j a
j ames
m ical
p se
Ġ /
Ġt as
er al
ant e
ant is
Ġa aron
us ive
us sy
Ġh ud
Ġo z
Ġw ard
Ġw right
Ġw aves
at a
in ary
Ġf assbender
Ġm ist
Ġc ine
Ġb ul
el ve
Ġto w
Ġg ulf
on er
Ġd uck
Ġn ails
Ġn orton
Ġli e
Ġin vol
Ġin iti
ed ral
ve y
gh an
Ġwi re
Ġr ow
Ġr ules
vi es
ight s
et c
et ic
et ime
Ġme ans
Ġbe er
Ġhelp ed
al u
Ġst ren
Ġst aple
Ġse an
Ġor ch
st icks
Ġdo zen
Ġj ake
Ġj ap
Ġch or
Ġel ys
Ġk lm
est yle
ell a
ell ed
ell ite
ri a
ri z
Ġpr ison
Ġhe ist
Ġlo ts
Ġtr ag
Ġtr ouble
tt er
ul y
ket s
Ġ4 3
Ġche mical
Ġmar iah
Ġde pp
Ġde vel
Ġup d
Ġmay er
Ġcon way
Ġ5 3
Ġla ugh
ac re
ac ula
Ġpark er
Ġdr acula
Ġ6 18
Ġ- -
Ġking dom
Ġres ul
Ġres istance
Ġwon ton
Ġfour th
Ġthem e
Ġinn oc
Ġshould n
Ġun f
Ġun cle
Ġpersonal ities
20 5
Ġdirect ly
Ġbl u
Ġbl ind
ra id
Ġaf raid
Ġcost a
Ġbr ides
Ġland ing
Ġgl en
Ġac ce
Ġac com
Ġtrav elling
Ġexc iting
Ġover all
12 1
ot e
Ġcre d
Ġjan e
Ġwa hl
Ġwor ries
Ġbas il
ern ed
Ġdri ving
Ġcomp elled
io tt
19 5
ward s
Ġmain t
Ġmed ic
gr am
Ġdis p
Ġpac kets
Ġfight ing
Ġflo ors
gon omic
Ġacc ount
Ġmid town
Ġcam ino
ank y
24 4
sp ir
Âłh ow
Ġhur on
ron ic
Ġnick i
pect ed
Ġorigin ally
Ġmass ive
Ġball park
Ġint ro
Ġell en
Ġaccommod ating
Ġnat alie
Ġpian ist
Ġwrit er
Ġbee tho
Ġer gonomic
Ġsail ing
Ġju ice
Ġcra ig
Ġcolon ial
Ġmajor ity
Ġconc erned
Ġmi ka
din and
Ġtalent ed
Ġmetrop olitan
Ġmart ian
Ġrivers ide
Ġhun ger
Ġfer dinand
Ġrout e
Ġtax i
Ġsurround ed
Ġpupp ies
Ġtopp ings
Ġallian ce
Ġcrimin al
Ġjalapen os
Ġcitiz en
Ġdess ert
Ġdesp ite
Ġlenn on
Ġurb an
Ġcath edral
Ġmarin ara
Ġcaj un
Ġstren gth
Ġstaple ton
Ġelys ium
Ġbrides ma
Ġwahl berg
Ġbeetho ven
0 3
2 30
2 10
c u
e o
m i
m att
m pic
s pe
t les
w w
w ling
w agon
z o
Ġ |
Ġ istan
an i
Ġt ed
Ġt ap
er ie
Ġth omas
Ġi con
us et
Ġh ers
Ġo ly
Ġo dd
re m
re ts
Ġf ans
Ġf ai
Ġc ele
Ġl av
Ġp att
Ġp unk
Ġb ry
Ġb icy
Ġto y
Ġg ill
Ġg ump
on to
Ġd er
Ġd irty
Ġd arius
ar oni
Ġn ar
Ġfor rest
Ġli kes
Ġin vit
le t
Ġwi de
Ġr uck
Ġcan al
vi er
vi val
Ġmo b
Ġmo sc
Ġha ute
Ġre ve
Ġre no
Ġre volution
Ġre vival
et ta
Ġhot do
Ġbe ar
Ġbe coming
Ġbe ha
it ure
ch ic
Ġst ea
Ġse es
Ġany body
Ġgood fell
Ġch urch
Ġfr uit
Ġ1 000
Ġro d
Ġro ar
Ġel i
Ġel vis
Ġe as
Ġk o
Ġk r
Ġal k
Ġal ab
ir a
ir on
ce iling
ut s
Ġpr im
Ġpre ston
Ġar den
Ġlo an
Ġlo ss
Ġlo ves
Ġtr uck
ess a
Ġmy th
end ing
Ġ7 8
Ġ20 15
Ġ20 10
Ġ20 14
Ġcheck out
Ġde ck
Ġup coming
Ġdet erm
Ġwell ness
ach uset
Ġ9 5
Ġ9 6
ro ll
are d
15 4
Ġem p
Ġem er
Ġle an
Ġle vel
Ġbal tim
Ġthem selves
Ġpro d
Ġclass es
Ġgen esis
Ġun ex
10 3
ie f
Ġconf ess
20 16
cl ub
Ġbl uel
Ġca ught
Ġreg is
Ġspa wn
iss ion
ile y
Ġbu ck
Ġba ahubali
Ġgl ory
Ġcr is
Ġcr ust
Ġbus h
Ġrequire ment
12 3
12 8
Ġmon ke
Ġcont ent
Ġz one
ear th
Ġholiday s
Ġcare y
Ġexp osed
16 6
ib ur
Ġed ition
get table
Ġfun ctional
18 6
Ġrem ains
Ġsl ayer
Ġpa per
Ġnor ah
Ġrecommend ed
Ġbeat riz
Ġreserv ed
11 1
art ed
Ġpass enger
Ġsour ced
Ġroo ts
Ġste al
Ġsept ic
Ġma id
Ġsat ellite
Ġemb ar
Ġend s
Ġtak en
led ge
Ġkill ers
vis ions
Ġport man
ung ry
Ġdiscover ing
Ġmac aroni
Ġzoo keep
Ġread s
Ġatl antis
Ġhon est
Ġci vic
Ġmass achuset
Ġins pired
Ġnat ure
Ġfurn iture
Ġtam pa
Ġhuman ity
Ġhu h
Ġmod ify
Ġpos itive
Ġsurviv or
Ġce iling
Ġspeed wagon
Ġimagin ative
Ġcham p
ipp i
Ġow l
Ġsurp rise
Ġunfor gi
Ġunch arted
Ġbi kes
Ġcompos ure
Ġsamos a
Ġconven ience
Ġvoc als
Ġafford able
Ġapocaly pse
Ġappetiz ers
Ġwra p
Ġstrugg ling
Ġsuf fer
Ġnach os
Ġ920 11
Ġinfer no
Ġmississ ippi
Ġtournam ent
Ġiniti ate
Ġjap an
Ġresul ts
Ġbridesma ids
Ġistan bul
Ġoly mpic
Ġfai th
Ġcele br
Ġruck er
Ġmosc ow
Ġbeha vior
Ġgoodfell as
Ġalab ama
Ġdeterm ine
Ġunex pected
Ġbluel ight
Ġmassachuset ts
0 2
1 15
1 17
3 1
4 50
a der
b es
f les
g ly
h ol
i q
m ade
n ger
o ci
p al
r ange
r ator
t z
u ya
w ind
y ah
z a
an cy
Ġi r
Ġs ites
Ġs ession
Ġyou nger
re lson
Ġf ol
Ġf ellow
Ġf usion
Ġf bi
Ġm ast
Ġm gm
Ġc ass
Ġc ro
Ġc ull
Ġp ain
Ġp enn
Ġb ump
Ġan a
Ġg il
Ġd are
en ge
en stein
ar ts
Ġn in
Ġn ue
Ġn erv
Ġin vis
Ġin spir
Ġwi d
Ġwi ts
Ġr ing
Ġre o
Ġre yn
Ġre place
et ers
it ation
it ty
al ine
st one
Ġat om
Ġj op
Ġj oni
Ġpl ug
Ġch and
ea u
Ġsome place
Ġel ite
Ġe vi
Ġk um
Ġk any
Ġk hal
Ġk alu
Ġal th
Ġper cent
Ġu gly
Ġnight club
ri ed
Ġpr oud
Ġam id
Ġam nes
Ġhe al
Ġhe ights
if est
Ġtw enty
Ġlo vely
Ġtr oy
Ġtr oll
qu er
Ġ3 2
um er
Ġad a
Ġbre nt
Ġde mon
Âł 8
Âł for
Âł do
Âł 10
Âł can
Âł okay
Ġhear ts
Ġwe ars
Ġman ifest
Ġla p
Ġpool side
Ġ9 7
Ġsuit able
Ġcl aim
Ġcent ers
Ġap oll
Ġ8 4
ers p
Ġinn er
30 9
ci ous
Ġund ead
Ġsa una
em ent
Ġclo ck
Ġpersonal ity
ab or
Ġsim one
pp ing
Ġbl ess
br a
os mith
Ġunt old
ol ia
Ġ19 50
Ġsw anky
Ġcur se
Ġdes ire
Ġweek day
Ġmor rison
Ġsc en
Ġsuggest ed
enn a
Ġsm oke
Ġapp ro
Ġtravel s
Ġcont ained
ator s
Ġsund eck
Ġhor ri
Ġdel icious
Ġz od
Ġmiss y
Ġwor th
Ġdin er
ff ic
Ġfriend ship
Ġrefrigerator s
Ġsoup s
Ġdec ade
sh ine
Ġea gle
19 8
Ġhar relson
Ġrem o
Ġsl ave
Ġsec rets
Ġbuy ing
Ġser rano
Ġham bur
Ġran ges
Ġbread sticks
Ġdis ney
Ġchrist ian
Ġchan ges
Ġpay ing
Ġbro ke
Ġdan ny
Ġsun shine
Ġtrad ition
su ites
Ġmen u
Ġmr s
Ġmill er
Ġes c
Ġhea vier
old s
Ġfet a
Ġfrank enstein
Ġstrong er
Ġpas eo
Ġhunt ing
aly st
Ġhero es
Ġoper ation
Ġoper ations
Ġoper ative
Ġwhe el
Âłm o
Ġbird s
Ġbott om
Ġbott led
Ġwrit ing
Ġtouch es
Ġaer osmith
Ġlif etime
bre ak
Ġcop y
Ġparent age
Ġconc ert
Ġdev ice
Ġpap as
Ġneigh b
Ġimagin ed
Ġdragon s
Ġbase ball
Ġrig gs
Ġparam ore
Ġsurp ris
Ġrae es
cra ft
Ġsin ister
Ġmam as
Ġnas a
Ġcontain er
Ġscarle tt
Ġandre w
Ġrag ing
Ġox ford
Ġbeyon ce
Ġstan ford
Ġspin ach
Ġnote book
Ġdub lin
Ġneighbor hood
Ġhilar iously
Ġpul p
Ġphenomen al
Ġvegg ie
hear t
Ġrai ders
Ġdestru ction
Ġpolitic ian
Ġbul worth
Ġinnoc ent
Ġhers elf
Ġlav ish
Ġinvit es
Ġreno v
Ġloan er
Ġbaltim ore
Ġseptic fles
Ġcull um
Ġnue vo
Ġnerv ous
Ġinvis ible
Ġkum ail
Ġkany e
Ġkalu uya
Ġamnes ia
Ġapoll o
Ġzod iac
Ġsepticfles h
1 12
1 16
2 99
5 3
7 9
9 2
b ie
c r
c ame
d ough
g ard
g ort
g ra
h e
h en
h ave
i at
j ess
j uring
m el
n or
n ce
o vies
p o
p x
p son
r un
r idge
r ang
s ing
s ki
v ere
w y
w on
w ith
y er
y son
Ġ #
Ġ +
Ġt em
is o
as cin
Ġth row
Ġa ali
us o
Ġy um
Ġs es
Ġs ight
Ġw ake
Ġw ag
Ġw rite
at ar
re ad
Ġf red
Ġf ascin
Ġm ck
Ġc uff
Ġl on
Ġl unch
Ġp uer
Ġb ang
Ġb iel
Ġan ger
or c
or ity
Ġg ib
Ġd ou
en se
ar ge
Ġn ed
Ġn erve
le vel
Ġwi t
Ġwi tch
Ġr is
Ġr ico
Ġr px
Ġcan cel
vi g
Ġha ir
Ġre n
Ġre ub
Ġre venant
ch ie
ch ild
al ys
se ek
Ġst ring
Ġst ately
Ġse ap
st r
Ġj er
Ġj up
Ġj yn
Ġpl ant
ion aire
Ġch im
Ġch all
ur t
Ġno b
Ġno vel
Ġab ility
Ġhi red
Ġro ss
Ġel gort
Ġe f
Ġ2 000
Ġk enny
lo s
Ġsh o
Ġsh oot
Ġsh ining
Ġwill ie
Ġwill ful
am b
am pire
Ġnight life
ust er
ck ing
Ġpr ime
Ġneed ing
Ġam or
Ġso d
Ġso y
Ġso vere
Ġtw itty
Ġar ms
ge on
Ġsp rit
Ġsp ouse
Ġtr ay
Ġtr uly
tt a
Ġout going
Ġshow n
Ġ4 4
Ġ4 6
Ġ4 00
Ġact ual
Ġad v
Ġmar a
Ġmar cus
Ġup state
Ġmay o
Ġfi x
Ġfi ll
Ġfi esta
Âł 9
Âł g
Ġcall s
Ġcon v
Ġcon juring
ort un
Ġ5 8
Ġwe ather
Ġv s
Ġv ampire
Ġla z
Ġfe ver
pt ions
ro te
co ck
own ed
Ġqu e
15 5
15 6
fi lled
Ġking ston
Ġpick le
Ġpro ject
Ġpro gram
Ġinter rac
Ġcar lton
Ġcar uso
Ġun l
Ġun p
Ġun con
Ġun less
Ġgr ah
Ġset s
20 6
Ġdirect ion
cl ing
Ġbl ur
ific ent
ud ed
Ġmil estone
ol and
Ġbr ut
go ver
Ġsal es
Ġsal mon
Ġcr ab
Ġx d
Ġgal en
Ġfin an
Ġguard ia
13 7
Ġsm oking
Ġexc ited
ot ed
Ġround trip
Ġte ars
Ġke ys
Ġjan is
Ġjan elle
fl ight
fr om
Ġuni verse
act ion
Ġpur ple
Ġtot ally
Ġvan essa
Ġgold berg
Ġwater side
Ġrun s
Ġdepart ment
io log
Ġbel g
Ġcover t
18 8
Ġhar t
Ġrem ote
14 3
Ġpa ir
Ġmed ia
Ġlos ing
Ġhan k
Ġhan gover
Ġsweet ened
Ġbarbe que
Ġboy ce
Ġsour dough
Ġleg oland
Ġmaterial ize
Ġbro ken
Ġass um
Ġass ign
Ġass oci
27 5
Ġmatch ing
Ġtrain sp
Ġcons ists
Ġrece ive
Ġbelie ved
Ġtit led
Ġmill a
Ġkill er
Ġkill ing
Ġbuild ings
Ġdiscover ies
Ġpsych iat
Ġgi ving
Ġpres ley
Ġpres erve
Ġturn ed
Ġtri angle
Ġstud ent
Ġcoll ins
Ġexper iences
Ġcomm uter
Ġprovid ing
Ġspir ited
Ġver mont
Ġdem and
Ġmass age
Ġell iott
Ġjen kins
Ġpin to
Ġhost el
work s
Ġob serv
Ġmaj estic
Ġhum ble
Ġequ al
Ġattra ction
Ġfurn ished
guard ians
Ġreach ed
Ġju an
Ġtra verse
Ġmarri age
Ġsupp ort
Ġlif estyle
Ġnecess arily
Ġbris ket
Ġpen thouse
Ġmagn olia
Ġmagn ificent
Ġinstrum ents
Ġopp ortun
Ġconst ance
Ġbasic ally
Ġrecru ited
Ġmetrop olis
Ġtah oe
Ġpill ow
Ġunfor gettable
Ġtrust ed
Ġstri ke
Ġpsychoan alyst
Ġpsychoan alys
Ġum g
Ġscient ist
Ġdestroy ed
Ġplac ing
Ġanch ovies
Ġemot ional
Ġtast e
Ġdum pl
Ġjose ph
Ġsym ph
Ġcow boy
Ġdomin ate
Ġstat us
Ġprog resses
Ġtransport ation
Ġhawth orn
Ġcy r
stand ing
Ġprofess or
Ġmoo re
Ġlang u
Ġfeed back
Ġkidna pped
Ġunf ussy
Ġacce pt
Ġconfess es
Ġunforgi ven
Ġfol k
Ġreyn olds
Ġjop lin
jess ica
rang ed
Ġaali yah
Ġses ame
Ġpuer to
seek ing
Ġseap oin
Ġjup iter
Ġsovere ign
Ġsprit es
Ġinterrac ial
Ġtrainsp otting
Ġpsychiat rist
Ġpsychoanalys is
2 19
3 19
4 35
6 5
8 4
a ld
b c
b ucks
c ke
c ket
d c
f y
f ts
g ic
g ia
g les
h o
h old
i i
l av
m ok
n ation
n ap
n aked
o v
o ved
p et
p arent
r s
r ona
t ments
v ist
w ers
x ie
an as
Ġt all
Ġt ough
Ġt unes
Ġt ina
Ġt uc
Ġth irty
Ġa unt
Ġh ans
Ġs i
Ġw are
Ġw ise
Ġw aka
at oni
Ġf ren
Ġf und
Ġm ath
Ġm ash
Ġm ason
Ġm ouse
Ġm ama
Ġc ouch
Ġl oop
Ġp ing
Ġp ound
Ġp un
Ġb oo
Ġb ak
Ġb urn
Ġb rought
el ux
ay a
es y
Ġan aly
Ġto ve
Ġto ni
Ġg orge
Ġd un
Ġd ax
Ġd yn
Ġd ory
en ced
ar in
Ġn om
Ġn av
th ank
Ġr um
Ġr are
Ġr ises
Ġcan did
Ġhel d
Ġmo ving
Ġre co
Ġre ven
Ġre ese
Ġbe came
it or
ch an
ch ise
il ed
Ġne mo
out door
Ġyour s
st ory
ind a
ent ine
Ġany ways
Ġsu dden
Ġsu lly
Ġj ame
Ġj ill
Ġj ump
ct ic
ea p
Ġfr ay
Ġel le
im mer
Ġe ve
Ġe gy
Ġk iara
lo t
lo ad
Ġper su
Ġsh at
ad ian
am ic
ell i
Ġfl ame
ut ton
Ġplay er
ri al
Ġall ey
Ġpr ism
con ut
Ġso ft
Ġhe at
Ġtw ins
Ġar row
Ġco va
Ġco conut
tt o
ard i
Ġstar bucks
Ġout standing
qu el
Ġ3 6
Ġpar ts
Ġmin n
Ġfree man
Ġav atar
Ġmom s
Ġrest rict
Ġde ar
Âł c
Âł go
Ġcall um
Ġ5 1
Ġ5 6
Ġv ince
Ġv enue
Ġv elve
Ġbut ler
Ġla ure
Ġ9 9
Ġpo et
Ġdr isco
Ġcl ark
Ġcent re
Ġhold s
iz o
Ġaw ful
up h
Ġem o
Ġtom my
Ġ8 6
Ġex it
Ġex am
Ġdi xie
ber ts
Ġkind ly
do l
Ġim itation
Ġunder water
Ġunder ground
Ġsa f
Ġfran chise
Ġpart ner
Ġun it
10 5
ig gy
Ġfilm maker
Ġgr ace
Ġset ting
ie ce
20 17
Ġbl ow
room s
Ġag es
Ġchick s
Ġmind s
Ġpalm s
Ġlou d
Ġbr uss
Ġcur ious
ne ction
Ġba iley
Ġgl or
mer ged
Ġtrav is
13 2
Ġsm ile
Ġmon ae
Ġkid nap
aw s
Ġairport s
Ġz omb
Ġcustom ers
35 9
16 1
16 2
arter s
Ġscreen ing
Ġgolf ing
Ġunivers al
Ġcomp uter
Ġbel oved
Ġfun ky
18 7
den ced
Ġsuper man
Ġdark o
Ġpet e
Ġhapp ens
com b
und ers
Ġcontin ues
ric ane
Ġshut tles
Ġoption al
Ġdis order
Ġatt end
Ġatt rib
Ġspace y
Ġcomple x
22 8
Ġfight s
ord ing
Ġma ine
Ġpot ential
Ġsch umer
Ġflo yd
bur ied
Ġacc ording
Ġacti vist
lin ed
Ġent ire
Ġvis a
Ġcol umb
28 0
Ġant on
Ġwild ly
Ġprem ier
Ġsub merged
Ġfet us
Ġpati ence
Ġtri es
ru pted
Ġtheat res
ik ely
Ġtre k
Ġassass ins
Ġfle tch
Ġaccommod ate
Ġhost age
Ġfront ier
Ġpict ures
Ġboard walk
Ġhappen ing
Ġtra pped
Ġtra ffic
Ġtemp le
bre lla
Ġest ab
Ġchill i
Ġval ue
Ġval entine
Ġcook ies
Ġdev oted
Ġjess ie
Ġrig atoni
Ġcharact er
Ġcrash ing
Ġwal tz
Ġton gue
Ġkay aking
Ġaff air
Ġcontro l
serv ice
Ġchains mok
Ġev ans
Ġum brella
Ġrobin son
Ġrid ley
Ġmeg ade
Ġmaz e
Ġruss ell
Ġmitch ell
Ġimpact s
Ġsty x
bill y
Ġteenag er
Ġseas ide
Ġcompar tments
dan iel
Ġchor izo
Ġtrag edy
Ġcred it
Ġmaint ain
Ġrevolution ary
Ġstea m
Ġalk aline
Ġevi denced
Ġalth ough
Ġheal th
Ġada pt
Ġneighb ors
gra ph
Ġfascin ated
Ġef fect
Ġunl ikely
Ġgrah am
Ġfinan cial
Ġobserv ant
Ġsymph ony
parent s
Ġtuc son
Ġware house
Ġfren zy
Ġanaly ze
Ġgorge ous
Ġcandid ate
Ġreven ge
Ġsudden ly
Ġjame y
Ġegy pt
Ġvelve t
Ġbruss els
Ġattrib utes
Ġfletch er
Ġchainsmok ers
1 18
1 000
? "
a u
b ea
b urn
b ab
b ute
b led
c est
e e
e ing
f th
f ound
g l
h ab
i v
i us
k is
k ind
l an
l ong
m ight
m ary
m iah
n at
n ew
o id
o ir
r oph
s by
u k
x ious
an ger
er ian
Ġi ver
Ġh ay
Ġh ate
Ġh ungry
Ġs ens
Ġs ib
at ory
at ical
in ed
in able
Ġm ardi
Ġc c
Ġc ip
Ġl en
Ġl um
Ġp ong
Ġp ans
Ġp ure
Ġp age
Ġp ump
Ġp aint
Ġp onto
Ġb ien
Ġb achel
Ġan cest
Ġto by
Ġto ne
Ġg or
Ġg ather
Ġd at
Ġd ame
Ġd na
en ing
en cer
Ġn ich
Ġho od
Ġis a
ic ate
Ġli t
le ck
le onardo
Ġr oose
Ġr aven
Ġha llow
Ġre se
Ġre nd
Ġre fer
Ġre port
Ġre vol
Ġre cover
it as
il era
il ada
ow ers
al ist
Ġne ut
Ġst o
Ġst ated
Ġst oner
ent ious
Ġsu bur
Ġch ip
Ġch ief
ea h
Ġno v
Ġel eph
Ġel uded
im ag
im ore
Ġe volution
Ġ2 50
Ġk ath
Ġal ess
lo y
est r
Ġsh orter
Ġu ter
Ġsee king
all ison
am ma
ut y
Ġlet ter
Ġpr ayer
Ġpre ss
op ita
Ġso lo
Ġar m
Ġen er
Ġlo y
Ġsp l
Ġsp encer
Ġco gn
Ġtr acy
ul ous
qu ely
and ora
Ġshow ers
Ġ3 9
Ġ3 111
Ġ4 15
Ġnew found
Ġ20 18
Ġkn ew
Ġkn ack
Ġbreak s
Âł are
Âł to
Âł bar
be cue
xt on
Ġmus iq
Ġpe ep
Ġla ird
Ġart work
ac ious
Ġ9 16
Ġ9 26
Ġpark way
Ġcl iff
ro l
co hol
Ġem br
Ġ8 1
Ġ8 8
Ġdi visions
Ġle ather
Ġret reat
ub lic
ill as
Ġcal ient
Ġtoo k
Ġun re
Ġun cover
Ġun earth
Ġun imag
10 7
10 8
10 49
ig s
ig an
ab i
Ġspe ars
Ġgr an
Ġgr as
ific ant
br ide
irm ont
ra it
ud io
Ġlar gest
Ġcho sen
Ġtheir s
Ġag ents
ol a
Ġback ground
Ġ19 20
Ġ19 06
Ġplan ned
per son
Ġdes ign
Ġbu ena
Ġdown ey
13 8
13 49
Ġsm ash
Ġsm ells
12 4
Ġmost ly
Ġamazon s
Ġthrill ing
Ġke bab
Ġjan et
Ġz oe
Ġz ero
Ġz immer
Ġz iggy
Ġspend ing
Ġstop over
Ġuni quely
Ġbit s
Ġexp ed
16 5
Ġed die
Ġlu fth
Ġlat imore
Ġdec ides
land s
Ġdefin ing
Ġfo ster
Ġmerc en
Ġhar rison
Ġsl amma
14 2
Ġextra ord
Ġchar ming
Ġda uph
Ġhapp iness
Ġnor m
Ġgrand view
Ġpat rol
Ġjack man
ph one
Ġind igo
Ġmountain s
Ġput s
Ġdis like
Ġatt ach
Ġhead ed
Ġma e
Ġmc bride
Ġemb ark
Ġchapter s
Ġra ised
Ġinst inct
vel t
Ġass ume
Ġent er
Ġcu cum
Ġcons pir
Ġhand s
Ġhand ler
Ġcol tr
Ġcolor s
Ġcam era
cas e
Ġbrit ney
Ġtree house
28 9
Ġant iques
Ġport rait
ret entious
Ġpolit ics
Ġdiscover ed
Ġprem ises
Ġsleep ing
Ġgi ves
Ġhur ricane
Ġcann olis
29 0
Ġrich ie
Ġmag gie
Ġtri bute
Ġnir o
Ġcockt ails
Ġjam ma
Ġver t
Ġram ones
Ġhost ile
Ġnat omas
rest rial
Ġhum or
Âłth at
Ġwrit ten
Ġcomplet ely
Ġcab anas
iet y
Ġbri an
Ġmarri ot
Ġ197 0
Ġgro ban
Ġword s
Ġsoul child
Ġten der
Ġidea lly
bre aking
Ġsold iers
Ġcommun ist
Ġprom ise
Ġench ilada
Ġcivil ization
Ġans wers
Ġlion el
Ġval erian
Ġphys iolog
Ġpeace ful
mar ket
Ġsign ificant
Ġru by
Ġshare d
Ġpap a
Ġpos ner
Ġfa irmont
Ġoak land
Ġcomb ination
met al
Ġtreat ments
Ġparam eters
Ġdep ressing
Ġultim ately
Ġunch ained
Ġaff leck
Ġsamos as
Ġcult ure
Ġplac ed
avi a
Ġjere miah
Ġshar ona
Ġawak ens
Ġcran ber
Ġdrum s
Ġappl ies
Ġvenge ful
Ġtrop ics
Ġcin elux
Ġagu ilera
Ġindivid ually
Ġhud son
Ġodd s
Ġzookeep er
Ġjapan ese
Ġwid ow
Ġtroll s
Ġreub en
Ġamor phis
Ġsod as
Ġunp retentious
Ġuncon quer
Ġbelg ium
Ġopportun ity
Ġdumpl ings
Ġseapoin te
lav a
Ġbak lava
eap olis
Ġemo ji
Ġmegade th
Ġadapt ation
Ġcip her
Ġbien ville
Ġnich ol
Ġroose velt
Ġneut ral
Ġeleph ant
Ġuter o
Ġcogn itive
Ġ926 51
Ġcalient e
Ġunearth s
Ġunimag inable
Ġlufth ans
Ġextraord inary
Ġdauph ine
Ġconspir acy
Ġcoltr ane
Ġphysiolog ical
0 9
2 20
2 17
4 99
5 000
7 60
8 7
a pp
b s
c orn
c Ã©
c ery
d rop
e ga
f iction
g re
g ni
h ere
l ist
l im
l ific
l ave
m us
m iles
n ate
n omin
o ta
p an
p ly
r ad
r ation
t i
t v
t ower
v ine
w ar
w ill
w ler
Ã ±
Ġ ern
an ch
Ġt n
Ġt ul
Ġt so
Ġt ab
Ġt ank
Ġt empt
is a
is i
is y
Ġth er
Ġth read
ant on
ant om
Ġa y
Ġa th
Ġa ur
Ġa id
ist a
Ġi ra
Ġi dy
Ġi dol
Ġh end
Ġh ick
Ġh bo
Ġh ugh
Ġh wy
Ġh utton
Ġo c
Ġs ar
Ġs ic
Ġw rest
Ġw inger
Ġw reck
Ġw rote
at s
at eau
Ġf ed
Ġm ent
Ġm im
Ġc eline
Ġl es
Ġl akes
Ġp y
Ġp ond
Ġp ony
Ġb atch
el se
ay n
or gia
Ġto ng
Ġg ay
Ġg ent
Ġg are
on ic
Ġd ion
Ġd aring
Ġd irt
om s
Ġn ina
th at
th ef
ll en
ll ic
ic ed
Ġli m
Ġwh ites
Ġr on
Ġcan dle
Ġhel en
Ġmo s
Ġmo ves
Ġha wn
Ġha bit
Ġre x
ch e
ch air
ch rist
ch burg
al ed
al thy
Ġne g
Ġne o
Ġse m
Ġse izes
nd a
st ell
ind s
Ġany a
Ġj p
Ġj w
Ġj ad
Ġj ag
Ġj aws
ound s
ct urn
ea red
ur bed
Ġfr y
Ġno va
Ġno cturn
Ġro bo
Ġro ger
Ġe than
Ġk irk
Ġk atherine
Ġal cohol
lo ve
lo st
ir ard
Ġsh oo
Ġsh ady
Ġsh att
Ġsh aring
Ġwill ows
Ġsee ming
fer son
Ġnight cra
ri ate
ri pt
Ġall ied
con vention
Ġpre p
Ġpre ach
if ied
Ġtw a
Ġar go
Ġar bor
Ġar range
Ġar ctic
Ġen cour
Ġlo ad
Ġsp it
Ġsp ike
Ġsp acious
fe at
qu itz
qu arters
ak opita
Ġshow ed
Ġenjoy ing
Ġ3 8
Ġmin s
Ġmin ions
Ġmin estr
Ġtell ing
so dy
Ġad jo
Ġad van
Ġbre nda
Ġmar ine
Ġmar co
Ġmar sh
Ġde b
Ġde als
Ġde utch
ss aka
Ġdet ect
Ġknow ledge
Ġfi lled
Âł e
Âł k
Âł on
Âł one
Âł you
av ing
Ġcall er
Ġcall ing
Ġcon ey
Ġcon nection
Ġwe althy
Ġv ent
Ġv ine
Ġv augh
Ġmus lim
Ġpe an
Ġman ch
Ġbar ren
ni x
Ġpo se
Ġdr op
Ġcl im
Ġcl ash
Ġbo d
Ġbo at
Ġbo om
co on
Ġqu art
Ġqu aint
Ġex orc
Ġ( "
Ġpro ve
Ġpro lific
pl ic
Ġinter rupted
ato ga
Ġcar a
Ġcar ro
Ġcar to
Ġcar nation
Ġrent ed
Ġfit chburg
az i
Ġclo oney
Ġun c
Ġty ler
Ġjun ior
10 1
10 6
20 8
cl es
Ġbl air
Ġconfirm ed
ra h
os al
Ġback drop
17 1
17 7
ous es
Ġtrip p
Ġoce ans
Ġoutdoor s
Ġbr id
rill ex
age ous
Ġmor gan
Ġsc or
Ġlimit ed
200 0
25 6
Ġus es
13 1
Ġph antom
Ġapp ly
12 2
ot el
Ġpop corn
âĢ ĭ
Ġsk rillex
Ġlong est
Ġz z
Ġappreci ated
Ġwor se
Ġmic roph
min i
Ġbaby metal
16 8
Ġblo ss
ug gle
Ġground breaking
Ġlat ely
Ġwater ston
Ġwater park
Ġsand y
Ġfo xx
ara ji
Ġea gles
Ġdist urbed
19 4
Ġhar vey
Ġhar rah
Ġdark ness
Ġ18 8
Ġser kis
Ġpriv acy
Ġhan g
Ġbay side
Ġvers us
Ġbat ter
Ġstr uggle
Ġbea ux
Ġ23 46
Ġdis con
Ġsle ight
Ġital y
ah o
Ġbill ie
Ġbill ionaire
Ġboy ega
Ġhead quarters
Ġste el
22 4
22 7
wood y
Ġge orgia
Ġchan ging
Ġpossib ility
Ġmc con
Ġlam bert
Ġmix ed
Ġplanet s
23 3
27 0
Ġdream in
Ġtrain ing
Ġtrain ed
Ġstream lined
Ġfan cy
Ġfac ed
Ġindian a
Ġfast est
Ġimp ro
Ġglo bal
Ġserving s
Ġmill s
Ġvo ices
Ġsav ed
Ġsav age
Ġfre ak
Ġant ique
Ġrob bed
Ġpan ini
Ġmem ory
Ġsit u
Ġroy als
Ġapart ment
Ġwild e
Ġfair y
Ġlasag ne
Ġpsych olog
Ġgh irard
Ġgod s
Ġmatter s
Ġmot iv
Ġshad ows
rop riate
Ġjim i
Ġevent ually
Ġstrong ly
Ġbrad ley
Ġhunt er
Ġhunt ress
Ġwhe at
Ġdoll s
Ġdur ation
Ġhaw k
Ġspan akopita
rest aurant
Ġsol ve
Ġsol ace
Ġsnow den
Ġhen son
Ġwhit comb
Ġgro cery
Ġstates man
Ġbare naked
Ġest ranged
Ġcook ie
lou nge
Ġtest s
Ġru le
Ġshel ton
Ġ34 102
Ġje an
condition ing
Ġexperim ental
Ġfa j
oop i
Ġconst ant
Ġtreat ment
Ġelect ronic
Ġtah quitz
Ġgrow ing
Ġstri kes
cour se
Ġhous es
Ġkim pton
Ġprodu cer
pac ked
Ġscarle t
Ġmont ana
Ġpush es
Ġjere my
Ġviol ence
Ġcran ston
li able
Ġmaz arin
Ġrac coon
Ġaut o
Ġvenge ance
Ġrecon naissance
Ġencount er
Ġvar iety
Ġshelter ed
Ġgradu ate
Ġmou ssaka
Ġholl and
Ġcart el
Ġcarpent er
Ġcine arts
Ġdevel op
Ġaccom pl
Ġmedic ine
spe ed
Ġpatt y
Ġnar rator
Ġloss es
Ġmyth ic
Ġprod ig
Ġbuck ley
Ġcrust y
Ġembar ks
Ġkhal id
Ġbless thef
Ġappro x
po ster
Ġgib son
Ġassum ing
Ġcyr us
Ġmath em
Ġreco gni
Ġshat ter
Ġminn eapolis
Ġclark son
Ġcc bc
Ġlen gth
Ġaless ia
Âłbar becue
Ġunre liable
Ġgran ite
Ġattach ed
Ġhandler y
nomin ated
Ġern est
Ġaur ora
Ġidy llic
Ġhend rix
Ġsar atoga
Ġsic ario
Ġment or
Ġseeming ly
Ġnightcra wler
Ġminestr one
Ġadjo ining
Ġdetect ive
Ġcarto on
Ġmicroph one
Ġghirard elli
Ġblessthef all
- $
2 15
2 40
3 99
3 29
d ry
f un
h i
h ard
k er
k ah
l ins
l uck
m m
m ad
m ission
o dy
p ions
t ale
u ct
u ous
v els
w ash
w ii
y rd
y gen
z ed
Ġ ou
Ġ Â¨
Ġ etc
Ġt ail
Ġt iny
er min
er ba
as co
Ġth om
Ġth und
ant ha
Ġa z
Ġa ura
Ġi lle
us ed
us ch
Ġh itch
Ġh ateful
Ġo oh
Ġy a
Ġy ung
Ġy erba
Ġs g
Ġs ant
Ġs ni
Ġw ast
Ġw ins
Ġw icked
Ġw wii
at own
in f
in t
in non
Ġf est
Ġf ond
Ġp or
Ġp ale
Ġp ya
Ġp anda
Ġp andora
Ġb ind
Ġb ung
el ed
el ow
el son
Ġan g
Ġto ast
Ġto nes
Ġg ere
Ġg our
Ġg um
Ġd ick
Ġd arl
Ġd itch
Ġd aly
en joy
ar ri
Ġn i
Ġn elson
th ia
th od
th ics
Ġho ok
ke e
Ġis sue
Ġin j
Ġin va
Ġin hab
Ġr and
Ġr age
Ġcan dy
vi ty
Ġha ul
Ġre ag
Ġre ign
Ġme mber
Ġme thod
ome the
ch arl
il o
al ibur
Ġne on
se th
Ġse al
Ġj es
Ġj um
Ġyes ter
Ġch ain
ct ive
ur ring
Ġfr ame
Ġfr ag
Ġ1 50
im ately
Ġe van
Ġe thics
Ġk ick
Ġk ub
Ġk ore
Ġal ph
Ġal yson
id ing
Ġu lt
am ental
ell an
ell in
ell ig
Ġnight ly
ut ter
Ġpr omethe
con e
Ġpre cious
op a
Ġam ple
Ġco in
Ġco lin
Ġrat at
Ġout ersp
qu is
Ġ3 3
Ġche f
Ġche esy
Ġav enge
end a
Ġ7 6
Ġcom mit
so ci
ich ang
Ġad just
ine ers
Ġup market
Ġnot able
Ġbreak ers
Âł d
Âł as
Âł just
Ġ5 9
Ġ5 00
Ġwe ight
Ġwe aring
Ġv ows
be y
Ġbar on
ac u
ac ed
Ġ9 50
Ġ9 56
pt ic
Ġpo ison
Ġpo tter
Ġpark s
ry n
Ġdr unk
Ġ6 3
Ġ6 6
Ġ6 49
de vil
Ġbo se
Ġbo ca
iz a
Ġgu er
ans el
15 1
15 2
15 7
15 8
15 00
Ġlist ing
Ġ8 2
Ġex od
Ġle vels
Ġret ire
Ġres our
Ġcor ner
pl it
Ġamen ity
ill at
Ġinter stell
Ġcar ri
Ġsa vior
ag ne
em a
az ar
Ġclo ver
Ġcoffe y
Ġun s
10 4
Ġgr ay
Ġgr av
20 2
20 3
20 7
Ġdirect ing
cl ellan
Ġbl ank
br ad
Ġbur geon
Ġca illat
ore tte
Ġalb any
os lave
Ġmil ana
Ġmini ature
ol f
Ġreg ion
Ġspec ies
Ġpalm as
Ġbr idges
Ġbu ilt
yn thia
Ġbus ch
25 3
Ġus a
Ġexc alibur
Ġmon tage
Ġpop py
Ġz o
Ġz ayn
Ġwor ried
Ġrel i
Ġrel ig
wh ile
Ġstop ped
Ġbig elow
Ġpur su
Ġpur sue
Ġvan illa
Ġgold ie
Ġchr onic
lit ers
Ġfo cus
Ġcover ing
Ġdist ant
19 6
Ġda ft
Ġda isy
Ġmed ellin
com edy
Ġabo ard
Ġpast ram
Ġrock y
Ġmount s
Ġele ction
od on
Ġbeat s
Ġwick er
Ġmean ing
Ġmean while
Ġve ter
Ġreserv oir
Ġdis play
Ġdis soci
Ġalong side
Ġpea k
Ġhard y
Ġspecial s
Ġsch em
Ġmc clellan
Ġcree p
Ġra ising
Ġoct avia
Ġreal izes
Ġinst all
Ġwhirl wind
Ġmile y
Ġass igned
27 3
Ġchin atown
Ġbrown ies
Ġgrill ed
Ġmurder ed
Ġpit s
Ġcol bie
Ġimp rison
Ġglo bes
Ġsam antha
Ġled isi
Âłh ave
Ġfair field
Ġpsych ic
Ġdeal ing
fic ent
Ġsoph ie
Ġtal ked
Ġstud y
Ġcoll abor
Ġgener ations
Ġsteven s
Ġmer i
Ġtre es
ouch ables
Ġknight s
33 2
Ġver ge
Âłs ong
Âłs ounds
Ġint ellig
Ġcondition ed
Ġhaw ai
Ġob liter
Ġmult i
Ġslow ly
Âłth ere
Ġterri ble
bl ack
Ġdelight fully
Ġer ror
Ġbanks y
Ġop ul
Ġsail or
Ġmale ficent
Ġaer of
Ġhop kins
Ġcra wling
Ġgar age
win ning
Ġform at
Ġta io
Ġbra xton
Ġbirth right
rey u
Ġmillion aire
Ġfa ult
Ġdepend s
Ġdecis ions
Ġshak ira
Ġprote ction
Ġfab ric
Ġgrow s
Ġultim ate
Ġhun nam
Ġinvestig ators
Ġhous ing
Ġmess age
Ġev acu
Ġscient ists
Ġplatform s
Ġauth ors
Ġviol ent
board s
Ġdeli very
Ġmich elle
Ġmich igan
Ġsupre m
Ġsupre me
Ġep ik
Ġamb ient
Ġhom es
Ġbound aries
Âłam c
Ġdoom ed
Ġencount ers
Ġcorpor ation
Ġspect ac
har rison
Ġbetray ed
Ġteach er
Ġtow ne
Ġupd ated
Ġdisp atch
Ġbicy cling
Ġemer ges
Ġspawn s
Ġmaid en
Ġmast odon
Ġdare devil
Ġinspir ation
Ġchand el
Ġdemon s
Ġhambur gers
Ġbroke back
Ġtradition ally
Ġcopy right
Ġrenov ated
Ġmck innon
Ġlon ely
Ġdou b
Ġris k
Ġjer sey
Ġchim ichang
Ġbrut al
Ġsales man
Ġalley s
Ġblow ing
Ġzomb ies
Ġbachel orette
Ġhallow een
Ġinstinct s
Ġcranber ries
Ġwidow ed
Ġunconquer able
Ġlufthans a
Ġwrest les
Ġencour aged
Ġadvan ced
Ġvine gar
Ġcarro ts
Ġscor pions
Ġmccon augh
Ġpsycholog ical
Ġapprox imately
Ġille gal
Ġhitch cock
Ġpya ari
Ġbind u
Ġbung al
Ġgour met
Ġinva ders
Ġreag an
charl ie
Ġyester day
Ġfrag ile
Ġpromethe us
Ġoutersp ace
Ġ956 16
Ġexod us
Ġretire ment
Ġinterstell ar
Ġburgeon ing
Ġpastram i
Ġdissoci ative
Ġaerof lot
/ /
1 13
1 14
2 25
9 3
: //
b id
b our
b ull
b ird
c d
c ast
c ul
c los
c ynthia
e er
e ch
e asy
f lo
f ace
f ish
f ren
g om
g ood
h ome
h op
j u
j an
m or
m ans
m illa
p in
p ine
r ant
r il
r ont
r ating
s ive
s yl
t emp
u cas
v ous
w reck
y att
y eah
Ġt ick
er ce
er ies
er ated
is er
is az
as ed
as ion
as car
ou ill
Ġa iling
Ġi vy
Ġi gn
Ġh atch
Ġo le
Ġo li
Ġy an
Ġs ke
Ġs ings
Ġs ins
Ġs ynd
Ġs elling
at um
Ġyou th
re l
re me
Ġf el
Ġm ut
Ġm ack
Ġm ap
Ġm orton
Ġc ities
Ġc ig
Ġc udi
Ġc ena
Ġl lo
Ġl aur
Ġl ud
Ġl inda
Ġl cd
Ġp ic
Ġb id
Ġb itch
Ġb unch
Ġan nie
or m
or man
Ġto ward
Ġg oose
Ġg amb
Ġd m
Ġd umb
ar us
ar ack
om ar
Ġn an
Ġn aked
th es
Ġho b
Ġho lo
oo ps
ic on
ic ia
Ġli qu
Ġli ved
Ġli pa
Ġin g
Ġin vi
Ġwh is
Ġwh oopi
Ġmo z
Ġre ver
it t
it ude
il a
il ight
il ings
se eing
Ġst un
Ġst ol
Ġst age
Ġst ath
Ġse y
Ġse ed
Ġse ag
Ġse vent
Ġor nate
st ore
st rong
Ġdo gg
ind er
Ġsu p
Ġj ury
Ġj ep
Ġgo tten
Ġch er
Ġch as
Ġch oo
Ġch ester
Ġab s
Ġab ba
ail ed
Ġro cket
im ent
Ġe c
Ġk orn
Ġal o
Ġal pine
lo pes
lo cks
id on
est ra
Ġsh a
Ġsh an
Ġsh am
Ġu a
am ite
Ġfl ag
Ġfl ash
ut ious
ri f
ri gu
ck a
leas h
Ġpre fren
op ic
op ard
Ġam us
Ġtw ilight
Ġar bo
Ġlo se
nt on
Ġsp ort
fe bruary
Ġtr ade
Ġout er
ul u
Ġshow place
Ġshow down
Ġ4 9
Ġ4 20
Ġav oid
Ġav ril
end ar
Ġwatch tower
Ġ7 2
Ġ7 4
Ġbook s
Ġas c
Ġcom ics
Ġ20 12
Ġad ema
ine er
Ġmar ion
Ġup wards
Ġknow s
Ġfi erce
Âł 6
Âł re
Âł al
Âł co
Âł per
Âł any
Âł la
Âł from
Âł february
Ġvi e
Ġvi enna
Ġcon n
ort ig
Ġ5 7
Ġv ic
Ġv ortig
be th
Ġman iac
Ġla unch
Ġla vig
Ġfe ar
Ġdr awn
Ġ6 7
de m
Ġbo ise
ro c
iz on
Ġaw ake
Ġgu ided
Ġbeach es
fi ance
Ġex cl
Ġex ot
Ġdi g
Ġle onardo
Ġbal ance
Ġcomed ian
pl ant
pl ing
pl ar
30 4
ci pl
ill az
Ġcal endar
Ġgen ius
Ġcar rie
Ġsa ld
Ġsa br
ag ascar
em ies
Ġun easy
Ġun locks
Ġun leash
att a
ab eds
ab atta
Ġspe ech
Ġconf ront
Ġaf ghan
ud up
Ġlar ter
os h
os aur
Ġmil ks
Ġevery day
Ġ19 60
Ġ19 75
Ġ19 90
17 6
Ġspec ify
Ġspecific s
Ġbr ook
Ġsal azar
Ġmad agascar
Ġbu zz
Ġoff sp
Ġna h
Ġcr umb
Ġcr udup
ath y
ath an
Ġsc am
Ġsc ra
Ġsc ram
25 9
ap es
Ġapp ropriate
12 6
12 99
Ġmon arch
Ġsum mary
Ġsyn ch
aw a
Ġthrill ed
Ġcrit ical
Ġfire work
Ġmiss ions
Ġfamil ies
Ġdin osaur
Ġrel ies
wh y
wh en
act ic
Ġblo om
Ġed en
ug al
Ġlu is
ty pe
Ġext reme
Ġfun k
Ġdist inct
Ġmerc y
val ry
Ġsl ice
Ġthough ts
Ġsof abeds
Ġri valry
Ġpa o
Ġmain ly
Ġsepar ated
Ġhan uk
Ġcir cus
Ġfur s
Ġsn oop
Ġstr anger
Ġfollow ed
Ġran ks
Ġshut ter
Ġkeep ing
Ġmat s
Ġatt itude
Ġhard wood
fortun e
Ġpac ked
Ġtrack s
Ġfight er
Ġprop osal
Ġma ud
Ġaccess ible
Ġsat is
Ġmc d
Ġmc car
Ġflo cka
Ġmight y
Ġbeast ie
xx x
23 7
Ġmatch box
Ġdream works
Ġtrain s
Ġtrain wreck
Ġbarb arian
ang led
fo ld
Ġid aho
Ġtill er
Ġpit bull
Ġthor nton
Ġcol a
Ġjour n
Ġcam ila
Ġwood y
Ġes cal
zz ly
24 1
Ġcourt ney
Ġaudi oslave
Ġmem phis
Ġmach ina
Ġwild er
res ident
Ġshall ows
Ġdeal er
Ġsub t
Ġsub way
Ġsub mar
Ġbout iques
Ġcann oli
imp osed
ron om
Ġgod z
Ġsmith s
ape Ã±
Ġthur isaz
Ġcast ro
Ġcatch y
Ġeng age
Ġeng ulf
Ġeng aged
37 1
Ġfet ch
Ġdeep ly
Ġinc ident
Ġveget ables
Ġeast ern
Ġmot ion
Ġridge mont
Ġread ing
Ġcomm and
Ġcateg ories
uel ed
Ġatl antic
Ġci abatta
Ġimag ination
Ġearth born
Ġpitt ed
Ġoper a
Ġint rigu
Ġconsider ed
Ġcap ital
Ġhaw ke
Ġdu a
da vid
Ġrh ett
Ġstor ies
Ġhappen ed
ex plic
Ġmagic ian
Ġtam bour
Ġcab ello
Ġsail ors
Ġaud io
Ġgro hl
Ġcra fts
Ġgar th
Ġlif ts
Ġstep hen
Ġling us
Ġbegin ning
Ġjon ah
Ġguit ars
Ġast or
Ġast rona
Ġlemon ades
Ġsurf ace
Ġshare s
Ġjess ica
Ġmis o
Ġce ilings
Ġopp ressive
Ġmir age
Ġmir anda
Ġut il
Ġcomb at
Ġow en
Ġjal apeÃ±
Ġrecru iting
Ġexplo re
Ġincred ib
Ġclear ly
Ġlis bon
Ġexpl ain
Ġrecord ed
Ġwal ter
Ġbi opic
Ġkay ak
Ġbrick work
Ġalex and
Ġinvestig ate
Ġsex ual
Ġconven ient
Ġterror ism
Ġmatth ews
Âłshow ing
Ġmont gom
Ġanch orman
Ġreun ites
Ġbrave heart
Ġlyn ch
Ġbeyon cÃ©
Ġash es
Ġimm edi
Ġanth ony
Ġfashion able
Ġgri zzly
Ġsty les
Ġkrist en
Ġprevious ly
Ġexplor ing
Ġrespon se
Ġmou th
Ġcarpent ers
Ġoccup ied
Ġtas ked
Ġorch estra
ww w
rem ix
Ġbry son
Ġhotdo g
Ġhotdo gs
Ġeas ier
Ġdeck ard
Ġ96 146
Ġmonke es
Ġmonke ys
Ġamid st
Ġscen ic
Ġtem plar
Ġsight seeing
Ġfred dy
Ġren ner
Ġplant ation
Ġchall en
Ġmara is
Ġlaz arus
Ġque ue
Ġassign ment
Ġlangu age
pet er
Ġfund amental
Ġmash ed
Ġpun ish
Ġdyn amite
Ġnom inee
Ġnav y
Ġarrow ood
Ġrestrict ions
Ġcolumb us
Ġegypt ian
bea uty
nat ural
Ġlum ineers
Ġgor illaz
Ġhood ie
Ġrese arch
Ġkath ryn
Ġloy al
Ġembr ace
Ġexped ition
Ġnorm ally
Ġtempt ations
Ġfed eral
Ġmim os
Ġgare th
Ġmos cone
Ġnocturn al
Ġshatt uck
Ġvent ura
nix on
Ġpose idon
Ġbod ak
Ġdiscon nect
Ġmathem atical
Ġrecogni zed
dry ers
Ġthom pson
Ġsg t
Ġsni per
Ġwast eland
Ġdarl ing
Ġinhab ited
Ġjes us
Ġalph a
Ġratat ouill
Ġchronic les
Ġschem e
Ġinstall ment
Ġintellig ence
Ġopul ent
Ġsuprem acy
mor gan
temp o
Ġllo yd
Ġlaur a
Ġstol en
Ġstath am
Ġjep sen
Ġprefren ces
Ġarbo les
Ġvortig ern
Ġlavig ne
Ġexot ic
Ġsabr ina
Ġmilks h
Ġoffsp ring
Ġscram bled
Ġhanuk kah
Ġsubmar ine
Ġengulf ing
Ġtambour ine
Ġcrafts man
Ġmontgom ery
Ġratatouill e
' ?
, "
0 800
2 45
4 39
5 99
6 3
8 2
] .
a ab
a ft
a ughter
a udio
b um
b lock
b istro
c at
c ell
c ity
d el
e th
e ath
f x
f ly
f are
f rench
f ying
g or
g ate
g ens
g ade
g ulf
g olf
h igh
h ony
h orts
i ere
i ot
j ack
j osh
k on
k ely
k atherine
l ide
l ished
l ily
m ill
m ath
n ow
n ical
o a
o ked
o van
p owers
r at
r ne
s w
s ou
s et
s and
s ak
u der
w a
w el
w it
w ide
y out
z an
Ã ¡
Ã ³
Ġ ur
Ġ ess
an ner
Ġt el
Ġt ight
Ġt ile
Ġt rench
Ġt iki
Ġt ube
Ġt ibur
Ġt araji
er ts
as ure
as ia
ou x
ant ed
ant hony
Ġa gg
Ġa kon
ist ol
Ġi l
Ġi re
ass es
Ġh tt
Ġh orton
Ġh mm
Ġo tt
Ġo ingo
Ġy el
Ġy am
Ġs edu
Ġs ells
Ġs za
Ġw ing
at ello
Ġf ool
Ġf erry
Ġc ou
Ġc ong
Ġc ute
Ġl b
Ġl ach
Ġl ala
Ġp ak
Ġp ig
Ġp ix
Ġp ath
Ġp uff
Ġp enny
Ġp elic
Ġp orter
Ġp istol
Ġb ing
Ġb or
Ġb ent
Ġb ree
Ġb ale
Ġb ooth
Ġb aker
el ia
ing ale
Ġan ast
or f
or is
or ne
Ġg a
Ġg ail
Ġg rip
Ġg ord
Ġg uster
Ġd im
Ġd ry
Ġd enn
Ġd izz
ar m
ar co
om ing
Ġn c
Ġn er
Ġn am
Ġn ca
Ġn ba
Ġn iece
th al
th ouses
Ġho ly
Ġho ag
Ġfor ge
Ġis su
ic ally
ic ated
Ġli am
Ġli kely
Ġin qu
ed ul
ed elic
le w
ve tte
Ġr ally
Ġr ach
Ġcan adian
ld orf
Ġhel ms
Ġof elia
Ġha unt
Ġre ne
Ġme ment
Ġbe gan
it age
ch i
ch eck
Ġthank ful
Ġne ph
Ġst air
Ġst ained
Ġby rne
Ġor son
Ġdo ves
Ġdo die
Ġj a
Ġj ar
Ġpl un
Ġpl um
Ġch ime
Ġch iron
ct uary
ea gue
ea zy
ur ous
Ġno fx
Ġab ilities
Ġsome how
Ġro s
Ġro by
Ġro gan
Ġro berts
Ġel ton
Ġel usive
Ġel isa
im o
im stone
Ġe ff
Ġe vid
Ġk ar
Ġk ir
Ġk ren
Ġk ip
Ġk ris
Ġk roc
Ġk aab
Ġal icia
id y
Ġgreat ly
est on
Ġsh out
Ġsh een
Ġsh ark
Ġsh ama
Ġsh ipp
ad as
ver t
am i
am y
Ġfl ow
Ġfl utter
Ġnight ingale
ri an
ri us
ri ot
Ġpr ada
Ġam asses
Ġso vi
if act
ater al
ge ant
Ġen emies
Ġlo re
Ġlo aded
Ġsp ark
Ġmu d
Ġco sm
Ġco horts
Ġtr an
Ġtr ident
Ġtr ilo
Ġtr oops
Ġstar man
Ġstar red
Ġyea p
ess el
qu ality
and ed
ter restrial
Ġhas n
Ġpar c
Ġpar ano
Ġwatch ed
Ġ7 9
Ġ7 89
Ġad mission
Ġmar ath
Ġmar quis
Ġthink s
Ġde fiance
Ġdet ermin
Âł 5
Âł l
Âł an
Âł st
Âł con
Âł so
Âł ne
Âł ca
Âł sa
Âł guardians
ate ur
Ġcon an
Ġcon vers
Ġv ary
Ġv essel
Ġnear ly
Ġwell s
ach a
Ġman kind
Ġla zy
Ġla uder
Ġart ifact
ac ing
ni um
Ġpo land
Ġdr aft
Ġcl ine
Ġcl are
Ġcl ip
Ġbo red
Ġbo lton
Ġbo ingo
ro b
ro ad
ro bert
Ġdon ovan
Ġdon atello
iz er
own s
Ġbeach side
15 3
Ġem ile
Ġ8 3
Ġex ile
Ġdi vision
ber ger
Ġle x
Ġle vy
Ġle onard
Ġret ired
ite ct
Ġres cue
Ġres cu
Ġkind ness
pl an
30 3
ci a
50 4
50 5
Ġsan g
Ġsan ity
Ġsan ctuary
Ġcal m
Ġcal vin
Ġhigh land
Ġgen etic
Ġcar rey
Ġunder cover
Ġsa unders
rit ic
Ġfit ting
Ġclo thes
Ġun its
ig rant
Ġfil ter
Ġinterest s
ab ase
Ġgr avi
Ġsim ply
Ġconf ident
Ġconf idence
20 15
pp ard
Ġflat lin
ra ct
Ġaf fect
Ġpartic ip
Ġcoffee house
Ġmil an
Ġher itage
ger ton
Ġunt ouchables
ol ous
Ġ19 10
Ġ19 80
Ġ19 44
17 3
Ġplan es
Ġreg ional
Ġreg iment
Ġproblem s
300 0
Ġsw a
Ġafter math
Ġpalm dale
iss erie
Ġlou der
Ġbr anch
Ġbr usch
Ġbr imstone
Ġinform al
go on
Ġred man
Ġrec re
Ġbu chan
Ġland sc
Ġgl az
Ġgl oria
Ġcr out
Ġmor ial
Ġmor ris
Ġdown load
Ġbus y
Ġsc ale
ap ore
Ġ15 00
13 3
Ġph ar
Ġmorning s
Ġover ton
Ġlot us
Ġmon str
Ġcre ate
Ġcre pes
Ġcont ains
Ġdel oris
Ġwa ldorf
Ġz iti
Ġfire house
Ġmiss ed
Ġwor st
Ġter ra
Ġfar rell
35 6
ict ed
Ġcare ers
Ġbig ger
Ġbit es
Ġexp os
16 7
Ġmoder ate
Ġecon o
Ġlu pe
Ġhul k
Ġwater fall
Ġdec ades
Ġsand ler
sh ell
sh aped
Ġfeel ings
Ġfo ld
Ġwash er
Ġea ger
18 1
19 1
19 2
den zel
Ġhar ris
Ġsl aughter
Ġangel s
Ġsec ure
Ġsuper powers
Ġri ot
Ġser ial
Ġser geant
Ġham burg
Ġhapp ier
Ġmed ical
Ġdescri ptions
Ġsn ake
Ġpat sy
Ġpat riot
Ġpat isserie
Ġele ven
Ġhy p
Ġtea ms
Ġcapt ure
Ġassist ing
Ġve al
Ġdis pl
Ġdis cipl
Ġpir ate
Ġmat r
Ġbud we
Ġpass ing
Ġspace craft
Ġhead ing
Ġhead strong
Ġegg plant
Ġchan cell
Ġleg s
Ġboss es
Ġsoon er
Ġsoon est
ps y
Ġsch edul
Ġcourtyard s
Ġra id
Ġreal ity
Ġspider man
Ġinst ant
Ġacc ents
Ġmatt resses
23 1
23 4
23 6
27 1
Ġson ny
Ġdream ing
Ġacti vity
Ġent ry
Ġtrans it
Ġtrans fer
Ġselect ions
Ġmurder s
Ġid es
Ġpit a
Ġuse ful
Ġlow e
Ġtit les
ient s
Ġvo id
Ġfore ign
Ġdish wash
28 1
28 7
Ġchann el
24 6
24 7
Ġslo pe
Ġport ugal
Âłh as
Âłh old
Âłh otel
Ġmem or
Ġsit s
Ġroy ale
Ġwild life
Ġfair port
Ġcreed ence
Ġsleep y
Ġarch itect
Ġpsych edelic
26 1
Ġhur ts
Ġsac rif
Ġstyl ed
Ġturn ing
Ġcast away
Ġnick s
Ġeng ineer
Ġlamb s
Ġtri ada
Ġcoll usion
Ġcoll eague
Ġcoll ateral
Ġsteven son
Ġben eath
Ġmot or
Ġexper t
ik k
Ġpant ry
Ġcle ment
Ġallow ed
Ġram p
Ġdem arco
Ġhunt ington
Ġsy fy
Ġfle x
Ġmass acre
Ġlaw yer
Ġball s
Ġint ense
Âłm ay
Ġlear ning
Ġwarm ly
Ġhost iles
Ġatmosph eric
Ġhaw kins
Ġkra ut
Ġob sc
Ġob vious
Ġkiss ed
Ġdu o
nect ar
Ġremind er
Ġhen ley
count ing
look ing
off ice
Ġer so
Ġtam arack
Ġrust on
Âłw ill
Ġop ens
Ġappe ar
Ġkno ck
Ġ197 7
Ġ200 7
Ġmanh ood
Ġgar field
Ġgar rix
van ia
Ġreason s
Ġjon as
Ġhash br
Ġquick ly
Ġspeak ing
Ġast oria
Ġast ronom
Ġches ney
Ġven ues
Ġ94 109
Ġcamp us
Ġpen thouses
Ġinde ed
Ġta vern
Ġwol ves
Ġpap aya
Ġgat sby
Ġ34 103
Ġbrief case
Ġbirth day
Ġmis ery
Ġje ff
Ġappet it
Ġopp os
Âłf ound
Ġoak ridge
Ġmir ac
Ġalter n
Ġalter ed
Ġsocial s
Ġswitch ing
Ġpup py
Ġinch es
Ġadvent urous
Ġexplo res
Ġelect ric
110 1
Ġfab olous
Ġphill y
Ġref le
Ġultim atum
Ġthr ust
Ġthr ice
Ġthr one
Ġide as
Ġmam ma
Ġcontro vers
oin ted
Ġhous ed
Ġcult ural
Ġbass nectar
Ġrout ine
Ġsex es
Ġchains aw
Ġuh m
Ġauth ority
Ġreun ion
Ġshar ks
Ġawak ened
Ġemot ion
Ġdifficult ies
Ġpupp ets
Ġtor o
Ġox ygen
Ġlyn n
Ġinf ilt
Ġruss ian
Ġstew art
Ġapocaly ptic
Ġappetiz er
Ġbab ies
Ġep iso
Ġappl ic
Ġimm igrant
Ġanth em
Ġtort illa
Ġbomb s
Ġrip ley
Âłb ut
Ġhawth orne
Ġexplor er
Ġrecon nect
Ġstrip ped
Ġky go
Ġtrop ical
Ġvar ious
Ġrespon ders
Ġcorpor ate
eph one
Ġteenag ers
Ġgradu ation
Ġtar get
Ġpack age
Ġny c
Ġinflu ential
Ġagu ilar
Ġindivid ual
Ġwire less
Ġprison er
Ġdevel ops
ronic ity
Ġintro du
zo ey
Ġmob ile
Ġreve aled
Ġrod eway
Ġeas ily
Ġprim arily
Ġ78 1
Ġemp loy
Ġcris is
Ġcris py
Ġcass idy
Ġcro ce
Ġpenn syl
Ġgil bert
Ġnin j
Ġpercent age
Ġbrent wood
Ġclaim s
Ġscen es
Ġhorri ble
Âłmo vie
Ġsurpris ing
Ġandrew s
won der
Ġwit ness
Ġstring s
Ġsi xt
Ġexam ple
Ġestab lish
Ġsteam ed
graph y
Ġhay ek
Ġgather ing
Ġdat abase
Ġlit re
Ġpress ure
Ġarm ada
Ġspl ash
Ġmercen ary
Ġira q
Ġhick ory
Ġles lie
Ġpy ram
Ġneg ro
Ġjag ged
Ġrobo t
Ġshoo ting
Ġmarco s
Ġvaugh an
Ġexorc ist
Ġunc aged
Ġoceans ide
Ġbatter ies
Ġaccompl ished
Ġpor ch
Ġdrunk en
iza beth
Ġcarri age
Ġclover field
Ġreli ving
Ġpursu it
Ġimprison ed
Ġevacu ated
Ġspectac ular
Ġchandel ier
Ġmcconaugh ey
flo or
Ġhatch es
Ġhob bit
Ġinvi te
Ġmoz art
Ġstun ning
Ġsevent een
Ġchas ing
Ġchoo sing
Ġchester field
Âłper form
Ġvie jo
Ġsald ana
Ġcrumb ling
Ġsynch ronicity
Ġdinosaur s
Ġescal ante
Ġgodz illa
Ġintrigu ing
explic it
Ġincredib ly
Ġalexand ria
Ġimmedi ately
yout ube
Ġtel ephone
Ġtibur on
Ġire land
Ġlach ow
Ġpak istan
Ġpelic an
Ġanast asia
Ġdenn is
Ġdizz y
Ġnca a
Ġissu es
Ġrene gade
Ġmement o
Ġneph ew
Ġplun ge
Ġroby n
Ġevid ence
Ġkren nic
Ġkaab il
Ġtrilo gy
Ġmarath on
Ġdetermin ed
Ġconvers ation
Ġlauder dale
Ġrescu ing
Ġgravi ty
Ġflatlin ers
Ġmonstr ous
Ġslaughter house
Ġchancell or
Ġastronom er
Ġepiso de
Ġpennsyl vania
2 14
3 40
3 25
4 49
4 37
5 13
5 49
6 2
6 30
6 95
7 2
7 8
8 5
? .
a id
b et
b ro
b ria
c ence
c ca
c ett
d rill
d ram
f ueled
g ame
g reen
g na
g io
h d
h is
i ves
i ka
i iara
j e
j ude
j ones
k as
k ate
k ward
k rist
l b
l aur
l ings
l iam
l sey
l ucas
m at
m ble
n ut
n ot
n ett
n uts
o ch
o thy
p rin
p iece
p ublic
p athy
r as
r ast
r ich
r up
r ical
r acy
s er
s am
s ink
s ully
s ky
s dale
s ided
t emporary
t elling
u h
u i
u ge
u pt
v or
w o
w an
y ne
y ster
y ani
z i
Ã ¼
Ġ q
Ġ et
Ġ antic
an or
an ces
an gel
an gon
Ġt x
Ġt ir
Ġt end
Ġt ire
Ġt ips
Ġt iff
er i
er ge
is u
Ġth irt
ant yne
Ġa ul
Ġa chie
ist o
ist ed
Ġi ow
ass ion
ass au
Ġh ust
Ġo l
Ġo s
Ġo ates
Ġo lly
Ġo live
Ġo yster
Ġs ed
Ġs id
Ġs avor
Ġs ade
Ġw rought
in son
in flu
re w
Ġf ul
Ġf um
Ġf aw
Ġf anta
Ġf ug
Ġf ift
Ġm p
Ġm and
Ġm ort
Ġm ah
Ġm ante
Ġc n
Ġc il
Ġc rib
Ġthe o
Ġthe ory
Ġl ass
Ġl ent
Ġl oose
Ġl ooked
Ġl ush
Ġp oo
Ġp our
Ġp ico
Ġb ust
Ġb room
Ġb ern
Ġb order
Ġb enny
Ġb uster
el et
es a
es ana
es ha
es cence
Ġan xious
Ġto to
Ġto wards
Ġg ast
Ġg rit
Ġg ai
Ġg ross
Ġg ables
on as
Ġd ed
Ġd ash
Ġd uel
Ġd ressed
Ġd ata
en io
ar is
ar ill
om bed
Ġn un
Ġn ix
Ġn elly
Ġn azi
Ġn assau
th ere
th ew
th ead
th etic
Ġthat s
Ġho le
Ġho pes
Ġho llow
ke h
oo f
ll s
Ġfor sak
Ġis ol
Ġon ere
ic an
ic ulous
Ġli z
Ġin se
ed on
Ġwh op
le e
le te
ve ment
Ġlike wise
Ġwi ig
Ġwi lm
Ġr al
Ġr if
Ġr ale
Ġr az
Ġr ash
Ġr ida
Ġr aces
Ġr ising
vi an
vi ll
vi ron
Ġhel sink
Ġmo le
Ġmo ss
Ġmo cking
Ġha gg
Ġha lsey
Ġre cl
Ġre ef
Ġre fre
Ġre dem
Ġbe ver
Ġbe ard
il ian
Ġwith ersp
al es
al ho
Ġne mes
Ġne cr
se c
Ġst ard
Ġst ack
Ġst airs
nd own
st yl
st airs
Ġdo l
Ġdo ck
Ġdo pe
ent ions
ent less
Ġat leas
Ġsu ey
Ġsu tter
Ġgood ness
Ġgood man
Ġj as
Ġj ew
Ġj ef
Ġpl ots
Ġgo at
Ġgo tta
Ġch ained
Ġch ateau
Ġch else
ea ks
ur ies
ur ity
ur ate
ur ian
Ġfr ida
Ġno ah
Ġno xious
Ġsome what
Ġhi de
Ġhi rs
ail er
Ġro x
Ġro cks
Ġel der
Ġel em
Ġel abor
Ġel izabeth
im ely
im ony
Ġe co
Ġe fr
Ġe vol
der n
der o
der ick
Ġk m
Ġk en
Ġk am
Ġk ool
Ġk os
Ġk ai
Ġk aylor
Ġk ha
Ġk icked
Ġk han
Ġk iiara
Ġk esha
Ġal f
Ġal oo
Ġal berts
Ġal esana
Ġper cy
id ance
id io
Ġgre ens
ir ing
Ġsh ips
Ġsh akes
ad is
ad ill
Ġwill is
Ġu zi
ver ted
all ion
am ind
am isu
ce mi
Ġfl ick
Ġfl ume
ri ders
Ġall e
Ġlet ting
Ġpr y
Ġpr ide
Ġpr act
Ġpre order
Ġam anda
Ġam ateur
Ġso il
Ġso ber
Ġhe ath
Ġhe els
Ġhe ather
if e
Ġar nett
Ġen s
Ġen viron
Ġlo g
Ġsp ra
Ġsp eaks
Ġmu f
Ġmu ni
Ġmu nic
Ġco erc
Ġco hen
Ġtr ou
Ġtr att
Ġtr ap
Ġtr uff
Ġstar k
Ġstar ters
Ġout ta
qu een
qu eline
ak ota
ly n
Ġ3 30
Ġ3 46
ter ranean
Ġpar ade
Ġ4 75
Ġmy ers
Ġav a
end etta
Ġwel sh
um ed
Ġwatch ful
Ġas em
Ġad ler
Ġbre ed
Ġmar x
Ġmar ry
Ġmar ie
Ġmar lin
Ġde icide
Ġup to
Ġup ris
Ġup ended
Âł '
Âł im
Âł ro
Âł up
Âł 20
Âł 25
Âł 24
Âł play
Âł cal
Âł mini
Âł enjoy
Âł arri
Âł xxx
Âł resident
Âł counting
Ġvi k
Ġvi va
Ġvi tale
Ġcon ci
Ġcon rad
Ġcon verted
Ġ5 2
Ġ5 4
Ġnow here
Ġv ance
Ġv od
Ġv adis
Ġpe ele
Ġman n
Ġman or
Ġla pt
ac ris
Ġfe ist
Ġfe es
Ġpo e
Ġpo ss
Ġpo ki
Ġcl ues
Ġcl uel
Ġcl utch
Ġcl ancy
ack er
Ġ6 24
de bra
Ġhold ing
Ġbo keh
Ġaw kward
Ġgu idance
Ġqu o
Ġqu irk
ough t
are n
Ġtom b
Ġlist ings
Ġ8 7
fi re
ers et
ions hip
Ġex ter
Ġdi gg
Ġle ppard
Ġwhere ver
Ġres ume
Ġreturn ed
Ġair pl
do g
30 7
50 3
Ġadd iction
Ġclass y
Ġhome y
Ġinter state
Ġcal cul
Ġgen e
Ġgen ere
Ġcar ter
Ġcar ond
Ġunder t
Ġunder wood
Ġsa u
Ġsa bb
ag ata
Ġfran z
een ey
Ġjo ey
Ġjo kes
Ġjo anna
Ġthrough out
az ilian
Ġun fold
ab o
ab out
ning s
Ġgr own
Ġgr ave
Ġset up
Ġsim pson
Ġconf used
20 1
20 4
ian g
Ġdirect s
pp ers
Ġbet ty
Ġreview ers
Ġlar b
Ġlar ger
Ġbur g
Ġcho ir
Ġcour ageous
Ġsimilar ly
Ġher mit
Ġlast ing
Ġunt imely
Ġ19 9
Ġ19 14
Ġ19 97
ep ing
Ġsw an
Ġsw eeney
Ġstand ing
99 9
Ġbest s
Ġlou ise
Ġbr ain
Ġbr ains
Ġbr azilian
Ġred dy
Ġsal v
Ġsal ma
Ġwar ren
ile e
Ġah i
ops y
per ville
Ġrec urring
Ġdes k
Ġdes laur
Ġbu cke
Ġguest room
Ġna vig
Ġna perville
Ġgl as
Ġgl am
Ġgl enn
Ġcr ush
ash a
Ġbus cemi
Ġsc ars
Ġsc ene
Ġsc ript
Ġgy llen
25 2
Ġsuggest s
ap olis
Ġ12 7
Ġsm oked
Ġbusiness man
Ġover p
Ġover come
Ġtravel od
Ġmon k
Ġmon key
ot es
Ġcre ated
Ġcre ative
Ġcont rast
Ġsyn thetic
Ġcinem atic
Ġkid ding
âĢ Ŀ
Ġke aton
Ġsk in
Ġhor izon
ip al
Ġz h
Ġz ip
Ġmet ric
49 7
Ġdin ners
Ġchild hood
55 4
Ġcas ab
Ġrel entless
Ġhouse keep
Ġstop ping
Ġbig gie
16 3
Ġpur ge
ca dero
Ġed itor
Ġed gerton
Ġscreen s
Ġperform ances
Ġlu kas
Ġgold f
Ġnum bers
Ġsing apore
Ġhad n
Ġcomp et
Ġdrink ing
Ġpull ing
Ġstill berger
Ġfo es
Ġbel le
Ġea mon
Ġfun eral
18 3
red ients
Ġwars aw
Ġhar v
Ġhar sh
Ġrem em
Ġsl ide
Ġsl iced
ai k
ins ale
Ġear ned
Ġhit mans
Ġclub s
Ġbow ling
Ġchar ges
Ġsof ter
Ġser ena
Ġanim al
Ġanim ations
Ġdesc ended
Ġhan na
Ġrock ing
Ġfur t
Ġsn l
Ġsn ack
Ġsn eak
Ġpat rick
Ġele v
ph ones
Ġstr uct
Ġsco tty
Ġ23 4
Ġbarbe cu
Ġdis app
Ġpoin te
Ġsur vey
Ġfall en
Ġbill boards
11 11
Ġjul iet
Ġbon nie
Ġbon eless
Ġdam n
Ġdam ian
Ġhead phones
Ġste ely
Ġmyster ies
Ġgreen house
Ġcott a
Ġcott on
Ġpay phone
Ġbro derick
Ġcup s
Ġpleas ant
Ġdan e
Ġdan ville
Ġsun rise
Ġsun set
oc racy
Ġpol ish
Ġwall ace
Ġreal ize
Ġscore s
Ġmur s
Ġacc urate
Ġstuff ed
27 8
Ġson ic
Ġfinal ize
Ġtur ndown
Ġeyes down
Ġent angled
Ġent ombed
ona ld
Ġlake wood
Ġminifr idge
Ġcharl ize
Ġcharl eston
Ġlady bird
Ġlow riders
Ġcam pton
Ġcam bria
Ġcam arill
Ġpad re
Ġsav ages
Ġheart break
Ġsam son
Ġsam uel
Ġkill s
Ġsus an
Ġsus hi
Ġparty ing
28 2
28 4
28 80
vis ed
24 8
Ġsom erset
Ġhill side
Ġbuild s
Ġtech nic
Ġtech nical
Ġmach ines
gen cy
Ġsleep s
Ġsil icon
26 3
26 5
26 6
Ġsub du
Ġsub terranean
Âłthe ater
Ġpres idio
Ġrecei ves
Ġmag oo
Ġtri ed
Ġtri als
Ġstud ents
Ġgener ation
Ġben son
Ġweb s
Ġpant era
Ġjam a
Ġcomm ission
rop olis
Ġface book
Ġvin tage
Ġprovid ence
Ġatl as
Ġghost s
jo e
Ġsuspense ful
ha al
Ġver a
Ġbright on
Ġrap sody
Ġdem ocracy
Ġins pire
Ġhero ic
Ġball rooms
Ġint entions
Ġcondition er
Ġjen nings
Ġ40 4
Ġmark er
Ġpin t
Ġnat ural
me g
Ġspan ning
47 9
Ġsnow y
Ġhum mus
Ġboard ing
Ġlearn ed
38 5
38 7
ex istence
Ġeur opa
Ġcomplet ed
Âłw ould
Ġthousand s
Ġop in
Ġcash ew
tr ailer
Ġill ness
Ġfand angon
Ġclar ify
Ġ197 2
Ġ197 9
Ġident ities
Ġgro ve
Ġgang ster
Ġ200 9
Ġentertain ing
Ġrain fall
Ġest ate
Ġann ies
Ġsmur f
Ġmultiple x
Ġbir yani
Ġgovern ors
Ġtruth s
Ġmel fi
Ġmel ody
Ġspeak er
Ġast ley
Ġven ice
Ġ60 2
Ġoverlook s
Ġdef ine
ĠâĢ ľ
Ġje opard
americ a
34 1
of ferson
Ġmi xt
Ġdom estic
Ġbeck insale
Ġcham ber
Ġgall o
Ġgall eries
Ġdrug s
Ġrecru it
Ġexplo de
Ġexplo sive
Ġelect ron
Ġclear water
ugg ed
Ġfab ulous
Ġpill ows
Ġrecord s
Ġrichard son
Ġclean ing
Ġnut s
Ġref uge
Ġmart ina
Âłp lease
jac ob
Ġcontro ls
Ġzoot ropolis
Ġindepend ence
Ġvoc alist
Ġprodu ced
Ġprodu ction
Ġdestroy ing
Ġrid iculous
Ġexpect ing
Ġexpect ed
67 9
Ġauth or
Ġdic ed
Ġreun ite
Ġmeg amind
Ġawak ening
Ġtopp ing
Ġdum ps
Ġnic ely
Ġnic ole
Ġinf ant
Ġrac ial
Ġrebel ution
Ġstew ard
Ġallian ces
Ġnews om
Ġcrimin als
Ġsym pathy
Ġjalapen o
Ġcitiz ens
Ġimm ort
Ġtort illas
Ġhom eland
Ġkrist offerson
Ġarc adian
Ġopry land
Ġrep ublic
Ġstrip per
Ġdoom sday
Ġspect re
Ġprofess ional
har ry
Ġtar zan
Ġinflu ences
Ġdip lo
Ġcarry ing
Ġteach es
Ġfresh ly
Ġtas ks
Ġhud gens
Ġinvol ving
Ġorch ard
Ġrod ri
Ġko ala
Ġprod uce
Ġembar cadero
Ġhonest ly
Ġchamp agne
Ġcelebr ation
pal omar
Ġir vine
Ġchand ler
Ġhambur ger
Ġesc aped
Ġwheel chair
Ġyum my
Ġchall enge
Ġsho ck
Ġconv ince
Ġlaz er
Ġblur ry
Ġequal izer
Ġlangu ages
Ġcouch es
Ġdun can
Ġsaf ely
Ġsaf ety
Ġglor iana
Ġestab lished
Ġeffect s
Ġsib ling
Ġsib lings
Ġpage ant
Ġancest or
Ġisa ac
Ġisa iah
Ġrevol ver
Ġcucum ber
Ġcucum bers
Ġvert igo
Ġnichol son
pan eled
Ġath lete
Ġcandle wood
Ġjad en
Ġprep ared
Ġpreach ers
Ġpean ut
Ġmanch urian
Ġclim actic
Ġbrid get
Ġbloss oms
Ġimpro ved
Ġfaj itas
Ġauto graph
Ġdevelop ing
Ġprodig y
mad ison
Ġthund a
Ġjum bo
Ġkub o
Ġcommit ted
Ġveter an
Ġhawai ian
Ġobliter ation
Ġchimichang a
Ġbungal ows
Ġoli ves
Ġsynd icate
Ġcig ar
Ġlud acris
Ġdm c
Ġing redients
Ġwhis key
Ġseag ate
Ġamus ement
Ġasc ending
Âłany thing
Ġexcl usive
Ġdig ital
Ġbrook s
Ġscra pped
Ġmcd onald
Ġjourn al
ĠjalapeÃ± os
Ġchallen ged
Ġpunish er
Ġagg ressive
Ġil ana
Ġhtt ps
Ġyel p
Ġyam agata
Ġgrip ping
Ġgord on
lew is
Ġrach ael
Ġstair way
Ġja anu
Ġtran qu
Âłcon temporary
Ġlex ington
Ġbrusch etta
Ġglaz er
Ġwaterfall s
Ġdispl aces
Ġmatr imony
Ġbudwe iser
Ġschedul ed
Ġsacrif ice
Ġflex ible
Ġobvious ly
Ġhashbr owns
Ġoppos ite
Ġcontrovers ial
Ġapplic ation
Ġemploy ee
Ġninj ago
Ġpakistan i
drill ing
dram a
krist en
mat thew
Ġantic ip
Ġtir amisu
Ġtiff any
Ġthirt een
Ġachie vement
Ġiow a
Ġsavor y
influ enced
Ġfum es
Ġfaw cett
Ġfift een
Ġmand atory
Ġmante gna
Ġcil ant
Ġlent il
Ġnix on
Ġforsak en
Ġonere public
Ġwilm ington
Ġral ph
Ġrash ad
Ġhelsink i
Ġhagg ard
Ġrefre sh
Ġredem ption
Ġwithersp oon
Ġnemes is
Ġatleas t
Ġchelse a
Ġhirs ch
Ġelabor ate
Ġefr on
Ġkos her
Ġkha o
adill ac
Ġheath row
Ġenviron ment
Ġspra wling
Ġmunic ipal
Ġcoerc ed
Ġtratt oria
Ġtruff le
Ġupris ing
Ġconci erge
Ġvod ka
Ġlapt op
Ġcluel ess
Ġclutch es
Ġquirk y
Ġairpl ane
Ġcarond elet
Ġsimpson s
Ġhermit age
Ġdeslaur iers
Ġbucke thead
Ġgyllen haal
Ġtravelod ge
Ġbarbecu ed
Ġcamarill o
Ġsubdu ed
Ġcommission er
Ġfandangon ow
