{"<eos>":0,"<eoc>":1,"!":2,"\"":3,"#":4,"$":5,"%":6,"&":7,"'":8,"(":9,")":10,"*":11,"+":12,",":13,"-":14,".":15,"/":16,"0":17,"1":18,"2":19,"3":20,"4":21,"5":22,"6":23,"7":24,"8":25,"9":26,":":27,";":28,"<":29,"=":30,">":31,"?":32,"@":33,"A":34,"B":35,"C":36,"D":37,"E":38,"F":39,"G":40,"H":41,"I":42,"J":43,"K":44,"L":45,"M":46,"N":47,"O":48,"P":49,"Q":50,"R":51,"S":52,"T":53,"U":54,"V":55,"W":56,"X":57,"Y":58,"Z":59,"[":60,"\\":61,"]":62,"^":63,"_":64,"`":65,"a":66,"b":67,"c":68,"d":69,"e":70,"f":71,"g":72,"h":73,"i":74,"j":75,"k":76,"l":77,"m":78,"n":79,"o":80,"p":81,"q":82,"r":83,"s":84,"t":85,"u":86,"v":87,"w":88,"x":89,"y":90,"z":91,"{":92,"|":93,"}":94,"~":95,"¡":96,"¢":97,"£":98,"¤":99,"¥":100,"¦":101,"§":102,"¨":103,"©":104,"ª":105,"«":106,"¬":107,"®":108,"¯":109,"°":110,"±":111,"²":112,"³":113,"´":114,"µ":115,"¶":116,"·":117,"¸":118,"¹":119,"º":120,"»":121,"¼":122,"½":123,"¾":124,"¿":125,"À":126,"Á":127,"Â":128,"Ã":129,"Ä":130,"Å":131,"Æ":132,"Ç":133,"È":134,"É":135,"Ê":136,"Ë":137,"Ì":138,"Í":139,"Î":140,"Ï":141,"Ð":142,"Ñ":143,"Ò":144,"Ó":145,"Ô":146,"Õ":147,"Ö":148,"×":149,"Ø":150,"Ù":151,"Ú":152,"Û":153,"Ü":154,"Ý":155,"Þ":156,"ß":157,"à":158,"á":159,"â":160,"ã":161,"ä":162,"å":163,"æ":164,"ç":165,"è":166,"é":167,"ê":168,"ë":169,"ì":170,"í":171,"î":172,"ï":173,"ð":174,"ñ":175,"ò":176,"ó":177,"ô":178,"õ":179,"ö":180,"÷":181,"ø":182,"ù":183,"ú":184,"û":185,"ü":186,"ý":187,"þ":188,"ÿ":189,"Ā":190,"ā":191,"Ă":192,"ă":193,"Ą":194,"ą":195,"Ć":196,"ć":197,"Ĉ":198,"ĉ":199,"Ċ":200,"ċ":201,"Č":202,"č":203,"Ď":204,"ď":205,"Đ":206,"đ":207,"Ē":208,"ē":209,"Ĕ":210,"ĕ":211,"Ė":212,"ė":213,"Ę":214,"ę":215,"Ě":216,"ě":217,"Ĝ":218,"ĝ":219,"Ğ":220,"ğ":221,"Ġ":222,"ġ":223,"Ģ":224,"ģ":225,"Ĥ":226,"ĥ":227,"Ħ":228,"ħ":229,"Ĩ":230,"ĩ":231,"Ī":232,"ī":233,"Ĭ":234,"ĭ":235,"Į":236,"į":237,"İ":238,"ı":239,"Ĳ":240,"ĳ":241,"Ĵ":242,"ĵ":243,"Ķ":244,"ķ":245,"ĸ":246,"Ĺ":247,"ĺ":248,"Ļ":249,"ļ":250,"Ľ":251,"ľ":252,"Ŀ":253,"ŀ":254,"Ł":255,"ł":256,"Ń":257,"an":258,"Ġt":259,"er":260,"st":261,"Ġth":262,"Ġi":263,"as":264,"ant":265,"si":266,"ou":267,"Ġa":268,"assi":269,"assist":270,"assistant":271,"us":272,"user":273,"Ġw":274,"Ġo":275,"Ġh":276,"Ġy":277,"at":278,"re":279,"in":280,"Ġf":281,"Ġthe":282,"Ġyou":283,"Ġs":284,"Ġc":285,"Ġp":286,"Ġl":287,"ay":288,"Ġm":289,"el":290,"Ġb":291,"or":292,"ing":293,"Ġan":294,"Ġto":295,"Ġd":296,"es":297,"Ġg":298,"on":299,"Ġn":300,"en":301,"th":302,"oo":303,"ar":304,"Ġok":305,"Ġand":306,"Ġokay":307,"Ġthat":308,"Ġwh":309,"Ġis":310,"ow":311,"ke":312,"Ġin":313,"ll":314,"Ġfor":315,"om":316,"Ġon":317,"gh":318,"ed":319,"ri":320,"ve":321,"Ġpl":322,"Ġli":323,"ght":324,"Ġwi":325,"Ġit":326,"Ġhel":327,"Ġre":328,"al":329,"Ġcan":330,"ic":331,"Ġlike":332,"ld":333,"'s":334,"Ġwhat":335,"ot":336,"Ġof":337,"ave":338,"Ġme":339,"Ġare":340,"ere":341,"Ġbe":342,"ould":343,"ur":344,"ight":345,"Ġne":346,"Ġthan":347,"Ġhelp":348,"Ġhave":349,"et":350,"nd":351,"Ġhow":352,"ch":353,"Ġdo":354,"ce":355,"le":356,"Ġthank":357,"Ġr":358,"ir":359,"ea":360,"is":361,"Ġat":362,"ome":363,"Ġwith":364,"ood":365,"Ġst":366,"Ġse":367,"Ġmo":368,"vi":369,"Ġthey":370,"it":371,"Ġone":372,"se":373,"out":374,"Ġwould":375,"Ġfl":376,"Ġ1":377,"ook":378,"am":379,"il":380,"ound":381,"Ġplay":382,"ion":383,"Ġch":384,"Ġhi":385,"Ġby":386,"Ġj":387,"Ġyour":388,"Ġor":389,"Ġgood":390,"Ġany":391,"Ġe":392,"Ġflight":393,"ind":394,"ent":395,"Ġhot":396,"Ġsu":397,"Ġyes":398,"'m":399,"vie":400,"Ġlook":401,"Ġhotel":402,"thing":403,"Ġk":404,"Ġthere":405,"fer":406,"Ġ2":407,"Ġab":408,"ver":409,"ast":410,"lo":411,"ct":412,"Ġgre":413,"right":414,"Ġfr":415,"Ġwill":416,"est":417,"Ġmovie":418,"Ġal":419,"Ġgreat":420,"Ġ$":421,"Ġu":422,"Ġel":423,"Ġfind":424,"Ġabout":425,"Ġgo":426,"Ġthis":427,"op":428,"Ġsome":429,"im":430,"Ġelse":431,"ail":432,"ck":433,"ell":434,"ad":435,"Ġlooking":436,"Ġju":437,"all":438,"Ġwant":439,"Ġdi":440,"der":441,"'d":442,"Ġpre":443,"Ġno":444,"Ġlo":445,"Ġrest":446,"Ġall":447,"Ġfrom":448,"Ġmu":449,"ace":450,"aur":451,"aurant":452,"Ġrestaurant":453,"Ġam":454,"Ġper":455,"Ġneed":456,"Ġhello":457,"ly":458,"day":459,"Ġbye":460,"Ġso":461,"ame":462,"nt":463,"ut":464,"ation":465,"Ġsound":466,"ase":467,"con":468,"Ġtheir":469,"Ġtim":470,"Ġplace":471,"Ġlet":472,"Ġple":473,"Ġsh":474,"Ġlast":475,"'re":476,"ble":477,"Ġwas":478,"Ġplease":479,"Ġsee":480,"Ġ4":481,"Ġsure":482,"'ll":483,"our":484,"Ġstar":485,"and":486,"ain":487,"ong":488,"Ġwho":489,"by":490,"for":491,"00":492,"Ġar":493,"Ġanything":494,"Ġsp":495,"Ġco":496,"Ġpm":497,"ers":498,"Ġsounds":499,"Ġout":500,"Ġprefer":501,"fe":502,"Ġjust":503,"Ġmuch":504,"Ġen":505,"Ġ3":506,"qu":507,"xt":508,"Ġlea":509,"ake":510,"oom":511,"ree":512,"Ġpri":513,"Ġgame":514,"Ġtime":515,"Ġright":516,"Ġnext":517,"Ġtw":518,"Ġhas":519,"Ġtr":520,"Ġnight":521,"Ġkn":522,"Ġfir":523,"Ġrat":524,"Ġfirst":525,"oy":526,"bye":527,"Ġhere":528,"co":529,"Ġalright":530,"Ġsong":531,"come":532,"Ġwel":533,"Ġtwo":534,"ther":535,"Ġwelcome":536,"Ġknow":537,"end":538,"art":539,"Ġ5":540,"Ġorder":541,"ge":542,"Ġde":543,"Ġnew":544,"ard":545,"Ġfound":546,"Ġnow":547,"Ġtell":548,"ul":549,"Ġdid":550,"eah":551,"Ġroom":552,"Ġcon":553,"Ġhe":554,"Ġyeah":555,"urn":556,"cond":557,"Ġgoodbye":558,"Ġsecond":559,"ali":560,"Ġ7":561,"Ġtoday":562,"Ġman":563,"ia":564,"ess":565,"ich":566,"ss":567,"Ġag":568,"Ġsomething":569,"joy":570,"av":571,"Ġenjoy":572,"ket":573,"Ġagain":574,"ine":575,"ater":576,"Ġplaying":577,"Ġnot":578,"os":579,"Ġas":580,"Ġprice":581,"Ġday":582,"Ġcl":583,"ci":584,"Ġret":585,"Ġsi":586,"Ġreturn":587,"ak":588,"ity":589,"ork":590,"Ġbook":591,"ink":592,"ack":593,"Ġle":594,"Ġop":595,"Ġ9":596,"ces":597,"Ġche":598,"ice":599,"Ġ&":600,"Ġmore":601,"able":602,"Ġcould":603,"Ġ10":604,"very":605,"Ġif":606,"Ġmin":607,"Ġtake":608,"Ġmy":609,"tt":610,"gu":611,"icket":612,"Ġwon":613,"Ġticket":614,"Ġ6":615,"Ġwe":616,"Ġagainst":617,"Ġfe":618,"Ġmom":619,"ass":620,"Ġmar":621,"Ġget":622,"de":623,"ate":624,"Ġgot":625,"Ġmoment":626,"Ġad":627,"Ġair":628,"Ġun":629,"um":630,"Ġdoes":631,"ence":632,"Ġcity":633,"ne":634,"ool":635,"Ġwhen":636,"Ġrating":637,"Ġthink":638,"Ġloc":639,"Ġav":640,"Ġla":641,"fect":642,"Ġcom":643,"atch":644,"ions":645,"Ġperfect":646,"so":647,"Ġqu":648,"ails":649,"ally":650,"Ġup":651,"Ġcur":652,"ro":653,"Ġfinding":654,"Ġcheck":655,"ican":656,"Âł":657,"'t":658,"ive":659,"Ġstars":660,"Ġ8":661,"Ġho":662,"Ġdet":663,"Ġwhich":664,"erv":665,"Ġcall":666,"ort":667,"rent":668,"Ġwell":669,"Ġshow":670,"ach":671,"ern":672,"Ġleave":673,"ick":674,"Ġbut":675,"Ġcurrent":676,"Ġnon":677,"pe":678,"Ġ20":679,"Ġact":680,"Ġca":681,"Ġalso":682,"Ġmay":683,"Ġdin":684,"Ġcalled":685,"ailable":686,"Ġplayed":687,"ies":688,"Ġavailable":689,"own":690,"Ġseat":691,"Ġdetails":692,"ag":693,"Ġfood":694,"Ġcali":695,"ry":696,"forn":697,"Ġstay":698,"Ġcaliforn":699,"Ġvery":700,"rip":701,"Ġclass":702,"Ġbu":703,"ner":704,"Ġcalifornia":705,"Ġbar":706,"stop":707,"Ġnear":708,"id":709,"Ġgoing":710,"Ġwin":711,"Ġbo":712,"rect":713,"un":714,"Ġv":715,"ans":716,"Ġwhere":717,"Ġarri":718,"Ġfree":719,"Ġleav":720,"Ġpar":721,"Ġmany":722,"Ġother":723,"Ġap":724,"30":725,"ber":726,"ated":727,"Ġbre":728,"ish":729,"Ġcurrently":730,"Ġsund":731,"Ġhold":732,"night":733,"Ġdep":734,"Ġthing":735,"Ġminut":736,"Ġaw":737,"be":738,"Ġrec":739,"Ġwest":740,"ences":741,"mation":742,"Ġback":743,"Ġsunday":744,"Ġthree":745,"ines":746,"ference":747,"core":748,"Ġdinner":749,"Ġoh":750,"Ġscore":751,"Ġamer":752,"Ġdepart":753,"Ġthen":754,"Ġpi":755,"Ġdr":756,"Ġwatch":757,"Ġpreferences":758,"ress":759,"zz":760,"Ġairl":761,"Ġconference":762,"son":763,"Ġtonight":764,"Ġex":765,"Ġadd":766,"ary":767,"Ġpe":768,"Ġsa":769,"ning":770,"Ġdon":771,"Ġwonder":772,"Ġcent":773,"ist":774,"ose":775,"ates":776,"Ġem":777,"Ġsan":778,"ap":779,"ft":780,"Ġ11":781,"ol":782,"Ġamerican":783,"Ġthanks":784,"gue":785,"view":786,"Ġfi":787,"Ġfour":788,"fi":789,"15":790,"Ġtheater":791,"Ġint":792,"Ġyork":793,"Ġminutes":794,"Ġgu":795,"Ġhear":796,"Ġfri":797,"ton":798,"ven":799,"Ġspe":800,"Ġtickets":801,"Ġserv":802,"Ġsend":803,"ord":804,"ness":805,"Ġinfor":806,"Ġpro":807,"Ġhou":808,"Ġopt":809,"Ġmovi":810,"Ġres":811,"esome":812,"Ġbreak":813,"Ġtom":814,"Ġkind":815,"Ġawesome":816,"Ġpark":817,"Ġmovies":818,"Ġhour":819,"alk":820,"Ġinformation":821,"Ġspeci":822,"ited":823,"Ġleague":824,"Ġbed":825,"over":826,"ts":827,"Ġfran":828,"Ġthem":829,"Ġrooms":830,"Ġlay":831,"Ġpizz":832,"Ġfly":833,"Ġwork":834,"Ġran":835,"Ġunited":836,"li":837,"fast":838,"Ġro":839,"Ġopen":840,"Ġbreakfast":841,"tty":842,"Ġsal":843,"per":844,"Ġtrip":845,"Ġea":846,"sic":847,"Ġpretty":848,"Ġlayover":849,"Ġmarch":850,"Ġcor":851,"ston":852,"atur":853,"ott":854,"Ġthose":855,"Ġgive":856,"Ġbeach":857,"Ġmusic":858,"ure":859,"Ġty":860,"Ġhome":861,"Ġoffer":862,"Ġhigh":863,"Ġart":864,"Ġtoo":865,"ead":866,"10":867,"Ġleaving":868,"Ġemail":869,"land":870,"Ġpos":871,"Ġfine":872,"ite":873,"Ġlist":874,"ek":875,"ub":876,"Ġ-":877,"ople":878,"Ġpeople":879,"ting":880,"Ġrecord":881,"nder":882,"Ġshould":883,"row":884,"Ġcorrect":885,"Ġjune":886,"ings":887,"Ġlocated":888,"Ġflights":889,"are":890,"ph":891,"ular":892,"Ġau":893,"Ġpool":894,"Ġround":895,"Ġpossi":896,"50":897,"Ġdates":898,"ru":899,"Ġquest":900,"ames":901,"ill":902,"Ġarriv":903,"Ġvi":904,"em":905,"ester":906,"Ġdel":907,"Ġplus":908,"Ġrated":909,"Ġreally":910,"Ġartist":911,"Ġloss":912,"tle":913,"Ġperson":914,"ian":915,"ough":916,"âĢ":917,"Ġchea":918,"isco":919,"do":920,"Ġairlines":921,"Ġunder":922,"Ġmor":923,"Ġtea":924,"ac":925,"Ġtype":926,"Ġpizza":927,"20":928,"fic":929,"Ġset":930,"Ġstop":931,"Ġ12":932,"Ġri":933,"Ġjo":934,"Ġmorning":935,"Ġnice":936,"Ġpossible":937,"Ġhotels":938,"Ġpick":939,"ax":940,"ore":941,"Ġfranc":942,"ites":943,"Ġoptions":944,"Ġbr":945,"Ġrestaurants":946,"Ġcheap":947,"Ġitali":948,"Ġboth":949,"Ġfrancisco":950,"als":951,"Ġwins":952,"Ġteam":953,"Ġph":954,"Ġaddress":955,"Ġdif":956,"up":957,"door":958,"Ġitalian":959,"aturday":960,"Ġsaturday":961,"ations":962,"star":963,"rit":964,"Ġbal":965,"Ġweek":966,"ab":967,"Ġeast":968,"Ġaft":969,"ntown":970,"Ġseattle":971,"Ġeven":972,"Ġpart":973,"owntown":974,"Ġlosses":975,"ady":976,"ull":977,"Ġclo":978,"Ġdowntown":979,"aw":980,"ta":981,"Ġcou":982,"Ġcu":983,"Ġbur":984,"ue":985,"oose":986,"Ġrange":987,"Ġ(":988,"Ġdiffer":989,"Ġbl":990,"Ġeat":991,"Ġte":992,"Ġcenter":993,"ked":994,"Ġchoose":995,"Ġgames":996,"Ġsuites":997,"Ġim":998,"Ġtrail":999,"Ġcas":1000,"Ġratings":1001,"sc":1002,"Ġlost":1003,"ely":1004,"Ġcar":1005,"Ġunt":1006,"Ġdifferent":1007,"Ġlater":1008,"Ġear":1009,"Ġonly":1010,"Ġhouston":1011,"Ġchic":1012,"Ġuntil":1013,"Ġbeen":1014,"Ġ15":1015,"kee":1016,"arch":1017,"other":1018,"Ġanother":1019,"gg":1020,"Ġcho":1021,"Ġking":1022,"one":1023,"gers":1024,"Ġreview":1025,"Ġred":1026,"Ġecon":1027,"Ġeconom":1028,"Ġsearch":1029,"Ġtimes":1030,"ual":1031,"Ġplan":1032,"40":1033,"Ġlooks":1034,"ance":1035,"Ġcool":1036,"Ġeconomy":1037,"Ġtrav":1038,"Ġwondering":1039,"Ġinn":1040,"Ġfew":1041,"anta":1042,"Ġhours":1043,"Ġconf":1044,"Ġready":1045,"ai":1046,"Ġtrailer":1047,"ities":1048,"Ġpo":1049,"Ġbusi":1050,"cl":1051,"Ġbusiness":1052,"Ġtry":1053,"Ġgr":1054,"port":1055,"gel":1056,"ful":1057,"blem":1058,"Ġproblem":1059,"wich":1060,"Ġcheapest":1061,"Ġfc":1062,"Ġsou":1063,"Ġ19":1064,"Ġnonstop":1065,"Ġevening":1066,"een":1067,"'ve":1068,"Ġapp":1069,"fri":1070,"ato":1071,"ril":1072,"Ġcomed":1073,"tim":1074,"Ġmi":1075,"orry":1076,"Ġbalcon":1077,"Ġapril":1078,"les":1079,"erest":1080,"ire":1081,"Ġinterest":1082,"gle":1083,"Ġsorry":1084,"Ġtravel":1085,"45":1086,"Ġangel":1087,"Ġdays":1088,"Ġquestions":1089,"ale":1090,"Ġsame":1091,"Ġmake":1092,"Ġwestern":1093,"Ġconfir":1094,"mit":1095,"Ġaround":1096,"Ġcasual":1097,"Ġgen":1098,"Ġtot":1099,"az":1100,"ple":1101,"Ġjuly":1102,"ger":1103,"Ġreserv":1104,"Ġoutdoor":1105,"ie":1106,"Ġcost":1107,"Ġclose":1108,"Ġsw":1109,"Ġamen":1110,"Ġarrive":1111,"Ġye":1112,"Ġpartic":1113,"Ġamenities":1114,"Ġless":1115,"Ġtotal":1116,"âĢĻ":1117,"Ġparticular":1118,"pt":1119,"Ġmil":1120,"Ġthr":1121,"pl":1122,"Ġfar":1123,"Ġsand":1124,"25":1125,"Ġthrough":1126,"Ġstand":1127,"Ġ16":1128,"Ġrent":1129,"Ġassistant":1130,"Ġfit":1131,"man":1132,"Ġarrives":1133,"Ġnation":1134,"Ġmex":1135,"ago":1136,"Ġsalad":1137,"ra":1138,"ors":1139,"Ġwere":1140,"ren":1141,"Ġaction":1142,"Ġsay":1143,"Ġlimit":1144,"Ġchicago":1145,"Ġsm":1146,"avis":1147,"Ġbest":1148,"Ġseating":1149,"ty":1150,"Ġah":1151,"Ġdavis":1152,"Ġreviews":1153,"Ġfeb":1154,"Ġsandwich":1155,"Ġdirect":1156,"go":1157,"Ġlos":1158,"Ġspecific":1159,"cc":1160,"Ġleast":1161,"Ġlocation":1162,"ually":1163,"Ġevery":1164,"rill":1165,"ffe":1166,"ason":1167,"chester":1168,"ont":1169,"ope":1170,"17":1171,"mos":1172,"Ġdoing":1173,"Ġtalk":1174,"Ġgoo":1175,"oon":1176,"Ġatmos":1177,"Ġatmosph":1178,"na":1179,"Ġfile":1180,"Ġstarting":1181,"ze":1182,"Ġname":1183,"Ġcre":1184,"Ġatmosphere":1185,"Ġlar":1186,"Ġangeles":1187,"Ġheard":1188,"Ġlisten":1189,"Ġparking":1190,"Ġorle":1191,"Ġsim":1192,"Ġcoach":1193,"Ġtex":1194,"Ġcomedy":1195,"Ġgoogle":1196,"Ġshowing":1197,"Ġorleans":1198,"ment":1199,"Ġdelta":1200,"Ġwalk":1201,"Ġcour":1202,"Ġneeded":1203,"Ġcoffe":1204,"Ġmaybe":1205,"Ġlitt":1206,"ath":1207,"Ġfav":1208,"Ġlittle":1209,"Ġpal":1210,"Ġleaves":1211,"Ġpersonal":1212,"ruary":1213,"Ġmexican":1214,"Ġtomato":1215,"Ġbalcony":1216,"Ġmind":1217,"Ġactually":1218,"rd":1219,"att":1220,"Ġrequ":1221,"Ġgenre":1222,"Ġfebruary":1223,"ond":1224,"Ġfive":1225,"Ġchick":1226,"Ġfull":1227,"ff":1228,"Ġmad":1229,"Ġthese":1230,"Ġfavor":1231,"Ġtv":1232,"Ġhis":1233,"Ġlong":1234,"Ġchicken":1235,"eak":1236,"ese":1237,"isi":1238,"Ġview":1239,"ernoon":1240,"Ġafternoon":1241,"Ġthai":1242,"Ġover":1243,"itch":1244,"Ġcafe":1245,"Ġtexas":1246,"Ġmeal":1247,"Ġfil":1248,"ng":1249,"mi":1250,"amp":1251,"Ġbi":1252,"Ġlou":1253,"Ġstre":1254,"sion":1255,"ush":1256,"Ġahead":1257,"Ġgl":1258,"Ġcome":1259,"get":1260,"55":1261,"yle":1262,"Ġwar":1263,"mer":1264,"Ġexp":1265,"Ġfilm":1266,"stin":1267,"Ġrepe":1268,"Ġrepeat":1269,"ous":1270,"Ġsea":1271,"Ġmost":1272,"Ġmanag":1273,"Ġexc":1274,"Ġsc":1275,"Ġind":1276,"nes":1277,"Ġdes":1278,"age":1279,"Ġreg":1280,"fin":1281,"room":1282,"orrow":1283,"Ġdish":1284,"ins":1285,"Ġeverything":1286,"bo":1287,"Ġcol":1288,"erve":1289,"Ġtomorrow":1290,"ud":1291,"Ġlove":1292,"Ġmanager":1293,"trip":1294,"Ġservice":1295,"35":1296,"Ġfitness":1297,"Ġstaying":1298,"Ġdram":1299,"Ġalb":1300,"Ġgoal":1301,"05":1302,"lish":1303,"Ġeng":1304,"ram":1305,"Ġpoin":1306,"reen":1307,"Ġdeparting":1308,"Ġeastern":1309,"Ġmini":1310,"ip":1311,"Ġairline":1312,"reci":1313,"Ġkid":1314,"Ġappreci":1315,"Ġnum":1316,"Ġyear":1317,"Ġpa":1318,"Ġamc":1319,"Ġnational":1320,"ooked":1321,"Ġ14":1322,"Ġve":1323,"Ġfin":1324,"inese":1325,"Ġchoice":1326,"sive":1327,"Ġchinese":1328,"Ġaustin":1329,"Ġfavorite":1330,"Ġdown":1331,"Ġlarge":1332,"Ġsqu":1333,"Ġappreciate":1334,"Ġz":1335,"Ġadul":1336,"wh":1337,"Ġvide":1338,"Ġ18":1339,"ium":1340,"Ġsch":1341,"Ġway":1342,"Ġguard":1343,"keeper":1344,"Ġflat":1345,"way":1346,"ento":1347,"ggest":1348,"ster":1349,"Ġseason":1350,"res":1351,"Ġsac":1352,"Ġher":1353,"Ġnumber":1354,"Ġbooked":1355,"ramento":1356,"Ġvideo":1357,"Ġcouple":1358,"Ġmiles":1359,"Ġtomatoes":1360,"Ġsacramento":1361,"12":1362,"ington":1363,"Ġhouse":1364,"Ġdate":1365,"Ġmanchester":1366,"Ġbet":1367,"Ġgal":1368,"Ġmen":1369,"Ġpremi":1370,"ensive":1371,"ilar":1372,"Ġcuisi":1373,"Ġcoffee":1374,"Ġreturning":1375,"Ġwash":1376,"Ġtakeout":1377,"ellent":1378,"Ġexcellent":1379,"Ġfam":1380,"Ġchar":1381,"Ġspa":1382,"Ġoce":1383,"Ġtop":1384,"gust":1385,"Ġcuisine":1386,"Ġland":1387,"Ġaugust":1388,"Ġocean":1389,"Ġfan":1390,"Ġincl":1391,"Ġspend":1392,"Ġairport":1393,"Ġwom":1394,"ado":1395,"Ġsimilar":1396,"300":1397,"Ġside":1398,"99":1399,"yn":1400,"Ġwithin":1401,"Ġresort":1402,"ury":1403,"food":1404,"ile":1405,"Ġtub":1406,"Ġalbum":1407,"Ġlot":1408,"Ġnearby":1409,"Ġdeparts":1410,"tu":1411,"Ġgoalkeeper":1412,"Ġshowtim":1413,"Ġstreet":1414,"Ġarea":1415,"Ġgalax":1416,"Ġhey":1417,"000":1418,"Ġgalaxy":1419,"Ġwashington":1420,"aces":1421,"Ġsl":1422,"Ġinterested":1423,"Ġrom":1424,"ition":1425,"otten":1426,"Ġoffering":1427,"Ġfamil":1428,"Ġrequire":1429,"Ġmak":1430,"Ġ17":1431,"dge":1432,"ween":1433,"Ġbeds":1434,"Ġseafood":1435,"Ġstandard":1436,"Ġdrama":1437,"Ġbetween":1438,"Ġsent":1439,"Ġsanta":1440,"Ġba":1441,"Ġsmall":1442,"Ġold":1443,"Ġdishes":1444,"Ġquart":1445,"ird":1446,"ami":1447,"Ġsteak":1448,"Ġmon":1449,"Ġmood":1450,"Ġdri":1451,"Ġ24":1452,"Ġrotten":1453,"ild":1454,"Ġwoman":1455,"Ġ13":1456,"13":1457,"ash":1458,"ember":1459,"endly":1460,"ians":1461,"Ġdraw":1462,"Ġ0":1463,"Ġbas":1464,"mber":1465,"Ġfriday":1466,"ati":1467,"Ġpalm":1468,"ls":1469,"scale":1470,"Ġconfirm":1471,"act":1472,"ward":1473,"Ġmoder":1474,"where":1475,"ments":1476,"Ġcount":1477,"Ġmenu":1478,"Ġpremier":1479,"Ġatl":1480,"vent":1481,"Ġearli":1482,"Ġmiami":1483,"Ġupscale":1484,"Ġsouth":1485,"au":1486,"hn":1487,"Ġsched":1488,"Ġspot":1489,"Ġreservations":1490,"Ġwonderful":1491,"ably":1492,"Ġburrit":1493,"eria":1494,"Ġsuggest":1495,"Ġcook":1496,"Ġhead":1497,"Ġpop":1498,"ory":1499,"Ġplanning":1500,"Ġbig":1501,"Ġplaces":1502,"ices":1503,"side":1504,"red":1505,"fore":1506,"gan":1507,"Ġsquare":1508,"use":1509,"Ġthinking":1510,"Ġglad":1511,"Ġcheese":1512,"Ġdone":1513,"Ġwhile":1514,"Ġoff":1515,"Ġbefore":1516,"Ġbooking":1517,"itchen":1518,"Ġprices":1519,"Ġhope":1520,"Ġcont":1521,"lla":1522,"lle":1523,"Ġkitchen":1524,"Ġjohn":1525,"Ġyester":1526,"Ġyesterday":1527,"Ġsit":1528,"Ġquestion":1529,"200":1530,"Ġta":1531,"Ġnor":1532,"Ġwa":1533,"Ġcare":1534,"Ġexpensive":1535,"16":1536,"Ġ25":1537,"Ġable":1538,"Ġafter":1539,"Ġdist":1540,"tter":1541,"Ġspecial":1542,"Ġinto":1543,"ida":1544,"ests":1545,"Ġchan":1546,"Ġcoming":1547,"Ġdesc":1548,"Ġpr":1549,"fort":1550,"Ġsandwiches":1551,"Ġatlanta":1552,"ks":1553,"Ġbetter":1554,"Ġflor":1555,"Ġtrad":1556,"Ġthird":1557,"Ġsept":1558,"rench":1559,"Ġcourse":1560,"Ġserve":1561,"Ġnothing":1562,"Ġ2017":1563,"ced":1564,"Ġwine":1565,"lls":1566,"Ġuni":1567,"Ġrequirements":1568,"Ġflorida":1569,"Ġchain":1570,"Ġlagu":1571,"ball":1572,"Ġver":1573,"Ġwanted":1574,"Ġpreference":1575,"Ġhad":1576,"Ġwait":1577,"ral":1578,"Ġoption":1579,"ushi":1580,"Ġquarter":1581,"Ġei":1582,"Ġseptember":1583,"ouse":1584,"Ġfrench":1585,"Ġtheat":1586,"omm":1587,"back":1588,"Ġx":1589,"Ġhim":1590,"Ġconfirmation":1591,"Ġserving":1592,"Ġschedul":1593,"Ġsushi":1594,"eld":1595,"Ġfire":1596,"Ġstri":1597,"Ġgold":1598,"Ġ\"":1599,"ert":1600,"Ġpoint":1601,"Ġport":1602,"Ġscheduled":1603,"Ġindian":1604,"Ġnap":1605,"Ġenglish":1606,"Ġveget":1607,"Ġvan":1608,"ondon":1609,"Ġgy":1610,"Ġgrill":1611,"Ġwhite":1612,"Ġamaz":1613,"Ġsaid":1614,"Ġhor":1615,"Ġma":1616,"ny":1617,"sis":1618,"Ġlat":1619,"Ġpast":1620,"aven":1621,"ter":1622,"ana":1623,"Ġlondon":1624,"Ġtraveling":1625,"Ġham":1626,"pool":1627,"Ġten":1628,"14":1629,"Ġparis":1630,"Ġweekend":1631,"vid":1632,"Ġcentral":1633,"Ġstad":1634,"Ġhighest":1635,"Ġshowtimes":1636,"Ġstadium":1637,"iss":1638,"ilad":1639,"Ġlouis":1640,"Ġlive":1641,"Ġmeet":1642,"akes":1643,"antic":1644,"Ġspr":1645,"Ġdining":1646,"Ġfamily":1647,"gn":1648,"Ġmatch":1649,"Ġden":1650,"Ġwifi":1651,"Ġmust":1652,"Ġlu":1653,"ather":1654,"Ġsum":1655,"Ġstrik":1656,"ature":1657,"Ġ30":1658,"itional":1659,"Ġreservation":1660,"Ġeither":1661,"ina":1662,"ville":1663,"Ġarriving":1664,"Ġtrying":1665,"bur":1666,"Ġjan":1667,"screen":1668,"ark":1669,"ley":1670,"Ġsalads":1671,"oc":1672,"ica":1673,"Ġ23":1674,"Ġcrit":1675,"sity":1676,"Ġbit":1677,"dy":1678,"Ġcolor":1679,"els":1680,"ford":1681,"app":1682,"ino":1683,"Ġphone":1684,"Ġuniver":1685,"Ġbay":1686,"inem":1687,"Ġnaples":1688,"11":1689,"Ġband":1690,"Ġpopular":1691,"Ġemailed":1692,"sit":1693,"Ġstyle":1694,"Ġask":1695,"Ġguess":1696,"ude":1697,"ki":1698,"ately":1699,"Ġsalt":1700,"Ġtheaters":1701,"ca":1702,"Ġdog":1703,"Ġrock":1704,"ego":1705,"Ġ28":1706,"Ġuser":1707,"elf":1708,"Ġadults":1709,"arian":1710,"alf":1711,"Ġearliest":1712,"Ġter":1713,"Ġlake":1714,"Ġsomewhere":1715,"Ġwood":1716,"Ġgi":1717,"ah":1718,"air":1719,"ise":1720,"Ġmodern":1721,"sing":1722,"Ġsyn":1723,"Ġeater":1724,"house":1725,"pers":1726,"form":1727,"Ġgolden":1728,"Ġcust":1729,".,":1730,"Ġvac":1731,"assic":1732,"Ġdall":1733,"Ġchoices":1734,"Ġuniversity":1735,"Ġcustom":1736,"Ġdallas":1737,"Ġjolla":1738,"Ġromantic":1739,"ckt":1740,"Ġactor":1741,"Ġvacation":1742,"ters":1743,"Ġinclude":1744,"Ġ22":1745,"Ġcockt":1746,"Ġever":1747,"Ġdeparture":1748,"Ġvegetarian":1749,"Ġdiego":1750,"phia":1751,"Ġdrive":1752,"wn":1753,"elphia":1754,"Ġminute":1755,"iladelphia":1756,"49":1757,"Ġcinem":1758,"ham":1759,"ilton":1760,"Ġphiladelphia":1761,"Ġlaguna":1762,"uary":1763,"Ġactors":1764,"Ġsynop":1765,"ving":1766,"Ġmain":1767,"Ġorland":1768,"Ġdistance":1769,"dg":1770,"Ġus":1771,"Ġac":1772,"Ġsynopsis":1773,"Ġaway":1774,"Ġorlando":1775,"Ġrel":1776,"field":1777,"Ġburgers":1778,"to":1779,"Ġworks":1780,"Ġmade":1781,"Ġeatery":1782,"Ġhilton":1783,"ourne":1784,"Ġclassic":1785,"Ġhalf":1786,"otte":1787,"Ġsport":1788,"cial":1789,"bad":1790,"Ġyoutu":1791,"Ġcru":1792,"ris":1793,"Ġdece":1794,"Ġamazon":1795,"Ġyoutube":1796,"Ġdrink":1797,"Ġcharl":1798,"Ġwor":1799,"Ġserves":1800,"Ġqueen":1801,"Ġcharlotte":1802,"Ġguests":1803,"Ġportland":1804,"Ġbad":1805,"Ġguardians":1806,"Ġtraditional":1807,"Ġjanuary":1808,"18":1809,"Ġdecember":1810,"Ġthrill":1811,"Ġpur":1812,"Ġstill":1813,"Ġsoup":1814,"Ġfries":1815,"Ġcentury":1816,"ampton":1817,"Ġcr":1818,"Ġspace":1819,"Ġsafe":1820,"Ġeach":1821,"Ġed":1822,"Ġfare":1823,"Ġflying":1824,"ele":1825,"Ġearly":1826,"Ġstriker":1827,"ator":1828,"Ġcomp":1829,"gin":1830,"Ġ21":1831,"Ġdenver":1832,"Ġassist":1833,"Ġdress":1834,"Ġste":1835,"Ġlatest":1836,"Ġpep":1837,"Ġwalking":1838,"aturing":1839,"Ġinteresting":1840,"Ġdescri":1841,"Ġori":1842,"Ġfeaturing":1843,"Ġdefin":1844,"Ġlayovers":1845,"Ġchild":1846,"Ġimport":1847,"self":1848,"Ġhop":1849,"Ġ26":1850,"Ġfeature":1851,"min":1852,"eni":1853,"unch":1854,"Ġspecifications":1855,"Ġwater":1856,"mal":1857,"Ġbeat":1858,"Ġdoesn":1859,"Ġnorth":1860,"Ġneeds":1861,"Ġindoor":1862,"Ġcode":1863,"lsbad":1864,"Ġhapp":1865,"Ġnash":1866,"ota":1867,"Ġclosest":1868,"fk":1869,"Ġburn":1870,"Ġsocc":1871,"Ġsoccer":1872,"Ġsin":1873,"Ġsize":1874,"Ġholi":1875,"Ġcarlsbad":1876,"Ġholiday":1877,"cast":1878,"Ġpir":1879,"Ġdirector":1880,"Ġmic":1881,"Ġjfk":1882,"Ġnashville":1883,"cle":1884,"Ġsau":1885,"ever":1886,"friger":1887,"Ġimportant":1888,"Ġmatt":1889,"Ġbel":1890,"Ġ27":1891,"Ġcolorado":1892,"fc":1893,"loss":1894,"aves":1895,"Ġrecent":1896,"Ġacc":1897,"Ġlate":1898,"ror":1899,"Ġdess":1900,"ung":1901,"Ġcustomer":1902,"Ġfeel":1903,"Ġbaby":1904,"Ġti":1905,"Ġtor":1906,"Ġfant":1907,"ics":1908,"Ġcommer":1909,"Ġimax":1910,"Ġwat":1911,"Ġsec":1912,"Ġdeli":1913,"âĢĭ":1914,"itely":1915,"Ġshe":1916,"Ġdefinitely":1917,"Ġcover":1918,"Ġbrew":1919,"venture":1920,"ount":1921,"oot":1922,"ommend":1923,"vel":1924,"ants":1925,"Ġmer":1926,"Ġoffers":1927,"style":1928,"Ġsun":1929,"Ġrecommend":1930,"frigerator":1931,"iz":1932,"ished":1933,"Ġcommercial":1934,"Ġforward":1935,"Ġsearching":1936,"Ġext":1937,"Ġspecials":1938,"unes":1939,"Ġcocktails":1940,"Ġmarri":1941,"nesota":1942,"Ġregal":1943,"Ġsongs":1944,"Ġminnesota":1945,"Ġmaker":1946,"enue":1947,"Ġshop":1948,"cific":1949,"Ġpirates":1950,"size":1951,"ade":1952,"Ġsprings":1953,"ef":1954,"Ġpacific":1955,"Ġwind":1956,"Ġdraws":1957,"Ġpati":1958,"Ġlocal":1959,"onto":1960,"her":1961,"Ġburger":1962,"ves":1963,"Ġwinters":1964,"Ġstops":1965,"Ġits":1966,"Ġthriller":1967,"ict":1968,"Ġsuper":1969,"Ġboston":1970,"Ġclub":1971,"Ġbarbe":1972,"150":1973,"lin":1974,"Ġbri":1975,"Ġbright":1976,"Ġitunes":1977,"Ġstart":1978,"Ġsummer":1979,"Ġpurch":1980,"19":1981,"Ġcle":1982,"ders":1983,"Ġblack":1984,"Ġhorror":1985,"the":1986,"100":1987,"Ġcatch":1988,"Ġcry":1989,"Ġliver":1990,"od":1991,"Ġcounter":1992,"Ġpull":1993,"Ġlow":1994,"Ġlunch":1995,"Ġtoronto":1996,"Ġliverpool":1997,"Ġmet":1998,"irl":1999,"Ġground":2000,"sid":2001,"Ġcard":2002,"friendly":2003,"let":2004,"Ġabo":2005,"ara":2006,"ute":2007,"Ġburritos":2008,"Ġpasta":2009,"cue":2010,"Ġperform":2011,"Ġrun":2012,"Ġdescribe":2013,"ars":2014,"Ġrele":2015,"vision":2016,"Ġke":2017,"Ġdc":2018,"class":2019,"Ġblo":2020,"place":2021,"Ġabove":2022,"lor":2023,"ros":2024,"Ġnet":2025,"ets":2026,"Ġunfort":2027,"Ġunfortun":2028,"Ġoct":2029,"Ġseasons":2030,"arden":2031,"Ġhar":2032,"ison":2033,"Ġpreferably":2034,"500":2035,"Ġfun":2036,"Ġsetting":2037,"Ġbat":2038,"Ġmean":2039,"ams":2040,"Ġgetting":2041,"lix":2042,"Ġunfortunately":2043,"stal":2044,"Ġserved":2045,"Ġrice":2046,"flix":2047,"Ġwow":2048,"Ġmed":2049,"Ġscreen":2050,"box":2051,"Ġnetflix":2052,"Ġfo":2053,"Ġstory":2054,"icks":2055,"Ġadult":2056,"Ġsporting":2057,"Ġmicrow":2058,"Ġmarriott":2059,"Ġbarbecue":2060,"Ġclip":2061,"Ġolder":2062,"me":2063,"emp":2064,"Ġweather":2065,"Ġcompl":2066,"Ġtvs":2067,"fo":2068,"Ġearth":2069,"Ġcrystal":2070,"Ġrefrigerator":2071,"Ġfriendly":2072,"ok":2073,"Ġcream":2074,"sw":2075,"Ġformal":2076,"Ġ29":2077,"Ġsix":2078,"Ġ95":2079,"Ġavenue":2080,"Ġnope":2081,"cks":2082,"Ġhu":2083,"Ġpit":2084,"Ġgarden":2085,"Ġsox":2086,"Ġdec":2087,"Ġsundays":2088,"lf":2089,"Ġsever":2090,"Ġval":2091,"Ġfair":2092,"Ġgolf":2093,"Ġworld":2094,"Ġpet":2095,"Ġbud":2096,"Ġyep":2097,"Ġsauce":2098,"Ġsn":2099,"Ġsour":2100,"arrow":2101,"Ġreal":2102,"ulu":2103,"Ġswans":2104,"Ġseveral":2105,"Ġnights":2106,"Ġpalace":2107,"Ġswansea":2108,"ial":2109,"Ġsci":2110,"Ġtaco":2111,"Ġwindow":2112,"Ġclippers":2113,"ero":2114,"Ġredbox":2115,"ka":2116,"ays":2117,"fth":2118,"Ġhaven":2119,"Ġfoot":2120,"Ġjack":2121,"ba":2122,"Ġoak":2123,"Ġdou":2124,"Ġsteakhouse":2125,"Ġchildren":2126,"io":2127,"mon":2128,"ober":2129,"Ġmid":2130,"Ġthings":2131,"nesse":2132,"Ġoctober":2133,"ical":2134,"Ġlead":2135,"Ġbeca":2136,"Ġseven":2137,"Ġspi":2138,"Ġswe":2139,"Ġbecause":2140,"Ġele":2141,"Ġdivision":2142,"Ġorders":2143,"Ġpoints":2144,"Ġwatford":2145,"fr":2146,"Ġer":2147,"Ġaver":2148,"Ġorgan":2149,"Ġslice":2150,"minute":2151,"Ġsur":2152,"Ġbulls":2153,"akers":2154,"pes":2155,"any":2156,"Ġblue":2157,"db":2158,"inc":2159,"Ġrem":2160,"Ġhappy":2161,"Ġtown":2162,"Ġcinemas":2163,"Ġansw":2164,"Ġmeat":2165,"entary":2166,"keep":2167,"ansas":2168,"Ġpho":2169,"Ġimdb":2170,"Ġhulu":2171,"Ġput":2172,"Ġbourne":2173,"Ġja":2174,"Ġsign":2175,"Ġclos":2176,"Ġbeef":2177,"ett":2178,"Ġbased":2179,"Ġtennesse":2180,"Ġkansas":2181,"Ġent":2182,"Ġkeep":2183,"rees":2184,"Ġnarrow":2185,"Ġkings":2186,"Ġend":2187,"Ġbox":2188,"Ġextra":2189,"my":2190,"zy":2191,"Ġburrito":2192,"dges":2193,"Ġtennessee":2194,"ane":2195,"Ġtable":2196,"stor":2197,"Ġjose":2198,"Ġchecking":2199,"Ġbeer":2200,"Ġmother":2201,"tten":2202,"Ġgym":2203,"Ġeverton":2204,"Ġrelax":2205,"Ġpad":2206,"Ġbuy":2207,"Ġinclud":2208,"Ġmonday":2209,"Ġthough":2210,"Ġroy":2211,"ways":2212,"Ġpatio":2213,"Ġfore":2214,"Ġgreen":2215,"Ġrochester":2216,"Ġstandings":2217,"Ġfootball":2218,"Ġice":2219,"Ġbill":2220,"Ġengland":2221,"Ġvers":2222,"Ġphoeni":2223,"Ġhung":2224,"ona":2225,"astic":2226,"Ġfinished":2227,"Ġsweet":2228,"Ġphoenix":2229,"),":2230,"22":2231,"Ġatt":2232,"Ġbaltim":2233,"Ġquarterback":2234,"Ġbow":2235,"Ġjap":2236,"Ġviews":2237,"Ġbaltimore":2238,"37":2239,"cked":2240,"ho":2241,"anese":2242,"Ġyan":2243,"Ġnewer":2244,"Ġbrom":2245,"Ġwars":2246,"Ġpleas":2247,"Ġmerc":2248,"Ġgrounds":2249,"Ġhit":2250,"Ġbro":2251,"ental":2252,"Ġbuff":2253,"Ġcruz":2254,"bl":2255,"Ġda":2256,"Ġdoll":2257,"Ġversus":2258,"bably":2259,"finity":2260,"Ġhungry":2261,"oke":2262,"Ġfu":2263,"Ġtotten":2264,"Ġadventure":2265,"Ġprobably":2266,"Ġbrown":2267,").":2268,"met":2269,"enal":2270,"llow":2271,"vil":2272,"Ġlax":2273,"Ġfriend":2274,"Ġbrighton":2275,"Ġoakland":2276,"Ġtottenham":2277,"cing":2278,"down":2279,"Â´":2280,"amo":2281,"Ġhigher":2282,"Ġdirected":2283,"Ġxfinity":2284,"site":2285,"Ġearthqu":2286,"Ġorganic":2287,"250":2288,"com":2289,"par":2290,"Ġmiss":2291,"ael":2292,"Ġber":2293,"Ġsuite":2294,"Ġcoke":2295,"roit":2296,"Ġdetroit":2297,"Ġhoping":2298,"Ġbrewers":2299,"inals":2300,"Ġski":2301,"Ġlink":2302,"aylor":2303,"Ġdur":2304,"Ġmaj":2305,"ni":2306,"Ġinside":2307,"Ġcardinals":2308,"Ġcub":2309,"Ġbb":2310,"Ġliving":2311,"Âłand":2312,"Ġkids":2313,"Ġjapanese":2314,"Ġhan":2315,"kees":2316,"Ġlife":2317,"aving":2318,"elect":2319,"front":2320,"den":2321,"Ġselect":2322,"empor":2323,"Ġpleasure":2324,"sp":2325,"Ġave":2326,"sh":2327,"Ġpol":2328,"Ġsaus":2329,"Ġbbq":2330,"emporary":2331,"Ġtaylor":2332,"Ġstate":2333,"Ġleg":2334,"Ġwarri":2335,"Ġhud":2336,"Ġdidn":2337,"Ġgrand":2338,"Ġfantastic":2339,"Ġearthquakes":2340,"Ġteams":2341,"Ġreds":2342,"Ġgiants":2343,"Ġars":2344,"Ġyankees":2345,"Ġwhom":2346,"Ġtimings":2347,"Ġexact":2348,"Ġpurchase":2349,"ious":2350,"Ġfish":2351,"omin":2352,"opol":2353,"28":2354,"Ġtit":2355,"Ġmont":2356,"Ġdod":2357,"Ġalong":2358,"Ġfrance":2359,"Ġcontemporary":2360,"Ġvalet":2361,"arl":2362,"Ġfourth":2363,"Ġburnley":2364,"Ġmajor":2365,"Ġhand":2366,"Ġfast":2367,"Ġsouthampton":2368,"Ġmercado":2369,"Ġid":2370,"Ġgreek":2371,"Ġintern":2372,"Ġblocked":2373,"Ġpay":2374,"Ġmich":2375,"oni":2376,"Ġmyself":2377,"Ġprovid":2378,"Ġbalconies":2379,"Ġcriteria":2380,"Ġdrinks":2381,"Ġaverage":2382,"34":2383,"Ġphill":2384,"ring":2385,"Ġregular":2386,"Ġcubs":2387,"29":2388,"ik":2389,"inn":2390,"ones":2391,"Ġbread":2392,"aps":2393,"ey":2394,"Ġalas":2395,"Ġbuild":2396,"Ġdecor":2397,"Ġarsenal":2398,"Ġsepar":2399,"Ġseeing":2400,"ourmet":2401,"veland":2402,"bast":2403,"Ġtill":2404,"Ġgourmet":2405,"Ġpriv":2406,"Ġcleveland":2407,"dersfield":2408,"%.":2409,"27":2410,"Ġdead":2411,"Ġrelaxed":2412,"Ġhuddersfield":2413,"Ġsof":2414,"Ġcomfort":2415,"Ġamerica":2416,"Ġhighly":2417,"Ġarrival":2418,"Ġriver":2419,"Ġdogs":2420,"asy":2421,"Ġwed":2422,"Ġser":2423,"order":2424,"Ġru":2425,"Ġsebast":2426,"Ġbasket":2427,"Ġperforming":2428,"Ġnationals":2429,"outh":2430,"Ġpic":2431,"Ġboy":2432,"Ġvol":2433,"Ġimp":2434,"Ġrockies":2435,"Ġfollow":2436,"Ġwarriors":2437,"Ġdodgers":2438,"aut":2439,"Ġyoung":2440,"Ġperry":2441,"Ġdirections":2442,"Ġoffice":2443,"Ġbudget":2444,"gr":2445,"Ġshort":2446,"Ġcap":2447,"Ġcarol":2448,"uff":2449,"Ġast":2450,"iner":2451,"Ġpitch":2452,"amed":2453,"Ġsoon":2454,"Ġcomes":2455,"Ġfridge":2456,"ep":2457,"ower":2458,"Ġ50":2459,"Ġfigu":2460,"Ġpepper":2461,"Ġprivate":2462,"ms":2463,"nge":2464,"Ġanim":2465,"Ġbeh":2466,"Ġfifth":2467,"âĢĵ":2468,"Ġmeeting":2469,"39":2470,"60":2471,"mp":2472,"olo":2473,"ouri":2474,"ative":2475,"Ġcir":2476,"Ġcozy":2477,"Ġtwins":2478,"Ġnewcast":2479,"Ġdavid":2480,"Ġseparate":2481,"Ġcarolina":2482,"Ġnewcastle":2483,"Ġliked":2484,"Ġnever":2485,"Ġbraves":2486,"Ġsle":2487,"Ġmadison":2488,"Ġyears":2489,"Ġfight":2490,"Ġdark":2491,"Ġge":2492,"Ġrap":2493,"Ġegg":2494,"Ġ31":2495,"vin":2496,"wau":2497,"stand":2498,"Ġafc":2499,"Ġunion":2500,"tah":2501,"Ġmilwau":2502,"Ġcontin":2503,"ountain":2504,"Ġmilwaukee":2505,"dam":2506,"Ġtur":2507,"Ġry":2508,"Ġutah":2509,"Ġeleg":2510,"val":2511,"Ġari":2512,"vember":2513,"Ġbeaut":2514,"Ġactress":2515,"Ġrangers":2516,"Ġpot":2517,"Ġstoke":2518,"vide":2519,"Ġkat":2520,"Ġnovember":2521,"sol":2522,"Ġprovide":2523,"Ġmatches":2524,"vd":2525,"Ġresid":2526,"Ġpreferred":2527,"Ġcomedies":2528,"ertain":2529,"ased":2530,"Ġpricing":2531,"aza":2532,"Ġlounge":2533,"Ġexpress":2534,"fl":2535,"ling":2536,"ari":2537,"Ġey":2538,"Ġabsol":2539,"Ġcapt":2540,"ola":2541,"Ġfried":2542,"sterdam":2543,"Ġpork":2544,"Ġbrit":2545,"rid":2546,"Ġneare":2547,"Ġchels":2548,"Ġfilms":2549,"Ġmatter":2550,"Ġalaska":2551,"Ġelegant":2552,"Ġnearest":2553,"nic":2554,"ange":2555,"Ġlas":2556,"Ġban":2557,"Ġros":2558,"Ġpossib":2559,"Ġchelsea":2560,"cou":2561,"mouth":2562,"Ġcinc":2563,"Ġdis":2564,"utely":2565,"Ġknown":2566,"gether":2567,"innati":2568,"Ġabsolutely":2569,"Ġcincinnati":2570,"Ġplaza":2571,"Ġamsterdam":2572,"Ġjoin":2573,"Ġappet":2574,"24":2575,"bs":2576,"sy":2577,"sin":2578,"Ġstr":2579,"Ġmarin":2580,"ages":2581,"Ġ'":2582,"Ġmush":2583,"Ġdoc":2584,"ampa":2585,"Ġvancou":2586,"Ġsince":2587,"Ġbehind":2588,"Ġvancouver":2589,"gon":2590,"vely":2591,"Ġhy":2592,"Ġmountain":2593,"Ġnood":2594,"time":2595,"Ġcoffeem":2596,"Ġfinal":2597,"Ġkaty":2598,"26":2599,"Ġtogether":2600,"Ġness":2601,"Ġchri":2602,"coli":2603,"ired":2604,"Ġmedium":2605,"Ġbournemouth":2606,"Ġmichael":2607,"Ġmushroom":2608,"br":2609,"bers":2610,"ky":2611,"Ġvir":2612,"Ġbedroom":2613,"Ġsebastopol":2614,"Ġjames":2615,"âĢĭâĢĭ":2616,"Ġastros":2617,"Ġtampa":2618,"Ġath":2619,"Ġinst":2620,"urs":2621,"Ġjet":2622,"que":2623,"Ġchange":2624,"Ġmustard":2625,"Ġberlin":2626,"ib":2627,"lit":2628,"vol":2629,"Ġmag":2630,"Ġchris":2631,"Ġrogue":2632,"Ġversion":2633,"Ġdouble":2634,"wood":2635,"zed":2636,"erts":2637,"Ġpan":2638,"oph":2639,"Ġenough":2640,"Ġshowtime":2641,"Ġmets":2642,"ational":2643,"oles":2644,"Ġchico":2645,"olog":2646,"Ġappetiz":2647,"ma":2648,"ues":2649,"Ġben":2650,"Ġgirl":2651,"Ġshut":2652,"Âłi":2653,"acy":2654,"Ġdessert":2655,"Ġnba":2656,"Ġplayers":2657,"Ġdeg":2658,"Ġheat":2659,"Ġvia":2660,"Ġdesserts":2661,"Ġpossibly":2662,"ery":2663,"Ġmis":2664,"Ġones":2665,"Ġlight":2666,"Ġwick":2667,"Ġstarts":2668,"Ġdelic":2669,"Ġmadrid":2670,"Ġfinally":2671,"Ġbatman":2672,"Ġtacos":2673,"Ġmissouri":2674,"Ġcircle":2675,"bed":2676,"Ġhard":2677,"Ġhaw":2678,"key":2679,"Ġbeans":2680,"Ġphillies":2681,"des":2682,"lins":2683,"Ġisland":2684,"Ġanswer":2685,"cy":2686,"ift":2687,"off":2688,"Ġour":2689,"Ġtrue":2690,"Ġpizzas":2691,"Ġdollar":2692,"nis":2693,"Ġmight":2694,"Ġnomin":2695,"Ġkc":2696,"Ġmaking":2697,"Ġfollowing":2698,"Ġinternational":2699,"Ġvirgin":2700,"47":2701,"Ġstarring":2702,"umb":2703,"Ġunderstand":2704,"Ġmix":2705,"Ġpicnic":2706,"real":2707,"Ġdan":2708,"Ġbeing":2709,"ution":2710,"Ġromance":2711,"cept":2712,"ript":2713,"Ġindians":2714,"Ġfeatures":2715,"Ġmicrowave":2716,"Ġmontreal":2717,"dden":2718,"stic":2719,"Ġbon":2720,"thers":2721,"Ġstuff":2722,"Ġlau":2723,"istro":2724,"ips":2725,"Ġterr":2726,"Ġorioles":2727,"01":2728,"kes":2729,"Ġlam":2730,"Ġnick":2731,"Ġstra":2732,"Ġmarlins":2733,"raft":2734,"Ġsimple":2735,"body":2736,"Ġtied":2737,"ith":2738,"iar":2739,"pm":2740,"Ġthu":2741,"ream":2742,"Ġinfo":2743,"Ġitiner":2744,"Ġhowever":2745,"bean":2746,"Ġfireplace":2747,"Ġcatcher":2748,"Ġhyatt":2749,"Ġitinerary":2750,"pp":2751,"Ġfall":2752,"Ġdegrees":2753,"di":2754,"Ġore":2755,"ric":2756,"stars":2757,"Ġfamiliar":2758,"Ġsuggestions":2759,"Ġtaqu":2760,"Ġjazz":2761,"Ġexactly":2762,"Ġmariners":2763,"59":2764,"Ġroo":2765,"Ġ35":2766,"Ġtypes":2767,"Ġcarib":2768,"Ġtaqueria":2769,"Ġcaribbean":2770,"87":2771,"sa":2772,"Ġbistro":2773,"ality":2774,"Ġplays":2775,"Ġdiam":2776,"Ġlego":2777,"Ġcosts":2778,"Ġcaptain":2779,"Ġbritish":2780,"80":2781,"Ġwall":2782,"Ġmarket":2783,"Ġzero":2784,"ex":2785,"Ġbase":2786,"Ġplate":2787,"Ġra":2788,"enty":2789,"Ġpriced":2790,"Ġbromwich":2791,"Ġfigures":2792,"Ġryan":2793,"Ġket":2794,"Ġareas":2795,"Ġcoast":2796,"aked":2797,"Ġpizzeria":2798,"Ġhambur":2799,"Ġpotato":2800,"Ġdiamond":2801,"ste":2802,"Ġbott":2803,"Ġnamed":2804,"rious":2805,"Ġmoon":2806,"Ġchance":2807,"ime":2808,"Ġbars":2809,"Ġappetizers":2810,"Ġoregon":2811,"Ġcrow":2812,"vit":2813,"Ġvill":2814,"tyard":2815,"Ġcolumb":2816,"Ġbuffet":2817,"Ġcoffeemakers":2818,"Ġathlet":2819,"Ġterrace":2820,"cket":2821,"rated":2822,"serve":2823,"Ġsom":2824,"Ġdisco":2825,"ons":2826,"icester":2827,"Ġhidden":2828,"Ġcourtyard":2829,"Ġtennis":2830,"Ġariz":2831,"ji":2832,"Ġpass":2833,"Ġleicester":2834,"Ġswift":2835,"Ġzoc":2836,"Ġbacon":2837,"Ġjackson":2838,"Ġmax":2839,"ries":2840,"ala":2841,"ents":2842,"Ġvs":2843,"Ġcheaper":2844,"Ġroyals":2845,"Ġdocum":2846,"Ġshuttle":2847,"bound":2848,"ating":2849,"Ġdest":2850,"Ġstud":2851,"Ġlettu":2852,"Ġshowings":2853,"Ġdrury":2854,"Ġdam":2855,"burgh":2856,"Ġcomplet":2857,"Ġant":2858,"Ġsoph":2859,"Ġgave":2860,"Ġsuch":2861,"uten":2862,"Ġboard":2863,"tsburgh":2864,"Ġcritic":2865,"Ġsigns":2866,"Ġcontinental":2867,"Ġcolumbus":2868,"ez":2869,"Ġhaving":2870,"Ġpat":2871,"oma":2872,"Ġmem":2873,"Ġplayer":2874,"ention":2875,"Ġmum":2876,"Ġgluten":2877,"Ġearlier":2878,"Ġpittsburgh":2879,"Ġerik":2880,"Ġgeor":2881,"Ġarizona":2882,"23":2883,"Ġhampton":2884,"Ġcable":2885,"Ġwife":2886,"Ġest":2887,"Ġbiggest":2888,"Ġprop":2889,"Ġpadres":2890,"hour":2891,"Ġtour":2892,"Ġosc":2893,"Ġdyn":2894,"Ġnfc":2895,"Ġeight":2896,"Ġevil":2897,"Ġlocally":2898,"ommod":2899,"Ġaccommod":2900,"Ġathletics":2901,"ano":2902,"Ġown":2903,"Ġpac":2904,"ens":2905,"Ġtrack":2906,"Ġpie":2907,"Ġbring":2908,"Ġsunny":2909,"Ġanywhere":2910,"imum":2911,"Ġ90":2912,"pect":2913,"ressing":2914,"Ġstraight":2915,"Ġgri":2916,"Ġsounders":2917,"Ġrather":2918,"Ġpepperoni":2919,"400":2920,"Ġtre":2921,"Ġbath":2922,"ense":2923,"Ġrevol":2924,"Ġali":2925,"Ġheart":2926,"Ġlocate":2927,"Ġfrank":2928,"Ġdescript":2929,"\".":2930,"Ġjourne":2931,"Ġmyster":2932,"Ġairways":2933,"beat":2934,"nesday":2935,"Ġwednesday":2936,"Ġlettuce":2937,"Ġjourney":2938,"58":2939,"Ġcri":2940,"Ġjam":2941,"Ġsplit":2942,"Ġtru":2943,"Ġsing":2944,"ney":2945,"Ġemb":2946,"stein":2947,"Ġcree":2948,"Ġplenty":2949,"Ġwis":2950,"Ġhistor":2951,"Ġdiet":2952,"Ġwhole":2953,"Ġrocket":2954,"Ġartists":2955,"oney":2956,"Ġkitchens":2957,"Ġorigin":2958,"Ġduring":2959,"Ġcott":2960,"Ġhip":2961,"Ġsending":2962,"Ġsalem":2963,"backs":2964,"Ġsausage":2965,"Ġsam":2966,"Ġplates":2967,"Ġrolls":2968,"iction":2969,"Ġforecast":2970,"Ġcraft":2971,"Ġmater":2972,"Ġdu":2973,"Ġhelping":2974,"Ġboss":2975,"fridges":2976,"fined":2977,"Ġbelow":2978,"Ġbuilding":2979,"Ġzoccoli":2980,"46":2981,"ost":2982,"ito":2983,"Ġvall":2984,"Ġdiamondbacks":2985,"Ġproper":2986,"Ġcertain":2987,"chup":2988,"Ġshall":2989,"Ġ40":2990,"Ġketchup":2991,"Ġbeau":2992,"Ġplayoff":2993,"ction":2994,"Ġuncle":2995,"dging":2996,"Ġbowl":2997,"Ġes":2998,"Ġdressing":2999,"Ġonce":3000,"Ġrome":3001,"Ġtiming":3002,"acks":3003,"Ġupbeat":3004,"Ġmile":3005,"Ġdriver":3006,"Ġclosed":3007,"Ġsomet":3008,"Ġrockets":3009,"Ġproperty":3010,"21":3011,"oup":3012,"Ġmur":3013,"aded":3014,"Ġ76":3015,"Ġpools":3016,"Ġplane":3017,"Ġbelie":3018,"Ġlinkin":3019,"48":3020,"Ġrays":3021,"Ġsty":3022,"Ġchap":3023,"Ġadded":3024,"Ġguest":3025,"Ġranch":3026,"Ġrob":3027,"Ġblvd":3028,"Ġfairfield":3029,"Ġrevolution":3030,"Ġwiscon":3031,"Ġvalley":3032,"bor":3033,"ĠâĢĵ":3034,"Ġyet":3035,"Ġ45":3036,"Ġauth":3037,"Ġcompany":3038,"Ġcomplim":3039,"Ġincluding":3040,"free":3041,"made":3042,"pin":3043,"Ġbaked":3044,"Ġwhy":3045,"lly":3046,"Ġstone":3047,"Ġlodging":3048,"essen":3049,"isiana":3050,"Ġbilly":3051,"Ġthunder":3052,"Ġwisconsin":3053,"Ġcomplimentary":3054,"ier":3055,"Ġoy":3056,"Ġothers":3057,"Ġlouisiana":3058,"Ġaccess":3059,"blue":3060,"Ġhanks":3061,"Ġjetblue":3062,"Ġcav":3063,"aly":3064,"Ġfem":3065,"Ġquality":3066,"Ġrival":3067,"Ġgroup":3068,"Ġcompare":3069,"Ġrecently":3070,"Ġmicrowaves":3071,"ov":3072,"ping":3073,"Ġturn":3074,"Ġshri":3075,"Ġcold":3076,"Ġtracy":3077,"Ġgener":3078,"Ġrequests":3079,"Ġpaid":3080,"Ġrelease":3081,"Ġdocumentary":3082,"Ġoscar":3083,"Ġdescription":3084,"Ġcreek":3085,"Ġfemale":3086,"oor":3087,"Ġmention":3088,"Ġrey":3089,"Ġtrans":3090,"Ġcond":3091,"Ġmoments":3092,"ids":3093,"istic":3094,"pert":3095,"Ġshrimp":3096,"33":3097,"cel":3098,"hol":3099,"jun":3100,"line":3101,"ock":3102,"Ġft":3103,"Ġnames":3104,"Ġaren":3105,"ada":3106,"Ġshows":3107,"Ġsourced":3108,"Ġseries":3109,"Ġwhatever":3110,"Ġwanting":3111,"Ġoutside":3112,"Ġinter":3113,"Ġwoodland":3114,"kins":3115,"Ġmc":3116,"engers":3117,"Ġrams":3118,"Ġsuit":3119,"Ġsir":3120,"Ġoffered":3121,"Ġgraven":3122,"Ġcountry":3123,"Ġcapit":3124,"Ġdiscover":3125,"Ġmaterial":3126,"Ġcavali":3127,"jola":3128,"ler":3129,"ata":3130,"atessen":3131,"Ġpeak":3132,"Ġseems":3133,"Ġsite":3134,"Ġchances":3135,"Ġdelicatessen":3136,"Ġbeaujola":3137,".?":3138,"07":3139,"sters":3140,"ought":3141,"Ġpg":3142,"Ġpower":3143,"icy":3144,"Ġpaul":3145,"Ġcinema":3146,"Ġbaseball":3147,"Ġbeaujolais":3148,"ander":3149,"Ġthurs":3150,"Ġjays":3151,"Ġcajun":3152,"ftop":3153,"Ġfantasy":3154,"Ġscience":3155,"Ġspider":3156,"coming":3157,"Ġrooftop":3158,"Ġplayoffs":3159,"Ġgravenstein":3160,"Ġthursday":3161,"38":3162,"Ġuse":3163,"Ġonions":3164,"col":3165,"Ġupgr":3166,"rupin":3167,"Ġrosa":3168,"95":3169,"esar":3170,"ots":3171,"Ġseen":3172,"Ġcokes":3173,"Ġcurry":3174,"Ġsaying":3175,"Ġdramas":3176,"Ġcavaliers":3177,"Ġtri":3178,"erry":3179,"Ġom":3180,"ination":3181,"Ġfiction":3182,"Ġmr":3183,"Ġreci":3184,"ily":3185,"ility":3186,"Ġjuman":3187,"Ġlarrupin":3188,"Ġrequest":3189,"Ġreleased":3190,"Ġinstead":3191,"pertino":3192,"Ġjumanji":3193,"light":3194,"Ġpu":3195,"Ġpel":3196,"Ġpub":3197,"ety":3198,"Ġsides":3199,"Ġcupertino":3200,"Ġchang":3201,"Ġmeets":3202,"Ġspring":3203,"Ġoriginal":3204,"led":3205,"su":3206,"Ġwhirl":3207,"Ġmaver":3208,"Ġsuns":3209,"Ġimpact":3210,"Ġcottages":3211,"Ġchapter":3212,"xx":3213,"erman":3214,"Ġhum":3215,"Ġstation":3216,"Ġchips":3217,"Âłthe":3218,"Ġeats":3219,"Ġangels":3220,"Ġcrew":3221,"Ġgyros":3222,"Ġresident":3223,"exp":3224,"Ġpacers":3225,"ang":3226,"ghett":3227,"Ġbeast":3228,"Ġallow":3229,"Ġtimber":3230,"Ġdeal":3231,"Ġconsi":3232,"Ġsitt":3233,"Ġcourt":3234,"Ġsquaw":3235,"Ġburns":3236,"Ġalien":3237,"Ġsometime":3238,"isticated":3239,"Ġupgraded":3240,"ghetti":3241,"can":3242,"gar":3243,"Ġpies":3244,"Ġbrow":3245,"Ġjason":3246,"entic":3247,"Ġhotsp":3248,"Ġ2016":3249,"azers":3250,"Ġwhitec":3251,"Ġtigers":3252,"Ġleading":3253,"Ġfriends":3254,"Ġdamon":3255,"Ġsophisticated":3256,"Ġmummy":3257,"Ġdynamo":3258,"expensive":3259,"75":3260,"bri":3261,"ole":3262,"Ġtakes":3263,"Ġwal":3264,"Ġknicks":3265,"thern":3266,"Ġstream":3267,"Ġspaghetti":3268,"Ġauthentic":3269,"Ġsitting":3270,"42":3271,"ron":3272,"Ġfac":3273,"Ġinexpensive":3274,"Ġasian":3275,"Ġoper":3276,"Ġ60":3277,"Ġvito":3278,"Ġcars":3279,"Ġcreative":3280,"Ġjoint":3281,"Ġmavericks":3282,"36":3283,"bon":3284,"lt":3285,"sized":3286,"Ġmill":3287,"Ġcann":3288,"Ġnets":3289,"Ġnone":3290,"Ġcaesar":3291,"Ġbarb":3292,"Ġvo":3293,"Ġemp":3294,"Ġparty":3295,"Ġteas":3296,"Ġkingsman":3297,"Ġpitchers":3298,"Ġgrizz":3299,"Ġpeaks":3300,"Ġomni":3301,"ug":3302,"Ġmat":3303,"ili":3304,"Ġjones":3305,"Ġbeachfront":3306,"Ġquarters":3307,"Ġfurious":3308,"Ġgeorge":3309,"Ġwhitecaps":3310,"west":3311,"story":3312,"Ġfact":3313,"Ġseni":3314,"ena":3315,"thur":3316,"Ġrd":3317,"Ġtrain":3318,"Ġdeci":3319,"Ġsil":3320,"Ġfridges":3321,"Ġwhirlpool":3322,"cent":3323,"clo":3324,"he":3325,"lies":3326,"ming":3327,"Ġfur":3328,"Ġfate":3329,"Ġcame":3330,"orn":3331,"Ġarthur":3332,"ards":3333,"Ġacti":3334,"Ġcab":3335,"Ġvari":3336,"Ġguy":3337,"Ġplanet":3338,"Ġshortest":3339,"Ġchrist":3340,"Ġmagic":3341,"Ġaccommodations":3342,"Ġtogo":3343,"Ġwild":3344,"eap":3345,"adventure":3346,"Ġ49":3347,"aking":3348,"Ġrich":3349,"Ġhorn":3350,"Ġstylish":3351,"Ġlogan":3352,"Ġtimbers":3353,"Ġroad":3354,"Ġsalsa":3355,"Ġmonth":3356,"bar":3357,"ig":3358,"ped":3359,"ugg":3360,"Ġglo":3361,"ico":3362,"ndry":3363,"forward":3364,"Ġarc":3365,"Ġwarm":3366,"Ġways":3367,"Ġseasonal":3368,"resh":3369,"Ġpeter":3370,"Ġhandful":3371,"Ġeyes":3372,"Ġlaundry":3373,"walk":3374,"Ġtx":3375,"Ġmall":3376,"Ġmls":3377,"esan":3378,"Ġisn":3379,"alito":3380,"Ġanyone":3381,"ardia":3382,"ult":3383,"Âłh":3384,"Ġfavorites":3385,"Ġpremium":3386,"Ġlaguardia":3387,"Ġedge":3388,"Ġmission":3389,"Ġbelieve":3390,"Ġ#":3391,"Ġale":3392,"Ġeur":3393,"Ġlover":3394,"Ġ32":3395,"assy":3396,"Ġmary":3397,"naiss":3398,"Ġscor":3399,"Ġrapids":3400,"Ġstraightforward":3401,"pic":3402,"round":3403,"Ġsfo":3404,"enn":3405,"Ġanytime":3406,"Ġsub":3407,"aint":3408,"Ġordering":3409,"Ġlocations":3410,"Ġquite":3411,"Ġcage":3412,"Ġwatching":3413,"Ġroll":3414,"Ġmoderate":3415,"Ġsuggestion":3416,"Ġgyro":3417,"Ġ956":3418,"Ġsofa":3419,"Ġnoodle":3420,"Ġpassengers":3421,"Ġembassy":3422,"Ġhotspur":3423,"naissance":3424,"ga":3425,"gen":3426,"Ġtues":3427,"aton":3428,"Ġmend":3429,"Ġplac":3430,"Ġstore":3431,"Ġkill":3432,"cohol":3433,"ablish":3434,"Ġbeauti":3435,"Ġestablish":3436,"Ġrecipe":3437,"Ġtuesday":3438,"Ġcamp":3439,"Ġalcohol":3440,"ellow":3441,"Ġsher":3442,"Ġpiston":3443,"Ġsofas":3444,"Ġcomplete":3445,"town":3446,"Ġtree":3447,"ret":3448,"Ġpant":3449,"rict":3450,"Ġweb":3451,"Ġmars":3452,"Ġboise":3453,"berg":3454,"Ġdesks":3455,"Ġcrime":3456,"Ġpelican":3457,"Ġpistons":3458,"08":3459,"pants":3460,"ready":3461,"Ġlady":3462,"Ġny":3463,"ional":3464,"Ġchili":3465,"Ġalready":3466,"Âłis":3467,"Ġapart":3468,"Ġfits":3469,"Ġlux":3470,"Ġlasag":3471,"Ġlakers":3472,"Ġmoana":3473,"Ġ100":3474,"Ġ200":3475,"Ġ37":3476,"Ġass":3477,"lie":3478,"Ġfarm":3479,"Ġsummit":3480,"Ġgrizzlies":3481,"Ġfurther":3482,"Ġbeautiful":3483,"600":3484,"obo":3485,"era":3486,"elle":3487,"Ġdy":3488,"ooth":3489,"Ġreason":3490,"Ġrefined":3491,"Ġrad":3492,"Ġje":3493,"Ġbrook":3494,"Ġsurround":3495,"Ġremember":3496,"Ġpatri":3497,"Ġgeneral":3498,"44":3499,"57":3500,"wor":3501,"Ġthor":3502,"Ġnugg":3503,"rise":3504,"Ġrece":3505,"alo":3506,"Ġsol":3507,"Ġspicy":3508,"Ġoutbound":3509,"Ġbucks":3510,"Ġunderpants":3511,"Ġjoe":3512,"Ġbonobo":3513,"Ġvillage":3514,"Ġthought":3515,"oria":3516,"Ġfront":3517,"Ġalways":3518,"Ġmult":3519,"Ġ47":3520,"Ġdesi":3521,"Ġbob":3522,"Ġreserve":3523,"Ġminifridges":3524,"redi":3525,"Ġlegend":3526,"Ġbeauty":3527,"Ġmurder":3528,"Ġbarbara":3529,"32":3530,"90":3531,"hip":3532,"Ġsk":3533,"Ġsort":3534,"Ġcast":3535,"Ġrenaissance":3536,"urt":3537,"Ġrose":3538,"Ġhistory":3539,"Ġlob":3540,"Ġbutter":3541,"Ġapolog":3542,"Ġribs":3543,"Ġindiana":3544,"Ġmoonlight":3545,"Ġmentioned":3546,"Ġsheraton":3547,"Ġpelicans":3548,"51":3549,"Ġfresh":3550,"Ġcal":3551,"Ġpin":3552,"Ġnei":3553,"irk":3554,"Ġdestination":3555,"Ġmot":3556,"Ġgarl":3557,"Ġrag":3558,"asted":3559,"elling":3560,"allica":3561,"Ġordered":3562,"Ġ787":3563,"Ġvin":3564,"Ġlisted":3565,"ully":3566,"friend":3567,"Ġsmith":3568,"Ġsports":3569,"Ġsoups":3570,"Ġsixth":3571,"Ġnuggets":3572,"56":3573,"ved":3574,"Ġlub":3575,"Ġ42":3576,"Ġfill":3577,"Ġtubs":3578,"Ġacqu":3579,"Ġmetallica":3580,"Ġharry":3581,"Ġvariety":3582,"Ġgarlic":3583,"fy":3584,"watch":3585,"Ġson":3586,"Ġmas":3587,"Ġgir":3588,"Ġmeals":3589,"Ġrough":3590,"Ġchina":3591,"Ġuc":3592,"Ġgoes":3593,"Ġlastly":3594,"Ġcape":3595,"Ġsingle":3596,"Ġbridge":3597,"vities":3598,"Ġactivities":3599,"Ġhornets":3600,"cas":3601,"asis":3602,"Ġaf":3603,"reat":3604,"Ġsus":3605,"Ġread":3606,"Ġcoll":3607,"uno":3608,"what":3609,"Ġchann":3610,"Ġxxx":3611,"Ġpepsi":3612,"Ġanimated":3613,"Ġmystery":3614,"Ġlasagna":3615,"du":3616,"Ġtort":3617,"Ġhea":3618,"Ġfre":3619,"Ġmart":3620,"Ġgoals":3621,"Ġlodge":3622,"bock":3623,"Ġxander":3624,"Ġmainst":3625,"Ġanswers":3626,"Ġprovidence":3627,"rics":3628,"Ġempire":3629,"Ġlubbock":3630,"less":3631,"Ġled":3632,"Ġbell":3633,"Ġball":3634,"Ġ33":3635,"Ġseats":3636,"Ġclassy":3637,"Ġeating":3638,"Ġsouthern":3639,"Ġwaiting":3640,"Ġamazing":3641,"Ġsteven":3642,"Ġrunner":3643,"Ġhamburgers":3644,"Ġmulti":3645,"fully":3646,"Ġfet":3647,"Ġslo":3648,"lyn":3649,"Ġ34":3650,"Ġtrin":3651,"Ġ55":3652,"nect":3653,"Âłth":3654,"Âłit":3655,"una":3656,"olves":3657,"Ġposh":3658,"vention":3659,"Ġluck":3660,"Ġasking":3661,"Ġspirit":3662,"Ġplaced":3663,"04":3664,"Ġthin":3665,"Ġbour":3666,"Ġmark":3667,"unk":3668,"Ġvisit":3669,"Ġdistrict":3670,"Ġsausalito":3671,"Ġbank":3672,"Ġhawks":3673,"Ġbathroom":3674,"Ġhistoric":3675,"ns":3676,"err":3677,"Ġsky":3678,"Ġmac":3679,"onna":3680,"Ġwithout":3681,"Ġaudi":3682,"Ġbruno":3683,"Ġblazers":3684,"Ġmexico":3685,"aught":3686,"bridge":3687,"Ġcannot":3688,"clock":3689,"43":3690,"iet":3691,"ize":3692,"Ġhall":3693,"Ġline":3694,"Ġmach":3695,"Ġmuse":3696,"ony":3697,"Ġlively":3698,"Ġbey":3699,"Ġhill":3700,"Ġdeep":3701,"Ġ70":3702,"Ġwines":3703,"Ġworking":3704,"Ġrecords":3705,"Ġbrad":3706,"Ġtech":3707,"Ġcasa":3708,"Ġposit":3709,"Ġrental":3710,"Ġcreole":3711,"Ġnoodles":3712,"Ġbottle":3713,"Ġeurope":3714,"nut":3715,"Ġtast":3716,"ante":3717,"Ġwr":3718,"Ġing":3719,"Ġhelpful":3720,"isle":3721,"Ġchop":3722,"ending":3723,"Ġapes":3724,"bert":3725,"Ġcheesebur":3726,"Ġbroad":3727,"Ġseniors":3728,"fs":3729,"Ġdom":3730,"Ġarch":3731,"Ġprime":3732,"Ġtratt":3733,"Ġminimum":3734,"Ġquick":3735,"Âłw":3736,"Ġranked":3737,"ables":3738,"Ġmakes":3739,"Ġsouthwest":3740,"Ġbeatles":3741,"Ġcloser":3742,"Ġtitans":3743,"Ġrustic":3744,"Ġbrooklyn":3745,"mar":3746,"ule":3747,"erc":3748,"uss":3749,"Ġoasis":3750,"Ġkab":3751,"imate":3752,"Ġstaybridge":3753,"venant":3754,"Ġdifference":3755,"Ġsmooth":3756,"Ġkevin":3757,"world":3758,"Ġtrattoria":3759,"cess":3760,"ique":3761,"Ã©":3762,"Ġdre":3763,"Ġlee":3764,"Ġ93":3765,"Ġguad":3766,"phis":3767,"Ġmike":3768,"Ġscott":3769,"Ġdoub":3770,"Ġconsider":3771,"ect":3772,"lan":3773,"more":3774,"van":3775,"Ġwent":3776,"Ġdine":3777,"Ġinc":3778,"edd":3779,"Ġchamp":3780,"Ġnoon":3781,"Ġblade":3782,"Ġpoke":3783,"Ġalbany":3784,"ocino":3785,"Ġcocktail":3786,"Ġsnacks":3787,"Ġpolit":3788,"Ġvoice":3789,"Ġchannels":3790,"Ġbourbon":3791,"54":3792,"ju":3793,"Ġiced":3794,"inth":3795,"Ġci":3796,"Ġpack":3797,"Ġpsy":3798,"Ġmail":3799,"edi":3800,"Ġorange":3801,"Ġquiet":3802,"ross":3803,"Âłs":3804,"idad":3805,"olis":3806,"fridge":3807,"Ġjohnson":3808,"Ġcolorful":3809,"Ġbaywatch":3810,"Ġmeatball":3811,"Ġgrande":3812,"Ġturkey":3813,"Ġnominated":3814,"Ġmendocino":3815,"77":3816,"ide":3817,"zen":3818,"anna":3819,"Ġsy":3820,"Ġcam":3821,"Ġdar":3822,"ented":3823,"Ġcreed":3824,"Ġslices":3825,"Ġschedule":3826,"Ġcooking":3827,"Ġprin":3828,"Ġcovers":3829,"Ġsleep":3830,"Ġturk":3831,"Ġtrinidad":3832,"02":3833,"car":3834,"lah":3835,"nar":3836,"tz":3837,"Ġly":3838,"Ġmoney":3839,"Ġdj":3840,"Ġnine":3841,"erson":3842,"Ġconvention":3843,"osed":3844,"Ġteen":3845,"atter":3846,"Ġstreak":3847,"Ġvegan":3848,"Ġlatin":3849,"Ġaccept":3850,"Ġtours":3851,"Ġglobe":3852,"Ġrecei":3853,"Ġaudience":3854,"Ġpsych":3855,"Ġturkish":3856,"lahoma":3857,"mark":3858,"wy":3859,"Ġ?":3860,"Ġoklahoma":3861,"Ġonline":3862,"Ġliter":3863,"Ġjim":3864,"Ġjac":3865,"Ġgreatest":3866,"Ġgod":3867,"Ġsomeone":3868,"Ġ48":3869,"Ġdefe":3870,"Ġheated":3871,"Ġchef":3872,"ume":3873,"Ġexpect":3874,"Ġpost":3875,"Ġcrepe":3876,"Ġwoodst":3877,"Ġfunny":3878,"Ġwebsite":3879,"la":3880,"pings":3881,"ses":3882,"uki":3883,"water":3884,"Ġtal":3885,"ini":3886,"Ġbout":3887,"Ġgun":3888,"Ġsomebody":3889,"Ġ39":3890,"Ġcomm":3891,"Ġvict":3892,"Ġintimate":3893,"Ġrang":3894,"lift":3895,"Ġspecifically":3896,"Ġregional":3897,"Ġentrees":3898,"Ġbuffalo":3899,"Ġanimation":3900,"Ġlamb":3901,"Ġcrows":3902,"Ġingredi":3903,"800":3904,"pired":3905,"Ġaisle":3906,"enny":3907,"Ġeasy":3908,"Ġamb":3909,"aki":3910,"Ġwinning":3911,"Ġpier":3912,"Ġvilla":3913,"places":3914,"inspired":3915,"Ġtoppings":3916,"Ġmonster":3917,"Ġmidnight":3918,"Ġselection":3919,"Ġresidence":3920,"Ġstrong":3921,"Ġmainstream":3922,"Ġmuseum":3923,".\"":3924,"88":3925,"jo":3926,"mo":3927,"serv":3928,"wolves":3929,"Ġwhe":3930,"Ġram":3931,"vern":3932,"Ġdeath":3933,"Ġ94":3934,"Ġexerc":3935,"Ġfield":3936,"Ġheads":3937,"Ġproviding":3938,"Ġboardwalk":3939,"Ġragnar":3940,"Ġragnarok":3941,"%,":3942,"Ġtap":3943,"Ġgerman":3944,"Ġwil":3945,"otes":3946,"Ġdol":3947,"Ġchow":3948,"Ġchedd":3949,"Ġjoy":3950,"Ġwilli":3951,"Ġgos":3952,"Ġdies":3953,"Ġ43":3954,"Ġgrub":3955,"Ġlucas":3956,"Ġassistance":3957,"Ġbattle":3958,"mony":3959,"Ġsurvi":3960,"Ġsleek":3961,"Ġnominations":3962,"Ġingredients":3963,"Ġcheddar":3964,"avi":3965,"ding":3966,"king":3967,"zel":3968,"ouch":3969,"Ġhen":3970,"Ġfle":3971,"Ġpap":3972,"Ġitem":3973,"ilities":3974,"Ġshack":3975,"Ġspain":3976,"Ġcolle":3977,"Ġjustice":3978,"Ġ75":3979,"Ġuplift":3980,"Ġsundance":3981,"Ġschool":3982,"Ġlands":3983,"Ġcounting":3984,"Ġedward":3985,"Ġmidtown":3986,"Ġroyal":3987,"Ġtimberwolves":3988,"Ġalex":3989,"Ġpatriots":3990,"Ġacquired":3991,"Ġgirls":3992,"Ġdefeated":3993,"Ġwoodstock":3994,"Ġexercise":3995,"31":3996,"Ġthreat":3997,"Ġsave":3998,"Ġgar":3999,"Ġgate":4000,"Ġdos":4001,"Ġrain":4002,"Ġcovenant":4003,"ateg":4004,"Ġguac":4005,"Ġsalmon":4006,"Ġjoel":4007,"Ġ1534":4008,"fried":4009,"Ġslow":4010,"Ġcritics":4011,"Ġhappen":4012,"Ġhunt":4013,"amole":4014,"Ġselecting":4015,"Ġestablished":4016,"Ġcampus":4017,"Ġslopes":4018,"Ġbroadway":4019,"Ġkabuki":4020,"Ġgosling":4021,"Ġuplifting":4022,"Ġguacamole":4023,"mas":4024,"old":4025,"py":4026,"Ġ,":4027,"Ġwale":4028,"Ġsaving":4029,"elt":4030,"ori":4031,"Ġnir":4032,"Ġforg":4033,"Ġalm":4034,"Ġspeak":4035,"Ġjustin":4036,"Ġ57":4037,"Ġexper":4038,"Ġadditional":4039,"Ġhighway":4040,"Ġlimits":4041,"Ġzoo":4042,"Ġspecialty":4043,"Ġprom":4044,"Ġfireplaces":4045,"Ġshopping":4046,"Ġpulled":4047,"sides":4048,"Ġincluded":4049,"Ġguys":4050,"aughter":4051,"Ġvictor":4052,"03":4053,"haps":4054,"Ġ.":4055,"Ġferry":4056,"Ġcateg":4057,"Ġonion":4058,"Ġepl":4059,"Ġevent":4060,"Ġjun":4061,"cos":4062,"Ġ80":4063,"Ġhomecoming":4064,"Ġimag":4065,"Ġ197":4066,"Ġexcuse":4067,"aho":4068,"Ġsteve":4069,"Ġidaho":4070,"Ġmemphis":4071,"Ġtransform":4072,"$.":4073,"da":4074,"ux":4075,"zing":4076,"Ġhon":4077,"Ġoffic":4078,"Ġjon":4079,"Ġamount":4080,"Ġperhaps":4081,"Ġknight":4082,"Ġroasted":4083,"Ġcourts":4084,"Ġoverall":4085,"Ġhousemade":4086,"Ġlanding":4087,"Ġsteaks":4088,"Ġbasic":4089,"Ġterri":4090,"letree":4091,"Ġbrowns":4092,"Ġoyster":4093,"Ġcapitol":4094,"Ġapologize":4095,"Ġdoubletree":4096,"Ġmeatballs":4097,"service":4098,"41":4099,"97":4100,"dle":4101,"Ġwings":4102,"Ġow":4103,"Ġsally":4104,"Ġcase":4105,"Ġandre":4106,"Ġrelish":4107,"Ġgoods":4108,"Ġcoy":4109,"Ġdef":4110,"Ġhost":4111,"Ġappe":4112,"Ġridge":4113,"Ġjob":4114,"Ġswim":4115,"play":4116,"Ġcrust":4117,"Ġdescribed":4118,"Ġfeeling":4119,"Ġseventh":4120,"Ġdollars":4121,"Ġbrownie":4122,"Ġstrange":4123,"Ġmaximum":4124,"suite":4125,"Ġchristmas":4126,"Ġscorer":4127,"Ġprince":4128,"ded":4129,"va":4130,"Ġcow":4131,"Ġcup":4132,"Ġtold":4133,"Ġdance":4134,"Ġdream":4135,"Ġlions":4136,"Ġitaly":4137,"Ġsup":4138,"ctor":4139,"Ġ36":4140,"aker":4141,"illa":4142,"Ġvibe":4143,"Ġlistening":4144,"Ġjohnny":4145,"Ġcrab":4146,"Ġlowest":4147,"Ġrunning":4148,"Ġpolice":4149,"Ġidea":4150,"Ġboys":4151,"Ġoperation":4152,"Ġdecide":4153,"Ġboutique":4154,"Ġcoyotes":4155,"boy":4156,"die":4157,"ew":4158,"lic":4159,"vana":4160,"you":4161,"your":4162,"ank":4163,"Ġtand":4164,"Ġface":4165,"Ġling":4166,"Ġdub":4167,"kest":4168,"alth":4169,"Ġshad":4170,"Ġnewest":4171,"Ġenjoyed":4172,"fied":4173,"Ġcreation":4174,"Ġfancy":4175,"ocado":4176,"Ġremind":4177,"storante":4178,"Ġpolished":4179,"Ġoysters":4180,"Ġwalnut":4181,"Ġmaryland":4182,"Ġneigh":4183,"Ġmachine":4184,"Ġbeyond":4185,"Ġtechn":4186,"Ġchampions":4187,"Ġtandoor":4188,"af":4189,"ape":4190,"bre":4191,"din":4192,"gs":4193,"hood":4194,"jara":4195,"sm":4196,"int":4197,"Ġbris":4198,"Ġtony":4199,"Ġreach":4200,"Ġbesides":4201,"Ġund":4202,"Ġdev":4203,"Ġconnect":4204,"Ġadele":4205,"Ġunable":4206,"Âłpm":4207,"Ġbarcel":4208,"Ġdra":4209,"Ġspeciali":4210,"Ġristorante":4211,"Ġ155":4212,"Ġcruise":4213,"Ġharmony":4214,"Ġcabin":4215,"Ġarcata":4216,"Ġbathrooms":4217,"Ġlyrics":4218,"06":4219,"gth":4220,"nie":4221,"vale":4222,"ynd":4223,"asing":4224,"Ġfut":4225,"Ġpow":4226,"Ġdvd":4227,"aring":4228,"Ġbegin":4229,"Ġfloor":4230,"Ġ46":4231,"Ġleft":4232,"Ġroundtrip":4233,"Ġbron":4234,"away":4235,"ract":4236,"Ġstrikers":4237,"Ġbowie":4238,"alajara":4239,"Ġsunnyvale":4240,"Ġjama":4241,"Ġsusp":4242,"Ġguadalajara":4243,"Ġdolph":4244,"Ġbarcelona":4245,"'.":4246,"pod":4247,"Ġipod":4248,"Ġcut":4249,"Ġreun":4250,"iron":4251,"Ġjos":4252,"Ġwilling":4253,"Ġ41":4254,"Ġnewark":4255,"Ġconc":4256,"Ġlear":4257,"Ġ97":4258,"Ġfee":4259,"Ġscored":4260,"Ġdrag":4261,"zzi":4262,"Ġtravelling":4263,"Ġswiss":4264,"Ġcharles":4265,"Ġoceanfront":4266,"Ġmoderately":4267,"Ġsecret":4268,"Ġtitle":4269,"Ġroses":4270,"unkirk":4271,"Ġposition":4272,"Ġgermany":4273,"Ġjamaica":4274,"89":4275,"gles":4276,"uel":4277,"Ġthous":4278,"Ġcop":4279,"Ġpict":4280,"Ġdunkirk":4281,"Ġgho":4282,"ilt":4283,"Ġchill":4284,"Ġhills":4285,"Ġfinds":4286,"aily":4287,"Ġamong":4288,"arding":4289,"Ġdepending":4290,"Ġdrake":4291,"rust":4292,"Ġweeks":4293,"Ġcharlie":4294,"Ġwomen":4295,"atively":4296,"Ġhimself":4297,"Ġhopkins":4298,"Ġrecommended":4299,"Ġattire":4300,"ology":4301,"Ġbrowsing":4302,"Ġfacilities":4303,"Ġguns":4304,"Ġtransformers":4305,"Ġdolphins":4306,"Ġthousand":4307,"Ġghost":4308,"vy":4309,"ases":4310,"Ġmand":4311,"Ġdaughter":4312,"Ġdaily":4313,"Ġnc":4314,"Ġform":4315,"Ġlives":4316,"Ġbean":4317,"Ġbeers":4318,"ndy":4319,"Ġdocks":4320,"Ġcoco":4321,"Ġasked":4322,"Ġmarble":4323,"Ġdelight":4324,"Ġveg":4325,"actress":4326,"Ġcounty":4327,"Ġkitchenett":4328,"Ġpatios":4329,"Ġcapital":4330,"Ġnirvana":4331,"Ġdublin":4332,"Ġfuture":4333,"Ġpicture":4334,"700":4335,"ios":4336,"men":4337,"post":4338,"Ġtu":4339,"Ġtem":4340,"Ġtaking":4341,"Ġaer":4342,"Ġfather":4343,"Ġses":4344,"Ġbou":4345,"Ġdave":4346,"Ġgather":4347,"lev":4348,"Ġrho":4349,"Ġseth":4350,"Ġsupp":4351,"Ġspan":4352,"Ġspell":4353,"159":4354,"emy":4355,"Ġdifferences":4356,"Ġstanding":4357,"Ġregarding":4358,"Ġbaham":4359,"Ġpeppers":4360,"Ġpurchased":4361,"Ġkey":4362,"Ġgardens":4363,"Ġforest":4364,"Ġgirlfriend":4365,"Ġ902":4366,"Ġchanged":4367,"Ġ95616":4368,"Ġjungle":4369,"Ġrhode":4370,"Ġbahamas":4371,"dd":4372,"gner":4373,"Ġtow":4374,"Ġinvent":4375,"Ġnecess":4376,"Ġrai":4377,"Ġjedi":4378,"Ġ52":4379,"Ġclou":4380,"Ġ92":4381,"ump":4382,"Ġdiner":4383,"Ġeagles":4384,"emed":4385,"iance":4386,"Ġritz":4387,"Ġtalking":4388,"Ġvegg":4389,"Ġpastas":4390,"Ġdenzel":4391,"Ġbrick":4392,"Ġperformed":4393,"anean":4394,"bedroom":4395,"Ġdesigner":4396,"Ġsuspense":4397,"ha":4398,"mesan":4399,"pon":4400,"ray":4401,"Ġtuna":4402,"Ġiron":4403,"Ġha":4404,"Ġyo":4405,"inch":4406,"Ġlin":4407,"Ġmcc":4408,"Ġgall":4409,"themed":4410,"Ġrace":4411,"ita":4412,"Ġjes":4413,"Ġjord":4414,"Ġequ":4415,"Ġwasn":4416,"Ġcole":4417,"Ġenv":4418,"Ġench":4419,"Ġsized":4420,"Ġ1010":4421,"Ġ2014":4422,"Ġparmesan":4423,"Ġpickles":4424,"Ġlistened":4425,"Ġsnatch":4426,"Ġanswered":4427,"Ġlamar":4428,"Ġhamburger":4429,"Ġhistorical":4430,"Ġassassi":4431,"Ġreasonable":4432,"Ġtaste":4433,"Ġswimming":4434,"350":4435,"67":4436,"kings":4437,"uri":4438,"work":4439,"Ġill":4440,"rest":4441,"Ġce":4442,"Ġbag":4443,"edy":4444,"Ġkung":4445,"aster":4446,"Ġpreferable":4447,"Ġnews":4448,"Ġhealth":4449,"cio":4450,"Ġlaid":4451,"Ġ2015":4452,"ared":4453,"Ġunderworld":4454,"acoma":4455,"Ġ125":4456,"Ġhero":4457,"Ġrelatively":4458,"Ġreleases":4459,"Ġ958":4460,"Ġhuge":4461,"Ġwindows":4462,"Ġentertain":4463,"Ġdecorated":4464,"Ġmultiple":4465,"Ġdiesel":4466,"Ġtechnology":4467,"Ġvegas":4468,"Ġkitchenettes":4469,"Ġjordan":4470,"52":4471,"53":4472,"aff":4473,"mare":4474,"ango":4475,"Ġsell":4476,"Ġbird":4477,"oop":4478,"omb":4479,"rison":4480,"Ġwouldn":4481,"ama":4482,"Ġyourself":4483,"Ġanymore":4484,"Ġalf":4485,"Ġtrop":4486,"Ġclay":4487,"Ġfeels":4488,"Ġlaw":4489,"Ġpearl":4490,"Ġemma":4491,"Ġsoul":4492,"Ġunique":4493,"Ġtheatre":4494,"Ġrecommendation":4495,"Ġrecommendations":4496,"incess":4497,"Ġincludes":4498,"Ġhits":4499,"Ġrivers":4500,"Ġeyez":4501,"Ġcondition":4502,"Ġsilver":4503,"Ġpolitical":4504,"Ġbroncos":4505,"Ġinventive":4506,"Ġenchilad":4507,".âĢĭâĢĭ":4508,"bul":4509,"ience":4510,"lb":4511,"we":4512,"sible":4513,"refrigerator":4514,"Ġcant":4515,"Ġcelt":4516,"Ġnl":4517,"Ġformer":4518,"Ġwish":4519,"uring":4520,"iling":4521,"Ġ2000":4522,"Ġnightmare":4523,"Ġwhichever":4524,"Ġbody":4525,"Ġrise":4526,"Ġcash":4527,"Ġovernight":4528,"Ġindia":4529,"Ġprincess":4530,"gned":4531,"Ġmedit":4532,"Ġfairly":4533,"Ġmushrooms":4534,"Ġvillas":4535,"Ġcondos":4536,"heit":4537,"Ġjoyner":4538,"Ġitems":4539,"levard":4540,"Ġcloudy":4541,"09":4542,"ear":4543,"pit":4544,"pub":4545,"Ġze":4546,"Ġkeeper":4547,"Ġhwy":4548,"Ġsense":4549,"Ġpil":4550,"Ġmass":4551,"ories":4552,"Ġgro":4553,"Ġplatter":4554,"Ġbears":4555,"Ġchie":4556,"Ġjen":4557,"Ġfounded":4558,"cious":4559,"Ġmarvel":4560,"Ġbuble":4561,"Ġexcept":4562,"Ġrogen":4563,"ability":4564,"tact":4565,"Ġreviewed":4566,"Ġsteel":4567,"Ġhund":4568,"Ġpitt":4569,"Ġremain":4570,"Ġdelicious":4571,"Ġpanther":4572,"Ġmasala":4573,"erranean":4574,"Ġdarkest":4575,"Ġcategory":4576,"Ġtandoori":4577,"Ġceltics":4578,"125":4579,"crust":4580,"gins":4581,"vo":4582,"win":4583,"Ġist":4584,"inta":4585,"Ġfah":4586,"Ġpas":4587,"Ġmal":4588,"Ġmlb":4589,"Ġbare":4590,"Ġna":4591,"ency":4592,"rist":4593,"Ġlibr":4594,"Ġepic":4595,"Ġkore":4596,"Ġusing":4597,"Ġjuice":4598,"Ġpres":4599,"cons":4600,"Ġ51":4601,"Ġcontact":4602,"Ġgets":4603,"Ġperfectly":4604,"Ġparlor":4605,"ored":4606,"Ġshops":4607,"197":4608,"Ġsnow":4609,"Ġspiel":4610,"Ġbasketball":4611,"Ġsurroundings":4612,"Ġfilling":4613,"Ġterrific":4614,"Ġmediterranean":4615,"Ġhundred":4616,"Ġlibrary":4617,"gy":4618,"anu":4619,"reon":4620,"Ġnfl":4621,"omic":4622,"Ġwiz":4623,"Ġbegins":4624,"Ġdoctor":4625,"Ġrh":4626,"Ġmosc":4627,"itas":4628,"sey":4629,"cker":4630,"Ġdew":4631,"Ġbarry":4632,"Ġspecified":4633,"Ġblood":4634,"keepers":4635,"Ġchocol":4636,"renheit":4637,"Ġrepeating":4638,"Ġslower":4639,"auri":4640,"Ġgrilled":4641,"Ġpotatoes":4642,"Ġmysterious":4643,"Ġduck":4644,"Ġdylan":4645,"Ġfettu":4646,"Ġneighbor":4647,"Ġboulevard":4648,"Ġfahrenheit":4649,"Ġspielberg":4650,"eth":4651,"gian":4652,"anbul":4653,"aya":4654,"Ġbir":4655,"Ġborder":4656,"Ġbeet":4657,"urb":4658,"che":4659,"Ġrout":4660,"Ġstates":4661,"Ġalone":4662,"Ġshape":4663,"Ġ61":4664,"Ġquaint":4665,"Ġquinta":4666,"Ġshowman":4667,"Ġven":4668,"rite":4669,"tage":4670,"Ġswitch":4671,"Ġmostly":4672,"Ġhopefully":4673,"Ġacou":4674,"Ġeddie":4675,"Ġstarted":4676,"Ġmetreon":4677,"oking":4678,"Ġlobby":4679,"Ġafford":4680,"Ġentertainment":4681,"Ġistanbul":4682,"Ġmoscow":4683,"69":4684,"count":4685,"look":4686,"tr":4687,"Ġtables":4688,"Ġage":4689,"Ġfal":4690,"Ġfest":4691,"Ġsli":4692,"Ġcat":4693,"ora":4694,"arf":4695,"Ġstick":4696,"vious":4697,"Ġkra":4698,"aints":4699,"Ġ38":4700,"Ġcheek":4701,"Ġmargar":4702,"stopher":4703,"Ġrico":4704,"ccine":4705,"Ġwayne":4706,"Ġmakers":4707,"Ġwoods":4708,"Ġclassics":4709,"Ġjagu":4710,"Ġdeadpool":4711,"Ġmixed":4712,"Ġcertainly":4713,"esanos":4714,"Ġsolid":4715,"Ġcheeseburger":4716,"Ġdreams":4717,"Ġjacu":4718,"Ġfettuccine":4719,"kn":4720,"pa":4721,"Ġword":4722,"Ġyellow":4723,"redo":4724,"Ġsaints":4725,"Ġcoo":4726,"Ġbear":4727,"Ġraw":4728,"Ġstren":4729,"Ġchand":4730,"Ġkiss":4731,"uts":4732,"quil":4733,"Ġrate":4734,"Ġ53":4735,"Ġ59":4736,"Ġminn":4737,"Ġparam":4738,"awn":4739,"Ġpaesanos":4740,"Ġfinals":4741,"Ġairports":4742,"erto":4743,"Ġbroc":4744,"Ġdiscovers":4745,"Ġstreaming":4746,"Ġpackers":4747,"Ġcommun":4748,"Ġwhether":4749,"Ġalmost":4750,"Ġveggie":4751,"Ġcheekily":4752,"Ġstrength":4753,"nce":4754,"uck":4755,"Ġtie":4756,"Ġtele":4757,"Ġsake":4758,"Ġjay":4759,"ctic":4760,"Ġwhose":4761,"Ġ54":4762,"Ġfounder":4763,"Ġlemon":4764,"Ġ98":4765,"Ġhog":4766,"Ġawards":4767,"fty":4768,"oli":4769,"Ġvikings":4770,"Ġdriving":4771,"Ġcontain":4772,"Ġvegetable":4773,"Ġgiven":4774,"Ġorient":4775,"Ġblock":4776,"Ġbatting":4777,"Ġcrowd":4778,"Ġstudios":4779,"Ġanth":4780,"Ġpuerto":4781,"Ġwilliams":4782,"Ġvictorian":4783,"uxe":4784,"Ġreunion":4785,"ironment":4786,"Ġenvironment":4787,"Ġsnatched":4788,"Ġchocolate":4789,"Ġjaguars":4790,"110":4791,"bell":4792,"carl":4793,"don":4794,"eves":4795,"ject":4796,"no":4797,"of":4798,"po":4799,"park":4800,"Ġtacoma":4801,"Ġhur":4802,"Ġfa":4803,"Ġfurn":4804,"Ġcart":4805,"Ġbak":4806,"Ġbry":4807,"arin":4808,"Ġwhit":4809,"rick":4810,"Ġlift":4811,"Ġrebound":4812,"Ġreeves":4813,"Ġrings":4814,"Ġjr":4815,"Ġalamo":4816,"cover":4817,"ended":4818,"ardo":4819,"alie":4820,"aka":4821,"Ġ63":4822,"Ġadam":4823,"Ġcomb":4824,"soci":4825,"fired":4826,"Ġprodu":4827,"Ġdeluxe":4828,"209":4829,"Ġriv":4830,"Ġtequil":4831,"Ġparticularly":4832,"Ġdesert":4833,"Ġregency":4834,"Ġsinger":4835,"Ġdelivery":4836,"Ġmiddle":4837,"Ġbills":4838,"Ġinternet":4839,"flight":4840,"Ġchristopher":4841,"eapolis":4842,"Ġrolling":4843,"Ġtortas":4844,"Ġraiders":4845,"Ġassassin":4846,"Ġalfredo":4847,"Ġacoustic":4848,"Ġbroccoli":4849,"carlton":4850,"cut":4851,"how":4852,"head":4853,"mond":4854,"pri":4855,"rop":4856,"Ġfab":4857,"Ġsail":4858,"Ġsav":4859,"Ġcure":4860,"Ġpea":4861,"Ġlines":4862,"Ġmauri":4863,"Ġbus":4864,"Ġgas":4865,"Ġwharf":4866,"ows":4867,"Ġfort":4868,"Ġforget":4869,"Ġplans":4870,"Ġdoor":4871,"Ġstrip":4872,"Ġsomeplace":4873,"Ġlosing":4874,"anda":4875,"Ġ300":4876,"Ġagree":4877,"Ġclam":4878,"cid":4879,"Âłm":4880,"Ġ2049":4881,"Ġvenue":4882,"202":4883,"awks":4884,"Ġdespic":4885,"Ġmonica":4886,"149":4887,"Ġused":4888,"182":4889,"minal":4890,"okay":4891,"Ġended":4892,"acksaw":4893,"Ġjosh":4894,"Ġneighborhood":4895,"Ġjacuzzi":4896,"Ġminneapolis":4897,"Ġdespicable":4898,"..":4899,"aim":4900,"ned":4901,"run":4902,"zi":4903,"ani":4904,"Ġtouch":4905,"eran":4906,"Ġsq":4907,"Ġcris":4908,"Ġbru":4909,"Ġann":4910,"Ġninth":4911,"amer":4912,"Ġalamed":4913,"Ġshakes":4914,"Ġcoloss":4915,"Ġ56":4916,"Ġ85":4917,"Ġwestin":4918,"Ġtext":4919,"Ġcarry":4920,"Ġalbums":4921,"tune":4922,"Ġslight":4923,"Ġpratt":4924,"airs":4925,"Ġcrown":4926,"Ġsteph":4927,"Ġbrian":4928,"Ġkeanu":4929,"Ġdecent":4930,"Ġvolume":4931,"Ġpowerful":4932,"Ġhuman":4933,"Ġfrontier":4934,"Ġlobster":4935,"Ġmartin":4936,"Ġexpected":4937,"Ġkorean":4938,"Ġrivals":4939,"Ġalameda":4940,"98":4941,"900":4942,"bilt":4943,"ior":4944,"lake":4945,"law":4946,"mont":4947,"table":4948,"Ġol":4949,"Ġhacksaw":4950,"Ġyel":4951,"rel":4952,"Ġfoo":4953,"Ġsar":4954,"Ġsara":4955,"Ġmel":4956,"elin":4957,"Ġbould":4958,"inger":4959,"ene":4960,"aron":4961,"rie":4962,"Ġlil":4963,"Ġrow":4964,"elly":4965,"added":4966,"Ġjuan":4967,"Ġtwist":4968,"Ġhash":4969,"Ġmanh":4970,"available":4971,"Ġ920":4972,"Ġ64":4973,"Ġairy":4974,"orton":4975,"achel":4976,"Ġaward":4977,"Ġblues":4978,"Ġmilk":4979,"179":4980,"Ġtexans":4981,"Ġcourses":4982,"Ġgoalkeepers":4983,"Ġcraz":4984,"Ġwaterside":4985,"Ġsheeran":4986,"Ġmeats":4987,"Ġattract":4988,"Ġfusion":4989,"Ġbanks":4990,"Ġmarketplace":4991,"Ġradio":4992,"Ġjeff":4993,"Ġambiance":4994,"Ġwilson":4995,"Ġtower":4996,"Ġnecessary":4997,"Ġzepp":4998,"known":4999,"Ġcolossal":5000,"cake":5001,"dom":5002,"iod":5003,"sch":5004,"well":5005,"Ġtus":5006,"Ġweak":5007,"Ġfol":5008,"Ġseah":5009,"Ġder":5010,"Ġdad":5011,"Ġinsp":5012,"Ġref":5013,"chic":5014,"chez":5015,"Ġraven":5016,"Ġsean":5017,"itan":5018,"ailability":5019,"Ġperiod":5020,"cont":5021,"Ġdevil":5022,"Ġsister":5023,"Ġreturns":5024,"Ġ101":5025,"guard":5026,"Ġavailability":5027,"Ġupon":5028,"like":5029,"Ġopens":5030,"Ġaud":5031,"abb":5032,"Ġpartly":5033,"Ġsimon":5034,"Ġlandmark":5035,"Ġnormal":5036,"Ġgift":5037,"Ġacross":5038,"Ġrelations":5039,"Ġeric":5040,"Ġsurf":5041,"Ġtitles":5042,"Ġident":5043,"Ġdanger":5044,"Ġstudent":5045,"Ġtrendy":5046,"Ġsuits":5047,"Ġluxury":5048,"Ġheavy":5049,"Ġlucky":5050,"Ġcollege":5051,"Ġowner":5052,"Ġroute":5053,"Ġzeppelin":5054,"ae":5055,"cour":5056,"ja":5057,"ya":5058,"Ġide":5059,"signed":5060,"Ġob":5061,"Ġhut":5062,"Ġsad":5063,"Ġmd":5064,"Ġmine":5065,"Ġmale":5066,"Ġdating":5067,"Ġgary":5068,"Ġforces":5069,"Ġitself":5070,"Ġrot":5071,"Ġmove":5072,"Ġmolly":5073,"itz":5074,"Ġjer":5075,"Ġjets":5076,"Ġfro":5077,"adena":5078,"Ġlets":5079,"Ġshell":5080,"Ġcoca":5081,"Ġ58":5082,"designed":5083,"owned":5084,"Ġwinter":5085,"Ġvud":5086,"Ġservices":5087,"Ġrobert":5088,"Ġmusical":5089,"Ġblink":5090,"Ġappro":5091,"attan":5092,"Ġviewing":5093,"Ġweekends":5094,"cape":5095,"Ġwaters":5096,"Ġcovered":5097,"ized":5098,"Ġcomfortable":5099,"Ġslee":5100,"Ġbeng":5101,"472":5102,"Ġmembers":5103,"Ġheadset":5104,"Ġchampionship":5105,"Ġunde":5106,"Ġsupposed":5107,"Ġspanish":5108,"Ġchiefs":5109,"Ġsteelers":5110,"Ġpasadena":5111,"Ġfalcons":5112,"Ġmauricio":5113,"Ġcrispy":5114,"Ġboulder":5115,"Ġseahawks":5116,"349":5117,"Ġwet":5118,"Ġwol":5119,"Ġocc":5120,"Ġhun":5121,"Ġfand":5122,"esh":5123,"aries":5124,"Ġinde":5125,"Ġarena":5126,"Ġhelped":5127,"Ġdozen":5128,"Ġum":5129,"Ġsold":5130,"Ġshot":5131,"Ġdeals":5132,"inee":5133,"Ġ950":5134,"Ġ66":5135,"Ġcomic":5136,"Ġholly":5137,"ansa":5138,"Ġhearing":5139,"Ġcousin":5140,"Ġcuz":5141,"Ġzac":5142,"Ġguardia":5143,"Ġlots":5144,"Ġatlantic":5145,"Ġblocks":5146,"Ġ95472":5147,"Ġfaster":5148,"Ġwedding":5149,"Ġanswering":5150,"Ġtreat":5151,"Ġreceipt":5152,"Ġranging":5153,"Ġofficial":5154,"Ġfestive":5155,"Ġcooper":5156,"Ġmanhattan":5157,"Ġrelationship":5158,"Ġvudu":5159,"Ġbengals":5160,"66":5161,"book":5162,"band":5163,"cer":5164,"Ġaqu":5165,"Ġwes":5166,"Ġyum":5167,"atic":5168,"iny":5169,"Ġsons":5170,"Ġcit":5171,"Ġpen":5172,"Ġmellow":5173,"Ġborn":5174,"Ġgone":5175,"Ġgang":5176,"ghth":5177,"Ġlion":5178,"Ġrefried":5179,"Ġhoward":5180,"Ġstan":5181,"Ġkong":5182,"Ġ44":5183,"Ġmanil":5184,"guel":5185,"Ġunavailable":5186,"Ġbust":5187,"Ġsanchez":5188,"Ġhomemade":5189,"Ġvisi":5190,"Ġcasino":5191,"Ġswan":5192,"Ġglass":5193,"Ġcolts":5194,"Ġguardian":5195,"Ġvander":5196,"Ġlufth":5197,"apped":5198,"Ġwaterfront":5199,"Ġpurchasing":5200,"Ġclear":5201,"Ġlegs":5202,"Ġfisherman":5203,"vitz":5204,"Ġtrucks":5205,"Ġeuropean":5206,"Ġteenage":5207,"Ġpsycho":5208,"Ġforgot":5209,"Ġcowboy":5210,"Ġenchiladas":5211,"Ġkravitz":5212,"Ġyelp":5213,"Ġundefined":5214,"145":5215,"hers":5216,"lou":5217,"zes":5218,"anc":5219,"usband":5220,"Ġhos":5221,"Ġhurt":5222,"Ġhusband":5223,"rey":5224,"Ġself":5225,"Ġlamp":5226,"Ġbern":5227,"onde":5228,"aling":5229,"ote":5230,"Ġmeant":5231,"chi":5232,"eau":5233,"Ġanyway":5234,"Ġut":5235,"Ġsoda":5236,"Ġarmy":5237,"Ġoutpost":5238,"Ġassoci":5239,"Ġclams":5240,"Ġcouldn":5241,"Ġ62":5242,"Ġ65":5243,"Âłat":5244,"aged":5245,"Ġbuzz":5246,"Ġrib":5247,"pless":5248,"Ġsays":5249,"Ġlonger":5250,"129":5251,"Ġrequired":5252,"Ġbasil":5253,"gnon":5254,"hero":5255,"Ġclean":5256,"Ġlower":5257,"Ġmetro":5258,"Ġduran":5259,"Ġpieces":5260,"Ġescape":5261,"Ġrequested":5262,"eapple":5263,"Ġrichard":5264,"Ġpineapple":5265,"Ġhonor":5266,"Ġshades":5267,"Ġconcern":5268,"Ġdragon":5269,"Ġcrazy":5270,"Ġtuscan":5271,"Ġweakness":5272,"Ġvanderbilt":5273,".âĢĭ":5274,"cus":5275,"gio":5276,"ners":5277,"nich":5278,"usion":5279,"wise":5280,"Ġtemp":5281,"ello":5282,"Ġdomin":5283,"Ġandy":5284,"Ġforced":5285,"vest":5286,"Ġbecome":5287,"Ġstones":5288,"Ġstaff":5289,"Ġamid":5290,"Ġspy":5291,"Ġheath":5292,"Ġgetaway":5293,"Ġcurries":5294,"Ġworkout":5295,"Ġbrings":5296,"Ġblond":5297,"Ġblonde":5298,"Ġapply":5299,"Ġoverlook":5300,"Ġparent":5301,"Ġchargers":5302,"Ġtrades":5303,"ocked":5304,"Ġusers":5305,"Ġwatson":5306,"Ġsuperhero":5307,"Ġleads":5308,"Ġkingsmen":5309,"Ġhang":5310,"Ġpitcher":5311,"Ġrobin":5312,"Ġchristian":5313,"Ġ95695":5314,"Ġbirth":5315,"Ġsleepless":5316,"Ġvisiting":5317,"Ġlufthansa":5318,"79":5319,"furt":5320,"gi":5321,"kely":5322,"rum":5323,"ted":5324,"sia":5325,"Ġwag":5326,"Ġhd":5327,"Ġfist":5328,"Ġpup":5329,"Ġfortune":5330,"ald":5331,"Ġmegan":5332,"ised":5333,"Ġstru":5334,"Ġsticks":5335,"iting":5336,"Ġflore":5337,"elli":5338,"Ġdiana":5339,"Ġpred":5340,"Ġmunich":5341,"Ġamy":5342,"Ġshare":5343,"Ġarts":5344,"Ġcoles":5345,"Ġtraf":5346,"alize":5347,"Ġclar":5348,"Ġsia":5349,"Ġoppon":5350,"Ġmaroon":5351,"Ġavocado":5352,"Âłf":5353,"aga":5354,"Ġclasses":5355,"Ġbull":5356,"ister":5357,"Ġguit":5358,"Ġopening":5359,"Ġbrunch":5360,"Ġblake":5361,"Ġkingston":5362,"Ġmiguel":5363,"Ġsmur":5364,"Ġcolon":5365,"Ġeighth":5366,"Ġluke":5367,"119":5368,"Ġterms":5369,"Ġusually":5370,"Ġthrillers":5371,"Ġedison":5372,"Ġprovided":5373,"Ġdeadly":5374,"Ġfigure":5375,"Ġeggs":5376,"Ġmountainside":5377,"Ġbedrooms":5378,"ception":5379,"direct":5380,"Ġanton":5381,"Ġgeorg":5382,"Ġfrankfurt":5383,"Ġtruth":5384,"Ġconsist":5385,"Ġmillion":5386,"Ġpanthers":5387,"Ġnyc":5388,"Ġlegendary":5389,"Ġsmoothies":5390,"just":5391,"oriented":5392,"Ġmandarin":5393,"cident":5394,"Ġattractions":5395,"Ġfrozen":5396,"Ġapprox":5397,"Ġcoleslaw":5398,"120":5399,"dale":5400,"ient":5401,"iff":5402,"ropol":5403,"range":5404,"rinth":5405,"Ġoil":5406,"omas":5407,"Ġwide":5408,"Ġhell":5409,"Ġren":5410,"Ġcany":5411,"eters":5412,"Ġflav":5413,"ilian":5414,"Ġecle":5415,"Ġkos":5416,"Ġalan":5417,"Ġgovern":5418,"Ġjuli":5419,"Ġallen":5420,"Ġshel":5421,"byrinth":5422,"Ġspin":5423,"Ġ71":5424,"Ġago":5425,"aken":5426,"Ġlabyrinth":5427,"Ġbucc":5428,"Ġpiano":5429,"Ġprof":5430,"101":5431,"109":5432,"Ġstopover":5433,"Ġbrand":5434,"Ġitalia":5435,"Ġcarr":5436,"rence":5437,"Ġahi":5438,"Ġfamous":5439,"139":5440,"ashion":5441,"Ġcheesecake":5442,"169":5443,"burg":5444,"Ġmaine":5445,"Ġbrief":5446,"thew":5447,"Ġenduring":5448,"aneers":5449,"Ġduration":5450,"Ġfastest":5451,"279":5452,"Ġwalls":5453,"Ġcoastal":5454,"Ġapartments":5455,"Ġfreed":5456,"Ġcheeseburgers":5457,"Âłwith":5458,"ussels":5459,"Ġedwardes":5460,"Ġnaan":5461,"Ġtelevision":5462,"american":5463,"contin":5464,"Ġfandango":5465,"Ġbustling":5466,"director":5467,"Ġeclectic":5468,"Ġkosher":5469,"Ġbuccaneers":5470,"pose":5471,"roy":5472,"ties":5473,"Ġtam":5474,"Ġii":5475,"Ġwynd":5476,"Ġodd":5477,"Ġfel":5478,"Ġsel":5479,"Ġsaint":5480,"Ġpink":5481,"Ġlor":5482,"Ġlord":5483,"Ġinch":5484,"Ġreorder":5485,"Ġkl":5486,"Ġalice":5487,"Ġuh":5488,"Ġconst":5489,"Ġ72":5490,"iah":5491,"Ġ926":5492,"Ġaddition":5493,"Ġfifty":5494,"Ġprog":5495,"102":5496,"Ġrick":5497,"Ġkingdom":5498,"aig":5499,"Ġsword":5500,"Ġeverybody":5501,"172":5502,"Ġcoaches":5503,"Ġfinish":5504,"wards":5505,"Ġcareer":5506,"Ġgiving":5507,"ahe":5508,"Ġcloses":5509,"Ġjoining":5510,"Ġmumford":5511,"cola":5512,"Ġchanges":5513,"center":5514,"onnaise":5515,"Ġranges":5516,"Ġimagin":5517,"Ġlingu":5518,"Ġdevice":5519,"Ġpowers":5520,"Ġtune":5521,"Ġaffordable":5522,"Ġmargaritas":5523,"Ġpeace":5524,"Ġbruce":5525,"Ġjersey":5526,"Ġmanilow":5527,"Ġcanyon":5528,"65":5529,"bb":5530,"bal":5531,"iy":5532,"ten":5533,"year":5534,"sizing":5535,"Ġaaron":5536,"Ġfat":5537,"Ġsf":5538,"Ġpenn":5539,"Ġlenny":5540,"Ġanahe":5541,"Ġgad":5542,"Ġgab":5543,"enced":5544,"Ġplot":5545,"Ġlisa":5546,"ura":5547,"Ġray":5548,"Ġrachel":5549,"Ġstat":5550,"Ġmod":5551,"iles":5552,"Ġkate":5553,"Ġ212":5554,"verse":5555,"Ġelm":5556,"utes":5557,"cob":5558,"ulf":5559,"Ġ77":5560,"Ġsick":5561,"Ġ91":5562,"Ġadams":5563,"Âłc":5564,"Âłin":5565,"Ġmayonnaise":5566,"aging":5567,"Ġexpl":5568,"Ġeminem":5569,"stone":5570,"Ġphy":5571,"Ġapple":5572,"going":5573,"Ġeveryone":5574,"Ġdownsizing":5575,"Ġcharge":5576,"Ġtavern":5577,"Ġtraded":5578,"Ġterra":5579,"Ġbelong":5580,"hold":5581,"ground":5582,"Ġdarker":5583,"Ġtimberlake":5584,"Ġfacility":5585,"Ġmatinee":5586,"century":5587,"Ġheaven":5588,"Ġincre":5589,"Ġbrisket":5590,"Ġgathering":5591,"Ġillino":5592,"Ġanthony":5593,"Ġstephen":5594,"Ġhospit":5595,"Ġconcerned":5596,"Ġheathrow":5597,"Ġflorence":5598,"Ġwyndham":5599,"Ġanaheim":5600,"86":5601,"mand":5602,"te":5603,"tom":5604,"Ġcong":5605,"Ġcake":5606,"Ġcooked":5607,"Ġmour":5608,"Ġgaga":5609,"Ġnat":5610,"enger":5611,"Ġcanada":5612,"Ġbee":5613,"Ġhelps":5614,"Ġanybody":5615,"Ġev":5616,"Ġsugar":5617,"Ġkend":5618,"Ġkale":5619,"esta":5620,"Ġalth":5621,"ops":5622,"Ġwants":5623,"Ġprep":5624,"Ġseem":5625,"Ġconver":5626,"Ġ67":5627,"Ġcommon":5628,"Âła":5629,"Ġ2013":5630,"Ġcalifornian":5631,"Ġbreath":5632,"Ġdeparted":5633,"Ġbreaking":5634,"atural":5635,"Ġplush":5636,"205":5637,"ccess":5638,"Ġcred":5639,"Ġmadonna":5640,"mix":5641,"Ġindi":5642,"Ġstandards":5643,"Ġheaded":5644,"Ġspecialties":5645,"Ġworries":5646,"Ġcraven":5647,"fthouse":5648,"ette":5649,"nifer":5650,"Ġbang":5651,"Ġhawai":5652,"Ġvirginia":5653,"Ġjacksonville":5654,"Ġbaths":5655,"Ġpuget":5656,"Ġbrowse":5657,"Ġluxe":5658,"Ġsurviv":5659,"Ġevents":5660,"Ġdrafthouse":5661,"Ġremaining":5662,"Ġbakery":5663,"Ġtequila":5664,"Ġslightly":5665,"Ġravens":5666,"Ġ92651":5667,"Ġillinois":5668,"1000":5669,"415":5670,"han":5671,"hill":5672,"ign":5673,"kra":5674,"mel":5675,"mine":5676,"mary":5677,"oked":5678,"Ġir":5679,"Ġaz":5680,"Ġwri":5681,"Ġsat":5682,"Ġlane":5683,"Ġnic":5684,"Ġfork":5685,"rix":5686,"Ġplain":5687,"Ġlif":5688,"iring":5689,"Ġatomic":5690,"Ġmob":5691,"Ġeth":5692,"ential":5693,"Ġsuccess":5694,"imately":5695,"ella":5696,"adia":5697,"Ġprevious":5698,"Ġlasts":5699,"Ġspice":5700,"Ġdeck":5701,"Ġupd":5702,"Âłp":5703,"Âłare":5704,"Ġvar":5705,"Ġexe":5706,"life":5707,"Ġtriple":5708,"Ġhomey":5709,"arella":5710,"abs":5711,"Ġtrailbl":5712,"claim":5713,"Ġgrad":5714,"atti":5715,"stina":5716,"ouses":5717,"ipped":5718,"Ġheres":5719,"Ġterry":5720,"Ġstep":5721,"Ġruns":5722,"Ġredskins":5723,"Ġruth":5724,"flu":5725,"Ġeye":5726,"Ġbottom":5727,"Ġhipster":5728,"Ġturns":5729,"Ġwrong":5730,"Ġreceived":5731,"Ġchowder":5732,"Ġdraft":5733,"Ġsession":5734,"Ġyoga":5735,"Ġtropical":5736,"Ġlawrence":5737,"Ġjennifer":5738,"Ġparameters":5739,"Ġidentity":5740,"Ġdangerous":5741,"Ġhollywood":5742,"Ġswanky":5743,"Ġtraffic":5744,"Ġclarion":5745,"Ġsmurfs":5746,"Ġgeorgia":5747,"Ġapproximately":5748,"Ġhospital":5749,"kraut":5750,"130":5751,"hl":5752,"hanna":5753,"if":5754,"ius":5755,"rav":5756,"uit":5757,"ania":5758,"Ġafri":5759,"Ġaero":5760,"Ġwage":5761,"Ġhal":5762,"Ġhoney":5763,"Ġfoc":5764,"Ġsant":5765,"Ġpine":5766,"Ġbass":5767,"Ġdim":5768,"Ġreiner":5769,"Ġmein":5770,"Ġbeck":5771,"isy":5772,"Ġflo":5773,"Ġkenn":5774,"Ġmusi":5775,"Ġsoci":5776,"Ġshake":5777,"fee":5778,"Ġenemy":5779,"ateful":5780,"Âłwhat":5781,"Ġwinner":5782,"Ġfix":5783,"Ġresul":5784,"Ġcorn":5785,"Ġrihanna":5786,"Ġjoins":5787,"Ġbrussels":5788,"Ġsmoked":5789,"Ġexplo":5790,"steria":5791,"Ġteriy":5792,"Ġacclaim":5793,"Ġclassical":5794,"180":5795,"Ġcrash":5796,"Ġmetropol":5797,"Ġkeb":5798,"Ġharbor":5799,"Ġputting":5800,"Ġbowls":5801,"Ġchristina":5802,"Ġinstrum":5803,"Ġdani":5804,"Ġrae":5805,"Ġintercontin":5806,"Ġmatthew":5807,"Ġdecision":5808,"Ġneither":5809,"Ġchopped":5810,"Ġdomino":5811,"Ġjimmy":5812,"Ġtales":5813,"Ġfleet":5814,"Ġreminds":5815,"Ġconditioning":5816,"Ġpilot":5817,"Ġwizards":5818,"Ġsarah":5819,"Ġdaddy":5820,"Ġtempo":5821,"Ġblondies":5822,"Ġkendrick":5823,"Ġalthough":5824,"Ġcredit":5825,"Ġtrailblazers":5826,"Ġteriyaki":5827,"Ġintercontinental":5828,"bel":5829,"fare":5830,"gal":5831,"mis":5832,"ser":5833,"yl":5834,"erkraut":5835,"sted":5836,"Ġwok":5837,"Ġwanna":5838,"Ġosteria":5839,"Ġhom":5840,"inho":5841,"Ġfred":5842,"Ġcia":5843,"Ġcakes":5844,"arlet":5845,"Ġanderson":5846,"iti":5847,"Ġchin":5848,"Ġjake":5849,"Ġkelly":5850,"iment":5851,"Ġloving":5852,"Ġshak":5853,"Ġspurs":5854,"Ġleader":5855,"Ġknocked":5856,"Ġdean":5857,"Ġtells":5858,"condition":5859,"Ġ701":5860,"Ġasada":5861,"Ġlebr":5862,"Ġ104":5863,"uming":5864,"roll":5865,"Âłb":5866,"Ġbun":5867,"Ġdrug":5868,"Ġpean":5869,"Ġ112":5870,"Ġinformal":5871,"Ġresur":5872,"Ġofferings":5873,"lands":5874,"Ġvibr":5875,"Ġphil":5876,"Ġblanc":5877,"Ġcarl":5878,"Ġcarne":5879,"Ġcoffees":5880,"Ġseared":5881,"Ġvevo":5882,"Ġmonsters":5883,"111":5884,"Ġterminal":5885,"Ġpurpose":5886,"Ġcontinue":5887,"Ġlights":5888,"Ġcompletes":5889,"Ġbringing":5890,"ovan":5891,"Ġpublic":5892,"Ġsilence":5893,"Ġestablishment":5894,"Ġsurvival":5895,"Ġforgotten":5896,"Ġandrew":5897,"Ġappealing":5898,"Ġbrisas":5899,"Ġrebounder":5900,"cutive":5901,"Ġradiohead":5902,"Ġstrugg":5903,"Ġopponent":5904,"Ġguitar":5905,"Ġflavors":5906,"Ġlorde":5907,"Ġklm":5908,"Ġmourinho":5909,"Ġkennedy":5910,"Ġresults":5911,"Ġacclaimed":5912,"Ġlebron":5913,"96":5914,":(":5915,"iant":5916,"ied":5917,"pend":5918,"ust":5919,"Ġush":5920,"Ġtn":5921,"Ġaff":5922,"uset":5923,"Ġwoo":5924,"atzi":5925,"Ġcynd":5926,"Ġmoo":5927,"Ġmir":5928,"Ġmia":5929,"Ġdir":5930,"Ġgor":5931,"Ġgrow":5932,"Ġnw":5933,"ened":5934,"arium":5935,"rial":5936,"Ġlies":5937,"Ġron":5938,"Ġruss":5939,"Ġstap":5940,"Ġjur":5941,"Ġjol":5942,"Ġkerr":5943,"Ġperks":5944,"Ġshu":5945,"Ġsprite":5946,"Ġconven":5947,"Ġconvin":5948,"avocado":5949,"uma":5950,"Ġlocals":5951,"Âłor":5952,"Âłam":5953,"Âłyou":5954,"Ġ89":5955,"achuset":5956,"Ġdrum":5957,"Ġspeed":5958,"Ġviet":5959,"Ġrivi":5960,"Ġpickup":5961,"Ġbald":5962,"club":5963,"Ġfavored":5964,"wayne":5965,"Ġcharact":5966,"Ġtrade":5967,"Ġnapa":5968,"Ġaccident":5969,"Ġsauerkraut":5970,"Ġextensive":5971,"Ġwinds":5972,"Ġperformance":5973,"Ġcreamery":5974,"Ġ9537":5975,"Ġelect":5976,"Ġaveraging":5977,"Ġruby":5978,"Ġshorter":5979,"Ġgees":5980,"flot":5981,"Ġdisaster":5982,"Ġlauper":5983,"Ġravi":5984,"Ġdynam":5985,"Ġjamie":5986,"Ġ78701":5987,"Âłthis":5988,"Ġedwards":5989,"Ġjesse":5990,"Ġhealthy":5991,"Ġmassachuset":5992,"Ġslide":5993,"Ġchandler":5994,"Ġantonio":5995,"Ġterraces":5996,"Ġexecutive":5997,"Ġvibrant":5998,"atziki":5999,"Ġcyndi":6000,"Ġrussell":6001,"Ġmassachusetts":6002,"76":6003,"city":6004,"craft":6005,"ges":6006,"home":6007,"nam":6008,"ostor":6009,"por":6010,"uc":6011,"ĠâĢ":6012,"Ġtz":6013,"steen":6014,"asera":6015,"Ġaut":6016,"assion":6017,"Ġcross":6018,"ayer":6019,"Ġmam":6020,"Ġmap":6021,"Ġton":6022,"Ġdum":6023,"Ġinvest":6024,"riel":6025,"Ġplug":6026,"etta":6027,"Ġrabb":6028,"east":6029,"Ġstock":6030,"Ġevan":6031,"Ġsubs":6032,"Ġgreater":6033,"aine":6034,"quent":6035,"Ġcondo":6036,"ossible":6037,"Ġairfare":6038,"Ġunf":6039,"Âłsh":6040,"Ġdeter":6041,"Ġcaffe":6042,"olet":6043,"phone":6044,"Ġride":6045,"upac":6046,"Ġrentals":6047,"175":6048,"mile":6049,"Ġvideos":6050,"Ġwashed":6051,"Ġhorse":6052,"person":6053,"Ġrelated":6054,"Ġworked":6055,"Ġcraig":6056,"190":6057,"Ġjacob":6058,"ship":6059,"Ġanimals":6060,"Ġariana":6061,"Ġcoffeemaker":6062,"Ġdancing":6063,"Ġstudy":6064,"Ġtruck":6065,"Ġsamos":6066,"Ġrivalry":6067,"Ġapologies":6068,"Ġbellasera":6069,"Ġhenry":6070,"Ġimagine":6071,"smoking":6072,"Ġtonya":6073,"Ġsesame":6074,"Ġbodyguard":6075,"Ġolive":6076,"Ġ92037":6077,"Ġrotating":6078,"Ġcowboys":6079,"Ġassociation":6080,"Ġgovernment":6081,"Ġhawaiian":6082,"Ġdaniel":6083,"Ġusher":6084,"Ġriviera":6085,"Ġbaldwin":6086,"239":6087,"82":6088,"84":6089,"fish":6090,"ged":6091,"igh":6092,"javi":6093,"kin":6094,"ltim":6095,"pac":6096,"Ġ:":6097,"state":6098,"stem":6099,"sian":6100,"oud":6101,"ussy":6102,"Ġoven":6103,"ators":6104,"Ġfury":6105,"Ġbomb":6106,"Ġtool":6107,"Ġdwayne":6108,"ession":6109,"Ġinf":6110,"Ġford":6111,"eds":6112,"Ġregg":6113,"alu":6114,"Ġcancel":6115,"icide":6116,"Ġmega":6117,"Ġrush":6118,"outs":6119,"amb":6120,"Ġchose":6121,"Ġcherry":6122,"Ġky":6123,"Ġkay":6124,"Ġkim":6125,"Ġkrist":6126,"Ġalive":6127,"Ġell":6128,"Ġgoalie":6129,"Ġdigs":6130,"Ġnobody":6131,"Ġ400":6132,"Ġtwin":6133,"artney":6134,"ardon":6135,"ula":6136,"Ġagu":6137,"Ġclara":6138,"Ġlev":6139,"Ġwonton":6140,"Ġ69":6141,"Ġunfor":6142,"Ġques":6143,"Âłto":6144,"Ġ86":6145,"Ġleavey":6146,"Ġfreeway":6147,"Ġrecru":6148,"Ġpear":6149,"Ġdonnie":6150,"fill":6151,"Ġkinds":6152,"Ġopened":6153,"Ġhomewood":6154,"Ġbraz":6155,"Ġgene":6156,"aze":6157,"254":6158,"Ġindie":6159,"Ġkidn":6160,"Ġfinest":6161,"Ġspacious":6162,"160":6163,"Ġgrille":6164,"Ġworth":6165,"189":6166,"Ġsurp":6167,"Ġhitman":6168,"Ġboyfriend":6169,"Ġhearty":6170,"Ġspringsteen":6171,"Ġedgewater":6172,"Ġcastle":6173,"Ġmccartney":6174,"Ġfolk":6175,"Ġindepend":6176,"Ġ95060":6177,"Ġaquarium":6178,"Ġcitiz":6179,"louis":6180,"Ġodds":6181,"Ġgadot":6182,"Ġcongress":6183,"Ġresurrect":6184,"Ġravioli":6185,"Ġrabbit":6186,"512":6187,"70":6188,"bies":6189,"father":6190,"hu":6191,"houses":6192,"kan":6193,"oll":6194,"top":6195,"zo":6196,"Ġrip":6197,"Ġtouri":6198,"Ġtupac":6199,"str":6200,"Ġire":6201,"Ġace":6202,"Ġavi":6203,"Ġos":6204,"reme":6205,"Ġfame":6206,"Ġpra":6207,"Ġmath":6208,"Ġbart":6209,"Ġbush":6210,"orm":6211,"Ġanch":6212,"Ġgord":6213,"Ġnas":6214,"Ġnut":6215,"Ġforce":6216,"rio":6217,"vey":6218,"Ġremix":6219,"iced":6220,"Ġmeters":6221,"Ġbever":6222,"chu":6223,"cher":6224,"Ġrum":6225,"isa":6226,"Ġmozz":6227,"Ġchaz":6228,"ente":6229,"Ġkenny":6230,"esto":6231,"Ġultim":6232,"Ġsocial":6233,"cially":6234,"Ġunrav":6235,"Âłdo":6236,"Ġexist":6237,"Ġsaw":6238,"Ġdonovan":6239,"Ġcentric":6240,"Ġ118":6241,"Ġroast":6242,"ured":6243,"ures":6244,"acity":6245,"Ġtrailers":6246,"aire":6247,"Ġangelina":6248,"Ġloud":6249,"Ġscarlet":6250,"Ġsquad":6251,"Ġheading":6252,"Ġ219":6253,"Ġtik":6254,"Ġextended":6255,"Ġpeterson":6256,"Ġsnug":6257,"Ġera":6258,"Ġgreens":6259,"Ġbrothers":6260,"Ġsebastian":6261,"mpy":6262,"Ġhawth":6263,"Ġfalls":6264,"Ġroof":6265,"Ġdocument":6266,"Ġsophia":6267,"Ġpiece":6268,"Ġhumble":6269,"Ġallowed":6270,"Ġsenior":6271,"Âłhere":6272,"Ġlovers":6273,"Ġmotels":6274,"market":6275,"Ġsmoothie":6276,"Ġscottish":6277,"Ġsystem":6278,"Ġwilliam":6279,"Ġthreaten":6280,"Ġlingus":6281,"dining":6282,"Ġtemper":6283,"Ġequipped":6284,"wegian":6285,"public":6286,"Ġoverlooking":6287,"Ġfreedom":6288,"Ġgabriel":6289,"Ġafrican":6290,"Ġfleetwood":6291,"Ġjolie":6292,"Ġtzatziki":6293,"Ġtourist":6294,"Ġchazelle":6295,"Ġunravel":6296,"199":6297,"212":6298,"249":6299,"gie":6300,"iola":6301,"jam":6302,"kjavi":6303,"laki":6304,"mich":6305,"oven":6306,"ps":6307,"vis":6308,"vlaki":6309,"wis":6310,"Ġassi":6311,"analy":6312,"Ġhart":6313,"Ġfer":6314,"Ġfashion":6315,"Ġcell":6316,"Ġcult":6317,"Ġlav":6318,"Ġlyn":6319,"Ġmck":6320,"Ġdami":6321,"enna":6322,"thm":6323,"thank":6324,"Ġlis":6325,"Ġlikely":6326,"Ġwimpy":6327,"icity":6328,"oto":6329,"otect":6330,"chett":6331,"isson":6332,"Ġstur":6333,"vier":6334,"vignon":6335,"Ġjere":6336,"Ġgrey":6337,"ademy":6338,"Ġlov":6339,"Ġpercent":6340,"conut":6341,"Ġtheirs":6342,"Ġshy":6343,"Ġshoo":6344,"Ġship":6345,"Ġarcl":6346,"Ġcoconut":6347,"Ġnightclub":6348,"Ġrates":6349,"Ġ500":6350,"geon":6351,"Ġdemi":6352,"essa":6353,"Ġlean":6354,"Ġmarina":6355,"Ġunp":6356,"Âł$":6357,"Âłl":6358,"Âłon":6359,"Ġfreebies":6360,"Ġ110":6361,"1500":6362,"107":6363,"ubon":6364,"Ġpersons":6365,"Ġunderst":6366,"203":6367,"ficult":6368,"Ġphen":6369,"Ġcurious":6370,"Ġsouvlaki":6371,"frills":6372,"Ġswish":6373,"Ġrenting":6374,"rilliant":6375,"Ġscr":6376,"board":6377,"Ġguardiola":6378,"ressive":6379,"aunt":6380,"Ġheadl":6381,"Ġcontro":6382,"Ġnorwegian":6383,"164":6384,"Ġeateries":6385,"Ġkeith":6386,"Ġfoster":6387,"Ġjackie":6388,"Ġbrother":6389,"Ġprovides":6390,"Ġalaskan":6391,"Ġimpostor":6392,"Ġrapt":6393,"Ġnomination":6394,"Ġstudio":6395,"ovich":6396,"Ġturner":6397,"Ġarcadia":6398,"Ġmotel":6399,"Ġballpark":6400,"john":6401,"Ġgateway":6402,"Ġexperience":6403,"Ġspecializing":6404,"Ġceiling":6405,"Ġcommunity":6406,"Ġwhitney":6407,"Ġinspired":6408,"Ġaudubon":6409,"Ġlinguine":6410,"Ġmodest":6411,"Ġaeroflot":6412,"Ġlevels":6413,"Ġquesad":6414,"Ġmozzarella":6415,"kjavik":6416,"Ġdamien":6417,"Ġarclight":6418,"140":6419,"135":6420,"113":6421,"cci":6422,"eing":6423,"sel":6424,"some":6425,"tch":6426,"urious":6427,"zer":6428,"stre":6429,"atown":6430,"ining":6431,"Ġfans":6432,"Ġpul":6433,"Ġmaster":6434,"Ġboo":6435,"Ġanna":6436,"Ġgel":6437,"Ġgea":6438,"Ġnav":6439,"Ġlim":6440,"Ġmeans":6441,"chris":6442,"Ġrand":6443,"ira":6444,"isan":6445,"Ġstree":6446,"itled":6447,"Ġchip":6448,"Ġchesh":6449,"entious":6450,"Ġkyle":6451,"Ġframe":6452,"Ġfruit":6453,"Ġpresid":6454,"Ġlovely":6455,"Ġlocker":6456,"Ġshar":6457,"Ġcody":6458,"ques":6459,"Ġ73":6460,"iac":6461,"avoy":6462,"Ġmarcus":6463,"Ġunch":6464,"Âł7":6465,"Âłfor":6466,"pecially":6467,"agen":6468,"Ġfoods":6469,"ryan":6470,"Ġvast":6471,"Ġsap":6472,"Ġresult":6473,"Ġtook":6474,"103":6475,"105":6476,"Ġris":6477,"abelle":6478,"Ġgray":6479,"Ġmild":6480,"rah":6481,"Ġsmoke":6482,"Ġdirectly":6483,"Ġdirectors":6484,"170":6485,"174":6486,"Ġlarry":6487,"Ġbike":6488,"Ġbigg":6489,"Ġcolors":6490,"Ġzoot":6491,"Ġrequirement":6492,"134":6493,"Ġpros":6494,"Ġluk":6495,"Ġqueens":6496,"Ġcran":6497,"Ġsauvignon":6498,"Ġmeryl":6499,"Ġfunky":6500,"Ġfox":6501,"Ġhugh":6502,"Ġvalue":6503,"Ġsignature":6504,"Ġentry":6505,"Ġentire":6506,"Ġrelaxing":6507,"Ġforever":6508,"hole":6509,"comes":6510,"Ġphilly":6511,"Ġcapacity":6512,"Ġfights":6513,"Ġfighters":6514,"syl":6515,"Ġpanic":6516,"Ġmissing":6517,"Ġraf":6518,"Ġcrowne":6519,"Ġmaxwell":6520,"Ġmemories":6521,"Ġespecially":6522,"Ġreykjavik":6523,"Ġputh":6524,"Ġfactory":6525,"Âłhow":6526,"Ġkiller":6527,"Ġkilled":6528,"Ġluxurious":6529,"Ġfarmhouse":6530,"Ġradisson":6531,"Ġskill":6532,"Âłthere":6533,"vania":6534,"Ġcamino":6535,"Ġpapa":6536,"Ġlearns":6537,".âĢĭâĢĭâĢĭâĢĭ":6538,"Ġderby":6539,"course":6540,"Ġpsychoanaly":6541,"Ġpupp":6542,"Ġmobile":6543,"Ġchinatown":6544,"Ġ95376":6545,"Ġinvestig":6546,"Ġunfussy":6547,"filled":6548,"Ġbrazilian":6549,"Ġireland":6550,"Ġdocumentaries":6551,"Ġtemperature":6552,"Ġphenom":6553,"Ġheadlines":6554,"Ġraptors":6555,"street":6556,"Ġcheshire":6557,"81":6558,"bi":6559,"bu":6560,"cu":6561,"cal":6562,"hil":6563,"ible":6564,"ific":6565,"med":6566,"max":6567,"names":6568,"oh":6569,"vic":6570,"Ã¼":6571,"Ġ+":6572,"Ġtest":6573,"Ġtart":6574,"Ġties":6575,"Ġtough":6576,"Ġtax":6577,"asian":6578,"usual":6579,"Ġfond":6580,"Ġmes":6581,"Ġmitch":6582,"Ġmental":6583,"Ġbing":6584,"Ġbot":6585,"Ġbrilliant":6586,"Ġanne":6587,"Ġtoy":6588,"Ġdor":6589,"Ġgome":6590,"Ġnich":6591,"ender":6592,"Ġwhis":6593,"ghan":6594,"Ġrese":6595,"alan":6596,"Ġneil":6597,"ches":6598,"char":6599,"ism":6600,"isu":6601,"Ġsex":6602,"Ġseas":6603,"amalan":6604,"Ġcha":6605,"Ġchuck":6606,"Ġchairs":6607,"entist":6608,"ades":6609,"Ġdiary":6610,"Ġlose":6611,"Ġallan":6612,"lyrics":6613,"uter":6614,"Ġ440":6615,"Ġtrou":6616,"Ġtroy":6617,"ules":6618,"Ġagent":6619,"Ġclint":6620,"Ġcliff":6621,"cian":6622,"Ġlevel":6623,"Ġ96":6624,"Ġunusual":6625,"Âłplay":6626,"Ġvine":6627,"Ġvoc":6628,"Ġparad":6629,"Ġapr":6630,"Ġpiatti":6631,"Ġexam":6632,"ording":6633,"Ġprocess":6634,"Ġrole":6635,"Ġjovi":6636,"Ġpicking":6637,"Ġdifficult":6638,"Ġitaliano":6639,"Ġpochett":6640,"Ġgrab":6641,"Ġgrateful":6642,"Ġmilano":6643,"Ġcreature":6644,"Ġexciting":6645,"Ġlanded":6646,"Ġroman":6647,"Ġsteakhouses":6648,"136":6649,"Ġnorman":6650,"Ġnorthern":6651,"146":6652,"Ġlucy":6653,"Ġacres":6654,"Ġacademy":6655,"Ġstew":6656,"Ġaccording":6657,"Ġbrews":6658,"Ġbrewpub":6659,"icted":6660,"Ġsuperbad":6661,"Ġharrison":6662,"Ġhuh":6663,"Ġhugo":6664,"Ġpetty":6665,"Ġorganiz":6666,"222":6667,"Ġwarrior":6668,"Ġtitan":6669,"Ġimpossible":6670,"standing":6671,"Ġbottles":6672,"Ġdestroy":6673,"Ġmcavoy":6674,"Ġbeasts":6675,"Ġrichmond":6676,"Ġdying":6677,"Ġfrequent":6678,"Ġhonest":6679,"Ġofficer":6680,"Ġconnected":6681,"Ġcanteen":6682,"Ġrhy":6683,"Ġstrengths":6684,"Ġfootage":6685,"school":6686,"Ġgifted":6687,"Ġwolf":6688,"Ġumbre":6689,"Ġbuzzy":6690,"Ġselena":6691,"Ġpennsyl":6692,"Ġindivid":6693,"Ġvietnames":6694,"Âłshow":6695,"Ġreggae":6696,"Ġresurrection":6697,"Ġshyamalan":6698,"Ġgelato":6699,"Ġstreep":6700,"Ġgomez":6701,"Ġnichol":6702,"Ġpochettino":6703,"Ġpennsylvania":6704,"Ġvietnamese":6705,"210":6706,"igan":6707,"mm":6708,"nay":6709,"tern":6710,"Ġ[":6711,"Ġou":6712,"Ġurb":6713,"Ġted":6714,"erie":6715,"stay":6716,"Ġhab":6717,"atform":6718,"Ġpor":6719,"Ġlan":6720,"Ġlenn":6721,"Ġmist":6722,"Ġbor":6723,"Ġbie":6724,"Ġbond":6725,"Ġgould":6726,"Ġnach":6727,"ridge":6728,"Ġplatform":6729,"Ġliking":6730,"Ġrefer":6731,"Ġbecomes":6732,"iled":6733,"Ġchur":6734,"Ġchardon":6735,"Ġef":6736,"Ġeas":6737,"Ġsung":6738,"Ġsuicide":6739,"Ġklo":6740,"ctus":6741,"Ġgoat":6742,"opus":6743,"Ġdie":6744,"Ġsounded":6745,"Ġshaw":6746,"Ġmansion":6747,"avo":6748,"Ġnote":6749,"ackers":6750,"tte":6751,"Ġfeed":6752,"Ġfeet":6753,"Ġfears":6754,"Ġadv":6755,"Ġunknown":6756,"Ġavengers":6757,"Ġupcoming":6758,"Âłd":6759,"Ġ837":6760,"Ġ2010":6761,"Ġcactus":6762,"Ġdepend":6763,"Ġrooney":6764,"Ġroaring":6765,"illes":6766,"emma":6767,"acco":6768,"Ġweekday":6769,"abor":6770,"Ġburr":6771,"Ġoutdoors":6772,"Ġfully":6773,"Ġscall":6774,"Ġscary":6775,"Ġdesper":6776,"Ġalbion":6777,"Ġnumb":6778,"Ġstreets":6779,"Ġstreetcar":6780,"Ġprotect":6781,"Ġgiant":6782,"Ġcinemark":6783,"184":6784,"minutes":6785,"Ġdeliver":6786,"Ġbride":6787,"Ġoctopus":6788,"Ġentree":6789,"Ġjoseph":6790,"Ġathens":6791,"Ġnickel":6792,"Ġsinging":6793,"Ġtransfer":6794,"Ġsuitable":6795,"Ġscoring":6796,"Ġsurrounds":6797,"redible":6798,"Ġpinot":6799,"Ġvince":6800,"Ġincredible":6801,"Ġcivil":6802,"Ġgodfather":6803,"Ġpowell":6804,"Ġbryan":6805,"Ġbernardo":6806,"Ġruthless":6807,"Ġconvinced":6808,"Ġdumpl":6809,"Ġdetermine":6810,"chuan":6811,"Ġlisbon":6812,"Ġfrequently":6813,"Ġrhythm":6814,"Ġklopp":6815,"450":6816,"ais":6817,"burn":6818,"half":6819,"lict":6820,"mill":6821,"ob":6822,"roph":6823,"sue":6824,"vada":6825,"Ġ/":6826,"ĠÂ":6827,"Ġet":6828,"Ġain":6829,"Ġox":6830,"Ġhaunt":6831,"ats":6832,"rell":6833,"Ġpush":6834,"Ġpassion":6835,"eless":6836,"eline":6837,"Ġbites":6838,"Ġbones":6839,"Ġga":6840,"Ġnar":6841,"kevin":6842,"Ġinvit":6843,"omp":6844,"ried":6845,"rium":6846,"Ġrebel":6847,"Ġrepublic":6848,"aluma":6849,"Ġmeg":6850,"Ġnevada":6851,"lee":6852,"Ġrail":6853,"Ġstir":6854,"Ġstori":6855,"its":6856,"Ġ1000":6857,"Ġorch":6858,"Ġep":6859,"Ġki":6860,"Ġwillie":6861,"imes":6862,"Ġrestored":6863,"Ġshore":6864,"Ġstarters":6865,"Ġsparrow":6866,"Ġ524":6867,"Ġconcl":6868,"Ġmane":6869,"Ġmango":6870,"sson":6871,"avin":6872,"Ġash":6873,"Ġopeth":6874,"Ġ955":6875,"Ġ109":6876,"Ġmarco":6877,"Ġupmarket":6878,"Âłj":6879,"Ġ84":6880,"Ġholl":6881,"Ġcau":6882,"304":6883,"berts":6884,"Ġemot":6885,"Ġemily":6886,"apolis":6887,"Ġguid":6888,"Ġsaloon":6889,"sical":6890,"Ġvision":6891,"201":6892,"Ġrid":6893,"Ġjohan":6894,"Ġbrave":6895,"awns":6896,"Ġblt":6897,"Ġimm":6898,"Ġcarmel":6899,"Ġconflict":6900,"aio":6901,"Ġtravels":6902,"Ġcosta":6903,"Ġsway":6904,"Ġsmoking":6905,"Ġexposed":6906,"Ġpao":6907,"Ġsquash":6908,"Ġspending":6909,"Ġcookies":6910,"Ġoptional":6911,"Ġportions":6912,"Ġmaison":6913,"ocaly":6914,"118":6915,"Ġterror":6916,"Ġwoodsy":6917,"Ġgives":6918,"Ġhopping":6919,"Ġmarried":6920,"Ġclement":6921,"Ġcatchers":6922,"Ġmetal":6923,"sidious":6924,"leton":6925,"Ġpetaluma":6926,"Ġbuddy":6927,"Ġsigned":6928,"229":6929,"Ġattention":6930,"Ġadventures":6931,"Ġselected":6932,"Ġselections":6933,"Ġmontego":6934,"269":6935,"Ġappetizer":6936,"Ġbenjam":6937,"Ġfalling":6938,"Ġraise":6939,"Ġante":6940,"Ġembar":6941,"Ġsometimes":6942,"Ġcoldplay":6943,"Ġtransport":6944,"Ġinterview":6945,"Ġinterior":6946,"Ġmraz":6947,"Ġroadhouse":6948,"Ġsubject":6949,"Ġskull":6950,"Ġcollide":6951,"Ġbella":6952,"Ġskyline":6953,"Ġbeyon":6954,"Ġacceptable":6955,"Ġramen":6956,"Ġflex":6957,"Ġbasically":6958,"Ġreaches":6959,"Ġpictures":6960,"Ġsells":6961,"Ġcantina":6962,"Ġbareilles":6963,"Ġbusy":6964,"Ġspinach":6965,"Ġgradu":6966,"Ġprague":6967,"Ġunderstated":6968,"Ġrafael":6969,"Ġparadise":6970,"Ġurban":6971,"Ġbieber":6972,"Ġchardonnay":6973,"Ġstoried":6974,"Ġjohansson":6975,"Ġbenjamin":6976,"116":6977,"2000":6978,"639":6979,"cia":6980,"ee":6981,"har":6982,"part":6983,"rano":6984,"sman":6985,"usive":6986,"wel":6987,"Ġtale":6988,"Ġtiny":6989,"sticks":6990,"Ġthomas":6991,"Ġware":6992,"Ġwrit":6993,"Ġoli":6994,"Ġful":6995,"Ġfences":6996,"Ġcele":6997,"Ġpanda":6998,"Ġmus":6999,"Ġmess":7000,"Ġmorton":7001,"Ġbamb":7002,"Ġanni":7003,"Ġgonna":7004,"Ġni":7005,"Ġnatural":7006,"arri":7007,"Ġinj":7008,"Ġinsidious":7009,"Ġlily":7010,"Ġreport":7011,"alap":7012,"nders":7013,"Ġatrium":7014,"Ġsemi":7015,"itary":7016,"ounds":7017,"Ġjalap":7018,"loy":7019,"Ġalab":7020,"Ġalter":7021,"Ġpreview":7022,"Ġsoft":7023,"Ġshawn":7024,"andre":7025,"ained":7026,"Ġspo":7027,"Ġspies":7028,"Ġwelcoming":7029,"enda":7030,"Ġcondes":7031,"Ġmanuel":7032,"Ġleon":7033,"Ġlewis":7034,"Ġweird":7035,"Ġweez":7036,"Ġunless":7037,"roasted":7038,"Âłby":7039,"Âłokay":7040,"Ġcallum":7041,"Ġshower":7042,"achi":7043,"Ġ2018":7044,"Ġbubl":7045,"Ġapocaly":7046,"Ġrecall":7047,"Ġbackup":7048,"Ġscores":7049,"Ġpist":7050,"Ġemer":7051,"aped":7052,"Ġ111":7053,"Ġ119":7054,"Ġfranco":7055,"Ġbreakfasts":7056,"Ġsale":7057,"Ġsalv":7058,"Ġcorner":7059,"otting":7060,"Ġartisan":7061,"504":7062,"208":7063,"ficent":7064,"ficial":7065,"Ġblu":7066,"Ġcarly":7067,"Ġreserved":7068,"iece":7069,"Ġdirection":7070,"Ġspecifics":7071,"Ġcolony":7072,"rami":7073,"Ġveal":7074,"127":7075,"Ġmona":7076,"Ġ029":7077,"Ġpastrami":7078,"147":7079,"Ġluis":7080,"Ġsaltwater":7081,"Ġusual":7082,"Ġmickey":7083,"Ġpete":7084,"Ġscientist":7085,"Ġelev":7086,"228":7087,"space":7088,"Ġfishing":7089,"Ġmajority":7090,"Ġpaying":7091,"Ġmichigan":7092,"Ġphillips":7093,"Ġpicked":7094,"Ġmarinara":7095,"Ġmagn":7096,"Ġpassenger":7097,"Ġdamn":7098,"Ġboarding":7099,"Ġowned":7100,"Ġcottage":7101,"Ġcraftsman":7102,"born":7103,"coln":7104,"Ġtrio":7105,"retentious":7106,"Ġreasonably":7107,"Ġreceive":7108,"Ġsonesta":7109,"Ġcollection":7110,"Ġalmond":7111,"Ġexperiment":7112,"Ġsupport":7113,"Ġlincoln":7114,"bellum":7115,"Ġfurnish":7116,"Ġannabelle":7117,"Ġideal":7118,"Ġyummy":7119,"Ġwagner":7120,"Ġprofession":7121,"Ġimaginative":7122,"Ġupdated":7123,"Ġvarsity":7124,"Ġkebabs":7125,"Ġstudying":7126,"Ġindependent":7127,"Ġexistence":7128,"Ġtikka":7129,"michael":7130,"Ġunpretentious":7131,"Ġquesadilla":7132,"Ġwhiskey":7133,"Ġresearch":7134,"Ġexample":7135,"Ġlennon":7136,"Ġ95521":7137,"Ġcarmelo":7138,"Ġantebellum":7139,"Ġwarehouse":7140,"Ġjalapen":7141,"Ġalabama":7142,"Ġcondesa":7143,"Ġweezer":7144,"ĠbublÃ©":7145,"\",":7146,"',":7147,"112":7148,"530":7149,"92":7150,"cot":7151,"fell":7152,"fol":7153,"foot":7154,"gium":7155,"hips":7156,"ias":7157,"iers":7158,"jac":7159,"ker":7160,"ken":7161,"nor":7162,"oid":7163,"pent":7164,"sed":7165,"sal":7166,"tain":7167,"Ã¡":7168,"anical":7169,"Ġtso":7170,"stra":7171,"Ġthi":7172,"Ġthir":7173,"Ġthrow":7174,"Ġweap":7175,"Ġwrite":7176,"Ġhong":7177,"atow":7178,"ateau":7179,"inary":7180,"Ġsak":7181,"Ġcy":7182,"Ġpets":7183,"Ġlon":7184,"Ġlad":7185,"Ġmou":7186,"Ġbound":7187,"Ġbab":7188,"Ġdic":7189,"Ġgent":7190,"Ġgum":7191,"Ġgavin":7192,"Ġnate":7193,"eness":7194,"Ġinvi":7195,"Ġonsite":7196,"rib":7197,"Ġliters":7198,"ghton":7199,"Ġreali":7200,"Ġcans":7201,"otts":7202,"Ġdoors":7203,"amisu":7204,"ilet":7205,"Ġchor":7206,"Ġsuf":7207,"Ġko":7208,"Ġfry":7209,"opia":7210,"Ġjudd":7211,"Ġnoisy":7212,"Ġloew":7213,"Ġsoy":7214,"connect":7215,"Ġcoin":7216,"Ġener":7217,"Ġtwenty":7218,"Ġtra":7219,"Ġdeb":7220,"ardi":7221,"Ġaged":7222,"Ġ99":7223,"Ġ103":7224,"Ġ105":7225,"Ġmins":7226,"tta":7227,"assuming":7228,"Ġadjac":7229,"nection":7230,"Ġcomple":7231,"Ġquill":7232,"Âłg":7233,"Ġ840":7234,"Ġcalling":7235,"Ġ2012":7236,"Ġbuck":7237,"Ġapoll":7238,"Ġapatow":7239,"Ġbackstreet":7240,"resses":7241,"Ġ115":7242,"Ġspect":7243,"Ġproject":7244,"Ġtommy":7245,"Ġkindly":7246,"Ġross":7247,"sica":7248,"104":7249,"empt":7250,"abi":7251,"Ġmilitary":7252,"raid":7253,"Ġoverly":7254,"Ġglen":7255,"Ġdesp":7256,"Ġdramatic":7257,"121":7258,"Ġmenus":7259,"3000":7260,"Ġslaw":7261,"Ġdisturb":7262,"screens":7263,"Ġ28202":7264,"Ġdepartures":7265,"188":7266,"Ġholidays":7267,"Ġmicroph":7268,"Ġmatters":7269,"Ġbelgium":7270,"izes":7271,"Ġbarbeque":7272,"195":7273,"Ġcardi":7274,"empts":7275,"from":7276,"Ġaverages":7277,"Ġentitled":7278,"Ġends":7279,"Ġforeig":7280,"Ġattempts":7281,"379":7282,"iously":7283,"Ġsergio":7284,"Ġactresses":7285,"Ġdiscount":7286,"ological":7287,"Ġdanny":7288,"Ġmoonrise":7289,"Ġoscars":7290,"pects":7291,"Ġfranklin":7292,"Ġcompared":7293,"Ġbrowser":7294,"Ġmiller":7295,"Ġalec":7296,"Ġcampbell":7297,"Ġradius":7298,"Ġafraid":7299,"Ġcollins":7300,"Ġstevens":7301,"Ġhallmark":7302,"Ġpositive":7303,"Ġhappened":7304,"Ġdefense":7305,"Ġlearn":7306,"Ġlinens":7307,"Ġbags":7308,"Ġclayton":7309,"Ġpresent":7310,"Ġvenge":7311,"Ġcatania":7312,"official":7313,"Ġcombination":7314,"Ġpenth":7315,"Ġlamppost":7316,"Ġweaknesses":7317,"Ġparents":7318,"Ġrenov":7319,"Ġphysical":7320,"Ġconverted":7321,"Ġbreathe":7322,"Ġsuccessful":7323,"Ġfocus":7324,"Ġfloors":7325,"Ġmetropolitan":7326,"conditioned":7327,"Ġpeanuts":7328,"Ġaviara":7329,"Ġshooting":7330,"Ġbigger":7331,"Ġphenomenal":7332,"hilation":7333,"Ġorganization":7334,"Ġdesperate":7335,"Ġdumplings":7336,"Ġbamboo":7337,"Ġfurnishings":7338,"Ġprofessional":7339,"Ġloews":7340,"Ġadjacent":7341,"Ġdisturbing":7342,"Ġmicrophone":7343,"Ġforeigner":7344,"115":7345,"117":7346,"707":7347,"83":7348,"94":7349,"aj":7350,"bars":7351,"cakes":7352,"fall":7353,"hagen":7354,"ify":7355,"irie":7356,"iques":7357,"mend":7358,"non":7359,"pse":7360,"ski":7361,"tles":7362,"vovich":7363,"za":7364,"Ġtas":7365,"Ġtar":7366,"Ġtir":7367,"Ġay":7368,"Ġwave":7369,"Ġwaves":7370,"Ġoz":7371,"Ġhay":7372,"Ġhate":7373,"rem":7374,"Ġcath":7375,"Ġluna":7376,"Ġbere":7377,"Ġbul":7378,"Ġbone":7379,"Ġbloss":7380,"Ġgon":7381,"Ġginger":7382,"Ġnik":7383,"thrill":7384,"Ġinflu":7385,"lli":7386,"Ġonto":7387,"Ġlikes":7388,"oted":7389,"Ġmeta":7390,"Ġhowe":7391,"legr":7392,"Ġring":7393,"Ġstately":7394,"Ġjerry":7395,"Ġjared":7396,"Ġevid":7397,"Ġkane":7398,"ferson":7399,"ells":7400,"Ġdip":7401,"Ġperri":7402,"Ġshi":7403,"Ġ415":7404,"Ġspare":7405,"Ġoutstanding":7406,"geous":7407,"Ġdeandre":7408,"Ġnewly":7409,"Ġheirl":7410,"Ġsizes":7411,"Ġopry":7412,"Ġchem":7413,"ickets":7414,"Ġwear":7415,"Ġunassuming":7416,"Ġuptown":7417,"Âłt":7418,"Âłcan":7419,"ached":7420,"Ġactual":7421,"Ġdinners":7422,"agon":7423,"idian":7424,"Ġbrett":7425,"Ġpillow":7426,"apol":7427,"154":7428,"Ġgucci":7429,"Ġresour":7430,"Ġparker":7431,"Ġtheme":7432,"Ġranking":7433,"Ġeagle":7434,"Ġcorpor":7435,"Ġhomestyle":7436,"106":7437,"ubali":7438,"Ġshouldn":7439,"Ġviol":7440,"Ġmorgan":7441,"Ġjovovich":7442,"Ġfrancis":7443,"Ġbravo":7444,"Ġclosing":7445,"Ġcuc":7446,"Ġcube":7447,"orsese":7448,"Ġgenres":7449,"Ġlongtime":7450,"stinct":7451,"Ġscream":7452,"Ġscorsese":7453,"Ġappreciated":7454,"Ġpair":7455,"Ġzo":7456,"Ġzuri":7457,"Ġschind":7458,"123":7459,"ashed":7460,"Ġtah":7461,"Ġchains":7462,"Ġtender":7463,"144":7464,"148":7465,"atherine":7466,"Ġbands":7467,"Ġcrush":7468,"Ġcompos":7469,"Ġhughton":7470,"Ġbudden":7471,"Ġattack":7472,"Ġskiing":7473,"shine":7474,"Ġlegacy":7475,"Ġriverside":7476,"Ġwedge":7477,"Ġfollows":7478,"607":7479,"Ġdiscovery":7480,"Ġcritically":7481,"Ġtremend":7482,"Ġtrust":7483,"Ġduet":7484,"ctional":7485,"cello":7486,"Ġrecipes":7487,"Ġpellegr":7488,"Ġmendes":7489,"duct":7490,"Ġmacar":7491,"Ġchops":7492,"Ġdomen":7493,"Ġsouthwestern":7494,"Ġteenag":7495,"Ġcasey":7496,"Ġshadow":7497,"Ġtemple":7498,"earth":7499,"Ġpilots":7500,"point":7501,"Ġproduce":7502,"price":7503,"Ġsoldier":7504,"Ġshelter":7505,"Ġexplor":7506,"Ġincreasing":7507,"Ġevans":7508,"Ġsurvivors":7509,"Ġsociety":7510,"mises":7511,"Ġellen":7512,"Ġcitizen":7513,"Ġbeverages":7514,"Ġlovato":7515,"Ġzootopia":7516,"Ġchaos":7517,"Ġtrouble":7518,"Ġgoulding":7519,"Ġnachos":7520,"Ġchurch":7521,"Ġdepends":7522,"Ġnickelback":7523,"Ġflexible":7524,"Ġannihilation":7525,"Ġtiramisu":7526,"Ġblossom":7527,"Ġmetairie":7528,"Ġheirloom":7529,"Ġzurich":7530,"Ġtremendous":7531,"Ġpellegrino":7532,"\"?":7533,"?\"":7534,"bson":7535,"bill":7536,"dington":7537,"eat":7538,"gm":7539,"game":7540,"ko":7541,"rang":7542,"syn":7543,"tub":7544,"anist":7545,"angle":7546,"Ġtall":7547,"sty":7548,"Ġil":7549,"Ġicel":7550,"sist":7551,"Ġwu":7552,"Ġhush":7553,"Ġhilar":7554,"Ġyen":7555,"Ġfas":7556,"Ġsen":7557,"Ġloop":7558,"elve":7559,"eland":7560,"Ġbree":7561,"Ġbum":7562,"Ġbai":7563,"ority":7564,"Ġanci":7565,"Ġtoilet":7566,"Ġdoom":7567,"Ġgulf":7568,"Ġnsyn":7569,"enhagen":7570,"ario":7571,"Ġinvol":7572,"Ġiniti":7573,"Ġwire":7574,"Ġrep":7575,"icas":7576,"Ġneapol":7577,"Ġdoling":7578,"leston":7579,"Ġrack":7580,"Ġrub":7581,"Ġrules":7582,"Ġstated":7583,"Ġhib":7584,"Ġjw":7585,"entine":7586,"Ġsuperson":7587,"Ġkh":7588,"Ġkr":7589,"Ġabduct":7590,"Ġfrost":7591,"Ġelite":7592,"derdale":7593,"Ġpress":7594,"Ġloan":7595,"Ġloved":7596,"Ġsoaking":7597,"ntime":7598,"cone":7599,"Ġ428":7600,"Ġark":7601,"Ġarden":7602,"Ġencount":7603,"oyd":7604,"Ġknowing":7605,"arted":7606,"ava":7607,"Ġasp":7608,"aku":7609,"Ġchees":7610,"Ġ102":7611,"Ġmystic":7612,"Ġmarley":7613,"Ġmarsh":7614,"Ġmarcello":7615,"Ġavat":7616,"Âł8":7617,"Âłre":7618,"Âł10":7619,"Ġ88":7620,"Ġhole":7621,"Ġmayo":7622,"Ġbung":7623,"Ġbold":7624,"Ġvic":7625,"Ġvisa":7626,"309":7627,"Ġamericas":7628,"Ġcenters":7629,"Ġ114":7630,"Ġ117":7631,"157":7632,"Ġrespect":7633,"Ġrespon":7634,"Ġrod":7635,"otto":7636,"Ġtyson":7637,"Ġtyler":7638,"acle":7639,"206":7640,"Ġ123":7641,"Ġ127":7642,"Ġpickle":7643,"Ġbra":7644,"Ġbrut":7645,"Ġparts":7646,"Ġeconomic":7647,"Ġplanned":7648,"Ġtravis":7649,"Ġgras":7650,"Ġtotally":7651,"Ġsandy":7652,"cca":7653,"Ġfilet":7654,"mith":7655,"Ġscen":7656,"Ġindust":7657,"Ġminibars":7658,"ksh":7659,"Ġtradition":7660,"Ġindianapolis":7661,"Ġmaid":7662,"sissi":7663,"142":7664,"Ġmatching":7665,"Ġjane":7666,"Ġcrue":7667,"Ġcraw":7668,"Ġcrackers":7669,"Ġstevie":7670,"Ġdefinition":7671,"Ġaccount":7672,"Ġmeridian":7673,"Ġvalentine":7674,"mons":7675,"Ġattend":7676,"Ġruntime":7677,"Ġrapper":7678,"arius":7679,"Ġbritain":7680,"Ġdisp":7681,"244":7682,"Ġmississi":7683,"Ġlauderdale":7684,"ppi":7685,"Ġhamburg":7686,"Ġdestiny":7687,"Ġtournam":7688,"Ġaccommodating":7689,"Ġgriff":7690,"Ġaliens":7691,"Ġsample":7692,"Ġrancho":7693,"Ġspringhill":7694,"Ġimpacts":7695,"ronic":7696,"Ġactivi":7697,"Ġcastro":7698,"Ġmotley":7699,"Ġmascot":7700,"Ġramada":7701,"Ġthreatens":7702,"Ġappear":7703,"ĠjosÃ©":7704,"Ġcopenhagen":7705,"Ġ95814":7706,"Ġvenice":7707,"track":7708,"Ġideas":7709,"Ġobvious":7710,"Ġoccup":7711,"Ġpredicted":7712,"Ġfelicity":7713,"Ġstatus":7714,"Ġprepared":7715,"Ġwriting":7716,"Ġbecky":7717,"Ġmusician":7718,"Ġwindsor":7719,"Ġdynamos":7720,"hued":7721,"Ġscarlett":7722,"selves":7723,"Ġskills":7724,"Ġpuppies":7725,"Ġtaxi":7726,"Ġbingham":7727,"Ġburrata":7728,"Ġconclusion":7729,"Ġweapon":7730,"thriller":7731,"Ġschindler":7732,"Ġmacaroni":7733,"Ġincreasingly":7734,"Ġiceland":7735,"Ġancient":7736,"Ġtoiletries":7737,"Ġnsync":7738,"Ġneapolitan":7739,"-$":7740,"114":7741,"219":7742,"85":7743,"93":7744,"bes":7745,"bender":7746,"came":7747,"cery":7748,"dome":7749,"gic":7750,"maker":7751,"nger":7752,"oath":7753,"pal":7754,"wind":7755,"ÃŃ":7756,"Äĩ":7757,"Ġq":7758,"Ġtul":7759,"Ġtres":7760,"Ġtaken":7761,"asion":7762,"antly":7763,"sie":7764,"Ġaur":7765,"Ġwright":7766,"Ġoly":7767,"reck":7768,"Ġyounger":7769,"Ġcater":7770,"Ġpard":7771,"Ġlen":7772,"Ġmai":7773,"Ġmama":7774,"elstra":7775,"Ġbump":7776,"Ġdry":7777,"Ġdawn":7778,"eson":7779,"Ġnin":7780,"Ġned":7781,"Ġnerv":7782,"Ġinv":7783,"Ġinfer":7784,"Ġinception":7785,"edral":7786,"Ġplant":7787,"Ġlie":7788,"Ġwits":7789,"Ġreception":7790,"Ġcand":7791,"Ġneg":7792,"etic":7793,"etickets":7794,"chise":7795,"Ġrus":7796,"Ġstea":7797,"Ġstorm":7798,"Ġseed":7799,"vies":7800,"itive":7801,"ilo":7802,"Ġchos":7803,"Ġevol":7804,"Ġegy":7805,"Ġhotdo":7806,"Ġkirk":7807,"Ġuk":7808,"Ġuchi":7809,"Ġelli":7810,"Ġellie":7811,"Ġelvis":7812,"imi":7813,"ellite":7814,"Ġjude":7815,"Ġjump":7816,"Ġpreston":7817,"Ġpremises":7818,"Ġnov":7819,"Ġallies":7820,"Ġsoundtrack":7821,"Ġshoot":7822,"Ġspl":7823,"arters":7824,"Ġdeer":7825,"Ġdemand":7826,"ardy":7827,"ulous":7828,"Ġconnection":7829,"Ġheist":7830,"Ġseconds":7831,"alist":7832,"kets":7833,"Ġclap":7834,"Ġclari":7835,"cienda":7836,"Ġsisters":7837,"Ġsichuan":7838,"Ġ107":7839,"Ġminaj":7840,"Ġfeat":7841,"assbender":7842,"Ġmarine":7843,"new":7844,"Ġaven":7845,"Ġlaure":7846,"Âłone":7847,"Ġ82":7848,"Ġ87":7849,"ernand":7850,"agan":7851,"stops":7852,"Ġboeing":7853,"Ġwhereab":7854,"Ġbackspace":7855,"aprio":7856,"Ġ116":7857,"Ġhouses":7858,"Ġmovietickets":7859,"Ġspecify":7860,"Ġfranchise":7861,"Ġtrips":7862,"Ġartwork":7863,"108":7864,"Ġlisting":7865,"ruct":7866,"ruction":7867,"Ġunderoath":7868,"2017":7869,"Ġ121":7870,"Ġrigg":7871,"Ġsaturdays":7872,"script":7873,"Ġcarpent":7874,"Ġinnov":7875,"Ġmika":7876,"plan":7877,"plant":7878,"178":7879,"atters":7880,"Ġlongest":7881,"Ġbiba":7882,"udio":7883,"Ġminibar":7884,"Ġzone":7885,"Ġflatscreen":7886,"Ġseasonality":7887,"122":7888,"128":7889,"Ġbetray":7890,"Ġcharleston":7891,"Ġspaces":7892,"Ġresorts":7893,"133":7894,"137":7895,"Ġdrawers":7896,"Ġsoutheast":7897,"Ġjohns":7898,"Ġnorfol":7899,"Ġvegetables":7900,"Ġlately":7901,"Ġgibson":7902,"ahubali":7903,"Ġcustomers":7904,"186":7905,"Ġtoro":7906,"Ġsuperior":7907,"Ġsuperdome":7908,"Ġkeuri":7909,"Ġmedic":7910,"Ġpetr":7911,"Ġdivisions":7912,"Ġpaddington":7913,"Ġberry":7914,"Ġdurant":7915,"Ġserrano":7916,"Ġfighting":7917,"Ġrye":7918,"Ġlambert":7919,"Ġnicki":7920,"Ġstrait":7921,"Ġdamian":7922,"Ġbathtub":7923,"Ġhearts":7924,"585":7925,"Ġturned":7926,"Ġchanging":7927,"Ġhumans":7928,"Ġoperations":7929,"Ġmatrix":7930,"Ġsilva":7931,"Ġsubscript":7932,"Ġplacing":7933,"Ġstorefront":7934,"Ġdyche":7935,"Ġsurrounded":7936,"Ġcalm":7937,"Ġsuspects":7938,"Ġcollard":7939,"Ġfeta":7940,"Ġwrap":7941,"Ġpolitic":7942,"Ġsym":7943,"Ġdjango":7944,"Ġtalent":7945,"Ġtalented":7946,"Ġfleming":7947,"Ġexperi":7948,"Ġ1970":7949,"Ġjonas":7950,"Ġideally":7951,"Ġhacienda":7952,"restaurant":7953,"Ġheroes":7954,"Ġenchilada":7955,"Ġgrocery":7956,"Ġwizard":7957,"Ġlemonade":7958,"Ġcolonel":7959,"Ġcolonial":7960,"Ġconsists":7961,"Ġhalen":7962,"Ġsantana":7963,"Ġshakur":7964,"Ġdirty":7965,"Ġjurassic":7966,"Ġconvenience":7967,"Ġcharacters":7968,"Ġaccidentally":7969,"Ġsurprise":7970,"Ġhawthorn":7971,"Ġprospect":7972,"Ġbotanical":7973,"Ġtitanic":7974,"Ġcelebr":7975,"Ġspoelstra":7976,"Ġartisanal":7977,"Ġladies":7978,"Ġdicaprio":7979,"Ġtraverse":7980,"Ġ84060":7981,"Ġdespite":7982,"Ġcathedral":7983,"Ġsupersonic":7984,"Ġaspiring":7985,"Ġmississippi":7986,"Ġobviously":7987,"Ġaurora":7988,"Ġolymp":7989,"Ġpardew":7990,"Ġegypt":7991,"Ġclapton":7992,"Ġwhereabouts":7993,"Ġnorfolk":7994,"Ġkeurig":7995,"Ġsubscription":7996,"499":7997,"949":7998,"bull":7999,"cre":8000,"dough":8001,"eck":8002,"fly":8003,"gurt":8004,"james":8005,"mus":8006,"rs":8007,"ras":8008,"sco":8009,"uk":8010,"unt":8011,"vere":8012,"ysi":8013,"Ã±":8014,"Ġ|":8015,"Ġtrees":8016,"sta":8017,"stairs":8018,"antis":8019,"oun":8020,"assive":8021,"Ġwolves":8022,"Ġobs":8023,"Ġhers":8024,"Ġyup":8025,"Ġfed":8026,"Ġfai":8027,"Ġfassbender":8028,"Ġcine":8029,"Ġcass":8030,"Ġpun":8031,"Ġpott":8032,"Ġpatt":8033,"Ġlope":8034,"Ġmong":8035,"Ġmassive":8036,"Ġbis":8037,"Ġtoni":8038,"Ġtowards":8039,"Ġgill":8040,"Ġgump":8041,"Ġnass":8042,"Ġnails":8043,"Ġnorton":8044,"encer":8045,"arians":8046,"arily":8047,"Ġins":8048,"Ġinju":8049,"riz":8050,"Ġliqu":8051,"Ġheld":8052,"Ġrevi":8053,"Ġreli":8054,"Ġreyn":8055,"Ġresist":8056,"otle":8057,"Ġbeeth":8058,"Ġbecame":8059,"ural":8060,"etime":8061,"chie":8062,"ceiling":8063,"level":8064,"Ġmodi":8065,"iture":8066,"Ġflair":8067,"Ġ150":8068,"Ġcham":8069,"Ġchateau":8070,"Ġjame":8071,"Ġability":8072,"vers":8073,"los":8074,"lost":8075,"lock":8076,"estyle":8077,"Ġales":8078,"Ġeli":8079,"Ġelysi":8080,"Ġgoff":8081,"opa":8082,"elled":8083,"ellini":8084,"adero":8085,"Ġprepar":8086,"Ġnob":8087,"Ġnoir":8088,"Ġloves":8089,"Ġrestrict":8090,"Ġalliance":8091,"Ġsod":8092,"utch":8093,"Ġshared":8094,"Ġspencer":8095,"quer":8096,"Ġprison":8097,"Ġprimar":8098,"Ġtrag":8099,"Ġknew":8100,"arts":8101,"Ġdevel":8102,"Ġdevin":8103,"Ġtelling":8104,"Ġconway":8105,"Ġheight":8106,"Ġnotable":8107,"Ġpricey":8108,"Ġsight":8109,"Ġ106":8110,"Ġmyth":8111,"Ġ68":8112,"Ġ618":8113,"Ġ601":8114,"Ġmariah":8115,"umber":8116,"Ġavoid":8117,"Ġcombo":8118,"soon":8119,"Âł9":8120,"Âłca":8121,"Ġ81":8122,"Ġ83":8123,"Ġhollow":8124,"Ġmayer":8125,"Ġbuns":8126,"Ġbol":8127,"Ġvinc":8128,"Ġwhereas":8129,"Ġotherwise":8130,"Ġholds":8131,"Ġdepp":8132,"Ġpianist":8133,"Ġdrac":8134,"Ġpeas":8135,"aph":8136,"Ġintro":8137,"Ġfransis":8138,"Ġ--":8139,"505":8140,"Ġmorrison":8141,"acre":8142,"acing":8143,"204":8144,"207":8145,"Ġcouch":8146,"Ġblind":8147,"Ġcarson":8148,"Ġcarroll":8149,"ggy":8150,"Ġinnoc":8151,"Ġconfid":8152,"azu":8153,"raction":8154,"Ġpersonalities":8155,"ising":8156,"Ġglory":8157,"Ġnumbers":8158,"Ġveter":8159,"Ġcharming":8160,"131":8161,"augh":8162,"Ġsuggested":8163,"Ġconte":8164,"Ġwahl":8165,"166":8166,"Ġpastries":8167,"aha":8168,"Ġmaintain":8169,"Ġcompelled":8170,"âĢĭ.":8171,"Ġbrides":8172,"Ġpeters":8173,"Ġsourdough":8174,"Ġergon":8175,"Ġsignific":8176,"Ġbuying":8177,"Ġbroke":8178,"comb":8179,"Ġmissed":8180,"Ġdisney":8181,"maids":8182,"Ġlaugh":8183,"Ġthug":8184,"Ġestate":8185,"Ġpackets":8186,"pected":8187,"Ġcriminal":8188,"Ġoriginally":8189,"Ġmateri":8190,"Ġesp":8191,"Ġmcmill":8192,"Ġjean":8193,"worth":8194,"Ġreading":8195,"Ġtortellini":8196,"Ġmartian":8197,"Âłthat":8198,"Ġbradley":8199,"Ġtasty":8200,"Ġconsidered":8201,"Âłsounds":8202,"Ġpapas":8203,"Ġprompt":8204,"Ġowl":8205,"Ġreminder":8206,"Ġchampionships":8207,"dinand":8208,"Ġspecialist":8209,"Ġyogurt":8210,"Ġ95811":8211,"Ġ20003":8212,"Ġremains":8213,"Ġsliders":8214,"Ġcontainer":8215,"Ġhuron":8216,"Ġfaj":8217,"Ġfurniture":8218,"Ġsailing":8219,"Ġhunan":8220,"Ġhunger":8221,"Ġrichardson":8222,"Ġrobinson":8223,"Âłfound":8224,"Ġexplain":8225,"Ġnatalie":8226,"Ġsatellite":8227,"Ġstruggling":8228,"Ġmoore":8229,"Ġstapleton":8230,"Ġsamosa":8231,"Ġferdinand":8232,"Ġlavish":8233,"Ġpercentage":8234,"Ġscratch":8235,"Ġlimited":8236,"Ġchipotle":8237,"Ġpresident":8238,"Ġseaside":8239,"Ġfeedback":8240,"aborate":8241,"Ġwriter":8242,"Ġjalapenos":8243,"Ġgumbo":8244,"Ġgonz":8245,"Ġchemical":8246,"Ġdomenica":8247,"Ġbailey":8248,"Ġavatar":8249,"Ġbungal":8250,"Ġtournament":8251,"Ġgriffin":8252,"Ġnervous":8253,"Ġfaith":8254,"Ġlopez":8255,"Ġnassau":8256,"Ġinjuries":8257,"Ġresistance":8258,"Ġbeethoven":8259,"Ġelysium":8260,"Ġprimarily":8261,"Ġdracula":8262,"Ġfransisco":8263,"Ġwahlberg":8264,"Ġergonomic":8265,"Ġmcmillan":8266,"230":8267,"220":8268,"225":8269,"299":8270,"399":8271,"ban":8272,"bing":8273,"bie":8274,"bird":8275,"cr":8276,"cin":8277,"cott":8278,"downtown":8279,"gt":8280,"gly":8281,"gate":8282,"mind":8283,"matt":8284,"pical":8285,"ulo":8286,"vor":8287,"vine":8288,"ww":8289,"wick":8290,"wagon":8291,"yes":8292,"zation":8293,"Ġtab":8294,"stain":8295,"Ġiz":8296,"Ġicon":8297,"asper":8298,"Ġak":8299,"usc":8300,"used":8301,"Ġwake":8302,"Ġward":8303,"Ġworry":8304,"Ġhans":8305,"atta":8306,"read":8307,"influ":8308,"Ġfellow":8309,"Ġsash":8310,"Ġcro":8311,"Ġpour":8312,"Ġpain":8313,"Ġpru":8314,"Ġpunk":8315,"Ġmast":8316,"elu":8317,"eled":8318,"Ġbicy":8319,"Ġbooth":8320,"Ġana":8321,"Ġdick":8322,"Ġdarius":8323,"Ġgle":8324,"Ġgil":8325,"Ġgast":8326,"oner":8327,"Ġnature":8328,"eng":8329,"aro":8330,"arth":8331,"Ġinner":8332,"Ġforrest":8333,"ria":8334,"Ġwid":8335,"Ġreo":8336,"Ġreve":8337,"Ġrefriger":8338,"Ġreplace":8339,"Ġrealize":8340,"aline":8341,"Ġcanal":8342,"icelli":8343,"otic":8344,"Ġmember":8345,"Ġbecoming":8346,"nda":8347,"Ġrash":8348,"Ġstotts":8349,"Ġsees":8350,"vili":8351,"itty":8352,"Ġflag":8353,"Ġ130":8354,"amic":8355,"Ġches":8356,"Ġchim":8357,"Ġjar":8358,"Ġgoodfell":8359,"Ġanyways":8360,"Ġkit":8361,"Ġkum":8362,"Ġkris":8363,"Ġ250":8364,"Ġalk":8365,"Ġugly":8366,"Ġelaborate":8367,"ellan":8368,"Ġdiverse":8369,"Ġneeding":8370,"Ġsole":8371,"Ġshan":8372,"Ġarrange":8373,"Ġcoh":8374,"quel":8375,"quarters":8376,"Ġtran":8377,"Ġtruff":8378,"cock":8379,"Ġmanor":8380,"essor":8381,"Ġages":8382,"Ġsitu":8383,"Ġopul":8384,"Ġopport":8385,"Ġ108":8386,"Ġadap":8387,"Ġunit":8388,"Ġunex":8389,"Ġque":8390,"Ġcheckout":8391,"Âłr":8392,"Âłwh":8393,"Âłjust":8394,"Ġ800":8395,"Ġwellness":8396,"Ġshown":8397,"Ġshowed":8398,"Ġshowers":8399,"ernet":8400,"Ġbog":8401,"Ġvino":8402,"Ġfreeman":8403,"berry":8404,"Ġbackground":8405,"Ġsanders":8406,"Ġ113":8407,"olia":8408,"156":8409,"Ġparks":8410,"Ġthemselves":8411,"Ġroar":8412,"Ġartful":8413,"rupt":8414,"ille":8415,"illas":8416,"Ġvienna":8417,"2016":8418,"Ġstopping":8419,"Ġrig":8420,"Ġpartner":8421,"ulle":8422,"Ġblow":8423,"Ġblend":8424,"Ġbluel":8425,"Ġ1950":8426,"Ġmignon":8427,"azi":8428,"Ġmilksh":8429,"256":8430,"Ġsmart":8431,"type":8432,"Ġloses":8433,"Ġwalker":8434,"athan":8435,"amples":8436,"Ġbikes":8437,"gettable":8438,"Ġexcited":8439,"Ġregis":8440,"Ġdishing":8441,"bod":8442,"uded":8443,"Ġzach":8444,"Ġzip":8445,"Ġzazu":8446,"Ġherman":8447,"Ġslayer":8448,"Ġfamilies":8449,"Ġbaahubali":8450,"132":8451,"Ġconfirmed":8452,"Ġatlantis":8453,"Ġnorah":8454,"Ġcarey":8455,"Ġproud":8456,"Ġseptic":8457,"Ġstrike":8458,"Ġstrict":8459,"Ġportman":8460,"Ġvegetarians":8461,"Ġhorri":8462,"Ġuniverse":8463,"Ġpurple":8464,"Ġedition":8465,"Ġcompar":8466,"Ġdressy":8467,"Ġsteal":8468,"Ġbeatriz":8469,"Ġsunshine":8470,"iza":8471,"izo":8472,"lined":8473,"Ġharvey":8474,"Ġfunctional":8475,"mex":8476,"okes":8477,"Ġpetite":8478,"Ġkeeping":8479,"Ġattraction":8480,"Ġbrock":8481,"Ġmissy":8482,"289":8483,"Ġbreadsticks":8484,"275":8485,"Ġrucker":8486,"Ġbehavi":8487,"Ġheaton":8488,"Ġroots":8489,"Ġketmo":8490,"Ġstudents":8491,"Ġesc":8492,"Ġdiscovering":8493,"ledge":8494,"Ġ606":8495,"ugal":8496,"Ġglobal":8497,"Ġkillers":8498,"Ġassume":8499,"Ġreads":8500,"Ġwraps":8501,"Ġguadalu":8502,"Ġcivic":8503,"Ġcivili":8504,"770":8505,"Ġwheel":8506,"Ġtapas":8507,"Ġhappening":8508,"Ġhunting":8509,"olds":8510,"Ġspeaker":8511,"Ġterrible":8512,"Ġsupreme":8513,"Ġneighb":8514,"Ġconcert":8515,"Ġnecessarily":8516,"Ġhaute":8517,"Ġbirds":8518,"Ġmalone":8519,"Ġcontained":8520,"Ġtequilas":8521,"Ġhumanity":8522,"Ġ92011":8523,"Ġprediction":8524,"Ġphysi":8525,"Ġbelongs":8526,"Ġsurvivor":8527,"Ġcrashing":8528,"Ġinstrumental":8529,"Ġstaples":8530,"Ġspeedwagon":8531,"Ġbombay":8532,"Ġunforgi":8533,"Ġgenesis":8534,"Ġuncharted":8535,"Ã¼r":8536,"Ġtartare":8537,"Ġvocals":8538,"Ġdelivered":8539,"Ġoxford":8540,"Ġgaulle":8541,"Ġnarr":8542,"Ġcaught":8543,"Ġimmedi":8544,"Ġtransportation":8545,"Ġbeyonce":8546,"Ġapocalypse":8547,"Ġgentry":8548,"Ġchorizo":8549,"Ġsuffer":8550,"Ġapollo":8551,"Ġresources":8552,"Ġcomposure":8553,"Ġbreezy":8554,"Ġinitiate":8555,"Ġindustrial":8556,"Ġinferno":8557,"Ġinnovative":8558,"Ġmodify":8559,"Ġheights":8560,"Ġbridesmaids":8561,"Ġpromptly":8562,"influenced":8563,"Ġgoodfellas":8564,"Ġopportun":8565,"Ġunexpected":8566,"Ġbluelight":8567,"Ġbehavior":8568,"Ġketmoree":8569,"Ġguadalupe":8570,"217":8571,"5000":8572,"750":8573,"buri":8574,"cson":8575,"ddy":8576,"flo":8577,"fles":8578,"gard":8579,"gna":8580,"ii":8581,"list":8582,"lava":8583,"oir":8584,"uya":8585,"won":8586,"xon":8587,"xie":8588,"yer":8589,"Ġern":8590,"anas":8591,"ancy":8592,"erland":8593,"asz":8594,"anton":8595,"Ġastor":8596,"Ġwo":8597,"Ġwenger":8598,"Ġooh":8599,"Ġhair":8600,"Ġhmm":8601,"rets":8602,"ined":8603,"iness":8604,"inations":8605,"Ġfountain":8606,"Ġfbi":8607,"Ġske":8608,"Ġcin":8609,"Ġcord":8610,"Ġcull":8611,"Ġpase":8612,"Ġpale":8613,"Ġpage":8614,"Ġpaint":8615,"Ġpenny":8616,"Ġlut":8617,"Ġmack":8618,"Ġmare":8619,"Ġmason":8620,"Ġmgm":8621,"Ġble":8622,"Ġbrent":8623,"ingo":8624,"Ġdow":8625,"Ġdun":8626,"Ġdare":8627,"Ġdung":8628,"Ġdirk":8629,"Ġnue":8630,"enstein":8631,"that":8632,"owers":8633,"llard":8634,"Ġforn":8635,"Ġplatters":8636,"Ġlit":8637,"Ġwise":8638,"Ġreub":8639,"child":8640,"iso":8641,"Ġatom":8642,"Ġmos":8643,"vian":8644,"vill":8645,"Ġflame":8646,"Ġ120":8647,"amma":8648,"Ġchest":8649,"Ġjop":8650,"Ġjess":8651,"Ġjoni":8652,"ĠjÃ¼r":8653,"Ġyours":8654,"Ġsubur":8655,"Ġsulli":8656,"Ġsustain":8657,"Ġkany":8658,"Ġkalu":8659,"Ġalvin":8660,"Ġelg":8661,"immer":8662,"Ġnoise":8663,"Ġnovel":8664,"Ġamne":8665,"Ġshady":8666,"Ġarm":8667,"Ġcove":8668,"Ġcogn":8669,"ersp":8670,"Ġoutlet":8671,"Ġoutgoing":8672,"xton":8673,"Ġtrulu":8674,"Ġnowitz":8675,"Ġcons":8676,"Ġ78":8677,"Ġ79":8678,"Ġmanif":8679,"esses":8680,"osmith":8681,"Ġclark":8682,"Ġclaim":8683,"cist":8684,"Ġweight":8685,"Ġwears":8686,"Ġuncover":8687,"umer":8688,"Ġlap":8689,"Ġupstairs":8690,"Ġcurse":8691,"Âłe":8692,"Âłall":8693,"Âłco":8694,"Âłmo":8695,"Ġcalls":8696,"Ġbutland":8697,"Ġbutler":8698,"agne":8699,"aggio":8700,"Ġbarrel":8701,"Ġboat":8702,"Ġvelve":8703,"Ġsundeck":8704,"Ġawful":8705,"Ġpig":8706,"Ġsaf":8707,"Ġsauna":8708,"Ġcentre":8709,"apes":8710,"oland":8711,"155":8712,"Ġinform":8713,"Ġsales":8714,"Ġtypical":8715,"phant":8716,"Ġpoolside":8717,"âĢĿ":8718,"Ġsets":8719,"Ġpickled":8720,"ores":8721,"Ġbrought":8722,"rites":8723,"Ġclock":8724,"Ġuntold":8725,"Ġplaning":8726,"Ġplanes":8727,"401":8728,"Ġgrah":8729,"Ġ1920":8730,"Ġmilan":8731,"Ġsmash":8732,"176":8733,"Ġcreating":8734,"Ġsimp":8735,"Ġsimone":8736,"Ġpersonality":8737,"Ġfilter":8738,"Ġbiel":8739,"359":8740,"Ġnumero":8741,"Ġzod":8742,"124":8743,"Ġsidewalk":8744,"Ġslc":8745,"Ġslave":8746,"Ġmonsoon":8747,"Ġbasics":8748,"Ġpalms":8749,"action":8750,"Ġsites":8751,"Ġnorm":8752,"Ġprawns":8753,"Ġportugal":8754,"Ġhamid":8755,"143":8756,"Ġ21202":8757,"Ġsinister":8758,"caster":8759,"Ġsecrets":8760,"Ġmerry":8761,"efferson":8762,"Ġpatience":8763,"Ġclubby":8764,"192":8765,"Ġharris":8766,"Ġharrel":8767,"Ġdecade":8768,"Ġsnap":8769,"nessey":8770,"Ġenter":8771,"Ġattached":8772,"Ġwarsaw":8773,"Ġbroken":8774,"bling":8775,"bled":8776,"Ġfriendship":8777,"shire":8778,"290":8779,"Ġbuildings":8780,"Ġeggplant":8781,"Ġpotential":8782,"Ġdisconnect":8783,"Ġbottled":8784,"Ġdestruction":8785,"Ġowns":8786,"Ġfrankie":8787,"Ġfrankenstein":8788,"Ġtruly":8789,"Ġbelieved":8790,"oved":8791,"Ġtriangle":8792,"Ġmrs":8793,"suites":8794,"Ġsunset":8795,"Ġoperative":8796,"heart":8797,"orned":8798,"Âłhave":8799,"Ġsubway":8800,"Ġjewel":8801,"Ġdesign":8802,"Ġraging":8803,"Ġvintage":8804,"Ġfilled":8805,"Ġtortilla":8806,"Ġheavier":8807,"Ġmainstay":8808,"Ġquickly":8809,"Ġambience":8810,"Ġpierre":8811,"Ġstronger":8812,"Ġwilfried":8813,"Ġhennessey":8814,"Ġalexis":8815,"Ġgarage":8816,"Ġspeaking":8817,"Ġpromising":8818,"Ġundead":8819,"Ġcuts":8820,"Ġdragons":8821,"Ġcopy":8822,"Ġdelights":8823,"Ġaerosmith":8824,"works":8825,"Ġjenkins":8826,"Ġexception":8827,"Ġmargarita":8828,"Ġwords":8829,"Ġchandel":8830,"Ġparamore":8831,"Ġbaklava":8832,"priced":8833,"Ġtouches":8834,"Ġtwists":8835,"Ġstanford":8836,"Ġclearly":8837,"Ġparentage":8838,"Ġprofessor":8839,"Ġcarrots":8840,"Ġprogram":8841,"Ġimagined":8842,"Ġincrease":8843,"Ġconvers":8844,"Ġlifetime":8845,"Ġraees":8846,"Ġfreddy":8847,"Ġ70130":8848,"Ġaffair":8849,"Ġcharacter":8850,"crafted":8851,"ĠâĢĺ":8852,"ĠâĢľ":8853,"Ġauto":8854,"Ġmamas":8855,"Ġsamosas":8856,"Ġgordon":8857,"Ġnasa":8858,"Ġassign":8859,"Ġsturgeon":8860,"Ġjeremy":8861,"Ġlukaku":8862,"Ġhughes":8863,"Ġfonda":8864,"Ġnicholson":8865,"Ġeasier":8866,"Ġnotebook":8867,"Ġinvites":8868,"Ġgraduate":8869,"Ġinjured":8870,"Ġelevated":8871,"Ġmagnolia":8872,"Ġthirty":8873,"Ġinvisible":8874,"Ġpenthouse":8875,"Ġberetta":8876,"Ġbulworth":8877,"ranged":8878,"Ġhilariously":8879,"Ġloaner":8880,"Ġlength":8881,"Ġchosen":8882,"Ġclarify":8883,"ernandez":8884,"Ġriggs":8885,"Ġpolitician":8886,"Ġexperiences":8887,"Ġolympic":8888,"Ġherself":8889,"Ġmongol":8890,"Ġrevival":8891,"Ġreynolds":8892,"Ġsodas":8893,"Ġvincent":8894,"Ġinnocent":8895,"Ġrefrigerators":8896,"Ġkumail":8897,"Ġtruffle":8898,"Ġopulent":8899,"Ġsepticfles":8900,"Ġcullum":8901,"Ġpaseo":8902,"Ġdungeness":8903,"Ġnuevo":8904,"ĠjÃ¼rgen":8905,"Ġkanye":8906,"Ġkaluuya":8907,"Ġamnesia":8908,"Ġnowitzki":8909,"Ġvelvet":8910,"Ġzodiac":8911,"Ġharrelson":8912,"Ġsepticflesh":8913,"240":8914,"319":8915,"4000":8916,"437":8917,"62":8918,"63":8919,"612":8920,"audio":8921,"bc":8922,"bea":8923,"cadero":8924,"dc":8925,"dor":8926,"dani":8927,"ech":8928,"gl":8929,"good":8930,"gest":8931,"hr":8932,"hal":8933,"have":8934,"iat":8935,"jes":8936,"juring":8937,"lot":8938,"lim":8939,"mble":8940,"mans":8941,"miles":8942,"ovies":8943,"pr":8944,"px":8945,"rus":8946,"rors":8947,"san":8948,"spe":8949,"under":8950,"war":8951,"with":8952,"yard":8953,"yah":8954,"ĠâĢĭ":8955,"ann":8956,"anch":8957,"erger":8958,"erias":8959,"Ġther":8960,"Ġthri":8961,"Ġthomp":8962,"antoni":8963,"oul":8964,"Ġaali":8965,"uso":8966,"atory":8967,"atoni":8968,"rese":8969,"inf":8970,"Ġcc":8971,"Ġpere":8972,"Ġpound":8973,"Ġpane":8974,"Ġpump":8975,"Ġmardi":8976,"Ġmashed":8977,"Ġbom":8978,"Ġbatch":8979,"oro":8980,"Ġanger":8981,"Ġanaly":8982,"Ġtoward":8983,"Ġtoky":8984,"Ġger":8985,"Ġgay":8986,"onia":8987,"Ġnop":8988,"Ġnerve":8989,"Ġnah":8990,"enjoy":8991,"Ġissue":8992,"rian":8993,"rigu":8994,"riate":8995,"Ġplum":8996,"Ġwit":8997,"Ġwitch":8998,"Ġrecon":8999,"Ġreco":9000,"Ġreese":9001,"Ġrevenant":9002,"aled":9003,"eter":9004,"etcher":9005,"Ġrare":9006,"Ġrpx":9007,"Ġatkin":9008,"Ġmothers":9009,"itor":9010,"seek":9011,"outdoor":9012,"Ġfletcher":9013,"ionaire":9014,"Ġchall":9015,"Ġhired":9016,"Ġjour":9017,"Ġjill":9018,"Ġjyn":9019,"Ġoracle":9020,"Ġeure":9021,"Ġsudden":9022,"Ġka":9023,"Ġken":9024,"Ġkarl":9025,"Ġwillful":9026,"estic":9027,"open":9028,"imental":9029,"Ġjupit":9030,"Ġdied":9031,"Ġdizz":9032,"Ġpreserve":9033,"Ġnova":9034,"Ġamor":9035,"Ġample":9036,"Ġperu":9037,"Ġsolo":9038,"Ġsovere":9039,"Ġshining":9040,"Ġarrow":9041,"Ġarms":9042,"Ġarray":9043,"Ġspouse":9044,"Ġspark":9045,"Ġsprites":9046,"xture":9047,"Ġtwitty":9048,"Ġtro":9049,"Ġtray":9050,"Ġtrout":9051,"Ġnightly":9052,"Ġnightlife":9053,"Ġdem":9054,"Ġconjuring":9055,"alia":9056,"alian":9057,"Ġ74":9058,"iable":9059,"ssed":9060,"akaya":9061,"Ġleather":9062,"Ġ900":9063,"Ġmyers":9064,"Ġ600":9065,"Ġfever":9066,"Ġmoms":9067,"Ġmari":9068,"Ġmarian":9069,"Ġadjo":9070,"Ġairpl":9071,"Ġunli":9072,"Ġupwards":9073,"Ġupstate":9074,"rol":9075,"Âł6":9076,"Âłgo":9077,"Âłbar":9078,"Âłhold":9079,"Âłarri":9080,"Ġhove":9081,"rents":9082,"fornia":9083,"idate":9084,"Ġvamp":9085,"Ġvokes":9086,"Ġparmi":9087,"307":9088,"Ġawaken":9089,"bey":9090,"Ġdepartment":9091,"Ġdrop":9092,"sons":9093,"Ġexcl":9094,"Ġfired":9095,"Ġfiesta":9096,"Ġservings":9097,"Ġrank":9098,"Ġroster":9099,"pher":9100,"Ġdelfin":9101,"Ġriot":9102,"Ġjoerger":9103,"Ġmornings":9104,"upscale":9105,"Ġcuff":9106,"Ġblur":9107,"Ġblaze":9108,"Ġtears":9109,"Ġcarri":9110,"Ġcaruso":9111,"Ġconfesses":9112,"Ġpoet":9113,"cling":9114,"racial":9115,"177":9116,"Ġlargest":9117,"Ġpalmer":9118,"Ġseapoint":9119,"Ġregion":9120,"Ġ14607":9121,"Ġfinan":9122,"Ġzimmer":9123,"Ġgalen":9124,"Ġcuisines":9125,"Ġlotus":9126,"Ġromelu":9127,"Ġmonkey":9128,"1349":9129,"Ġcontent":9130,"Ġtaho":9131,"161":9132,"Ġvermont":9133,"Ġxd":9134,"Ġgoldberg":9135,"Ġportra":9136,"Ġvanessa":9137,"Ġmae":9138,"Ġstadiums":9139,"Ġdennis":9140,"Ġ301":9141,"Ġjanis":9142,"Ġjanelle":9143,"Ġbayside":9144,"Ġmainly":9145,"Ġworried":9146,"187":9147,"Ġimported":9148,"Ġhappens":9149,"Ġaccom":9150,"Ġcovert":9151,"Ġmarriage":9152,"Ġmedia":9153,"oko":9154,"Ġpits":9155,"Ġelephant":9156,"Ġremo":9157,"Ġremote":9158,"Ġsweetened":9159,"227":9160,"Ġattrib":9161,"Ġmajestic":9162,"nificent":9163,"Ġcuban":9164,"Ġhank":9165,"spotting":9166,"Ġlegoland":9167,"280":9168,"Ġtitled":9169,"Ġbreads":9170,"Ġboyce":9171,"Ġimpro":9172,"Ġturf":9173,"Ġbanana":9174,"Ġpossibility":9175,"246":9176,"Ġmountains":9177,"brook":9178,"Ġmagnificent":9179,"Ġpanini":9180,"Ġstuffed":9181,"ricane":9182,"Ġraised":9183,"Ġzocalo":9184,"Ġcompletely":9185,"Ġantique":9186,"Ġaccommodation":9187,"Ġaccommodate":9188,"Ġtrek":9189,"Ġdescriptions":9190,"Ġtrusted":9191,"Ġesan":9192,"Ġmilestone":9193,"Ġrobles":9194,"Ġrevolutionary":9195,"Ġinterracial":9196,"Ġmcdon":9197,"Ġdiscoveries":9198,"388":9199,"Ġtried":9200,"Ġhummus":9201,"Ġhotspurs":9202,"Ġwalton":9203,"Ġmilla":9204,"Ġfacts":9205,"Ġfactor":9206,"Ġtrainspotting":9207,"Ġcabernet":9208,"Ġeuropa":9209,"Ġkilling":9210,"Ġpinto":9211,"Ġspirited":9212,"Ġdrew":9213,"Ġaccepted":9214,"Ġpsychiat":9215,"Ġcommuter":9216,"Ġhunter":9217,"Ġpromise":9218,"Ġhostel":9219,"Ġappears":9220,"Ġreached":9221,"Ġconnections":9222,"Ġtucson":9223,"Ġkeys":9224,".âĢĭâĢĭâĢĭ":9225,"Ġmassage":9226,"Ġgrove":9227,"Ġchief":9228,"Ġpresley":9229,"Ġpresented":9230,"giano":9231,"Ġfurnished":9232,"Ġcarter":9233,"Ġrebounds":9234,"ropriate":9235,"guardians":9236,"Ġindeed":9237,"Ġumg":9238,"Ġdominate":9239,"Ġhangover":9240,"Ġbirthday":9241,"Ġjulio":9242,"Ġconstance":9243,"Ġprogresses":9244,"Ġwritten":9245,"Ġlifestyle":9246,"Ġfixed":9247,"Ġmetropolis":9248,"Ġinstruments":9249,"Ġbunch":9250,"Ġcarlton":9251,"Ġdirt":9252,"Ġgorgeous":9253,"Ġjurgen":9254,"Ġunforgettable":9255,"Ġrecruited":9256,"Ġkidnapped":9257,"Ġanchor":9258,"Ġanchovies":9259,"Ġmckin":9260,"Ġpulp":9261,".âĢĭâĢĭâĢĭâĢĭâĢĭâĢĭ":9262,"Ġpsychoanalyst":9263,"Ġpsychoanalysis":9264,"Ġdestroyed":9265,"Ġumbrella":9266,"Ġindividual":9267,"Ġousted":9268,"Ġlangu":9269,"Ġemotional":9270,"Ġembarcadero":9271,"Ġolives":9272,"Ġ02903":9273,"Ġenergy":9274,"Ġcomplex":9275,"Ġrenovated":9276,"Ġnikola":9277,"Ġfascin":9278,"Ġelliott":9279,"Ġsymph":9280,"Ġobserv":9281,"Ġpotter":9282,"Ġbolton":9283,"Ġmaterialize":9284,"Ġizakaya":9285,"Ġsashimi":9286,"Ġgleeson":9287,"Ġrigatoni":9288,"Ġhermanas":9289,"Ġunforgiven":9290,"Ġimmediately":9291,"Ġopportunity":9292,"Ġluton":9293,"Ġjoplin":9294,"Ġsullivan":9295,"Ġelgort":9296,"Ġtruluck":9297,"Ġmanifest":9298,"Ġgraham":9299,"Ġconversation":9300,"daniel":9301,"jessica":9302,"Ġthompson":9303,"Ġaaliyah":9304,"Ġanalyze":9305,"Ġtokyo":9306,"Ġrecogn":9307,"Ġatkinson":9308,"seeking":9309,"Ġeureka":9310,"Ġsuddenly":9311,"Ġjupiter":9312,"Ġsovereign":9313,"Ġadjoining":9314,"Ġairplane":9315,"Ġunlikely":9316,"Ġvampire":9317,"Ġtahoe":9318,"Ġattributes":9319,"Ġpsychiatrist":9320,"435":9321,"68":9322,"695":9323,"78":9324,"bra":9325,"bruary":9326,"fashion":9327,"hab":9328,"hampton":9329,"kok":9330,"long":9331,"lia":9332,"naked":9333,"ozzi":9334,"pan":9335,"rona":9336,"sour":9337,"ti":9338,"uous":9339,"wall":9340,"Ã¨":9341,"ĠâĢĭâĢĭ":9342,"Ġtil":9343,"Ġtina":9344,"Ġtunes":9345,"Ġtries":9346,"eral":9347,"erian":9348,"Ġthick":9349,"aser":9350,"ouille":9351,"Ġwander":9352,"Ġwaka":9353,"Ġhoy":9354,"Ġhend":9355,"Ġhick":9356,"Ġharden":9357,"rett":9358,"into":9359,"inari":9360,"Ġfren":9361,"Ġfres":9362,"Ġfinger":9363,"Ġsed":9364,"Ġcute":9365,"Ġpy":9366,"Ġping":9367,"Ġpose":9368,"Ġpure":9369,"Ġlance":9370,"Ġlakes":9371,"Ġment":9372,"Ġmouse":9373,"Ġmaps":9374,"Ġmouth":9375,"Ġmaze":9376,"eli":9377,"elic":9378,"elux":9379,"Ġang":9380,"Ġtove":9381,"Ġtong":9382,"Ġdame":9383,"Ġdut":9384,"Ġdax":9385,"Ġdau":9386,"Ġdory":9387,"Ġgh":9388,"Ġgem":9389,"Ġgai":9390,"Ġnom":9391,"Ġnicks":9392,"Ġnaut":9393,"Ġniece":9394,"enville":9395,"Ġisa":9396,"Ġinqu":9397,"llas":9398,"llen":9399,"Ġlillard":9400,"Ġreven":9401,"Ġrecover":9402,"ickest":9403,"Ġoften":9404,"Ġbea":9405,"Ġbegan":9406,"Ġnemo":9407,"ched":9408,"iro":9409,"eared":9410,"Ġmoving":9411,"Ġmoves":9412,"itation":9413,"itude":9414,"Ġfloyd":9415,"Ġchen":9416,"Ġchut":9417,"Ġchester":9418,"Ġeve":9419,"Ġeco":9420,"inda":9421,"inder":9422,"Ġsully":9423,"Ġker":9424,"Ġkick":9425,"Ġkath":9426,"verna":9427,"load":9428,"Ġfray":9429,"Ġalc":9430,"Ġalph":9431,"Ġgreatly":9432,"Ġelle":9433,"opita":9434,"imo":9435,"imore":9436,"adian":9437,"Ġdixie":9438,"Ġpref":9439,"Ġalley":9440,"acek":9441,"Ġpersu":9442,"Ġstarbu":9443,"andy":9444,"andora":9445,"Ġspit":9446,"Ġcova":9447,"february":9448,"Ġprism":9449,"Ġhassan":9450,"Ġtrapped":9451,"Ġratat":9452,"Ġratio":9453,"colo":9454,"artments":9455,"Ġdeen":9456,"Ġdear":9457,"Ġdemar":9458,"Ġnewport":9459,"Ġroomy":9460,"ssaka":9461,"Ġnoted":9462,"Ġasia":9463,"Ġretreat":9464,"Ġsizz":9465,"Ġopin":9466,"Ġ9100":9467,"Ġcheer":9468,"Ġ610":9469,"Ġwearing":9470,"Ġadjust":9471,"Ġuncon":9472,"Ġcomida":9473,"Ġquickest":9474,"Âł5":9475,"Âłne":9476,"Âłso":9477,"Âłfrom":9478,"Âłfebruary":9479,"Ġbuttern":9480,"Ġ201":9481,"Ġcause":9482,"Ġdinos":9483,"Ġbuena":9484,"Ġbaron":9485,"uni":9486,"303":9487,"berger":9488,"becue":9489,"Ġwestham":9490,"Ġdraught":9491,"ressed":9492,"Ġexit":9493,"Ġexotic":9494,"Ġpeking":9495,"Ġemo":9496,"apest":9497,"olito":9498,"Ġintrigu":9499,"Ġspears":9500,"Ġbreaks":9501,"Ġparkway":9502,"Ġartur":9503,"1049":9504,"phine":9505,"Ġaunt":9506,"illo":9507,"ement":9508,"Ġunderwater":9509,"Ġunderground":9510,"Ġrises":9511,"Ġbrain":9512,"abba":9513,"Ġclover":9514,"aware":9515,"Ġimitation":9516,"Ġcasita":9517,"Ġcarn":9518,"Ġreviewers":9519,"406":9520,"Ġgran":9521,"Ġgrace":9522,"Ġ1990":9523,"Ġ1906":9524,"Ġapplies":9525,"alez":9526,"Ġsmile":9527,"Ġeveryday":9528,"171":9529,"Ġcreated":9530,"Ġminds":9531,"Ġchicks":9532,"Ġbienville":9533,"Ġglor":9534,"556":9535,"merged":9536,"Ġexped":9537,"Ġfilmmaker":9538,"Ġzomb":9539,"Ġschumer":9540,"Ġherbs":9541,"Ġbao":9542,"Ġbaja":9543,"Ġmonae":9544,"Ġdrisco":9545,"Ġcookie":9546,"Ġtaverna":9547,"162":9548,"165":9549,"168":9550,"Ġprayer":9551,"Ġchainsm":9552,"Ġtheatres":9553,"Ġwhiteside":9554,"Ġtenth":9555,"Ġmatchbox":9556,"apping":9557,"Ġuniversal":9558,"Ġrocky":9559,"Ġuses":9560,"Ġspacey":9561,"Ġcomputer":9562,"Ġcompartments":9563,"Ġassists":9564,"Ġfeatured":9565,"Ġindoors":9566,"Ġbeloved":9567,"Ġbrewery":9568,"Ġmerlot":9569,"Ġsuperman":9570,"Ġclubs":9571,"Ġlowell":9572,"Ġlunchtime":9573,"Ġkem":9574,"Ġscreening":9575,"okers":9576,"Ġgolfing":9577,"Ġbudapest":9578,"Ġputs":9579,"Ġboxes":9580,"224":9581,"Ġbuffets":9582,"Ġfund":9583,"Ġearthquake":9584,"Ġhanna":9585,"Ġlegroom":9586,"Ġhudson":9587,"282":9588,"Ġhandcrafted":9589,"270":9590,"graph":9591,"Ġcaprese":9592,"Ġsoonest":9593,"Ġdarko":9594,"Ġcontinues":9595,"Ġbritney":9596,"Ġdisapp":9597,"Ġdisorder":9598,"liter":9599,"Ġshuttles":9600,"Ġhawk":9601,"Ġdanilo":9602,"Ġantiques":9603,"Ġmemor":9604,"Ġstyx":9605,"Ġrivalries":9606,"Ġinterstate":9607,"Âłthey":9608,"Ġwaltz":9609,"Ġfaced":9610,"Ġgrizzly":9611,"cloth":9612,"Ġvaried":9613,"Ġwildly":9614,"Ġhornacek":9615,"Âłhas":9616,"Âłhot":9617,"Ġsubmerged":9618,"Ġstores":9619,"Ġalcoholic":9620,"Ġassuming":9621,"Ġdesire":9622,"Ġdesired":9623,"Ġrosemary":9624,"Ġfillet":9625,"Ġsonoma":9626,"Ġchannel":9627,"Ġfetus":9628,"Âłwill":9629,"Ġdoubt":9630,"Ġeasygoing":9631,"Ġambient":9632,"Ġpaper":9633,"Ġgarcia":9634,"Ġhuntington":9635,"Ġhostage":9636,"Ġhostile":9637,"Ġdevoted":9638,"Ġspecialize":9639,"Ġspecializes":9640,"Ġbeginning":9641,"Ġlearned":9642,"Ġchilli":9643,"Ġgallinari":9644,"Ġjessie":9645,"Ġequal":9646,"Ġassassins":9647,"parents":9648,"Ġcommunist":9649,"Ġhurricane":9650,"Ġfault":9651,"prising":9652,"Ġfabulous":9653,"Ġsavage":9654,"Ġbusch":9655,"running":9656,"Ġbuzzing":9657,"Ġpuppy":9658,"Ġfeli":9659,"Ġpeaceful":9660,"Ġnatomas":9661,"Ġbangkok":9662,"Ġirving":9663,"Ġazul":9664,"Ġvarious":9665,"Ġexplore":9666,"Ġkebab":9667,"Ġpeanut":9668,"Ġgrowing":9669,"Ġconvenient":9670,"Ġtongue":9671,"Ġkayaking":9672,"Ġkidnap":9673,"Ġsurpris":9674,"Ġoslo":9675,"Ġrumari":9676,"Ġultimately":9677,"Ġcontrol":9678,"Ġmitchell":9679,"Ġumbrellas":9680,"Ġboruc":9681,"Ġeffect":9682,"ĠÂ£":9683,"Ġmegade":9684,"Ġkiara":9685,"Ġridley":9686,"Ġmessage":9687,"Ġthibod":9688,"Ġsakura":9689,"Ġmoussaka":9690,"Ġevidenced":9691,"Ġteenager":9692,"billy":9693,"Ġkhali":9694,"Ġactivist":9695,"Ġcandidate":9696,"creole":9697,"Ġjamey":9698,"Ġtragedy":9699,"Ġsignificant":9700,"Ġfajitas":9701,"Ġgonzalez":9702,"Ġprud":9703,"Ġkitsch":9704,"Ġalkaline":9705,"Ġadapt":9706,"Âłwhich":9707,"rupted":9708,"Ġstrictly":9709,"Ġcomparison":9710,"Ġneighbors":9711,"buried":9712,"Ġdowney":9713,"Ġreuben":9714,"Ġchestnut":9715,"Ġnopalito":9716,"Ġchallen":9717,"Ġfinancial":9718,"Ġmcdonald":9719,"Ġfascinated":9720,"Ġsymphony":9721,"Ġobservant":9722,"Ġfrenzy":9723,"Ġfresno":9724,"Ġdauphine":9725,"Ġrevenge":9726,"Ġchutney":9727,"Ġstarbucks":9728,"Ġsizzling":9729,"Ġbutternut":9730,"Ġchainsmokers":9731,"Ġthibodeau":9732,".\".":9733,"237":9734,"429":9735,"460":9736,"630":9737,"633":9738,"760":9739,"?.":9740,"bute":9741,"based":9742,"cke":9743,"dry":9744,"found":9745,"gom":9746,"here":9747,"hop":9748,"homm":9749,"iv":9750,"iggy":9751,"jan":9752,"jon":9753,"kis":9754,"kind":9755,"live":9756,"mor":9757,"might":9758,"mad":9759,"mall":9760,"math":9761,"miah":9762,"noc":9763,"natural":9764,"ox":9765,"oint":9766,"pi":9767,"pton":9768,"psy":9769,"posed":9770,"rad":9771,"sure":9772,"und":9773,"wight":9774,"xious":9775,"zones":9776,"Â¨":9777,"Ã¶":9778,"Ġur":9779,"Ġers":9780,"angel":9781,"anger":9782,"anha":9783,"Ġtank":9784,"erated":9785,"staff":9786,"Ġiver":9787,"Ġiris":9788,"anth":9789,"Ġalo":9790,"Ġaid":9791,"Ġavil":9792,"Ġwinger":9793,"Ġhood":9794,"Ġya":9795,"Ġyak":9796,"Ġyolo":9797,"atical":9798,"inable":9799,"Ġselling":9800,"Ġpong":9801,"Ġpans":9802,"Ġpud":9803,"Ġponto":9804,"Ġmim":9805,"Ġbind":9806,"Ġbatt":9807,"Ġbaker":9808,"Ġbachel":9809,"orge":9810,"orne":9811,"Ġance":9812,"Ġangie":9813,"Ġtoast":9814,"Ġtoby":9815,"Ġtone":9816,"Ġtons":9817,"Ġdat":9818,"Ġdome":9819,"Ġdue":9820,"Ġdna":9821,"Ġdarl":9822,"Ġdwight":9823,"onardo":9824,"Ġnan":9825,"Ġnam":9826,"Ġnak":9827,"Ġnaked":9828,"Ġnuts":9829,"eny":9830,"ensi":9831,"enhol":9832,"Ġokc":9833,"Ġthats":9834,"Ġwhites":9835,"Ġinstinct":9836,"omy":9837,"omon":9838,"Ġonboard":9839,"Ġlicks":9840,"Ġcandle":9841,"icate":9842,"Ġbeets":9843,"Ġneut":9844,"chan":9845,"chair":9846,"leck":9847,"leonardo":9848,"Ġrou":9849,"Ġroose":9850,"Ġramp":9851,"irky":9852,"iracy":9853,"irons":9854,"eare":9855,"isano":9856,"Ġstage":9857,"Ġstiles":9858,"Ġstoner":9859,"Ġmoz":9860,"itions":9861,"season":9862,"Ġ140":9863,"amel":9864,"ilings":9865,"ilera":9866,"Ġchoo":9867,"Ġchile":9868,"Ġjaw":9869,"Ġkru":9870,"Ġkasper":9871,"vert":9872,"estr":9873,"Ġalessa":9874,"Ġaltern":9875,"Ġuter":9876,"Ġult":9877,"Ġeluded":9878,"opian":9879,"Ġsomewhat":9880,"imag":9881,"ellar":9882,"adorned":9883,"Ġjuices":9884,"Ġjudy":9885,"Ġjuni":9886,"allison":9887,"Ġpreach":9888,"Ġnoah":9889,"Ġnola":9890,"Ġloy":9891,"Ġloft":9892,"Ġletter":9893,"Ġsha":9894,"Ġshock":9895,"Ġsharing":9896,"Ġseeking":9897,"Ġstark":9898,"Ġoutback":9899,"Ġ314":9900,"Ġ3111":9901,"quite":9902,"quely":9903,"Ġprior":9904,"Ġtwice":9905,"Ġhasn":9906,"Ġknack":9907,"Ġknock":9908,"Ġdee":9909,"Ġnewfound":9910,"Ġconv":9911,"Ġconsp":9912,"ichel":9913,"Ġagents":9914,"atery":9915,"osh":9916,"Ġdayton":9917,"cier":9918,"akens":9919,"akopita":9920,"Ġ916":9921,"cessible":9922,"Ġcheery":9923,"Ġmario":9924,"Ġadvan":9925,"Ġunc":9926,"Ġunearth":9927,"Ġunimag":9928,"Ġlaird":9929,"Ġcommit":9930,"Ġquirky":9931,"Ġupto":9932,"Âłk":9933,"Âłas":9934,"Âłrestaurant":9935,"Ġhoff":9936,"Ġwells":9937,"acho":9938,"icker":9939,"Ġcaliente":9940,"Ġbarnes":9941,"Ġboiled":9942,"Ġvary":9943,"301":9944,"berries":9945,"Ġholding":9946,"Ġdepressing":9947,"Ġawakens":9948,"Ġwestbrook":9949,"Ġdrunk":9950,"Ġpeep":9951,"olf":9952,"Ġfixture":9953,"151":9954,"ordinary":9955,"Ġresp":9956,"Ġpizzerias":9957,"Ġrode":9958,"Ġroger":9959,"Ġsalary":9960,"Ġposner":9961,"phones":9962,"503":9963,"Ġvit":9964,"Ġviolet":9965,"iano":9966,"Ġ129":9967,"Ġriff":9968,"Ġrimand":9969,"Ġricott":9970,"Ġpicky":9971,"Ġbranch":9972,"Ġbles":9973,"Ġcarlos":9974,"Ġgrav":9975,"Ġ1940":9976,"Ġ1939":9977,"Ġ1975":9978,"Ġnonstops":9979,"Ġappropriate":9980,"fries":9981,"Ġmik":9982,"Ġmign":9983,"azer":9984,"Ġswitz":9985,"Ġfarolito":9986,"rences":9987,"Ġsmells":9988,"Ġlark":9989,"Ġexpan":9990,"Ġcoltr":9991,"Ġpavil":9992,"Ġpaisano":9993,"Ġziggy":9994,"Ġschme":9995,"126":9996,"1200":9997,"Ġtopping":9998,"Ġslamma":9999,"ashi":10000,"Ġspots":10001,"Ġheadphones":10002,"Ġdistant":10003,"Ġuniquely":10004,"Ġvanilla":10005,"Ġlatimore":10006,"Ġsummary":10007,"Ġjanet":10008,"Ġ234":10009,"Ġ2346":10010,"Ġcritical":10011,"Ġbits":10012,"Ġusa":10013,"Ġaccessible":10014,"Ġamazons":10015,"Ġworse":10016,"Ġthrilling":10017,"Ġcrout":10018,"Ġcompet":10019,"Ġdefining":10020,"Ġwaterston":10021,"Ġhappiness":10022,"Ġpiranha":10023,"Ġtide":10024,"Ġbrewing":10025,"velt":10026,"Ġsunrise":10027,"Ġmarriot":10028,"Ġbrie":10029,"194":10030,"196":10031,"Ġcards":10032,"loris":10033,"Ġmeaning":10034,"Ġvalerian":10035,"Ġfairy":10036,"Ġfairmont":10037,"Ġbudenhol":10038,"Ġjackman":10039,"Ġerror":10040,"Ġsurprising":10041,"Ġextraordinary":10042,"Ġpleasant":10043,"Ġmercen":10044,"Ġdaisy":10045,"Ġfuji":10046,"Ġbrownies":10047,"metal":10048,"shelf":10049,"Ġpoland":10050,"Ġgrandview":10051,"Ġmontgom":10052,"Ġalongside":10053,"Ġhands":10054,"Ġidol":10055,"273":10056,"Ġfollowed":10057,"Ġ504":10058,"flower":10059,"Ġdislike":10060,"Ġstraw":10061,"Ġinstruct":10062,"Ġmaggie":10063,"Ġhardy":10064,"475":10065,"595":10066,"Ġpasses":10067,"Ġlettuces":10068,"Ġcompleted":10069,"Ġpatrol":10070,"233":10071,"Ġpacked":10072,"Ġtrevor":10073,"Ġjamma":10074,"Ġembark":10075,"465":10076,"Ġmurray":10077,"Ġchapters":10078,"Ġrobot":10079,"ovic":10080,"Ġmccon":10081,"Ġmcbri":10082,"Ġdiscovered":10083,"385":10084,"Ġtribute":10085,"Ġhumor":10086,"Ġcourtney":10087,"Ġcannolis":10088,"Ġvoices":10089,"Ġdecides":10090,"Ġcabanas":10091,"Ġrichie":10092,"ultz":10093,"Ġtreehouse":10094,"Ġlasagne":10095,"Ġ2003":10096,"Ġ2006":10097,"Ġ2009":10098,"Ġpatrick":10099,"Ġskip":10100,"Ġcalories":10101,"Ġcalzones":10102,"Ġ78705":10103,"Ġ78704":10104,"Ġballs":10105,"Ġtrinity":10106,"Ġdomain":10107,"Âłwould":10108,"Ġwentz":10109,"Ġchampagne":10110,"Ġpolitics":10111,"Ġcipher":10112,"Ġpackage":10113,"Ġcamera":10114,"Ġsleeping":10115,"Ġjacinto":10116,"Ġwheat":10117,"Ġramones":10118,"Ġ94133":10119,"avia":10120,"Ġhenri":10121,"Ġhenson":10122,"Ġalexander":10123,"Ġslowly":10124,"Ġniro":10125,"Ġzookeeper":10126,"Ġpromis":10127,"Ġ1976":10128,"Ġdefending":10129,"Ġsuprem":10130,"brew":10131,"break":10132,"breaking":10133,"Ġconnecting":10134,"Ġspanakopita":10135,"Ġveggies":10136,"Ġgalleria":10137,"Ġjesus":10138,"Ġenvirons":10139,"restrial":10140,"Ġceilings":10141,"Ġtropics":10142,"Ġsoulchild":10143,"Ġgroban":10144,"conscious":10145,"giana":10146,"Ġsticky":10147,"paul":10148,"Ġbryant":10149,"Ġsaved":10150,"Ġolad":10151,"Ġhutton":10152,"Ġsoldiers":10153,"Ġtreats":10154,"Ġtreatments":10155,"Ġlionel":10156,"Ġstanley":10157,"lounge":10158,"Ġlampson":10159,"Ġcarrabba":10160,"Ġinches":10161,"Ġfinishing":10162,"Ġindigo":10163,"Ġirwin":10164,"Ġethi":10165,"Ġmusiq":10166,"Ġhomes":10167,"Ġcarlisle":10168,"Ġstruggle":10169,"Ġaffleck":10170,"Ġdrums":10171,"Ġaguero":10172,"Ġaguilera":10173,"strong":10174,"Ġmatheny":10175,"Ġhawthorne":10176,"Ġassigned":10177,"Ġcellar":10178,"Ġculture":10179,"Ġjeremiah":10180,"Ġsharona":10181,"Ġunchained":10182,"Ġmesquite":10183,"Âłplaying":10184,"Ġindividually":10185,"Ġ83702":10186,"Ġholland":10187,"Ġvengeful":10188,"Ġzoe":10189,"Ġrubio":10190,"Ġhibachi":10191,"Ġtraditionally":10192,"Ġinvad":10193,"Ġevolution":10194,"Ġmedicine":10195,"Ġpetrale":10196,"Ġpatties":10197,"Ġliquor":10198,"Ġbungalow":10199,"Ġwidow":10200,"Ġchimich":10201,"Ġmilkshakes":10202,"Ġcivilization":10203,"Ġphysiological":10204,"Ġcinelux":10205,"Ġfornaio":10206,"Ġcognitive":10207,"Ġnormally":10208,"Ġamorphis":10209,"Ġtrolls":10210,"Âłbarbecue":10211,"Ġparmigiana":10212,"Ġexclusive":10213,"Ġdelfina":10214,"Ġseapointe":10215,"Ġportrait":10216,"Ġaccompl":10217,"fashioned":10218,"sourced":10219,"Ġprefrences":10220,"Ġratatouille":10221,"Ġdeeney":10222,"Ġunconquer":10223,"Ġemoji":10224,"Ġmegadeth":10225,"Ġprudhomm":10226,"Ġkitschy":10227,"Ġadaptation":10228,"Ġavila":10229,"Ġroosevelt":10230,"Ġutero":10231,"Ġjunior":10232,"Ġconspiracy":10233,"Ġunearths":10234,"Ġunimaginable":10235,"Ġrimando":10236,"Ġricotta":10237,"Ġswitzerland":10238,"Ġcoltrane":10239,"Ġschmeichel":10240,"Ġbudenholzer":10241,"Ġmontgomery":10242,"Ġinstructions":10243,"Ġmcbride":10244,"Ġprudhomme":10245,"215":10246,"214":10247,"317":10248,"420":10249,"434":10250,"650":10251,"617":10252,"74":10253,"740":10254,"842":10255,"928":10256,"bour":10257,"bones":10258,"cell":10259,"cul":10260,"corn":10261,"ds":10262,"drop":10263,"ega":10264,"four":10265,"fax":10266,"fusion":10267,"green":10268,"hef":10269,"high":10270,"ively":10271,"jas":10272,"kic":10273,"lave":10274,"lery":10275,"nomin":10276,"osit":10277,"ocks":10278,"pre":10279,"pop":10280,"pull":10281,"poke":10282,"piece":10283,"peare":10284,"rating":10285,"smo":10286,"tv":10287,"tion":10288,"tower":10289,"tacoma":10290,"ua":10291,"using":10292,"vous":10293,"wine":10294,"will":10295,"yeah":10296,"Ġvie":10297,"Ġess":10298,"Ġzz":10299,"Ġtan":10300,"Ġtight":10301,"Ġtag":10302,"Ġtests":10303,"Ġtung":10304,"eric":10305,"erra":10306,"erba":10307,"store":10308,"sthef":10309,"Ġthread":10310,"Ġiow":10311,"Ġira":10312,"Ġidy":10313,"asure":10314,"antom":10315,"Ġwing":10316,"Ġwast":10317,"Ġwade":10318,"Ġwrest":10319,"Ġwreck":10320,"Ġott":10321,"Ġoops":10322,"Ġhed":10323,"Ġhook":10324,"Ġhul":10325,"Ġhav":10326,"Ġhack":10327,"Ġhamp":10328,"Ġhbo":10329,"Ġhula":10330,"Ġyerba":10331,"atello":10332,"Ġsor":10333,"Ġcities":10334,"Ġceline":10335,"Ġpak":10336,"Ġpond":10337,"Ġpuff":10338,"Ġpony":10339,"Ġpandora":10340,"Ġln":10341,"Ġles":10342,"Ġlum":10343,"Ġlue":10344,"Ġlooked":10345,"Ġmaz":10346,"Ġmount":10347,"elder":10348,"elson":10349,"Ġboom":10350,"Ġbente":10351,"Ġannie":10352,"Ġtones":10353,"Ġdion":10354,"Ġdumb":10355,"esha":10356,"Ġgw":10357,"Ġgain":10358,"Ġgare":10359,"Ġgnoc":10360,"Ġnur":10361,"Ġnina":10362,"Ġnelson":10363,"tha":10364,"than":10365,"thod":10366,"arro":10367,"Ġwhoop":10368,"Ġisle":10369,"Ġislan":10370,"llic":10371,"Ġformation":10372,"veget":10373,"Ġlived":10374,"Ġlips":10375,"Ġhelen":10376,"Ġrex":10377,"Ġrend":10378,"Ġrever":10379,"aland":10380,"Ġcandy":10381,"icon":10382,"ically":10383,"icated":10384,"Ġmethod":10385,"Ġbetty":10386,"urbed":10387,"Ġneo":10388,"Ġnether":10389,"eta":10390,"etown":10391,"chburg":10392,"Ġdolls":10393,"Ġracco":10394,"irt":10395,"irard":10396,"oodoo":10397,"Ġstring":10398,"Ġsem":10399,"Ġseal":10400,"Ġsevent":10401,"Ġseizes":10402,"itage":10403,"Ġflash":10404,"Ġjp":10405,"Ġjad":10406,"Ġjag":10407,"Ġjefferson":10408,"Ġanya":10409,"Ġeug":10410,"entable":10411,"Ġku":10412,"Ġkar":10413,"Ġkatherine":10414,"Ġ211":10415,"Ġaby":10416,"love":10417,"logy":10418,"cturn":10419,"cture":10420,"ctuary":10421,"Ġwillows":10422,"Ġaly":10423,"Ġaloo":10424,"opp":10425,"cking":10426,"ellin":10427,"ador":10428,"Ġjuicy":10429,"Ġdig":10430,"Ġnocturn":10431,"Ġload":10432,"Ġallied":10433,"aura":10434,"Ġperfor":10435,"Ġpersian":10436,"utto":10437,"convention":10438,"Ġsho":10439,"Ġshatter":10440,"Ġseeming":10441,"Ġ420":10442,"Ġarn":10443,"Ġargo":10444,"Ġarbor":10445,"Ġarctic":10446,"Ġouter":10447,"Ġencour":10448,"quality":10449,"quitz":10450,"Ġpride":10451,"Ġpriya":10452,"Ġtwa":10453,"Ġnightcr":10454,"Ġknowledge":10455,"arter":10456,"Ġdeco":10457,"Ġdeutch":10458,"Ġnewton":10459,"ulation":10460,"Ġconey":10461,"Ġhefty":10462,"Ġ700":10463,"Ġenjoying":10464,"Ġnotes":10465,"osal":10466,"Ġdaytime":10467,"Ġclash":10468,"ciano":10469,"Ġretro":10470,"Ġsicar":10471,"Ġminions":10472,"Ġminestr":10473,"gundy":10474,"Ġwealth":10475,"Ġfear":10476,"Ġmarais":10477,"Ġgotten":10478,"Ġunrel":10479,"Ġwhenever":10480,"Ġlocale":10481,"Ġlaunch":10482,"Ġcomfy":10483,"sody":10484,"rod":10485,"Âłany":10486,"Âłla":10487,"Ġhodg":10488,"Ġdetail":10489,"Ġdetect":10490,"Ġcaller":10491,"rently":10492,"Ġcaf":10493,"Ġcaus":10494,"Ġbucket":10495,"Ġbuilt":10496,"Ġbarn":10497,"Ġbarren":10498,"Ġbarley":10499,"Ġbod":10500,"Ġvu":10501,"Ġvent":10502,"Ġvad":10503,"Ġbrenda":10504,"beth":10505,"Ġbackdrop":10506,"zzott":10507,"Ġexor":10508,"Ġexce":10509,"Ġexamples":10510,"ists":10511,"Ġsang":10512,"Ġsanctuary":10513,"fire":10514,"152":10515,"Ġgundy":10516,"Ġprove":10517,"Ġproli":10518,"Ġprodi":10519,"Ġtripp":10520,"Ġbeaches":10521,"Ġtyron":10522,"itez":10523,"Ġlistings":10524,"Ġrecorded":10525,"Ġaust":10526,"502":10527,"Ġdelay":10528,"Ġdelaware":10529,"iang":10530,"doddy":10531,"fiction":10532,"Ġsetup":10533,"Ġstopped":10534,"Ġjoey":10535,"Ġphantom":10536,"rity":10537,"abil":10538,"Ġclooney":10539,"awler":10540,"Ġburgundy":10541,"Ġ(\"":10542,"Ġblair":10543,"Ġeaters":10544,"Ġeatusc":10545,"Ġcasab":10546,"Ġcara":10547,"Ġplanets":10548,"403":10549,"405":10550,"408":10551,"Ġpoison":10552,"cles":10553,"clellan":10554,"Ġ1900":10555,"Ġ1910":10556,"Ġ1937":10557,"Ġ1960":10558,"Ġ1997":10559,"Ġ1969":10560,"atoga":10561,"azed":10562,"Ġcosting":10563,"plic":10564,"Ġfarrell":10565,"259":10566,"Ġrented":10567,"Ġfitchburg":10568,"rillex":10569,"zech":10570,"Ġcrepes":10571,"Ġsimmons":10572,"Ġmaddon":10573,"Ġlouder":10574,"551":10575,"rooms":10576,"Ġcolfax":10577,"356":10578,"Ġkidd":10579,"Ġ141":10580,"Ġfinalize":10581,"Ġsquid":10582,"Ġzh":10583,"Ġzay":10584,"when":10585,"while":10586,"Ġ1800":10587,"Ġschem":10588,"Ġcharm":10589,"Ġtopped":10590,"999":10591,"Ġslaven":10592,"Ġsouthlake":10593,"Ġheadquarters":10594,"Ġpopcorn":10595,"Ġsitar":10596,"Ġtaj":10597,"Ġdisturbed":10598,"Ġpron":10599,"Ġconfirmations":10600,"Ġfirefly":10601,"Ġnapolet":10602,"Ġgypsy":10603,"Ġmazzott":10604,"Ġlugg":10605,"Ġlucca":10606,"Ġsums":10607,"Ġstriking":10608,"Ġstrikes":10609,"183":10610,"Ġcrum":10611,"Ġeden":10612,"Ġederson":10613,"Ġcompact":10614,"Ġdressed":10615,"Ġhopdoddy":10616,"mini":10617,"Ġwaterpark":10618,"Ġbeats":10619,"Ġnorthwest":10620,"Ġpirozzi":10621,"Ġsaunders":10622,"Ġaccents":10623,"Ġbabymetal":10624,"Ġtiki":10625,"Ġcovering":10626,"Ġextreme":10627,"Ġbrid":10628,"Ġbrightly":10629,"198":10630,"Ġblackened":10631,"Ġgroundbreaking":10632,"araji":10633,"Ġharvest":10634,"Ġharrah":10635,"Ġmeanwhile":10636,"Ġmedellin":10637,"Ġfoxx":10638,"Ġ95304":10639,"Ġhuston":10640,"Ġspike":10641,"Ġtowns":10642,"Ġbillie":10643,"Ġbillionaire":10644,"Ġattempt":10645,"Ġmercy":10646,"Ġmisspoke":10647,"Ġmontana":10648,"Ġhandlery":10649,"Ġprivacy":10650,"Ġserkis":10651,"Ġrule":10652,"Ġboyega":10653,"Ġshortly":10654,"eps":10655,"Ġfigured":10656,"392":10657,"397":10658,"Ġsleight":10659,"Ġdarkness":10660,"241":10661,"brad":10662,"Ġinstall":10663,"woody":10664,"Ġpancakes":10665,"Ġbenitez":10666,"Ġlighting":10667,"Ġhawn":10668,"Ġboneless":10669,"Ġbotticelli":10670,"Ġsophie":10671,"Ġpatty":10672,"Ġmemory":10673,"Ġestranged":10674,"Ġjamba":10675,"Ġbeaux":10676,"Ġesplan":10677,"Ġrobbed":10678,"borough":10679,"332":10680,"holm":10681,"Ġinterrupted":10682,"Ġmcclellan":10683,"383":10684,"Ġtrilogy":10685,"Ġpuesto":10686,"Ġstreamlined":10687,"Ġmills":10688,"Ġtraining":10689,"Ġtrained":10690,"hearth":10691,"Ġwilde":10692,"Ġrichards":10693,"Ġscorers":10694,"Ġ95618":10695,"Ġapartment":10696,"Ġ2007":10697,"577":10698,"Ġsolve":10699,"Ġsolace":10700,"Ġthoughts":10701,"Ġskrillex":10702,"Ġpint":10703,"Ġmotiv":10704,"Ġ78702":10705,"Ġacqua":10706,"Ġgirard":10707,"Ġafghan":10708,"Ġfreak":10709,"Ġmartini":10710,"Ġ34102":10711,"Âłthen":10712,"Ġhallow":10713,"Ġtasting":10714,"Ġwrapped":10715,"Ġwrote":10716,"Ġchophouse":10717,"Ġarchite":10718,"Ġmailed":10719,"Âłsan":10720,"776":10721,"Ġdaring":10722,"wyer":10723,"Ġliterally":10724,"Ġjimi":10725,"Ġgods":10726,"Ġexpecting":10727,"Ġtalked":10728,"Ġstrongly":10729,"Ġpapaya":10730,"Ġhuntress":10731,"Ġexperimental":10732,"Ġcategories":10733,"Ġeventually":10734,"Ġ1972":10735,"Ġ1973":10736,"Ġ1979":10737,"Ġjonathan":10738,"Ġknights":10739,"Ġcrusty":10740,"Ġdreamin":10741,"Ġshadows":10742,"Ġsupply":10743,"Ġraising":10744,"umps":10745,"Ġconditioned":10746,"winning":10747,"Ġbarely":10748,"Ġbarenaked":10749,"Ġsnowden":10750,"urbished":10751,"Ġstatesman":10752,"Ġtelephone":10753,"1101":10754,"poster":10755,"Ġcartel":10756,"Ġcartoon":10757,"Ġwhitcomb":10758,"Ġproducer":10759,"ropub":10760,"Ġsavory":10761,"Ġshakespeare":10762,"Ġsaratoga":10763,"Ġrowe":10764,"Ġinspir":10765,"Ġrefurbished":10766,"Ġaudio":10767,"Ġcousins":10768,"Ġtreatment":10769,"Ġamidst":10770,"Ġbullet":10771,"Ġshelton":10772,"Ġprepare":10773,"Ġnicer":10774,"Ġethan":10775,"Ġdeanie":10776,"conditioning":10777,"Âłbut":10778,"Ġroncone":10779,"Ġdrummond":10780,"Ġelectric":10781,"Ġelectronic":10782,"Ġstockholm":10783,"packed":10784,"Ġkimpton":10785,"Ġcitizens":10786,"topped":10787,"Ġosaka":10788,"Ġmathem":10789,"Ġlynn":10790,"Ġsturridge":10791,"Âłlast":10792,"Ġcontrover":10793,"Ġnavy":10794,"Ġcranston":10795,"Ġvinegar":10796,"Ġhonestly":10797,"Ġhabit":10798,"Ġmistake":10799,"Ġreferring":10800,"ĠÂ¨":10801,"Ġetc":10802,"Ġpushes":10803,"Ġorchid":10804,"Ġembarks":10805,"Ġmuslim":10806,"Ġpistos":10807,"Ġcyrus":10808,"Ġlonely":10809,"Ġbuckley":10810,"empty":10811,"Ġvengeance":10812,"Ġtarget":10813,"Ġviolence":10814,"Ġcucumber":10815,"Ġtahquitz":10816,"Ġsheltered":10817,"Ġencounter":10818,"Ġcheesy":10819,"Ġmarshall":10820,"Ġscenic":10821,"Ġrussian":10822,"Ġhotdogs":10823,"Ġcarpenter":10824,"Ġcinearts":10825,"Ġalessia":10826,"Ġpreparing":10827,"Ġrestrictions":10828,"Ġdevelop":10829,"Ġmythic":10830,"Âłcafe":10831,"Ġveteran":10832,"minded":10833,"Ġgastropub":10834,"Ġsituation":10835,"Ġnarrator":10836,"Ġclarkson":10837,"Ġchandelier":10838,"Ġmongolian":10839,"speed":10840,"Ġccbc":10841,"Ġperez":10842,"Ġreconnaissance":10843,"Ġjourn":10844,"Ġperuvian":10845,"Ġmckinley":10846,"paneled":10847,"Ġhendrix":10848,"Ġmentor":10849,"Ġghirard":10850,"Ġnautical":10851,"Ġdinosaur":10852,"Ġcarnation":10853,"Ġgranite":10854,"Ġkemba":10855,"Ġsurprised":10856,"Ġkhalid":10857,"Ġnakorn":10858,"Ġchoosing":10859,"Ġjaws":10860,"Ġadvanced":10861,"Ġblessthef":10862,"Ġmignolet":10863,"Ġethiopian":10864,"nominated":10865,"pulled":10866,"smoked":10867,"Ġiowa":10868,"Ġidyllic":10869,"Ġpakist":10870,"Ġmazarin":10871,"Ġbenteke":10872,"Ġgnocchi":10873,"vegetarian":10874,"Ġnetherlands":10875,"Ġraccoon":10876,"Ġseemingly":10877,"Ġnightcrawler":10878,"Ġsicario":10879,"Ġminestrone":10880,"Ġwealthy":10881,"Ġunreliable":10882,"Ġhodgson":10883,"Ġdetective":10884,"Ġprolific":10885,"Ġtyronn":10886,"Ġeatuscany":10887,"Ġnapoletana":10888,"Ġesplanade":10889,"Ġghirardelli":10890,"Ġblessthefall":10891,"325":10892,"329":10893,"599":10894,"64":10895,"655":10896,"730":10897,"724":10898,"747":10899,"bet":10900,"bid":10901,"cd":10902,"dan":10903,"del":10904,"dish":10905,"eer":10906,"ece":10907,"eoni":10908,"fu":10909,"fan":10910,"french":10911,"gne":10912,"hall":10913,"hem":10914,"iest":10915,"jack":10916,"jabi":10917,"kah":10918,"lis":10919,"luck":10920,"mbo":10921,"occ":10922,"ody":10923,"pine":10924,"pions":10925,"ration":10926,"sea":10927,"sues":10928,"tas":10929,"tez":10930,"wa":10931,"wii":10932,"yrd":10933,"ygen":10934,"zan":10935,"zar":10936,"Ġouch":10937,"anca":10938,"Ġtail":10939,"Ġtatt":10940,"Ġtaio":10941,"erce":10942,"eries":10943,"stellar":10944,"Ġiber":10945,"Ġille":10946,"Ġivy":10947,"asco":10948,"antha":10949,"Ġade":10950,"Ġaura":10951,"Ġwend":10952,"Ġwwii":10953,"Ġobl":10954,"Ġhoo":10955,"Ġhub":10956,"Ġhitch":10957,"Ġhateful":10958,"Ġyu":10959,"Ġyam":10960,"Ġyung":10961,"atum":10962,"inson":10963,"Ġfay":10964,"Ġtheo":10965,"Ġsow":10966,"Ġsotto":10967,"Ġcot":10968,"Ġcil":10969,"Ġcain":10970,"Ġcale":10971,"Ġczech":10972,"Ġped":10973,"Ġpract":10974,"Ġpya":10975,"Ġpesto":10976,"Ġll":10977,"Ġlent":10978,"Ġloose":10979,"Ġlloy":10980,"Ġlloris":10981,"Ġmessen":10982,"Ġmelt":10983,"ela":10984,"elen":10985,"Ġbent":10986,"Ġbend":10987,"Ġbid":10988,"Ġbesh":10989,"Ġbicker":10990,"orth":10991,"Ġdm":10992,"Ġditch":10993,"Ġdaly":10994,"Ġgere":10995,"Ġgoose":10996,"Ġnu":10997,"Ġner":10998,"Ġnag":10999,"ench":11000,"enberg":11001,"thes":11002,"thia":11003,"arm":11004,"Ġissues":11005,"Ġinhab":11006,"Ġforms":11007,"rich":11008,"Ġliber":11009,"Ġwicked":11010,"Ġhelms":11011,"Ġreign":11012,"Ġreagan":11013,"icut":11014,"icked":11015,"urring":11016,"Ġneon":11017,"Ġneph":11018,"Ġrage":11019,"ission":11020,"omex":11021,"omethe":11022,"Ġstories":11023,"Ġstained":11024,"Ġsection":11025,"Ġmole":11026,"vior":11027,"itt":11028,"itution":11029,"seth":11030,"Ġflies":11031,"Ġ135":11032,"ament":11033,"amental":11034,"ila":11035,"Ġplaya":11036,"Ġchronic":11037,"Ġjas":11038,"Ġjala":11039,"Ġjorge":11040,"Ġorn":11041,"Ġgoodness":11042,"Ġsuz":11043,"Ġkub":11044,"Ġkai":11045,"Ġkip":11046,"Ġabs":11047,"verhampton":11048,"asty":11049,"loin":11050,"logn":11051,"loaf":11052,"Ġgreece":11053,"Ġfrag":11054,"Ġalv":11055,"Ġelfri":11056,"Ġelsewhere":11057,"ellig":11058,"adas":11059,"Ġdistinct":11060,"derick":11061,"Ġprecious":11062,"Ġloaded":11063,"Ġaller":11064,"Ġallright":11065,"nton":11066,"uty":11067,"utter":11068,"utious":11069,"Ġletting":11070,"Ġwasabi":11071,"ainst":11072,"Ġarb":11073,"Ġarroy":11074,"Ġspok":11075,"Ġspawns":11076,"Ġcoc":11077,"Ġoutersp":11078,"Ġ313":11079,"Ġprimary":11080,"Ġkni":11081,"endar":11082,"Ġ505":11083,"gee":11084,"Ġdemons":11085,"Ġconley":11086,"alibur":11087,"Ġmanner":11088,"iche":11089,"ineers":11090,"Ġnotice":11091,"Ġasc":11092,"cipl":11093,"Ġretire":11094,"Ġsic":11095,"Ġsixt":11096,"Ġbooks":11097,"Ġopp":11098,"Ġoppo":11099,"Ġopentable":11100,"Ġ949":11101,"Ġtakeaway":11102,"Ġ649":11103,"Ġwemble":11104,"devil":11105,"Ġadrian":11106,"Ġlabel":11107,"roc":11108,"Âł1":11109,"Âł3":11110,"Âł4":11111,"Âłse":11112,"Âłde":11113,"Âł25":11114,"Âłlet":11115,"Âłcount":11116,"Âłenjoy":11117,"acha":11118,"ache":11119,"peÃ±":11120,"Ġ2011":11121,"Ġcaill":11122,"Ġseated":11123,"ryn":11124,"Ġnearly":11125,"Ġbose":11126,"Ġboca":11127,"Ġbologn":11128,"unning":11129,"Ġvort":11130,"Ġvows":11131,"ansel":11132,"302":11133,"berto":11134,"Ġpill":11135,"Ġdrops":11136,"Ġexod":11137,"Ġadds":11138,"Ġsavior":11139,"nings":11140,"Ġwonderfully":11141,"Ġamericanized":11142,"Ġfierce":11143,"Ġintellig":11144,"Ġspeech":11145,"Ġhousing":11146,"Ġhoused":11147,"Ġbreakers":11148,"Ġspecies":11149,"Ġranks":11150,"lio":11151,"Ġroberts":11152,"Ġsalomon":11153,"Ġhighland":11154,"phy":11155,"phasis":11156,"506":11157,"507":11158,"Ġvita":11159,"Ġdeltas":11160,"iana":11161,"Ġmorris":11162,"Ġteacher":11163,"acu":11164,"aced":11165,"Ġ124":11166,"Ġ1200":11167,"Ġjokes":11168,"orette":11169,"Ġbroom":11170,"Ġpheoni":11171,"Ġburgeon":11172,"Ġblank":11173,"Ġtear":11174,"Ġtegel":11175,"scr":11176,"Ġcarrie":11177,"Ġcaramel":11178,"Ġearned":11179,"Ġecono":11180,"Ġgrant":11181,"Ġgrown":11182,"gelow":11183,"Ġ199":11184,"Ġ1901":11185,"Ġ1988":11186,"Ġmiley":11187,"Ġinterests":11188,"Ġgenius":11189,"azar":11190,"azine":11191,"please":11192,"Ġreservoir":11193,"Ġamenity":11194,"Ġlesser":11195,"ptic":11196,"ption":11197,"Ġmilana":11198,"pling":11199,"plit":11200,"253":11201,"Ġthroughout":11202,"Ġdirecting":11203,"Ġcreate":11204,"Ġcoaching":11205,"Ġcourage":11206,"Ġcourto":11207,"Ġcoffey":11208,"atham":11209,"attuck":11210,"Ġoverton":11211,"Ġbigelow":11212,"Ġwarner":11213,"meric":11214,"Ġmanaging":11215,"Ġexcalibur":11216,"Ġscale":11217,"Ġscene":11218,"Ġregents":11219,"boards":11220,"Ġcola":11221,"Ġcolin":11222,"Ġcolbie":11223,"Ġminiature":11224,"ipo":11225,"Ġkidding":11226,"Ġsquee":11227,"Ġlandsc":11228,"Ġaugusta":11229,"Ġoceana":11230,"ynthia":11231,"Ġslim":11232,"Ġsliced":11233,"Ġmontage":11234,"138":11235,"Ġdrawn":11236,"Ġpalmas":11237,"actions":11238,"Ġpoppy":11239,"Ġpopulation":11240,"redib":11241,"Ġcontr":11242,"Ġwaff":11243,"Ġaftermath":11244,"Ġprote":11245,"Ġpromethe":11246,"Ġverge":11247,"Ġfirehouse":11248,"Ġgoldie":11249,"Ġporter":11250,"Ġmah":11251,"Ġmaud":11252,"isserie":11253,"Ġsprouts":11254,"Ġluc":11255,"Ġluciano":11256,"497":11257,"Ġrelies":11258,"Ġrelative":11259,"tossed":11260,"Ġcrud":11261,"Ġpursu":11262,"Ġpursue":11263,"eley":11264,"Ġstefan":11265,"Ġaccomp":11266,"Ġtiger":11267,"Ġmeri":11268,"Ġpatient":11269,"Ġsuperb":11270,"liners":11271,"Ġbrio":11272,"Ġbridges":11273,"Ġcatchy":11274,"odon":11275,"Ġlowe":11276,"Ġcardiff":11277,"Ġaboard":11278,"Ġoctavia":11279,"Ġclipper":11280,"meal":11281,"swe":11282,"Ġ95776":11283,"Ġpita":11284,"Ġsneak":11285,"erole":11286,"baut":11287,"Ġdouce":11288,"Ġelection":11289,"Ġmeatloaf":11290,"Ġending":11291,"371":11292,"Ġyankee":11293,"black":11294,"Ġdaft":11295,"comedy":11296,"shell":11297,"Ġarsene":11298,"Ġfisher":11299,"281":11300,"283":11301,"Ġhandle":11302,"Ġhandmade":11303,"Ġpayton":11304,"Ġmichelle":11305,"297":11306,"innon":11307,"Ġseparated":11308,"274":11309,"Ġservers":11310,"Ġimprison":11311,"Ġpitching":11312,"Ġsooner":11313,"Ġdisplay":11314,"Ġdissoci":11315,"Ġjoints":11316,"Ġstrings":11317,"liters":11318,"Ġmaggiano":11319,"Ġmagazine":11320,"ĠbenÃŃ":11321,"Ġheats":11322,"Ġwicker":11323,"Ġmighty":11324,"Ġlamberts":11325,"Ġbaseman":11326,"Ġpatsy":11327,"Ġpatisserie":11328,"231":11329,"232":11330,"236":11331,"Ġcrisis":11332,"Ġcreep":11333,"Ġsamantha":11334,"Ġduper":11335,"Ġescal":11336,"Ġmurphy":11337,"boro":11338,"Ġauthors":11339,"Ġgenerally":11340,"Ġgenerations":11341,"Ġtransactions":11342,"Ġinterstellar":11343,"Ġmcgee":11344,"Ġwhirlwind":11345,"Ġallowing":11346,"Ġdealing":11347,"757":11348,"367":11349,"Ġcannon":11350,"Ġcannoli":11351,"Ġemploy":11352,"Ġglobes":11353,"Ġscorpions":11354,"Ġpantry":11355,"Ġpatrizi":11356,"441":11357,"Ġmurdered":11358,"Ġcalendar":11359,"Ġsonny":11360,"casual":11361,"Ġtortillas":11362,"Ġfrei":11363,"Ġledisi":11364,"Ġfetch":11365,"Ġincredib":11366,"Âłsong":11367,"annah":11368,"Ġpsychic":11369,"Ġpsychological":11370,"Ġjacket":11371,"Ġramos":11372,"Ġ94109":11373,"Ġ94102":11374,"Ġdolce":11375,"Ġgrubbing":11376,"ouchables":11377,"Ġgarland":11378,"973":11379,"Ġdefine":11380,"Ġcrusted":11381,"Ġcups":11382,"Ġsupper":11383,"Ġconnecticut":11384,"Ġlearning":11385,"Ġformat":11386,"Ġformaggio":11387,"Ġdelightfully":11388,"Ġtempl":11389,"Ġaeromex":11390,"Ġsuppose":11391,"Ġtowne":11392,"Ġhaul":11393,"Ġ20001":11394,"Ġzealand":11395,"Ġrhin":11396,"check":11397,"Ġswitching":11398,"Ġanthem":11399,"Ġhurry":11400,"Ġfabric":11401,"Ġsailor":11402,"Ġsailors":11403,"tablecloth":11404,"Ġbanksy":11405,"Ġfolie":11406,"Ġrefle":11407,"Ġmaleficent":11408,"Ġwolverhampton":11409,"Ġoccasion":11410,"Ġhunnam":11411,"Ġcooperation":11412,"reyu":11413,"Ġbirthright":11414,"Ġshares":11415,"Ġmillionaire":11416,"Ġbrandon":11417,"Ġevacu":11418,"Ġsatis":11419,"Ġnicely":11420,"Ġethics":11421,"Ġpreviously":11422,"Ġmatthews":11423,"Ġdecisions":11424,"mission":11425,"Ġhometown":11426,"Ġshakira":11427,"Ġmiranda":11428,"Ġgoran":11429,"Ġgrows":11430,"Ġshui":11431,"Âłamc":11432,"Ġdynamite":11433,"Ġmaple":11434,"Ġkayak":11435,"Ġkristen":11436,"Ġgeneva":11437,"Ġgordo":11438,"Ġultimate":11439,"Ġcultural":11440,"Ġlynch":11441,"Ġmckinnon":11442,"Ġboozy":11443,"Ġrisk":11444,"Ġrisotto":11445,"Ġcranberries":11446,"Ġinvestigators":11447,"Ġtoyota":11448,"charge":11449,"charlie":11450,"Ġnicholas":11451,"Ġlancaster":11452,"Ġplatforms":11453,"Âłdid":11454,"Ġepik":11455,"harrison":11456,"Ġleonard":11457,"Ġleonardo":11458,"Ġemerges":11459,"Ġscientists":11460,"Ġwhiskeys":11461,"Ġthibaut":11462,"Ġboundaries":11463,"Ġrealizes":11464,"Ġfocuses":11465,"Ġcorporation":11466,"Ġviolent":11467,"Ġtenderloin":11468,"Ġdoomed":11469,"Ġwireless":11470,"Ġencounters":11471,"Ġresponse":11472,"Ġbraxton":11473,"Ġmaiden":11474,"Ġcrawling":11475,"Ġdispatch":11476,"Ġnegro":11477,"Ġsteamed":11478,"Ġsplash":11479,"Ġavenge":11480,"Ġbetrayed":11481,"Ġcasserole":11482,"Ġpunjabi":11483,"Ġrelig":11484,"Ġintrodu":11485,"Ġpetersburg":11486,"Ġbrokeback":11487,"Ġespn":11488,"Ġmastodon":11489,"Ġbicycling":11490,"Ġrashford":11491,"Ġtransit":11492,"Ġblowing":11493,"izabeth":11494,"Ġbrockton":11495,"floor":11496,"Ġskew":11497,"Ġdaredevil":11498,"Ġsustainable":11499,"Ġsalesman":11500,"Ġsimply":11501,"Ġcopyright":11502,"Ġassignment":11503,"Ġbombs":11504,"Ġmarianne":11505,"Ġwanderers":11506,"Ġhickory":11507,"Ġsedu":11508,"Ġinquire":11509,"Ġalpha":11510,"Ġalleys":11511,"Ġopinion":11512,"Ġcheerful":11513,"Âłnext":11514,"Ġintriguing":11515,"Ġzombies":11516,"Ġmimos":11517,"Ġbindu":11518,"Ġbachelorette":11519,"Ġinstincts":11520,"Ġneutral":11521,"Ġdaytona":11522,"Ġmikuni":11523,"Ġpavilion":11524,"Ġmcconaugh":11525,"Ġoladipo":11526,"Ġinvaders":11527,"Ġwidowed":11528,"Ġchimichang":11529,"Ġunconquerable":11530,"Ġwrestles":11531,"Ġhampshire":11532,"Ġmounts":11533,"Ġislanders":11534,"Ġalyson":11535,"Ġencouraged":11536,"Ġzayn":11537,"Ġhalloween":11538,"Ġinspiration":11539,"Ġpakistani":11540,"Ġtattoo":11541,"Ġillegal":11542,"Ġoblit":11543,"Ġhitchcock":11544,"Ġcilant":11545,"Ġpyaari":11546,"Ġlentil":11547,"Ġlloyd":11548,"Ġnaglee":11549,"ĠjalapeÃ±":11550,"Ġfragile":11551,"Ġelfrid":11552,"Ġarroyo":11553,"Ġspokane":11554,"Ġouterspace":11555,"Ġretirement":11556,"Ġwembley":11557,"Ġcaillat":11558,"Ġbolognese":11559,"Ġexodus":11560,"Ġpheonix":11561,"Ġburgeoning":11562,"Ġcourtois":11563,"Ġprotection":11564,"Ġprometheus":11565,"Ġdissociative":11566,"ĠbenÃŃtez":11567,"'?":11568,".'":11569,"//":11570,"1300":11571,"245":11572,"211":11573,"315":11574,"340":11575,"311":11576,"387":11577,"380":11578,"449":11579,"419":11580,"428":11581,"439":11582,"550":11583,"513":11584,"529":11585,"615":11586,"620":11587,"640":11588,"641":11589,"711":11590,"718":11591,"787":11592,"780":11593,"704":11594,"840":11595,"907":11596,"://":11597,"batch":11598,"bro":11599,"bone":11600,"bles":11601,"bage":11602,"bury":11603,"batta":11604,"cco":11605,"cÃ©":11606,"cynthia":11607,"eath":11608,"easy":11609,"face":11610,"gos":11611,"gated":11612,"grill":11613,"gage":11614,"hot":11615,"iid":11616,"iper":11617,"ival":11618,"je":11619,"ku":11620,"kitchen":11621,"keley":11622,"lat":11623,"lax":11624,"mu":11625,"mid":11626,"mins":11627,"milla":11628,"now":11629,"oa":11630,"oin":11631,"oth":11632,"pian":11633,"peter":11634,"rome":11635,"ront":11636,"sur":11637,"sand":11638,"teen":11639,"temp":11640,"usi":11641,"ube":11642,"wish":11643,"wreck":11644,"yatt":11645,"yani":11646,"zable":11647,"Äį":11648,"ÅĤ":11649,"ĠÅĤ":11650,"anie":11651,"Ġtails":11652,"Ġtick":11653,"Ġtai":11654,"Ġtire":11655,"eros":11656,"erville":11657,"stol":11658,"Ġian":11659,"Ġiam":11660,"asley":11661,"ascar":11662,"Ġald":11663,"Ġailing":11664,"assing":11665,"usch":11666,"Ġole":11667,"Ġhind":11668,"Ġhatch":11669,"Ġhag":11670,"Ġhaz":11671,"Ġhorton":11672,"rew":11673,"remix":11674,"inton":11675,"Ġfont":11676,"Ġfins":11677,"Ġfade":11678,"Ġfurs":11679,"Ġfeng":11680,"Ġfernandez":11681,"Ġyouth":11682,"Ġsens":11683,"Ġsgt":11684,"Ġcassi":11685,"Ġcul":11686,"Ġcena":11687,"Ġpont":11688,"Ġpath":11689,"Ġpassing":11690,"Ġlb":11691,"Ġlott":11692,"Ġlud":11693,"Ġlatter":11694,"Ġlinda":11695,"Ġlaura":11696,"Ġlarter":11697,"Ġlcd":11698,"ayan":11699,"Ġmit":11700,"elet":11701,"Ġbil":11702,"Ġbake":11703,"Ġbitch":11704,"Ġbento":11705,"Ġbought":11706,"orio":11707,"Ġded":11708,"Ġdak":11709,"Ġdah":11710,"Ġgina":11711,"Ġgross":11712,"only":11713,"Ġnil":11714,"thal":11715,"there":11716,"arack":11717,"Ġwhop":11718,"Ġforster":11719,"oman":11720,"omwich":11721,"gher":11722,"Ġlipa":11723,"Ġwien":11724,"Ġreference":11725,"ales":11726,"alright":11727,"icia":11728,"Ġlikewise":11729,"Ġbeasley":11730,"Ġnepal":11731,"etc":11732,"chang":11733,"chron":11734,"chini":11735,"Ġdogg":11736,"least":11737,"Ġthankful":11738,"Ġrale":11739,"Ġrondon":11740,"eake":11741,"iser":11742,"Ġatleast":11743,"Ġstol":11744,"Ġstaf":11745,"Ġstanton":11746,"Ġstatham":11747,"Ġsep":11748,"Ġsey":11749,"Ġseeds":11750,"viÄĩ":11751,"vigne":11752,"ital":11753,"itker":11754,"italia":11755,"seeing":11756,"Ġflower":11757,"Ġflock":11758,"Ġflowers":11759,"amari":11760,"ilight":11761,"Ġchi":11762,"Ġcher":11763,"Ġchad":11764,"Ġchase":11765,"Ġjav":11766,"Ġjury":11767,"Ġjeps":11768,"Ġorly":11769,"Ġsutter":11770,"Ġkus":11771,"Ġkorn":11772,"Ġabba":11773,"locks":11774,"lopes":11775,"cts":11776,"Ġgreg":11777,"Ġfraser":11778,"Ġwillis":11779,"estra":11780,"Ġalpine":11781,"Ġalitalia":11782,"Ġua":11783,"Ġelton":11784,"Ġelizabeth":11785,"opic":11786,"Ġsomehow":11787,"imposed":11788,"ailed":11789,"adam":11790,"Ġdiver":11791,"Ġmul":11792,"Ġamig":11793,"Ġpercy":11794,"uti":11795,"uto":11796,"Ġshift":11797,"Ġshattuck":11798,"Ġ475":11799,"Ġstarter":11800,"fortune":11801,"Ġcob":11802,"Ġcosm":11803,"Ġcobb":11804,"Ġ320":11805,"Ġ339":11806,"Ġpriority":11807,"Ġtwilight":11808,"Ġtrap":11809,"Ġtravi":11810,"Ġknows":11811,"Ġconn":11812,"alized":11813,"alistic":11814,"Ġ750":11815,"Ġmanage":11816,"Ġmanny":11817,"Ġmaniac":11818,"essel":11819,"Ġagg":11820,"oslave":11821,"Ġclim":11822,"Ġclare":11823,"ciutto":11824,"Ġsits":11825,"Ġsienna":11826,"Ġsizable":11827,"Ġchefs":11828,"Ġmint":11829,"Ġminim":11830,"tters":11831,"Ġ634":11832,"Ġmarion":11833,"Ġmarqu":11834,"Ġmarcos":11835,"Ġmartha":11836,"Ġadol":11837,"Ġunle":11838,"Ġunions":11839,"Ġunadorned":11840,"Ġuneasy":11841,"Ġunlocks":11842,"Ġavril":11843,"Ġlazy":11844,"Ġlazar":11845,"Ġlavigne":11846,"Ġcomics":11847,"Ġquali":11848,"rob":11849,"roe":11850,"Âłper":11851,"Âłbr":11852,"Âłlike":11853,"Âłupscale":11854,"Ġholo":11855,"Ġholy":11856,"Ġhoag":11857,"Ġhobb":11858,"ervin":11859,"orts":11860,"Ġshowplace":11861,"Ġshowdown":11862,"ickers":11863,"agascar":11864,"Ġstays":11865,"Ġbuster":11866,"idon":11867,"Ġbored":11868,"Ġbohem":11869,"Ġbolio":11870,"Ġvoodoo":11871,"Ġvessel":11872,"Ġbrees":11873,"Ġdepot":11874,"Ġawake":11875,"bee":11876,"Ġrecre":11877,"Ġohio":11878,"Ġwatched":11879,"Ġwatchtower":11880,"Ġsabr":11881,"Ġdonuts":11882,"Ġemul":11883,"Ġembr":11884,"Ġemphasis":11885,"apore":11886,"Ġfires":11887,"fiance":11888,"158":11889,"Ġrescue":11890,"overs":11891,"Ġsalty":11892,"Ġsalazar":11893,"Ġbeachside":11894,"Ġcorrection":11895,"illaz":11896,"emies":11897,"Ġdelica":11898,"Ġlossl":11899,"aca":11900,"acular":11901,"acked":11902,"accent":11903,"Ġ128":11904,"Ġpickford":11905,"Ġphoto":11906,"Ġbalance":11907,"Ġweekly":11908,"abeds":11909,"Ġclothes":11910,"awa":11911,"awling":11912,"Ġcudi":11913,"Ġcurio":11914,"Ġblan":11915,"Ġbloom":11916,"Ġimmi":11917,"Ġcaspian":11918,"Ġ1500":11919,"Ġredbull":11920,"404":11921,"Ġconfused":11922,"Ġconfront":11923,"Ġpoor":11924,"Ġposs":11925,"Ġtryon":11926,"Ġgrave":11927,"Ġgrano":11928,"Ġgrabb":11929,"Ġproblems":11930,"Ġ1930":11931,"Ġ1999":11932,"Ġ1914":11933,"Ġ1980":11934,"Ġ1977":11935,"Ġ1967":11936,"Ġapplic":11937,"Ġappoint":11938,"Ġcomedian":11939,"ptations":11940,"Ġfarmer":11941,"Ġstands":11942,"Ġ1601":11943,"Ġfitting":11944,"173":11945,"naud":11946,"Ġcreams":11947,"mento":11948,"athy":11949,"Ġmadre":11950,"Ġmadagascar":11951,"ampi":11952,"Ġbiopic":11953,"Ġglenn":11954,"554":11955,"559":11956,"Ġwarren":11957,"Ġscot":11958,"Ġscram":11959,"Ġscampi":11960,"Ġcolomb":11961,"udy":11962,"uding":11963,"Ġengage":11964,"Ġengaged":11965,"Ġengulf":11966,"Ġzack":11967,"Ġzuc":11968,"Ġzaha":11969,"why":11970,"Ġseasoning":11971,"Ġheritage":11972,"1299":11973,"Ġcoffeehouse":11974,"Ġfamed":11975,"996":11976,"Ġmonarch":11977,"Ġmonkees":11978,"Ġmonroe":11979,"Ġ139":11980,"ianski":11981,"actic":11982,"Ġoffs":11983,"Ġoffsp":11984,"Ġcontract":11985,"167":11986,"1600":11987,"Ġtrading":11988,"Ġverm":11989,"Ġfirework":11990,"Ġwoody":11991,"Ġwooden":11992,"airy":11993,"Ġsynchron":11994,"formal":11995,"risaz":11996,"Ġworst":11997,"181":11998,"Ġthrilled":11999,"Ġcraving":12000,"Ġspacecraft":12001,"Ġcomparing":12002,"Ġassisting":12003,"Ġoriented":12004,"Ġ2620":12005,"Ġbeating":12006,"Ġburnet":12007,"Ġsins":12008,"Ġpirate":12009,"Ġmicro":12010,"Ġsauces":12011,"Ġfeelings":12012,"izon":12013,"Ġbarbecu":12014,"Ġbristol":12015,"Ġclever":12016,"they":12017,"Ġpulling":12018,"Ġrelegated":12019,"Ġfunk":12020,"Ġmedical":12021,"Ġfold":12022,"fold":12023,"Ġearthborn":12024,"Ġpitbull":12025,"Ġsnack":12026,"Ġsnoop":12027,"Ġsniper":12028,"Ġsnitker":12029,"Ġoaks":12030,"Ġmidd":12031,"Ġmidway":12032,"Ġeleven":12033,"fron":12034,"Ġentr":12035,"Ġroyale":12036,"Ġattitude":12037,"Ġjapan":12038,"Ġhitting":12039,"Ġbroth":12040,"Ġbroderick":12041,"Ġberkeley":12042,"nixon":12043,"Ġhanuk":12044,"shaped":12045,"Ġpolish":12046,"287":12047,"2880":12048,"Ġdodie":12049,"342":12050,"344":12051,"iko":12052,"iku":12053,"Ġbreaded":12054,"eye":12055,"Ġtiller":12056,"271":12057,"277":12058,"Ġsofabeds":12059,"Ġimpressive":12060,"Ġshortstop":12061,"uffy":12062,"Ġastrona":12063,"eping":12064,"Ġcircus":12065,"Ġfighter":12066,"Ġturtle":12067,"Ġryoko":12068,"Ġdiscipl":12069,"247":12070,"248":12071,"Ġstranger":12072,"Ġhyp":12073,"262":12074,"Ġinstitution":12075,"Ġversions":12076,"Ġpanang":12077,"ologist":12078,"Ġbenny":12079,"Ġbeneath":12080,"Ġshutter":12081,"Ġdegree":12082,"Ġmiso":12083,"Ġhardwood":12084,"Ġhawke":12085,"Ġhawkins":12086,"479":12087,"Ġthunders":12088,"Ġthurisaz":12089,"explic":12090,"Ġbasement":12091,"Ġcrowded":12092,"Ġdestinations":12093,"Ġproposal":12094,"hours":12095,"Ġdynasty":12096,"Ġtracks":12097,"Ġcrist":12098,"Ġjambal":12099,"Ġsings":12100,"Ġembiid":12101,"Ġsammy":12102,"Ġdua":12103,"Ġduke":12104,"Ġshallows":12105,"Ġ403":12106,"Ġstyles":12107,"Ġstyled":12108,"Ġturning":12109,"Ġreyes":12110,"xxx":12111,"angled":12112,"Ġbeastie":12113,"Ġdealer":12114,"garner":12115,"brick":12116,"Ġwalter":12117,"Ġopera":12118,"Ġoperating":12119,"362":12120,"Ġbarbarian":12121,"Ġvogt":12122,"Ġemporio":12123,"Ġtrains":12124,"Ġtrainwreck":12125,"heim":12126,"Ġcabello":12127,"Ġmagician":12128,"igern":12129,"Ġmissions":12130,"Ġsubt":12131,"Ġsubmar":12132,"gaard":12133,"gency":12134,"Ġ2004":12135,"Ġ2008":12136,"Ġ376":12137,"Ġ37203":12138,"Ġassort":12139,"Ġbrooks":12140,"Ġpatriot":12141,"Ġthornton":12142,"Ġbobby":12143,"Ġfreshly":12144,"Ġcalcul":12145,"Ġcalamari":12146,"Ġmotion":12147,"Ġsmiths":12148,"Ġfillings":12149,"Ġaffect":12150,"Ġcollea":12151,"Ġcollabor":12152,"Ġslope":12153,"Ġaudioslave":12154,"Ġlineup":12155,"Ġmachina":12156,"Ġdeeply":12157,"Âłwon":12158,"lanca":12159,"Ġincor":12160,"Ġciopp":12161,"Ġsynd":12162,"Ġsyrah":12163,"Ġcamila":12164,"Ġsleepy":12165,"Ġgodz":12166,"Ġposted":12167,"Ġboutiques":12168,"Ġcommand":12169,"Ġcommission":12170,"Ġalexand":12171,"Ġgarth":12172,"Ġcategor":12173,"Ġimagination":12174,"Ġ1971":12175,"david":12176,"Ġjonah":12177,"Ġowen":12178,"Ġdefensive":12179,"Ġridgemont":12180,"Ġdreamworks":12181,"Ġreunites":12182,"Ġ972":12183,"Ġ97205":12184,"Ġformed":12185,"Ġtemptations":12186,"Ġaerial":12187,"Ġspanning":12188,"Ġbrickwork":12189,"Ġgallo":12190,"Ġjessica":12191,"Ġbaggage":12192,"oops":12193,"Ġcanton":12194,"Ġgrohl":12195,"Ġpitted":12196,"Ġpaso":12197,"Ġkorea":12198,"Ġrhett":12199,"Ġbiryani":12200,"oraco":12201,"Ġlemonades":12202,"Ġcontains":12203,"Ġbryson":12204,"Ġlifts":12205,"Ġcombat":12206,"Ġfabianski":12207,"Ġsavannah":12208,"Ġstrips":12209,"....":12210,"Ġrefresh":12211,"Ġsurface":12212,"court":12213,"Ġciti":12214,"Ġdominica":12215,"Ġblondie":12216,"Ġhangout":12217,"Ġopponents":12218,"Ġguitars":12219,"Ġrenner":12220,"Ġjulius":12221,"Ġjuliet":12222,"Ġtambour":12223,"Ġuhm":12224,"Ġconstantly":12225,"Ġ21218":12226,"Ġazte":12227,"Ġdeckard":12228,"Ġhalal":12229,"Ġciabatta":12230,"Ġphilip":12231,"Ġmirage":12232,"Ġgorillaz":12233,"Ġmamma":12234,"Ġinfant":12235,"Ġkristaps":12236,"Ġwontons":12237,"Ġrecruiting":12238,"Ġindependence":12239,"Ġavianca":12240,"Ġbarton":12241,"Ġfashionable":12242,"Ġpulis":12243,"Ġnavarro":12244,"Ġrandom":12245,"Ġsharp":12246,"Ġsharks":12247,"Ġprosciutto":12248,"Ġinvestigate":12249,"Ġmesoraco":12250,"Ġsexual":12251,"Ġ96146":12252,"Ġdifficulties":12253,"Ġstewart":12254,"Âłshowing":12255,"Ġhaban":12256,"Ġeasily":12257,"Ġadvanta":12258,"Ġscallop":12259,"Ġscallops":12260,"atsby":12261,"Ġinvite":12262,"Ġorchestra":12263,"Ġepiso":12264,"Ġashes":12265,"Ġguided":12266,"Ġbraveheart":12267,"Ġterrorism":12268,"ĠbeyoncÃ©":12269,"arrives":12270,"Ġsalvador":12271,"Ã¡n":12272,"Ġmounie":12273,"Ġcomplement":12274,"Ġspectacular":12275,"Ġtasked":12276,"Ġinfluences":12277,"Ġevidence":12278,"Ġteenagers":12279,"Ġexploring":12280,"Ġbumgarner":12281,"Ġrespectively":12282,"Ġbraised":12283,"Ġbrutal":12284,"Ġoccupied":12285,"Ġicelandair":12286,"Ġcatering":12287,"Ġplantation":12288,"Ġhotdog":12289,"Ġsplend":12290,"Ġavenida":12291,"Ġlaurel":12292,"Ġcarpenters":12293,"Ġegyptian":12294,"ukasz":12295,"Ġfederal":12296,"Ġpunish":12297,"Ġbisque":12298,"Ġsightseeing":12299,"Ġavoiding":12300,"Ġconfidence":12301,"www":12302,"Ġflagship":12303,"Ġcohen":12304,"Ġqueue":12305,"Ġhorrible":12306,"wonder":12307,"Ġbleu":12308,"Ġmoscone":12309,"Ġsuburb":12310,"Ġsafety":12311,"beauty":12312,"Ġarrowood":12313,"Ġmonkeys":12314,"Ġanchorman":12315,"Ġlanguage":12316,"Ġrecognized":12317,"walled":12318,"Ġpyram":12319,"Ġposeidon":12320,"Ġnominee":12321,"Ġkathryn":12322,"Ġexpedition":12323,"Ġfundamental":12324,"Âłhotel":12325,"dryers":12326,"morgan":12327,"anthony":12328,"Ġhoodie":12329,"Ġpudding":12330,"Ġdarling":12331,"Ġloyal":12332,"Ġcommitted":12333,"Ġdrunken":12334,"Ġexpansive":12335,"Ġpromiscu":12336,"Ġsupremacy":12337,"osition":12338,"Ġviejo":12339,"Ġessential":12340,"Ġwasteland":12341,"Ġhavana":12342,"Ġlumineers":12343,"Ġgareth":12344,"Ġwhoopi":12345,"Ġnocturnal":12346,"Ġbodak":12347,"Ġventura":12348,"Ġcasablanca":12349,"Ġscheme":12350,"Ġmazzotti":12351,"Ġluggage":12352,"Ġinstallment":12353,"Ġmathematical":12354,"Ġadema":12355,"Ġwendy":12356,"Ġbendik":12357,"Ġbickerstaff":12358,"Ġinhabited":12359,"Ġnephew":12360,"Ġchronicles":12361,"Ġornate":12362,"Ġarboles":12363,"Ġsicilian":12364,"Ġoppressive":12365,"Ġvortigern":12366,"Ġintelligence":12367,"Ġsqueeze":12368,"Ġcrudup":12369,"Ġincredibly":12370,"Ġtemplar":12371,"Ġaeromexico":12372,"Ġskewers":12373,"Ġcilantro":12374,"tempo":12375,"ĠÅĤukasz":12376,"Ġhazard":12377,"Ġstolen":12378,"Ġflocka":12379,"Ġjavale":12380,"Ġjepsen":12381,"Ġamigos":12382,"Ġadolfo":12383,"Ġlazarus":12384,"Âłbromwich":12385,"Ġsabrina":12386,"Ġembrace":12387,"Ġdelicafe":12388,"accented":12389,"Ġimmigr":12390,"Ġredbulls":12391,"Ġscrambled":12392,"Ġengulfing":12393,"Ġzucchini":12394,"Ġoffspring":12395,"Ġbarbecued":12396,"Ġhanukkah":12397,"Ġjambalaya":12398,"Ġsubmarine":12399,"Ġcioppino":12400,"Ġcommissioner":12401,"Ġtambourine":12402,"Ġepisode":12403,"&-":12404,",\"":12405,"-&-":12406,".-":12407,"050":12408,"027":12409,"234":12410,"260":12411,"330":12412,"322":12413,"328":12414,"414":12415,"438":12416,"442":12417,"432":12418,"545":12419,"549":12420,"560":12421,"533":12422,"6000":12423,"614":12424,"627":12425,"647":12426,"642":12427,"690":12428,"71":12429,"72":12430,"728":12431,"781":12432,"825":12433,"858":12434,"838":12435,"831":12436,"8595":12437,"939":12438,"989":12439,"].":12440,"bow":12441,"but":12442,"bistro":12443,"brah":12444,"block":12445,"cs":12446,"cat":12447,"cce":12448,"case":12449,"cli":12450,"cream":12451,"crop":12452,"dr":12453,"dana":12454,"ei":12455,"ejas":12456,"fa":12457,"fx":12458,"fel":12459,"fed":12460,"gor":12461,"gade":12462,"gens":12463,"gulf":12464,"golf":12465,"ht":12466,"hur":12467,"horn":12468,"iberg":12469,"ioli":12470,"jk":12471,"jin":12472,"josh":12473,"kward":12474,"krist":12475,"katherine":12476,"lu":12477,"las":12478,"lar":12479,"lance":12480,"lily":12481,"lhr":12482,"mington":12483,"most":12484,"mstone":12485,"nan":12486,"nit":12487,"oz":12488,"ogn":12489,"pen":12490,"pur":12491,"powers":12492,"rne":12493,"rough":12494,"saw":12495,"south":12496,"sky":12497,"salito":12498,"talk":12499,"tario":12500,"uf":12501,"uge":12502,"ws":12503,"wan":12504,"wit":12505,"wash":12506,"wide":12507,"xus":12508,"yout":12509,"yne":12510,"zano":12511,"Ã³":12512,"ÅĦ":12513,"ÅĽ":12514,"Ġase":12515,"Ġantic":12516,"Ġervin":12517,"Ġtend":12518,"Ġtile":12519,"Ġtrench":12520,"Ġtrid":12521,"Ġtaraji":12522,"eras":12523,"eron":12524,"eration":12525,"Ġthrust":12526,"Ġibrah":12527,"asa":12528,"asar":12529,"asia":12530,"anted":12531,"antyne":12532,"oux":12533,"Ġaright":12534,"Ġaston":12535,"Ġachie":12536,"Ġaioli":12537,"usuf":12538,"Ġwanda":12539,"Ġoc":12540,"Ġoat":12541,"Ġoingo":12542,"Ġhir":12543,"Ġhtt":12544,"Ġhue":12545,"Ġhors":12546,"Ġhomb":12547,"Ġhrs":12548,"Ġhernandez":12549,"Ġyea":12550,"Ġyeap":12551,"atelle":12552,"rette":12553,"Ġfell":12554,"Ġfool":12555,"Ġfala":12556,"Ġfultz":12557,"Ġtheory":12558,"Ġsze":12559,"Ġsza":12560,"Ġct":12561,"Ġced":12562,"Ġcly":12563,"Ġcinn":12564,"Ġcesar":12565,"Ġpf":12566,"Ġpoyd":12567,"Ġlush":12568,"Ġlala":12569,"Ġlga":12570,"Ġmort":12571,"else":12572,"elia":12573,"Ġbish":12574,"Ġbount":12575,"Ġbatter":12576,"Ġbacco":12577,"oris":12578,"oramic":12579,"ingale":12580,"Ġanast":12581,"Ġtofu":12582,"Ġdal":12583,"Ġdane":12584,"Ġdwy":12585,"Ġdiced":12586,"Ġgat":12587,"Ġgam":12588,"Ġgail":12589,"Ġgrip":12590,"Ġgabb":12591,"Ġgatsby":12592,"ono":12593,"Ġnook":12594,"Ġnca":12595,"Ġnative":12596,"encing":12597,"thai":12598,"arnaud":12599,"Ġwhip":12600,"Ġincident":12601,"llo":12602,"Ġforge":12603,"omer":12604,"omar":12605,"Ġontario":12606,"ghai":12607,"edelic":12608,"rius":12609,"vette":12610,"Ġplun":12611,"Ġliz":12612,"Ġliam":12613,"Ġlime":12614,"Ġrelo":12615,"Ġrede":12616,"Ġrene":12617,"Ġrepl":12618,"Ġreef":12619,"Ġreconnect":12620,"Ġcanadian":12621,"icle":12622,"otos":12623,"Ġofelia":12624,"Ġmeyer":12625,"Ġmemento":12626,"urous":12627,"Ġnest":12628,"Ġnexus":12629,"cho":12630,"chow":12631,"chri":12632,"Ġdoable":12633,"Ġdoves":12634,"Ġthankyou":12635,"Ġrook":12636,"Ġrally":12637,"Ġraz":12638,"irst":12639,"eable":12640,"eazy":12641,"Ġstack":12642,"Ġstub":12643,"Ġstair":12644,"Ġstocked":12645,"Ġstunning":12646,"Ġmoor":12647,"Ġmoved":12648,"via":12649,"itos":12650,"Ġflow":12651,"Ġflown":12652,"Ġflutter":12653,"amy":12654,"iler":12655,"Ġchu":12656,"ĠchÃ":12657,"Ġchair":12658,"Ġchime":12659,"Ġchasing":12660,"Ġchiron":12661,"Ġhid":12662,"Ġbyrne":12663,"Ġjelly":12664,"Ġjusuf":12665,"Ġorson":12666,"Ġgoodman":12667,"inds":12668,"Ġsucks":12669,"Ġsuey":12670,"Ġkam":12671,"Ġkren":12672,"Ġkicked":12673,"Ġkroc":12674,"Ġ210":12675,"Ġ225":12676,"Ġabc":12677,"Ġabilities":12678,"asts":12679,"ested":12680,"estone":12681,"Ġalch":12682,"Ġalad":12683,"Ġalto":12684,"Ġalicia":12685,"Ġelem":12686,"Ġelisa":12687,"Ġelusive":12688,"Ġgoali":12689,"opsy":12690,"ailer":12691,"adina":12692,"Ġjulie":12693,"Ġjulia":12694,"Ġjumbo":12695,"Ġdivid":12696,"dern":12697,"Ġnostal":12698,"Ġnofx":12699,"Ġlog":12700,"Ġloco":12701,"Ġrestore":12702,"Ġalle":12703,"Ġallardy":12704,"Ġmut":12705,"Ġamass":12706,"Ġsovi":12707,"cona":12708,"Ġshout":12709,"Ġshun":12710,"Ġsheen":12711,"Ġshred":12712,"Ġshark":12713,"Ġshots":12714,"Ġshama":12715,"Ġlasting":12716,"Ġ417":12717,"Ġ401":12718,"Ġstarman":12719,"Ġstarred":12720,"ando":12721,"anded":12722,"byn":12723,"Ġarab":12724,"Ġspawn":12725,"Ġspiced":12726,"erset":12727,"Ġouting":12728,"Ġpreferring":12729,"feat":12730,"Ġenemies":12731,"Ġ311":12732,"Ġtwink":12733,"Ġtroops":12734,"Ġnightingale":12735,"oye":12736,"coach":12737,"geant":12738,"Ġdefiance":12739,"ulia":12740,"Ġconan":12741,"Ġconfer":12742,"Ġhemed":12743,"alifornia":12744,"Ġ780":12745,"Ġ758":12746,"Ġ757":12747,"Ġ789":12748,"Ġ781":12749,"Ġmang":12750,"Ġmanhood":12751,"Ġmankind":12752,"iaÅĦ":12753,"ineer":12754,"ateral":12755,"Ġasap":12756,"Ġcline":12757,"Ġclinton":12758,"Ġretired":12759,"Ġsiena":12760,"Ġsibling":12761,"Ġreturned":12762,"Ġbooker":12763,"Ġbookings":12764,"Ġlex":12765,"Ġlevy":12766,"Ġchecked":12767,"tton":12768,"gues":12769,"Ġ627":12770,"Ġ6770":12771,"Ġfees":12772,"Ġmarc":12773,"Ġmarie":12774,"Ġmarath":12775,"Ġmaroc":12776,"Ġmariza":12777,"Ġadvent":12778,"Ġadvert":12779,"Ġadmission":12780,"Ġunits":12781,"umi":12782,"umes":12783,"umed":12784,"umbers":12785,"Ġthinks":12786,"Ġlawyer":12787,"Ġlachow":12788,"Ġupper":12789,"Ġcurt":12790,"road":12791,"robert":12792,"Âł-":12793,"Âłz":12794,"Âłan":12795,"Âłright":12796,"Âłyour":12797,"Âłtr":12798,"Âłflight":12799,"Âłcont":12800,"Âłnon":12801,"Âłguardians":12802,"Âłplease":12803,"Ġ801":12804,"Ġ858":12805,"Ġhol":12806,"Ġhoiberg":12807,"Ġ207":12808,"Ġcavi":12809,"owns":12810,"agn":12811,"agger":12812,"agna":12813,"against":12814,"Ġbuchan":12815,"Ġwinston":12816,"Ġwinfl":12817,"Ġwinners":12818,"Ġboil":12819,"Ġboingo":12820,"Ġvas":12821,"Ġvau":12822,"Ġvod":12823,"Ġvardy":12824,"Ġwherever":12825,"Ġparc":12826,"Ġparisi":12827,"Ġparano":12828,"Ġparsons":12829,"306":12830,"Ġbreast":12831,"Ġawkward":12832,"beck":12833,"Ġwestfield":12834,"Ġbacks":12835,"Ġpix":12836,"Ġpigs":12837,"Ġexile":12838,"Ġexpert":12839,"Ġaddiction":12840,"Ġsabb":12841,"Ġdonatello":12842,"Ġemack":12843,"Ġemile":12844,"Ġsanity":12845,"fteen":12846,"olas":12847,"olous":12848,"olulu":12849,"guez":12850,"Ġfielder":12851,"Ġfifteen":12852,"153":12853,"Ġintense":12854,"Ġguster":12855,"Ġguide":12856,"Ġfritters":12857,"Ġrescu":12858,"Ġtomod":12859,"Ġkindness":12860,"Ġfranz":12861,"Ġthemed":12862,"Ġlayer":12863,"Ġpizzetta":12864,"Ġranger":12865,"Ġrango":12866,"lide":12867,"liatelle":12868,"Ġrogan":12869,"Ġroberto":12870,"Ġrobyn":12871,"Ġsaldana":12872,"Ġsalsalito":12873,"pero":12874,"Ġeager":12875,"Ġartif":12876,"ndergaard":12877,"Ġcorrectly":12878,"Ġviogn":12879,"Ġdeloris":12880,"Ġundercover":12881,"Ġmorial":12882,"accia":12883,"2015":12884,"ficient":12885,"Ġsettles":12886,"Ġ126":12887,"Ġphat":12888,"Ġphotos":12889,"ritic":12890,"Ġbale":12891,"abase":12892,"Ġpartners":12893,"Ġimages":12894,"Ġcarli":12895,"Ġcarond":12896,"Ġcarrey":12897,"Ġuntouchables":12898,"Ġearl":12899,"Ġ157":12900,"Ġredu":12901,"Ġredman":12902,"402":12903,"Ġfewest":12904,"Ġpokey":12905,"Ġgrass":12906,"Ġgravi":12907,"Ġfcs":12908,"Ġ1925":12909,"Ġ1908":12910,"Ġ1944":12911,"Ġ1954":12912,"Ġ1998":12913,"Ġ1986":12914,"Ġ1996":12915,"459":12916,"Ġgenetic":12917,"gerton":12918,"Ġswa":12919,"Ġparticip":12920,"Ġthrone":12921,"Ġsandals":12922,"Ġsandler":12923,"252":12924,"Ġatmospheric":12925,"Ġlarger":12926,"Ġgloria":12927,"557":12928,"Ġmanages":12929,"Ġmanagers":12930,"Ġscam":12931,"Ġscript":12932,"Ġregards":12933,"Ġregiment":12934,"Ġdishwash":12935,"351":12936,"352":12937,"353":12938,"051":12939,"Ġengineer":12940,"Ġdownload":12941,"Ġzen":12942,"Ġziti":12943,"Ġ1880":12944,"Ġ1882":12945,"Ġschm":12946,"Ġflatliners":12947,"Ġsacri":12948,"Ġwasher":12949,"Ġcharges":12950,"Ġoceanside":12951,"Ġslaughter":12952,"Ġmonstr":12953,"Ġ131":12954,"asha":12955,"ashing":12956,"Ġbaskin":12957,"Ġpalmdale":12958,"Ġatlas":12959,"Ġspotlight":12960,"Ġheadstrong":12961,"gany":12962,"Ġcheesecakes":12963,"Ġoffense":12964,"Ġnorwalk":12965,"Ġcareers":12966,"Ġchancell":12967,"Ġprada":12968,"Ġchained":12969,"Ġverde":12970,"Ġverify":12971,"Ġhadn":12972,"Ġgoldfield":12973,"Ġportob":12974,"Ġnaperville":12975,"Ġmaho":12976,"terrestrial":12977,"1400":12978,"Ġsprawling":12979,"Ġlupe":12980,"Ġluig":12981,"buron":12982,"Ġ238":12983,"sites":12984,"sitive":12985,"Ġrocks":12986,"Ġrocking":12987,"Ġ227":12988,"Ġusb":12989,"Ġusd":12990,"185":12991,"Ġsafeway":12992,"Ġeduc":12993,"Ġcompan":12994,"mined":12995,"enio":12996,"Ġwaterfall":12997,"Ġhappier":12998,"Ġmattresses":12999,"Ġ270":13000,"fcase":13001,"Ġtiburon":13002,"Ġcommerci":13003,"Ġsecure":13004,"Ġsuperpowers":13005,"Ġbrimstone":13006,"191":13007,"sident":13008,"visions":13009,"Ġkept":13010,"Ġunfortunate":13011,"Ġharper":13012,"Ġscreens":13013,"Ġfoes":13014,"mean":13015,"sworth":13016,"Ġdecades":13017,"Ġfairport":13018,"Ġbudwe":13019,"Ġsnake":13020,"Ġsource":13021,"Ġreality":13022,"Ġoakridge":13023,"Ġmidlands":13024,"Ġsweets":13025,"Ġsurvey":13026,"Ġmeaty":13027,"Ġjavier":13028,"Ġclosely":13029,"Ġforeign":13030,"Ġbowling":13031,"Ġhitter":13032,"Ġdaito":13033,"metrius":13034,"Ġdurham":13035,"denzel":13036,"284":13037,"288":13038,"Ġmonte":13039,"Ġdodger":13040,"Ġmajorly":13041,"Ġhandline":13042,"Ġsouthamptons":13043,"Ġides":13044,"272":13045,"278":13046,"Ġserial":13047,"Ġsergeant":13048,"Ġruston":13049,"Ġpico":13050,"Ġcapability":13051,"Ġastron":13052,"393":13053,"603":13054,"Ġcirca":13055,"Ġturmeric":13056,"Ġelegance":13057,"Ġappetit":13058,"261":13059,"Ġpanoramic":13060,"Ġbenn":13061,"Ġbenson":13062,"Ġmisery":13063,"office":13064,"Ġdanville":13065,"Ġbony":13066,"Ġlambs":13067,"ppard":13068,"Ġwallace":13069,"Ġraid":13070,"vite":13071,"Ġcourtyards":13072,"Ġariza":13073,"Ġmaxim":13074,"ezvous":13075,"Ġestelle":13076,"Ġowners":13077,"Ġtreasure":13078,"Ġsingapore":13079,"Ġduo":13080,"Ġbosses":13081,"468":13082,"Ġmurals":13083,"Ġmurders":13084,"Ġrobbie":13085,"Ġauthority":13086,"333":13087,"Ġspiderman":13088,"Ġuseful":13089,"Ġupgrade":13090,"Ġtriano":13091,"Ġtriada":13092,"Âłtheir":13093,"Ġresidential":13094,"Ġwaldor":13095,"Ġfacing":13096,"369":13097,"Ġbarbarella":13098,"Ġvoid":13099,"Ġvogel":13100,"Ġpartying":13101,"Ġmats":13102,"Ġmatri":13103,"Ġwildlife":13104,"Ġ494":13105,"Ġroadside":13106,"Ġmonths":13107,"ugged":13108,"Ġwarmly":13109,"Ġpeterborough":13110,"0800":13111,"Ġ2005":13112,"Ġreasons":13113,"Ġsurrounding":13114,"Ġskin":13115,"Ġcastaway":13116,"Ġcalvin":13117,"Ġpinata":13118,"Ġmotor":13119,"Ġ78722":13120,"Ġ78756":13121,"Ġvinaig":13122,"fying":13123,"Ġmaspero":13124,"Ġgirardi":13125,"Ġsusan":13126,"Ġreader":13127,"Ġcollusion":13128,"Ġcollateral":13129,"Ġmartial":13130,"Ġstevenson":13131,"Ġ34103":13132,"nectar":13133,"Ġmarkelle":13134,"nuts":13135,"Ã©e":13136,"Ã©es":13137,"Ġsyfy":13138,"Ġsyndergaard":13139,"Ġcameron":13140,"Ġcreedence":13141,"Ġlyric":13142,"Ġpsychedelic":13143,"Ġpierce":13144,"Ġfields":13145,"Ġwilmington":13146,"Ġsurvive":13147,"Ġhenley":13148,"Ġcollect":13149,"Ġgarfield":13150,"Ġgarrix":13151,"Ġrainy":13152,"Ġ1978":13153,"zingis":13154,"Ġhonolulu":13155,"Ġdefend":13156,"Ġhostiles":13157,"Ġcowell":13158,"Ġdreaming":13159,"Ġ366":13160,"boys":13161,"Ġtechnical":13162,"Ġcutting":13163,"Ġcutler":13164,"Ġdragic":13165,"iltr":13166,"Ġmandina":13167,"Ġmandatory":13168,"Ġtube":13169,"Ġmccorm":13170,"Ġequally":13171,"Ġcoleman":13172,"679":13173,"Ġillness":13174,"Ġceasar":13175,"Ġmassacre":13176,"Ġduckhorn":13177,"Ġroutine":13178,"Ġvenues":13179,"looking":13180,"Ġfestival":13181,"Ġkraut":13182,"Ġkissed":13183,"Ġhurts":13184,"Ġbryce":13185,"akabe":13186,"ĠfabiaÅĦ":13187,"Ġfabolous":13188,"Ġstripped":13189,"Âłmay":13190,"Ġtwisted":13191,"Ġhashbr":13192,"Ġfolks":13193,"Ġobsc":13194,"Ġoccas":13195,"Ġassociated":13196,"Ġcleaning":13197,"Ġflavor":13198,"Ġtamarack":13199,"Ġconstant":13200,"Ġprogressive":13201,"Ġlinguist":13202,"Ġ21211":13203,"Âłcur":13204,"Ġupdate":13205,"Ġsteps":13206,"Ġfocaccia":13207,"Ġbassnectar":13208,"Ġsocials":13209,"Ġexplores":13210,"Ġcarlson":13211,"Ġandrews":13212,"Ġdetermined":13213,"Ġinfiltr":13214,"Ġkygo":13215,"Ġkristof":13216,"Ġaguilar":13217,"zoey":13218,"Ġripley":13219,"Ġultimatum":13220,"Ġshipp":13221,"Ġleaning":13222,"Ġlukasz":13223,"Ġentirely":13224,"Ġpuppets":13225,"Ġsexes":13226,"Ġteddy":13227,"Ġporzingis":13228,"Ġreferences":13229,"Ġadvance":13230,"Ġtransferred":13231,"Ġoxygen":13232,"Ġshores":13233,"Ġemotion":13234,"Ġgraduation":13235,"Ġfulham":13236,"Ġaltered":13237,"Ġapocalyptic":13238,"Ġpistol":13239,"Ġemergency":13240,"Ġsalvat":13241,"Ġ02906":13242,"Ġthirteen":13243,"Ġbabies":13244,"Ġinviting":13245,"Ġpenthouses":13246,"Ġtasks":13247,"Ġhayek":13248,"Ġinfluential":13249,"Ġcorporate":13250,"Ġchainsaw":13251,"Ġexplorer":13252,"Ġblossoming":13253,"Ġbummer":13254,"Ġpressure":13255,"Ġresponders":13256,"Ġrodri":13257,"Ġscenes":13258,"Ġactivity":13259,"Ġtulsa":13260,"Ġreliving":13261,"Ġprisoner":13262,"Ġdevelops":13263,"Ġveterans":13264,"Ġakon":13265,"Ġcroce":13266,"Ġgilbert":13267,"Ġrevealed":13268,"Ġchesney":13269,"Ġshanghai":13270,"Ġarrangement":13271,"Ġcohorts":13272,"Ġbogota":13273,"Ġspeakerphone":13274,"Ġernest":13275,"Ġernesto":13276,"Ġastoria":13277,"Ġcordon":13278,"Ġbrentwood":13279,"Ġlitre":13280,"Ġarmada":13281,"Ġclaims":13282,"Âłmovie":13283,"Ġthrice":13284,"Ġkaabil":13285,"Ġdizzy":13286,"Ġawakened":13287,"Ġcarriage":13288,"Ġhoya":13289,"Ġdutton":13290,"Ġisaiah":13291,"Ġchesterfield":13292,"Ġkerlin":13293,"colored":13294,"Ġdemarco":13295,"Ġ91006":13296,"Ġcloverfield":13297,"graphy":13298,"Ġdisappoin":13299,"Ġfelipe":13300,"Ġerso":13301,"angelo":13302,"Ġirish":13303,"Ġdatabase":13304,"Ġdomestic":13305,"ensively":13306,"Ġmozart":13307,"Ġshaun":13308,"Ġuncaged":13309,"Ġhoffman":13310,"Ġrodeway":13311,"Ġgravy":13312,"Ġbriefcase":13313,"Ġmercenary":13314,"Ġaccomplished":13315,"Ġtagliatelle":13316,"Ġiraq":13317,"Ġhedges":13318,"Ġhulk":13319,"Ġleslie":13320,"Ġrendezvous":13321,"Ġseventeen":13322,"Ġjagged":13323,"Ġeugene":13324,"Âłanything":13325,"Ġexorcist":13326,"Ġcrumbling":13327,"Ġsupplying":13328,"Ġbulletin":13329,"Ġdinosaurs":13330,"Ġiberia":13331,"Ġpedro":13332,"Ġllc":13333,"Ġliberty":13334,"Ġsuzie":13335,"Ġ94965":13336,"Ġcaramelized":13337,"Ġpursuit":13338,"Ġimprisoned":13339,"Ġescalante":13340,"Ġevacuated":13341,"Ġmcconaughey":13342,"ĠjalapeÃ±os":13343,"midtown":13344,"Ġtireless":13345,"Ġhatches":13346,"Ġcassidy":13347,"Ġbilic":13348,"Ġraleigh":13349,"Ġstafford":13350,"Ġkusakabe":13351,"Ġmarquis":13352,"Âłperform":13353,"Ġhobbit":13354,"Ġemulsion":13355,"Ġsynchronicity":13356,"Ġmiddleton":13357,"ĠentrÃ©es":13358,"explicit":13359,"Ġcolleague":13360,"Ġgodzilla":13361,"Ġalexandria":13362,"Ġcategorized":13363,"Ġhabanero":13364,"Ġpromiscuous":13365,"Ġimmigrant":13366,"nitzel":13367,"youtube":13368,"Ġtrident":13369,"Ġachieve":13370,"Ġoatmeal":13371,"Ġhombres":13372,"Ġfalafel":13373,"Ġszechuan":13374,"Ġcinnam":13375,"Ġpoydras":13376,"Ġbishop":13377,"Ġbatteries":13378,"Ġanastasia":13379,"Ġdalton":13380,"Ġdwyane":13381,"Ġncaa":13382,"Ġplunge":13383,"Ġrenegade":13384,"Ġrookie":13385,"Ġkrennic":13386,"Ġgoalies":13387,"Ġnostalgic":13388,"Ġallardyce":13389,"Ġamasses":13390,"Ġtwinkle":13391,"Ġmarathon":13392,"Ġadventurous":13393,"Âłcontemporary":13394,"Ġwinflow":13395,"Ġvaughan":13396,"Ġvodka":13397,"Ġparisian":13398,"Ġrescuing":13399,"Ġtomodachi":13400,"Ġartifact":13401,"Ġviognier":13402,"Ġcarondelet":13403,"Ġgravity":13404,"Ġslaughterhouse":13405,"Ġmonstrous":13406,"Ġchancellor":13407,"Ġportobello":13408,"Ġmahogany":13409,"Ġluigi":13410,"Ġastronomer":13411,"Ġwaldorf":13412,"Ġvinaigrette":13413,"Ġmccormick":13414,"ĠfabiaÅĦski":13415,"Ġdisappointing":13416,"235":13417,"337":13418,"334":13419,"327":13420,"321":13421,"430":13422,"440":13423,"445":13424,"425":13425,"417":13426,"416":13427,"411":13428,"487":13429,"480":13430,"515":13431,"520":13432,"525":13433,"511":13434,"522":13435,"580":13436,"544":13437,"532":13438,"610":13439,"649":13440,"675":13441,"644":13442,"643":13443,"6142":13444,"73":13445,"759":13446,"746":13447,"731":13448,"8000":13449,"880":13450,"836":13451,"867":13452,"930":13453,"947":13454,"980":13455,"948":13456,"942":13457,"936":13458,"?'":13459,"aes":13460,"aid":13461,"bd":13462,"bus":13463,"blo":13464,"bath":13465,"card":13466,"cence":13467,"cord":13468,"cett":13469,"drill":13470,"dram":13471,"far":13472,"fit":13473,"fice":13474,"fresh":13475,"fuel":13476,"fonia":13477,"ging":13478,"got":13479,"gil":13480,"gary":13481,"gram":13482,"hd":13483,"hi":13484,"his":13485,"hit":13486,"hard":13487,"hare":13488,"hung":13489,"iad":13490,"ials":13491,"iara":13492,"ika":13493,"ija":13494,"jet":13495,"jago":13496,"jude":13497,"jones":13498,"jdu":13499,"kt":13500,"kate":13501,"koud":13502,"lon":13503,"len":13504,"lors":13505,"lho":13506,"lauri":13507,"mat":13508,"mers":13509,"mption":13510,"not":13511,"nice":13512,"ois":13513,"odge":13514,"oise":13515,"osing":13516,"put":13517,"pro":13518,"ples":13519,"possible":13520,"pacho":13521,"ran":13522,"rat":13523,"rink":13524,"racy":13525,"ranean":13526,"raine":13527,"ruti":13528,"sam":13529,"sday":13530,"sushi":13531,"sville":13532,"ssin":13533,"sully":13534,"saken":13535,"take":13536,"telling":13537,"uine":13538,"vant":13539,"voye":13540,"wo":13541,"wr":13542,"ware":13543,"yards":13544,"Ġ!":13545,"anin":13546,"ances":13547,"angon":13548,"Ġtak":13549,"Ġtack":13550,"Ġtip":13551,"Ġtark":13552,"Ġtired":13553,"eri":13554,"eres":13555,"eren":13556,"errill":13557,"erced":13558,"stle":13559,"start":13560,"stics":13561,"Ġthie":13562,"Ġigu":13563,"sio":13564,"sial":13565,"ounce":13566,"Ġaj":13567,"Ġaul":13568,"usole":13569,"usement":13570,"Ġwong":13571,"Ġweren":13572,"Ġoates":13573,"Ġolly":13574,"Ġhai":13575,"Ġhark":13576,"Ġhars":13577,"Ġhinch":13578,"Ġhaha":13579,"atr":13580,"review":13581,"inal":13582,"incl":13583,"inju":13584,"inelli":13585,"inella":13586,"Ġfaw":13587,"Ġfanta":13588,"Ġfumes":13589,"Ġyoure":13590,"Ġsas":13591,"Ġsade":13592,"Ġsamples":13593,"Ġcm":13594,"Ġcn":13595,"Ġcs":13596,"Ġcen":13597,"Ġcad":13598,"Ġcampton":13599,"Ġpon":13600,"Ġpoo":13601,"Ġpam":13602,"Ġpry":13603,"Ġpena":13604,"Ġpardon":13605,"Ġlatt":13606,"Ġmace":13607,"Ġmurs":13608,"Ġmante":13609,"Ġmussels":13610,"elie":13611,"Ġbals":13612,"Ġanxious":13613,"Ġtogar":13614,"Ġdere":13615,"Ġdude":13616,"Ġdata":13617,"Ġdumps":13618,"Ġduffy":13619,"essing":13620,"Ġgom":13621,"Ġgru":13622,"Ġgian":13623,"Ġgaz":13624,"Ġgert":13625,"Ġgloss":13626,"Ġgables":13627,"Ġgaff":13628,"onas":13629,"ontage":13630,"Ġnt":13631,"Ġnail":13632,"Ġnun":13633,"Ġnavi":13634,"Ġnelly":13635,"Ġnazi":13636,"Ġnkoud":13637,"envoye":13638,"thead":13639,"thouse":13640,"thetic":13641,"thusi":13642,"oof":13643,"aris":13644,"arage":13645,"arillo":13646,"Ġoka":13647,"Ġwhim":13648,"Ġisol":13649,"keh":13650,"keem":13651,"Ġinse":13652,"Ġincon":13653,"llar":13654,"Ġforth":13655,"Ġforbes":13656,"Ġforsaken":13657,"ombed":13658,"omatic":13659,"Ġonere":13660,"eda":13661,"riet":13662,"rising":13663,"riders":13664,"Ġplu":13665,"Ġplots":13666,"Ġlith":13667,"Ġwiig":13668,"Ġhelsin":13669,"Ġreb":13670,"Ġreopen":13671,"alph":13672,"alho":13673,"Ġcanon":13674,"iculous":13675,"Ġwhats":13676,"oti":13677,"Ġofcourse":13678,"Ġbeur":13679,"Ġbeard":13680,"Ġbeside":13681,"uro":13682,"urate":13683,"Ġneck":13684,"Ġneme":13685,"eteria":13686,"ndown":13687,"cha":13688,"change":13689,"churi":13690,"Ġdoz":13691,"Ġdock":13692,"Ġdope":13693,"cemi":13694,"lewis":13695,"Ġrach":13696,"Ġraces":13697,"Ġroot":13698,"Ġralph":13699,"eaway":13700,"isue":13701,"Ġatop":13702,"Ġwithers":13703,"Ġwithersp":13704,"Ġstam":13705,"Ġstall":13706,"Ġstup":13707,"Ġstakes":13708,"Ġstairs":13709,"Ġseals":13710,"Ġmoss":13711,"Ġmolit":13712,"Ġmoyes":13713,"Ġmocking":13714,"itori":13715,"sequent":13716,"Ġflick":13717,"Ġflume":13718,"Ġflacco":13719,"amind":13720,"amous":13721,"ilion":13722,"Ġplayground":13723,"Ġchal":13724,"Ġchart":13725,"Ġchun":13726,"Ġhide":13727,"Ġjah":13728,"Ġjeni":13729,"Ġjinju":13730,"Ġorb":13731,"Ġgoodies":13732,"Ġgoodnight":13733,"Ġefron":13734,"Ġecho":13735,"entions":13736,"entless":13737,"Ġkm":13738,"Ġkin":13739,"Ġkir":13740,"Ġkome":13741,"Ġkool":13742,"Ġkara":13743,"Ġkaylor":13744,"Ġkori":13745,"Ġkha":13746,"Ġkhan":13747,"Ġkesha":13748,"Ġ2406":13749,"Ġabru":13750,"aste":13751,"Ġgren":13752,"Ġgrew":13753,"Ġfrontage":13754,"Ġalta":13755,"Ġalberts":13756,"Ġalarm":13757,"Ġuch":13758,"Ġuzi":13759,"Ġelder":13760,"Ġgosp":13761,"opular":13762,"imated":13763,"imely":13764,"eller":13765,"Ġdill":13766,"Ġdigg":13767,"Ġdipp":13768,"Ġpreorder":13769,"Ġnoel":13770,"Ġnovill":13771,"Ġnoxious":13772,"Ġlore":13773,"Ġallian":13774,"Ġmuni":13775,"Ġmunic":13776,"Ġmuang":13777,"Ġmutton":13778,"Ġamate":13779,"Ġamanda":13780,"Ġamusement":13781,"Ġperd":13782,"Ġneedle":13783,"Ġsore":13784,"Ġsoil":13785,"Ġsober":13786,"utÃ©":13787,"utches":13788,"Ġsounding":13789,"conomy":13790,"Ġshus":13791,"Ġshame":13792,"Ġshane":13793,"Ġships":13794,"Ġsharon":13795,"Ġseek":13796,"Ġ450":13797,"Ġsurely":13798,"aining":13799,"force":13800,"Ġspices":13801,"Ġspinn":13802,"Ġspelling":13803,"Ġcov":13804,"Ġcoal":13805,"Ġcolo":13806,"Ġcorey":13807,"Ġcoerced":13808,"Ġoutta":13809,"Ġenlight":13810,"Ġensure":13811,"Ġenthusi":13812,"Ġ330":13813,"Ġ350":13814,"Ġ305":13815,"Ġ3000":13816,"Ġ322":13817,"Ġ328":13818,"Ġ346":13819,"queen":13820,"queline":13821,"Ġleaf":13822,"Ġtrash":13823,"Ġknox":13824,"Ġfirm":13825,"Ġwelsh":13826,"endetta":13827,"arten":13828,"Ġ560":13829,"Ġ521":13830,"Ġ542":13831,"gezo":13832,"geois":13833,"Ġdemon":13834,"Ġdemp":13835,"Ġdeicide":13836,"Ġnowhere":13837,"Ġconrad":13838,"Ġconcier":13839,"Ġheure":13840,"Ġheather":13841,"Ġheels":13842,"alizer":13843,"Ġ737":13844,"Ġmann":13845,"Ġmanass":13846,"Ġmanolo":13847,"Ġmanchuri":13848,"iago":13849,"aved":13850,"Ġaspar":13851,"Ġclassi":13852,"Ġclick":13853,"Ġclau":13854,"Ġclues":13855,"Ġcluel":13856,"Ġclif":13857,"Ġclancy":13858,"Ġclaudio":13859,"Ġclutches":13860,"Ġsid":13861,"Ġsibl":13862,"Ġbookstore":13863,"acker":13864,"Ġleb":13865,"Ġleppard":13866,"Ġ940":13867,"Ġminor":13868,"guire":13869,"guette":13870,"Ġ616":13871,"Ġ624":13872,"Ġwei":13873,"Ġfeist":13874,"Ġmara":13875,"Ġmarx":13876,"Ġmaria":13877,"Ġmarry":13878,"Ġmargin":13879,"Ġmarlin":13880,"dega":13881,"debra":13882,"Ġgotta":13883,"Ġadler":13884,"Ġunite":13885,"Ġunfold":13886,"umoto":13887,"neth":13888,"neck":13889,"neath":13890,"Ġlab":13891,"Ġlapt":13892,"Ġlabor":13893,"Ġlazer":13894,"Ġcomman":13895,"Ġquo":13896,"Ġupended":13897,"Ġuprising":13898,"rock":13899,"icana":13900,"Âł'":13901,"Âło":13902,"Âłch":13903,"Âłim":13904,"Âłbe":13905,"Âł20":13906,"Âłpl":13907,"Âłman":13908,"Âł11":13909,"Âł19":13910,"Âł27":13911,"Âł24":13912,"Âłste":13913,"Âłdon":13914,"Âłjohn":13915,"Âłnew":13916,"Âłyeah":13917,"Âłmini":13918,"Âłalright":13919,"Âłxxx":13920,"Âłagainst":13921,"erno":13922,"Ġbutton":13923,"Ġcabr":13924,"Ġcacio":13925,"Ġdiners":13926,"ager":13927,"agus":13928,"agata":13929,"Ġbund":13930,"Ġbucke":13931,"neral":13932,"Ġbark":13933,"Ġbarber":13934,"Ġbolly":13935,"Ġboasts":13936,"Ġbokeh":13937,"Ġbodega":13938,"Ġvance":13939,"Ġparade":13940,"Ġparlors":13941,"308":13942,"Ġbren":13943,"Ġbreed":13944,"ishi":13945,"Ġrecurring":13946,"Ġbackyard":13947,"Ġpiatt":13948,"Ġwatchful":13949,"zza":13950,"Ġexchange":13951,"Ġaddy":13952,"Ġpei":13953,"Ġpeele":13954,"Ġsage":13955,"Ġsaute":13956,"ĠsautÃ©":13957,"Ġdonald":13958,"ista":13959,"istence":13960,"aper":13961,"apin":13962,"apia":13963,"Ġamericana":13964,"Ġintentions":13965,"Ġguild":13966,"Ġguessing":13967,"Ġfrida":13968,"ordano":13969,"Ġprovisions":13970,"Ġresume":13971,"Ġtomb":13972,"Ġtomer":13973,"Ġrankings":13974,"lize":13975,"Ġroe":13976,"Ġrox":13977,"Ġroam":13978,"Ġroeth":13979,"Ġrocke":13980,"Ġopenly":13981,"Ġsalma":13982,"Ġeamon":13983,"ottos":13984,"Ġtypic":13985,"Ġtyrod":13986,"Ġhighlight":13987,"Ġarticle":13988,"tingly":13989,"Ġshoulder":13990,"aret":13991,"Ġaustr":13992,"ruce":13993,"ruck":13994,"rude":13995,"illac":13996,"Ġvista":13997,"Ġdelish":13998,"dog":13999,"dollar":14000,"Ġunderwood":14001,"Ġunderneath":14002,"Ġteaches":14003,"acs":14004,"acia":14005,"acris":14006,"Ġ122":14007,"Ġ1299":14008,"Ġ1260":14009,"Ġrio":14010,"Ġrising":14011,"Ġrida":14012,"Ġjoanna":14013,"Ġpicks":14014,"Ġfrancais":14015,"Ġbrusch":14016,"Ġphar":14017,"abo":14018,"Ġevenings":14019,"Ġcouches":14020,"Ġcouples":14021,"Ġburton":14022,"Ġeaten":14023,"Ġcashe":14024,"Ġcarpac":14025,"Ġuntimely":14026,"Ġ1530":14027,"ggio":14028,"Ġchoir":14029,"Ġreddy":14030,"Ġeconomical":14031,"Ġsearches":14032,"409":14033,"Ġfewer":14034,"aik":14035,"Ġpod":14036,"Ġpoe":14037,"Ġpoki":14038,"Ġpollo":14039,"classic":14040,"Ġbusinessman":14041,"Ġgrat":14042,"Ġgrade":14043,"Ġgrange":14044,"Ġgrape":14045,"Ġgracia":14046,"Ġ1922":14047,"Ġ1987":14048,"Ġ1946":14049,"Ġ1989":14050,"eeney":14051,"Ġappa":14052,"Ġappeared":14053,"Ġtravelodge":14054,"451":14055,"457":14056,"Ġangelo":14057,"mitage":14058,"Ġgenere":14059,"Ġgenuine":14060,"Ġtoto":14061,"Ġtotoro":14062,"Ġsweeney":14063,"plies":14064,"mances":14065,"Ġsmf":14066,"Ġbests":14067,"Ġdirects":14068,"god":14069,"Ġcrest":14070,"Ġlarb":14071,"ffany":14072,"Ġlongoria":14073,"Ġoverd":14074,"Ġovercome":14075,"Ġglam":14076,"Ġglazer":14077,"Ġglazed":14078,"552":14079,"555":14080,"Ġwarning":14081,"Ġseagate":14082,"Ġscars":14083,"Ġdesk":14084,"Ġdeslauri":14085,"Ġreginelli":14086,"insale":14087,"boi":14088,"357":14089,"053":14090,"057":14091,"Ġpointing":14092,"Ġminifridge":14093,"ipal":14094,"Ġpahl":14095,"Ġ148":14096,"Ġ1417":14097,"Ġzio":14098,"Ġzlat":14099,"who":14100,"Ġ1826":14101,"Ġ1806":14102,"Ġ1878":14103,"ression":14104,"Ġherb":14105,"Ġhermitage":14106,"Ġgalore":14107,"Ġcharlize":14108,"Ġsimilarly":14109,"Ġsimilarities":14110,"Ġroma":14111,"Ġrequires":14112,"Ġ170":14113,"Ġ1700":14114,"Ġsentence":14115,"Ġbaguette":14116,"Ġsmaller":14117,"Ġmonk":14118,"Ġdriven":14119,"Ġ241":14120,"atives":14121,"Ġconfirming":14122,"Ġsouthend":14123,"aux":14124,"auce":14125,"Ġsuggests":14126,"Ġcookery":14127,"Ġcontest":14128,"Ġcontadina":14129,"lley":14130,"Ġnorway":14131,"Ġnorris":14132,"163":14133,"1695":14134,"Ġdescended":14135,"Ġvera":14136,"Ġvert":14137,"Ġverti":14138,"Ġhimal":14139,"Ġscheduling":14140,"Ġfirestone":14141,"Ġpointe":14142,"Ġgyllen":14143,"Ġgrills":14144,"Ġhorizon":14145,"terranean":14146,"Ġhamilton":14147,"141":14148,"Ġlouise":14149,"Ġ303":14150,"ocracy":14151,"Ġ231":14152,"Ġ237":14153,"Ġguessed":14154,"Ġ282":14155,"Ġ28203":14156,"Ġlakewood":14157,"Ġwoodfour":14158,"Ġgiordano":14159,"Ġsynap":14160,"Ġsynthetic":14161,"491":14162,"495":14163,"Ġcinematic":14164,"Ġrelentless":14165,"Ġdrinking":14166,"Ġpurge":14167,"Ġstillberger":14168,"Ġcrop":14169,"Ġcros":14170,"Ġcrouch":14171,"Ġeditor":14172,"Ġedgerton":14173,"Ġstein":14174,"Ġsteely":14175,"Ġsteward":14176,"Ġorig":14177,"Ġoriental":14178,"Ġchildhood":14179,"Ġhopes":14180,"Ġ2600":14181,"minals":14182,"Ġbelle":14183,"Ġaccurate":14184,"Ġtiffany":14185,"Ġsheep":14186,"Ġexter":14187,"Ġextrem":14188,"Ġsuperstar":14189,"Ġbritt":14190,"193":14191,"Ġlowriders":14192,"Ġlunches":14193,"Ġmetric":14194,"sided":14195,"arsenal":14196,"Ġkeane":14197,"Ġkeaton":14198,"Ġharley":14199,"Ġharwood":14200,"Ġsettings":14201,"Ġfog":14202,"Ġfoie":14203,"meg":14204,"meyer":14205,"Ġweathered":14206,"Ġ2901":14207,"Ġ95401":14208,"Ġ95928":14209,"Ġhustle":14210,"Ġsnl":14211,"Ġoaksh":14212,"Ġsweeping":14213,"Ġerrors":14214,"Ġremem":14215,"Ġtownhouse":14216,"keeping":14217,"Ġjavi":14218,"Ġjaanu":14219,"Ġentangled":14220,"Ġentombed":14221,"aney":14222,"Ġpadre":14223,"Ġgreenhouse":14224,"Ġbillboards":14225,"221":14226,"223":14227,"Ġattacks":14228,"373":14229,"374":14230,"375":14231,
[...]
