{"!":0,"\"":1,"#":2,"$":3,"%":4,"&":5,"'":6,"(":7,")":8,"*":9,"+":10,",":11,"-":12,".":13,"/":14,"0":15,"1":16,"2":17,"3":18,"4":19,"5":20,"6":21,"7":22,"8":23,"9":24,":":25,";":26,"<":27,"=":28,">":29,"?":30,"@":31,"A":32,"B":33,"C":34,"D":35,"E":36,"F":37,"G":38,"H":39,"I":40,"J":41,"K":42,"L":43,"M":44,"N":45,"O":46,"P":47,"Q":48,"R":49,"S":50,"T":51,"U":52,"V":53,"W":54,"X":55,"Y":56,"Z":57,"[":58,"\\":59,"]":60,"^":61,"_":62,"`":63,"a":64,"b":65,"c":66,"d":67,"e":68,"f":69,"g":70,"h":71,"i":72,"j":73,"k":74,"l":75,"m":76,"n":77,"o":78,"p":79,"q":80,"r":81,"s":82,"t":83,"u":84,"v":85,"w":86,"x":87,"y":88,"z":89,"{":90,"|":91,"}":92,"~":93,"¡":94,"¢":95,"£":96,"¤":97,"¥":98,"¦":99,"§":100,"¨":101,"©":102,"ª":103,"«":104,"¬":105,"®":106,"¯":107,"°":108,"±":109,"²":110,"³":111,"´":112,"µ":113,"¶":114,"·":115,"¸":116,"¹":117,"º":118,"»":119,"¼":120,"½":121,"¾":122,"¿":123,"À":124,"Á":125,"Â":126,"Ã":127,"Ä":128,"Å":129,"Æ":130,"Ç":131,"È":132,"É":133,"Ê":134,"Ë":135,"Ì":136,"Í":137,"Î":138,"Ï":139,"Ð":140,"Ñ":141,"Ò":142,"Ó":143,"Ô":144,"Õ":145,"Ö":146,"×":147,"Ø":148,"Ù":149,"Ú":150,"Û":151,"Ü":152,"Ý":153,"Þ":154,"ß":155,"à":156,"á":157,"â":158,"ã":159,"ä":160,"å":161,"æ":162,"ç":163,"è":164,"é":165,"ê":166,"ë":167,"ì":168,"í":169,"î":170,"ï":171,"ð":172,"ñ":173,"ò":174,"ó":175,"ô":176,"õ":177,"ö":178,"÷":179,"ø":180,"ù":181,"ú":182,"û":183,"ü":184,"ý":185,"þ":186,"ÿ":187,"Ā":188,"ā":189,"Ă":190,"ă":191,"Ą":192,"ą":193,"Ć":194,"ć":195,"Ĉ":196,"ĉ":197,"Ċ":198,"ċ":199,"Č":200,"č":201,"Ď":202,"ď":203,"Đ":204,"đ":205,"Ē":206,"ē":207,"Ĕ":208,"ĕ":209,"Ė":210,"ė":211,"Ę":212,"ę":213,"Ě":214,"ě":215,"Ĝ":216,"ĝ":217,"Ğ":218,"ğ":219,"Ġ":220,"ġ":221,"Ģ":222,"ģ":223,"Ĥ":224,"ĥ":225,"Ħ":226,"ħ":227,"Ĩ":228,"ĩ":229,"Ī":230,"ī":231,"Ĭ":232,"ĭ":233,"Į":234,"į":235,"İ":236,"ı":237,"Ĳ":238,"ĳ":239,"Ĵ":240,"ĵ":241,"Ķ":242,"ķ":243,"ĸ":244,"Ĺ":245,"ĺ":246,"Ļ":247,"ļ":248,"Ľ":249,"ľ":250,"Ŀ":251,"ŀ":252,"Ł":253,"ł":254,"Ń":255,"Ġt":256,"Ġa":257,"he":258,"in":259,"Ġthe":260,"er":261,"Ġs":262,"on":263,"re":264,"Ġ,":265,"Ġw":266,"Ġc":267,"Ġo":268,"ed":269,"Ġb":270,"nd":271,"Ġf":272,"at":273,"Ġ.":274,"Ġp":275,"or":276,"it":277,"is":278,"en":279,"Ġin":280,"Ġm":281,"an":282,"es":283,"ar":284,"Ġof":285,"al":286,"as":287,"ing":288,"Ġd":289,"Ġh":290,"Ġand":291,"Ġto":292,"ro":293,"ic":294,"Ġl":295,"ion":296,"ou":297,"ĠĊ":298,"Ġn":299,"Ġre":300,"il":301,"Ġth":302,"Ġg":303,"Ġe":304,"Ġ=":305,"le":306,"ent":307,"Ġ\"":308,"Ġ1":309,"st":310,"el":311,"Ġ@":312,"am":313,"om":314,"Ġon":315,"ac":316,"ad":317,"Ġwas":318,"Ġst":319,"Ġbe":320,"Ġhe":321,"us":322,"ur":323,"Ġfor":324,"ly":325,"Ġ'":326,"id":327,"im":328,"ol":329,"ig":330,"ir":331,"ter":332,"Ġas":333,"iv":334,"-@":335,"Ġ@-@":336,"ot":337,"ct":338,"ay":339,"ut":340,"et":341,"ow":342,"Ġr":343,"ith":344,"un":345,"Ġal":346,"Ġ2":347,"Ġwith":348,"Ġthat":349,"ver":350,"ce":351,"Ġwh":352,"ation":353,"Ġit":354,"ch":355,"Ġat":356,"Ġis":357,"Ġan":358,"Ġj":359,"ist":360,"Ġby":361,"Ġcon":362,"Ġse":363,"Ġde":364,"Ġk":365,"th":366,"Ġv":367,"ul":368,"Ġ(":369,"Ġ)":370,"ers":371,"Ġch":372,"and":373,"rom":374,"av":375,"ain":376,"ant":377,"em":378,"os":379,"Ġ19":380,"her":381,"Ġy":382,"ag":383,"um":384,"est":385,"00":386,"Ġcom":387,"Ġhis":388,"od":389,"Ġfrom":390,"ri":391,"Ġpro":392,"Ġsu":393,"pe":394,"Ġne":395,"if":396,"ld":397,"ill":398,"igh":399,"ore":400,"Ġsh":401,"ap":402,"Ġpl":403,"op":404,"ere":405,"res":406,"ass":407,"Ġro":408,"Ġor":409,"ies":410,"qu":411,"art":412,"ard":413,"ak":414,"ber":415,"ich":416,"Ġex":417,"ate":418,"Ġwere":419,"all":420,"ort":421,"Ġun":422,"Ġle":423,"ab":424,"se":425,"Ġu":426,"ud":427,"oc":428,"ong":429,"gh":430,"ated":431,"ity":432,"ess":433,"ame":434,"ie":435,"ip":436,"Ġar":437,"ive":438,"Ġtr":439,"our":440,"Ġare":441,"Ġhad":442,"Ġâ":443,"ack":444,"ast":445,"Ġi":446,"ight":447,"ĠâĢ":448,"red":449,"rou":450,"Ġwhich":451,"ge":452,"ov":453,"ment":454,"Ġnot":455,"ian":456,"Ġaf":457,"ial":458,"ell":459,"pt":460,"ost":461,"ave":462,"Ġcl":463,"ia":464,"ust":465,"Ġwhe":466,"ine":467,"ary":468,"Ġwor":469,"Ġ3":470,"ther":471,"pp":472,"cl":473,"rit":474,"ould":475,"Ġad":476,"oun":477,"Ġsc":478,"ical":479,"Ġus":480,"Ġthis":481,"Ġen":482,"cc":483,"Ġbut":484,"Ġcomp":485,"ord":486,"ction":487,"Ġfir":488,"Ġab":489,"Ġher":490,"Ġtw":491,"Ġ200":492,"te":493,"Ġfirst":494,"Ġone":495,"ish":496,"Ġafter":497,"Ġcont":498,"ous":499,"Ġte":500,"ide":501,"so":502,"Ġam":503,"Ġtheir":504,"Ġall":505,"Ġsp":506,"ok":507,"Ġ20":508,"Ġnew":509,"ure":510,"Ġits":511,"ign":512,"Ġman":513,"ome":514,"Ġthey":515,"Ġper":516,"istant":517,"per":518,"out":519,"Ġ;":520,"ra":521,"ition":522,"Ġint":523,"Ġalso":524,"Ġhave":525,"Ġtim":526,"Ġmar":527,"ond":528,"ub":529,"ĠâĢĵ":530,"ater":531,"Ġgo":532,"og":533,"assistant":534,"ru":535,"ear":536,"Ġshe":537,"Ġres":538,"orm":539,"Ġ:":540,"ke":541,"Ġrec":542,"age":543,"ry":544,"Ġser":545,"ire":546,"Ġ4":547,"Ġtwo":548,"Ġwho":549,"Ġag":550,"Ġfe":551,"hed":552,"ue":553,"Ġpart":554,"Ġplay":555,"Ġ5":556,"ree":557,"Ġme":558,"Ġcomm":559,"du":560,"Ġdes":561,"ans":562,"ally":563,"ice":564,"ff":565,"Ġbec":566,"Ġcan":567,"Ġwe":568,"Ġdis":569,"ance":570,"ile":571,"ult":572,"own":573,"Ġhas":574,"Ġ18":575,"pl":576,"Ġover":577,".@":578,"Ġ@.@":579,"iz":580,"user":581,"Ġoff":582,"Ġyear":583,"ence":584,"Ġco":585,"act":586,"Ġyou":587,"ound":588,"uring":589,"Ġbeen":590,"ect":591,"Ġother":592,"Ġout":593,"ace":594,"Ġ201":595,"Ġim":596,"Ġfin":597,"Ġpre":598,",@":599,"Ġ@,@":600,"ough":601,"Ġfl":602,"are":603,"Ġwould":604,"Ġcol":605,"Ġup":606,"ely":607,"ations":608,"ach":609,"ory":610,"Ġpr":611,"clud":612,"Ġbo":613,"Ġinter":614,"ail":615,"Ġev":616,"Ġwhen":617,"land":618,"Ġtime":619,"wn":620,"ib":621,"ions":622,"Ġspe":623,"urn":624,"ade":625,"ress":626,"ted":627,"Ġduring":628,"ick":629,"Ġsec":630,"Ġap":631,"Ġinclud":632,"ced":633,"Ġbr":634,"ens":635,"one":636,"man":637,"Ġfil":638,"Ġind":639,"nder":640,"we":641,"ward":642,"ang":643,"Ġinto":644,"ts":645,"ite":646,"Ġbl":647,"Ġhim":648,"Ġ6":649,"Ġhow":650,"Ġmore":651,"ase":652,"Ġatt":653,"ks":654,"ates":655,"Ġqu":656,"able":657,"Ġear":658,"oll":659,"ren":660,"ces":661,"Ġthan":662,"Ġpe":663,"Ġjo":664,"Ġli":665,"Ġwar":666,"ited":667,"Ġcent":668,"ased":669,"Ġchar":670,"Ġthere":671,"amp":672,"Ġbet":673,"Ġfilm":674,"Ġrep":675,"ied":676,"Ġ7":677,"rough":678,"way":679,"form":680,"Ġgr":681,"ount":682,"les":683,"Ġgame":684,"Ġform":685,"fer":686,"ose":687,"reat":688,"ings":689,"ors":690,"ric":691,"Ġpo":692,"Ġso":693,"ason":694,"Ġkn":695,"Ġmus":696,"aw":697,"Ġno":698,"ember":699,"Ġwhile":700,"ake":701,"Ġacc":702,"ve":703,"ck":704,"vel":705,"Ġmost":706,"ild":707,"ind":708,"Ġfr":709,"Ġabout":710,"Ġpar":711,"Ġsong":712,"old":713,"Ġcar":714,"Ġdo":715,"Ġ8":716,"att":717,"Ġrem":718,"Ġagain":719,"Ġass":720,"Ġnor":721,"Ġgen":722,"ered":723,"Ġsou":724,"Ġem":725,"ious":726,"ood":727,"Ġsome":728,"Ġcons":729,"ents":730,"aus":731,"Ġlater":732,"round":733,"iss":734,"Ġbu":735,"Ġret":736,"Ġact":737,"Ġ9":738,"Ġonly":739,"Ġreg":740,"Ġmay":741,"Ġunder":742,"ft":743,"Ġprodu":744,"gan":745,"ne":746,"Ġwork":747,"rib":748,"ved":749,"Ġthem":750,"Ġthree":751,"Ġday":752,"Ġver":753,"Ġsy":754,"als":755,"ters":756,"ix":757,"Ġmin":758,"Ġsecond":759,"ubl":760,"ween":761,"ath":762,"Ġ199":763,"Ġbetween":764,"Ġmov":765,"ph":766,"Ġhigh":767,"ollow":768,"oth":769,"Ġrecord":770,"eric":771,"ons":772,"Ġbro":773,"Ġthrough":774,"Ġeng":775,"hip":776,"Ġmon":777,"Ġrele":778,"Ġfollow":779,"Ġma":780,"ational":781,"Ġapp":782,"fore":783,"Ġrel":784,"Ġph":785,"Ġwill":786,"Ġend":787,"ton":788,"Ġair":789,"Ġnum":790,"iew":791,"ll":792,"ug":793,"ict":794,"Ġac":795,"Ġsub":796,"Ġele":797,"Ġpres":798,"Ġsa":799,"Ġimp":800,"Ġfour":801,"Ġ00":802,"Ġalb":803,"Ġseason":804,"Ġed":805,"Ġameric":806,"Ġpos":807,"Ġwhere":808,"Ġdef":809,"Ġep":810,"ating":811,"Ġworld":812,"ning":813,"Ġnorth":814,"Ġlike":815,"Ġinc":816,"Ġent":817,"Ġteam":818,"ular":819,"Ġbefore":820,"Ġspec":821,"Ġloc":822,"ral":823,"cted":824,"ames":825,"Ġgu":826,"Ġsm":827,"Ġlar":828,"Ġmade":829,"Ġwrit":830,"Ġdr":831,"Ġarm":832,"hes":833,"Ġsch":834,"ision":835,"ived":836,"son":837,"Ġsuch":838,"Ġcap":839,"Ġsur":840,"Ġpol":841,"Ġsing":842,"Ġalbum":843,"Ġ10":844,"Ġpubl":845,"Ġcall":846,"Ġ000":847,"ished":848,"Ġshow":849,"io":850,"Ġsever":851,"Ġback":852,"Ġyears":853,"ained":854,"Ġadd":855,"ics":856,"iel":857,"ode":858,"Ġthen":859,"Ġsupp":860,"Ġrev":861,"ever":862,"Ġboth":863,"tern":864,"Ġsouth":865,"Ġwell":866,"Ġagainst":867,"ident":868,"Ġfound":869,"ros":870,"ual":871,"Ġlo":872,"Ġ/":873,"Ġgener":874,"ily":875,"ific":876,"Ġinv":877,"ale":878,"ute":879,"Ġhowever":880,"Ġcount":881,"Ġdec":882,"Ġappe":883,"Ġset":884,"Ġepis":885,"Ġused":886,"Ġthese":887,"Ġrece":888,"Ġmill":889,"Ġany":890,"orn":891,"Ġbeing":892,"ury":893,"Ġmany":894,"Ġmet":895,"Ġcity":896,"Ġwhat":897,"Ġhel":898,"Ġstud":899,"ten":900,"Ġz":901,"Ġseries":902,"Ġmusic":903,"Ġbatt":904,"ank":905,"Ġste":906,"Ġop":907,"Ġnumber":908,"Ġinst":909,"ife":910,"Ġcharac":911,"Ġsim":912,"other":913,"Ġlong":914,"Ġ17":915,"Ġmat":916,"Ġbel":917,"Ġlead":918,"Ġ0":919,"velop":920,"Ġperform":921,"Ġmain":922,"ane":923,"Ġdid":924,"end":925,"Ġter":926,"int":927,"Ġunited":928,"Ġcre":929,"Ġdep":930,"Ġart":931,"ool":932,"oy":933,"ause":934,"ince":935,"Ġbrit":936,"ars":937,"Ġdire":938,"ert":939,"Ġsl":940,"Ġdevelop":941,"Ġbecame":942,"Ġseveral":943,"au":944,"Ġhist":945,"igin":946,"hn":947,"Ġincluding":948,"Ġmil":949,"ather":950,"air":951,"Ġship":952,"Ġexp":953,"ĠâĢĶ":954,"der":955,"ier":956,"Ġ12":957,"ise":958,"Ġstate":959,"Ġ15":960,"Ġearly":961,"Ġinf":962,"ork":963,"ines":964,"Ġdiv":965,"Ġorigin":966,"ower":967,"Ġpop":968,"ised":969,"Ġob":970,"vern":971,"Ġ198":972,"Ġtrans":973,"Ġel":974,"Ġwin":975,"und":976,"its":977,"ley":978,"ures":979,"ired":980,"Ġreturn":981,"ement":982,"ject":983,"Ġcould":984,"Ġnov":985,"Ġpers":986,"uch":987,"rop":988,"Ġ194":989,"ities":990,"iet":991,"anc":992,"az":993,"Ġcontin":994,"Ġgovern":995,"Ġok":996,"Ġdist":997,"olog":998,"ful":999,"Ġprov":1000,"roup":1001,"Ġ$":1002,"elf":1003,"led":1004,"Ġcr":1005,"Ġamerican":1006,"Ġcrit":1007,"Ġjohn":1008,"Ġsaid":1009,"Ġepisode":1010,"Ġstates":1011,"ird":1012,"Ġke":1013,"ross":1014,"Ġdif":1015,"ared":1016,"Ġstr":1017,"Ġfollowing":1018,"Ġest":1019,"Ġ16":1020,"Ġconst":1021,"Ġdesign":1022,"Ġgroup":1023,"iver":1024,"ock":1025,"ty":1026,"ouse":1027,"Ġdown":1028,"Ġnear":1029,"Ġ11":1030,"Ġmed":1031,"Ġjun":1032,"Ġwest":1033,"ative":1034,"Ġunt":1035,"Ġrun":1036,"Ġdesc":1037,"Ġserv":1038,"ys":1039,"na":1040,"Ġoper":1041,"Ġaust":1042,"Ġking":1043,"ield":1044,"Ġknown":1045,"Ġalth":1046,"Ġcomple":1047,"ivers":1048,"tend":1049,"Ġalthough":1050,"Ġgreat":1051,"Ġmod":1052,"Ġhelp":1053,"Ġjust":1054,"Ġbar":1055,"ually":1056,"Ġsign":1057,"Ġger":1058,"Ġpass":1059,"Ġ197":1060,"Ġland":1061,"ople":1062,"emb":1063,"ron":1064,"Ġfam":1065,"row":1066,"Ġcalled":1067,"Ġ196":1068,"ange":1069,"ting":1070,"Ġuntil":1071,"Ġfeat":1072,"Ġopen":1073,"ued":1074,"Ġbegan":1075,"ah":1076,"gr":1077,"ined":1078,"Ġclass":1079,"Ġoffic":1080,"xt":1081,"Ġeff":1082,"Ġdisc":1083,"aking":1084,"ism":1085,"ern":1086,"Ġhar":1087,"Ġbecause":1088,"Ġalong":1089,"Ġokay":1090,"Ġown":1091,"ins":1092,"Ġschool":1093,"Ġport":1094,"Ġpeople":1095,"ided":1096,"Ġreleased":1097,"Ġwee":1098,"Ġnational":1099,"ger":1100,"ccess":1101,"ized":1102,"Ġif":1103,"up":1104,"iam":1105,"Ġprev":1106,"Ġthough":1107,"uc":1108,"Ġmaj":1109,"ner":1110,"ists":1111,"ull":1112,"ured":1113,"Ġgre":1114,"Ġins":1115,"stem":1116,"Ġever":1117,"Ġrest":1118,"Ġla":1119,"ments":1120,"ially":1121,"ution":1122,"Ġav":1123,"Ġcour":1124,"ium":1125,"Ġann":1126,"Ġbre":1127,"Ġcolle":1128,"Ġcor":1129,"Ġmillion":1130,"osed":1131,"Ġaround":1132,"Ġbest":1133,"cept":1134,"Ġhead":1135,"Ġ13":1136,"Ġsystem":1137,"Ġbook":1138,"Ġlast":1139,"Ġbritish":1140,"Ġju":1141,"Ġge":1142,"Ġsince":1143,"Ġaug":1144,"ets":1145,"Ġsix":1146,"Ã©":1147,"Ġadv":1148,"ark":1149,"Ġaut":1150,"Ġmajor":1151,"Ġlife":1152,"Ġmy":1153,"Ġaward":1154,"hing":1155,"Ġtri":1156,"Ġstart":1157,"ible":1158,"gest":1159,"Ġeach":1160,"Ġsept":1161,"Ġconf":1162,"any":1163,"ains":1164,"Ġsuccess":1165,"Ġsame":1166,"Ġattack":1167,"oot":1168,"Ġaugust":1169,"Ġseptember":1170,"Ġvar":1171,"Ġdescrib":1172,"Ġty":1173,"Ġcharacter":1174,"Ġuse":1175,"Ġanother":1176,"aving":1177,"amed":1178,"els":1179,"ont":1180,"Ġeast":1181,"rap":1182,"Ġfive":1183,"Ġroad":1184,"ik":1185,"Ġgood":1186,"Ġ14":1187,"Ġsw":1188,"Ġlit":1189,"Ġcare":1190,"aced":1191,"Ġfinal":1192,"Ġoct":1193,"ris":1194,"Ġline":1195,"Ġresult":1196,"Ġsupport":1197,"Ġocc":1198,"Ġdem":1199,"Ġgl":1200,"Ġold":1201,"aining":1202,"Ġmuch":1203,"Ġpublic":1204,"Ġprom":1205,"Ġplace":1206,"Ġbuild":1207,"Ġkm":1208,"Ġra":1209,"enn":1210,"Ġext":1211,"Ġconc":1212,"Ġband":1213,"ink":1214,"ove":1215,"Ġaustral":1216,"Ġ195":1217,"Ġarea":1218,"Ġhouse":1219,"Ġcamp":1220,"Ġtook":1221,"Ġsmall":1222,"ues":1223,"Ġche":1224,"Ġgerman":1225,"ep":1226,"Ġmid":1227,"ble":1228,"get":1229,"ants":1230,"ob":1231,"ann":1232,"ives":1233,"Ġcentury":1234,"Ġ193":1235,"Ġreport":1236,"Ġconsid":1237,"ober":1238,"Ġstre":1239,"Ġmarch":1240,"Ġturn":1241,"Ġgames":1242,"Ġoctober":1243,"Ġreceived":1244,"uss":1245,"Ġpartic":1246,"by":1247,"Ġunivers":1248,"Ġcontro":1249,"Ġright":1250,"Ġhome":1251,"Ġperson":1252,"ility":1253,"Ġsk":1254,"Ġnow":1255,"over":1256,"Ġjune":1257,"ically":1258,"Ġdirect":1259,"Ġ191":1260,"Ġref":1261,"Ġshort":1262,"Ġarr":1263,"tle":1264,"Ġhal":1265,"Ġdue":1266,"ina":1267,"ately":1268,"Ġgovernment":1269,"ril":1270,"Ġway":1271,"ians":1272,"Ġleg":1273,"cess":1274,"ene":1275,"gin":1276,"Ġes":1277,"Ġjan":1278,"Ġyork":1279,"Ġcommand":1280,"Ġjuly":1281,"Ġcur":1282,"omet":1283,"Ġthird":1284,"Ġ]":1285,"ored":1286,"Ġdel":1287,"Ġmen":1288,"Ġ[":1289,"Ġmag":1290,"Ġsqu":1291,"ime":1292,"Ġsound":1293,"Ġmark":1294,"iving":1295,"Ġsingle":1296,"Ġreview":1297,"Ġgeneral":1298,"Ġcal":1299,"Ġdiffer":1300,"Ġchild":1301,"che":1302,"Ġtit":1303,"Ġstar":1304,"ission":1305,"Ġapril":1306,"Ġeven":1307,"urch":1308,"Ġcapt":1309,"Ġnext":1310,"Ġ%":1311,"Ġnovember":1312,"pect":1313,"ash":1314,"Ġplayed":1315,"Ġtrack":1316,"ague":1317,"Ġlarge":1318,"Ġdeath":1319,"Ġtop":1320,"Ġisland":1321,"lish":1322,"Ġpark":1323,"raft":1324,"uary":1325,"Ġevent":1326,"Ġvide":1327,"Ġlos":1328,"Ġfur":1329,"Ġvers":1330,"Ġsoc":1331,"uro":1332,"Ġdam":1333,"Ġdece":1334,"Ġtown":1335,"Ġbattle":1336,"Ġpower":1337,"ctions":1338,"Ġaccord":1339,"Ġleft":1340,"ural":1341,"idge":1342,"ional":1343,"Ġ30":1344,"Ġcast":1345,"Ġintern":1346,"Ġpat":1347,"ient":1348,"ively":1349,"bo":1350,"Ġallow":1351,"Ġgun":1352,"Ġmor":1353,"Ġstory":1354,"Ġfamily":1355,"Ġmonth":1356,"Ġkill":1357,"ilt":1358,"Ġbased":1359,"Ġvis":1360,"Ġappro":1361,"aim":1362,"ms":1363,"min":1364,"ven":1365,"mber":1366,"Ġaddition":1367,"Ġblack":1368,"Ġred":1369,"Ġvict":1370,"Ġant":1371,"Ġname":1372,"ales":1373,"Ġincre":1374,"Ġexpl":1375,"Ġdecember":1376,"ified":1377,"Ġ25":1378,"Ġwon":1379,"Ġcompany":1380,"Ġlaw":1381,"Ġarmy":1382,"ony":1383,"Ġclub":1384,"avy":1385,"empt":1386,"eng":1387,"Ġhistory":1388,"rote":1389,"ats":1390,"Ġjanuary":1391,"ling":1392,"Ġang":1393,"Ġwant":1394,"Ġwater":1395,"Ġsee":1396,"Ġriver":1397,"Ġtimes":1398,"Ġpost":1399,"Ġincluded":1400,"Ġstorm":1401,"Ġaccording":1402,"..":1403,"Ġwom":1404,"ball":1405,"Ġhot":1406,"Ġthose":1407,"rist":1408,"Ġled":1409,"Ġvery":1410,"Ġir":1411,"Ġwind":1412,"Ġ192":1413,"bert":1414,"Ġhand":1415,"ograp":1416,"apan":1417,"Ġfind":1418,"aged":1419,"Ġrequ":1420,"inc":1421,"Ġmake":1422,"Ġwrote":1423,"Ġii":1424,"Ġjapan":1425,"Ġval":1426,"ently":1427,"Ġhum":1428,"port":1429,"Ġorgan":1430,"Ġwithin":1431,"ages":1432,"erg":1433,"Ġleague":1434,"Ġorder":1435,"Ġresp":1436,"ience":1437,"ract":1438,"Ġlist":1439,"Ġstru":1440,"Ġopp":1441,"Ġfar":1442,"Ġstand":1443,"Ġbus":1444,"Ġ...":1445,"ster":1446,"Ġvideo":1447,"Ġprevious":1448,"Ġlook":1449,"ital":1450,"Ġposs":1451,"app":1452,"Ġposition":1453,"ps":1454,"ody":1455,"Ġappear":1456,"Ġstill":1457,"med":1458,"Ġrad":1459,"Ġdescribed":1460,"Ġfore":1461,"Ġinit":1462,"Ġeuro":1463,"Ġlate":1464,"ott":1465,"ides":1466,"Ġchamp":1467,"Ġdeb":1468,"Ġbill":1469,"omin":1470,"ney":1471,"Ġnamed":1472,"ences":1473,"Ġmemb":1474,"Ġbelie":1475,"Ġview":1476,"erv":1477,"ilar":1478,"bru":1479,"Ġoriginal":1480,"Ġrelease":1481,"Ġneed":1482,"Ġrom":1483,"Ġamong":1484,"por":1485,"ness":1486,"Ġx":1487,"Ġdet":1488,"Ġfurther":1489,"Ġattempt":1490,"iven":1491,"Ġeffect":1492,"Ġrepl":1493,"Ġfoot":1494,"mer":1495,"Ġdest":1496,"Ġlet":1497,"ption":1498,"Ġtake":1499,"arch":1500,"rench":1501,"Ġforce":1502,"Ġreal":1503,"cy":1504,"ister":1505,"Ġtele":1506,"ention":1507,"Ġiss":1508,"Ġroute":1509,"ival":1510,"bruary":1511,"Ġnight":1512,"Ġfebruary":1513,"aff":1514,"ret":1515,"iod":1516,"Ġ100":1517,"Ġbas":1518,"Ġcy":1519,"Ġfri":1520,"Ġcommun":1521,"Ġexper":1522,"Ġwhite":1523,"Ġdays":1524,"ior":1525,"Ġproduction":1526,"ĠÂ":1527,"Ġsimilar":1528,"Ġspecies":1529,"Ġmembers":1530,"ached":1531,"Ġplan":1532,"Ġconstru":1533,"Ġpolit":1534,"pend":1535,"Ġcoun":1536,"Ġchrist":1537,"Ġtour":1538,"Ġformer":1539,"Ġer":1540,"Ġmilit":1541,"Ġ&":1542,"akes":1543,"Ġfle":1544,"Ġside":1545,"yal":1546,"Ġpa":1547,"br":1548,"Ġinfl":1549,"ances":1550,"Ġdivision":1551,"Ġnort":1552,"Ġwat":1553,"Ġsold":1554,"Ġmatch":1555,"Ġperiod":1556,"ple":1557,"Ġsay":1558,"Ġsuper":1559,"Ġbuilt":1560,"aken":1561,"Ġservice":1562,"Ġrock":1563,"vers":1564,"Ġtem":1565,"Ġtot":1566,"ched":1567,"Ġnat":1568,"Ġfrench":1569,"Ġuniversity":1570,"Ġpoint":1571,"Ġyoun":1572,"Ġprop":1573,"day":1574,"Ġheld":1575,"Ġeurope":1576,"Ġcle":1577,"Ġevery":1578,"Ġlight":1579,"hen":1580,"Ġlocal":1581,"Ġfew":1582,"Ġweek":1583,"Ġmo":1584,"Ġeas":1585,"Ġ21":1586,"Ġ2010":1587,"hor":1588,"Ġpresident":1589,"Ġestab":1590,"ec":1591,"Ġdesp":1592,"ax":1593,"Ġrole":1594,"augh":1595,"wards":1596,"ices":1597,"Ġflight":1598,"Ġpresent":1599,"uted":1600,"sh":1601,"Ġequ":1602,"tended":1603,"Ġfre":1604,"Ġsug":1605,"Ġcame":1606,"Ġnever":1607,"Ġbeh":1608,"Ġsum":1609,"ropical":1610,"Ġhaving":1611,"ford":1612,"Ġsol":1613,"ham":1614,"'s":1615,"self":1616,"Ġcaus":1617,"Ġwilliam":1618,"Ġcross":1619,"oci":1620,"ense":1621,"hy":1622,"Ġdifferent":1623,"Ġsomet":1624,"Ġje":1625,"Ġ24":1626,"Ġtro":1627,"ulation":1628,"af":1629,"Ġplayer":1630,"Ġtest":1631,"Ġhalf":1632,"Ġassoci":1633,"Ġprof":1634,"estern":1635,"Ġchart":1636,"Ġfire":1637,"Ġsty":1638,"ards":1639,"Ġ2008":1640,"Ġcommon":1641,"Ġsent":1642,"Ġoften":1643,"Ġstat":1644,"ler":1645,"Ġhur":1646,"Ġlow":1647,"Ġget":1648,"ese":1649,"Ġgeor":1650,"Ġcareer":1651,"Ġ2009":1652,"me":1653,"Ġec":1654,"Ġtech":1655,"Ġless":1656,"ring":1657,"Ġcontinued":1658,"ator":1659,"Ġdav":1660,"Ġhistor":1661,"Ġpri":1662,"Ġmich":1663,"Ġclaim":1664,"Ġfun":1665,"craft":1666,"ops":1667,"Ġyour":1668,"Ġlevel":1669,"Ġ2011":1670,"Ġdon":1671,"Ġwithout":1672,"alk":1673,"bs":1674,"Ġpress":1675,"Ġcover":1676,"co":1677,"Ġelect":1678,"Ġengland":1679,"Ġfree":1680,"ots":1681,"Ġmer":1682,"ady":1683,"Ġdespite":1684,"Ġ22":1685,"rent":1686,"atic":1687,"ped":1688,"utes":1689,"ology":1690,"Ġcourt":1691,"Ġparty":1692,"gram":1693,"Ġten":1694,"aur":1695,"let":1696,"Ġconsidered":1697,"ried":1698,"gress":1699,"Ġlost":1700,"par":1701,"Ġtre":1702,"aster":1703,"Ġfact":1704,"ying":1705,"Ġhour":1706,"Ġbur":1707,"Ġhig":1708,"Ġdevelopment":1709,"Ġfriend":1710,"Ġarch":1711,"Ġlim":1712,"Ġchurch":1713,"Ġstrong":1714,"Ġ2007":1715,"Ġrepres":1716,"ves":1717,"Ġcountry":1718,"Ġenglish":1719,"Ġlittle":1720,"Ġsongs":1721,"Ġcounty":1722,"Ġcomb":1723,"Ġtrad":1724,"Ġtotal":1725,"Ġsal":1726,"line":1727,"Ġchampions":1728,"Ġinflu":1729,"ize":1730,"Ġfield":1731,"Ġversion":1732,"be":1733,"Ġroyal":1734,"Ġhighway":1735,"Ġmilitary":1736,"ering":1737,"ones":1738,"Ġmoved":1739,"Ġhy":1740,"Ġwritten":1741,"Ġlond":1742,"Ġvol":1743,"Ġ23":1744,"Ġconv":1745,"Ġdefe":1746,"Ġanim":1747,"Ġlondon":1748,"Ġsuggest":1749,"rodu":1750,"vision":1751,"side":1752,"Ġmi":1753,"ches":1754,"Ġprogram":1755,"Ġ2012":1756,"Ġprote":1757,"Ġbecome":1758,"Ġchang":1759,"ertain":1760,"Ġforces":1761,"Ġmiss":1762,"Ġinternational":1763,"Ġproject":1764,"Ġbuilding":1765,"Ġord":1766,"Ġson":1767,"ai":1768,"Ġphil":1769,"Ġgiven":1770,"Ġtropical":1771,"Ġcontrol":1772,"ison":1773,"Ġstreet":1774,"Ġhit":1775,"Ġaff":1776,"Ġinvol":1777,"Ġauthor":1778,"elt":1779,"Ġrefer":1780,"Ġlat":1781,"Ġve":1782,"Ġho":1783,"Ġvir":1784,"Ġimport":1785,"hel":1786,"Ġnon":1787,"Ġ190":1788,"ille":1789,"Ġannoun":1790,"Ġshould":1791,"ged":1792,"Ġwestern":1793,"Ġlab":1794,"Ġearl":1795,"Ġsit":1796,"Ġpur":1797,"Ġgold":1798,"iment":1799,"ery":1800,"iety":1801,"Ġeight":1802,"Ġdecl":1803,"Ġcanad":1804,"Ġdepart":1805,"Ġparticular":1806,"que":1807,"ailed":1808,"ald":1809,"Ġknow":1810,"sequ":1811,"Ġvi":1812,"Ġperformance":1813,"Ġgave":1814,"Ġly":1815,"Ġstation":1816,"Ġrail":1817,"Ġinterest":1818,"Ġcir":1819,"Ġwent":1820,"Ġspecial":1821,"ae":1822,"Ġjack":1823,"Ġmass":1824,"Ġrepresent":1825,"Ġreturned":1826,"ably":1827,"Ġusing":1828,"Ġcoast":1829,"Ġbroad":1830,"Ġpopular":1831,"ama":1832,"Ġfather":1833,"Ġhen":1834,"Ġhun":1835,"Ġpublished":1836,"Ġproduced":1837,"Ġlove":1838,"Ġchildren":1839,"Ġcompet":1840,"Ġarg":1841,"iness":1842,"xim":1843,"Ġnews":1844,"onom":1845,"ape":1846,"Ġobs":1847,"Ġreported":1848,"ead":1849,"Ġlive":1850,"Ġdu":1851,"osp":1852,"Ġinclude":1853,"Ġground":1854,"Ġrecorded":1855,"Ġcult":1856,"Ġtelevision":1857,"Ġinde":1858,"ories":1859,"Ġ2006":1860,"Ġstated":1861,"Ġaircraft":1862,"aign":1863,"Ġships":1864,"Ġdou":1865,"itions":1866,"Ġcentral":1867,"Ġmaking":1868,"Ġcampaign":1869,"raw":1870,"Ġtrav":1871,"Ġdev":1872,"Ġide":1873,"Ġ27":1874,"Ġcritic":1875,"Ġcas":1876,"Ġ28":1877,"yl":1878,"used":1879,"omb":1880,"mit":1881,"ument":1882,"Ġvo":1883,"Ġfront":1884,"Ġage":1885,"ints":1886,"ief":1887,"Ġplaying":1888,"Ġwomen":1889,"Ġ50":1890,"Ġcoll":1891,"aren":1892,"Ġcop":1893,"Ġdestro":1894,"Ġhurric":1895,"Ġyoung":1896,"Ġfav":1897,"Ġthroughout":1898,"Ġonce":1899,"Ġupon":1900,"Ġprim":1901,"Ġtoo":1902,"Ġcenter":1903,"ensive":1904,"Ġhold":1905,"Ġcost":1906,"Ġhom":1907,"ploy":1908,"Ġdoes":1909,"Ġsuff":1910,"Ġhimself":1911,"cer":1912,"Ġofficial":1913,"Ġaustralia":1914,"Ġ2013":1915,"Ġsan":1916,"Ġchampionship":1917,"Ġaud":1918,"Ġtechn":1919,"Ġwall":1920,"Ġvill":1921,"Ġmot":1922,"Ġsen":1923,"Ġhor":1924,"Ġrich":1925,"ither":1926,"Ġ26":1927,"Ġsouther":1928,"Ġfull":1929,"Ġball":1930,"ned":1931,"Ġcharacters":1932,"Ġ40":1933,"Ġaway":1934,"Ġmad":1935,"Ġplayers":1936,"rest":1937,"Ġsea":1938,"rew":1939,"Ġcirc":1940,"play":1941,"alth":1942,"Ġtur":1943,"Ġft":1944,"Ġthank":1945,"Ġmanag":1946,"Ġroom":1947,"Ġfall":1948,"Ġrelations":1949,"Ġseven":1950,"Ġsquad":1951,"itive":1952,"ges":1953,"Ġinstead":1954,"eder":1955,"Ġcam":1956,"Ġjames":1957,"Ġbase":1958,"Ġpra":1959,"Ġsouthern":1960,"lo":1961,"Ġtitle":1962,"acy":1963,"Ġcommit":1964,"Ġwriting":1965,"com":1966,"Ġ189":1967,"Ġfem":1968,"Ġbegin":1969,"Ġpal":1970,"Ġacross":1971,"Ġgrand":1972,"Ġbat":1973,"Ġintrodu":1974,"Ġdied":1975,"Ġmodern":1976,"Ġcond":1977,"Ġremained":1978,"Ġham":1979,"Ġbig":1980,"Ġmonths":1981,"Ġfort":1982,"Ġwood":1983,"Ġce":1984,"Ġhall":1985,"Ġsignific":1986,"Ġmount":1987,"Ġdeveloped":1988,"Ġpolitical":1989,"Ġpromot":1990,"Ġfif":1991,"Ġmovie":1992,"Ġhol":1993,"Ġcat":1994,"Ġput":1995,"Ġrange":1996,"Ġaver":1997,"uck":1998,"Ġvarious":1999,"Ġfac":2000,"Ġnet":2001,"Ġoccur":2002,"Ġread":2003,"Ġmiles":2004,"Ġmc":2005,"Ġrace":2006,"Ġhill":2007,"Ġhurricane":2008,"Ġworks":2009,"Ġfight":2010,"fic":2011,"ration":2012,"Ġpit":2013,"ency":2014,"Ġoffice":2015,"ef":2016,"Ġill":2017,"Ġround":2018,"Ġbow":2019,"Ġstyle":2020,"dom":2021,"Ġhon":2022,"ael":2023,"erc":2024,"ries":2025,"Ġhard":2026,"hern":2027,"Ġstri":2028,"Ġsat":2029,"isted":2030,"Ġareas":2031,"Ġamerica":2032,"Ġsil":2033,"inted":2034,"Ġcro":2035,"most":2036,"Ġtell":2037,"orts":2038,"Ġfelt":2039,"Ġsun":2040,"Ġnoted":2041,"Ġindust":2042,"Ġruss":2043,"Ġeventually":2044,"Ġjapanese":2045,"ked":2046,"Ġdiscover":2047,"ened":2048,"Ġlocated":2049,"Ġannounced":2050,"Ġbrother":2051,"Ġcreated":2052,"Ġcollege":2053,"Ġreached":2054,"ming":2055,"Ġdi":2056,"Ġdestroy":2057,"Ġconstruction":2058,"Ġinform":2059,"cast":2060,"Ġengine":2061,"field":2062,"Ġsele":2063,"Ġaction":2064,"Ġnorthern":2065,"Ġsuccessful":2066,"Ġmeet":2067,"Ġ29":2068,"Ġcurrent":2069,"Ġseen":2070,"Ġmal":2071,"Ġ2005":2072,"Ġbody":2073,"Ġserved":2074,"gether":2075,"Ġtogether":2076,"Ġheavy":2077,"Ġpain":2078,"Ġbrown":2079,"Ġstruct":2080,"ising":2081,"Ġcut":2082,"iting":2083,"Ġmem":2084,"Ġable":2085,"ĠâĢĻ":2086,"Ġfollowed":2087,"Ġagre":2088,"Ġsym":2089,"Ġperformed":2090,"Ġprocess":2091,"Ġtor":2092,"Ġciv":2093,"Ġprot":2094,"ization":2095,"Ġfootball":2096,"ality":2097,"ana":2098,"Ġactiv":2099,"aves":2100,"ids":2101,"Ġmix":2102,"Ġbridge":2103,"Ġgeorge":2104,"work":2105,"Ġbusiness":2106,"Ġ2014":2107,"Ġmember":2108,"Ġtom":2109,"oon":2110,"Ġmur":2111,"Ġque":2112,"idence":2113,"oss":2114,"ament":2115,"Ġesc":2116,"Ġgod":2117,"olution":2118,"Ġkilled":2119,"cent":2120,"Ġsignificant":2121,"Ġeconom":2122,"Ġprofess":2123,"Ġpoints":2124,"Ġestabl":2125,"ature":2126,"Ġsaw":2127,"rict":2128,"Ġtaken":2129,"Ġident":2130,"Ġmm":2131,"Ġital":2132,"Ġmean":2133,"Ġimpro":2134,"ze":2135,"Ġbecom":2136,"Ġhuman":2137,"irl":2138,"bur":2139,"Ġborn":2140,"Ġloss":2141,"Ġavail":2142,"Ġthought":2143,"Ġden":2144,"bor":2145,"Ġgar":2146,"Ġestablished":2147,"Ġur":2148,"ara":2149,"Ġdirector":2150,"ius":2151,"Ġinvest":2152,"Ġoriginally":2153,"aval":2154,"Ġthom":2155,"Ġsn":2156,"Ġothers":2157,"ds":2158,"enth":2159,"Ġaustralian":2160,"Ġdavid":2161,"Ġbri":2162,"Ġgrow":2163,"Ġenc":2164,"Ġsubsequ":2165,"ett":2166,"enced":2167,"Ġfeatures":2168,"Ġstage":2169,"Ġentire":2170,"Ġhotel":2171,"Ġappeared":2172,"ctor":2173,"ression":2174,"Ġsurv":2175,"Ġmother":2176,"Ġhi":2177,"iers":2178,"Ġcrew":2179,"ray":2180,"Ġpot":2181,"cil":2182,"Ġ!":2183,"Ġredu":2184,"Ġple":2185,"Ġvoc":2186,"yn":2187,"ox":2188,"Ġcho":2189,"head":2190,"Ġeastern":2191,"ground":2192,"Ġcommission":2193,"Ġbreak":2194,"thing":2195,"Ġstarted":2196,"less":2197,"Ġfourth":2198,"Ġfell":2199,"Ġafric":2200,"Ġcritics":2201,"Ġrather":2202,"Ġcivil":2203,"ought":2204,"odes":2205,"Ġcaused":2206,"Ġrank":2207,"Ġproble":2208,"Ġdecided":2209,"ship":2210,"Ġmater":2211,"ript":2212,"ressed":2213,"Ġimportant":2214,"Ġkingdom":2215,"den":2216,"gg":2217,"Ġfeet":2218,"Ġbehind":2219,"ators":2220,"aces":2221,"Ġreb":2222,"reek":2223,"Ġclose":2224,"Ġpen":2225,"Ġsite":2226,"Ġadded":2227,"Ġbal":2228,"Ġrese":2229,"Ġren":2230,"Ġsoon":2231,"Ġindepend":2232,"Ġformed":2233,"ogn":2234,"Ġfleet":2235,"Ġmagaz":2236,"Ã¡":2237,"Ġelse":2238,"Ġcase":2239,"Ġbi":2240,"Ġ31":2241,"Ġindian":2242,"Ġ188":2243,"go":2244,"wood":2245,"umb":2246,"Ġpred":2247,"ample":2248,"ma":2249,"Ġgreen":2250,"ateg":2251,"Ġmart":2252,"ivid":2253,"Ġjud":2254,"Ġcomment":2255,"rought":2256,"Ġscore":2257,"Ġsam":2258,"ades":2259,"cing":2260,"Ġmult":2261,"Ġlou":2262,"Ġpeak":2263,"Ġdamage":2264,"Ġguns":2265,"Ġalmost":2266,"Ġeduc":2267,"Ġcompleted":2268,"Ġpopulation":2269,"Ġavailable":2270,"dle":2271,"Ġsus":2272,"su":2273,"Ġsex":2274,"Ġneg":2275,"ination":2276,"lin":2277,"Ġjour":2278,"Ġprem":2279,"Ġru":2280,"ways":2281,"here":2282,"Ġcup":2283,"Ġexec":2284,"emy":2285,"Ġinterv":2286,"Ġscre":2287,"Ġlang":2288,"oney":2289,"Ġtreat":2290,"Ġawards":2291,"aps":2292,"Ġclos":2293,"Ġcreat":2294,"Ġgoal":2295,"Ġinitially":2296,"Ġbay":2297,"Ġgirl":2298,"Ġtradition":2299,"Ġinj":2300,"Ġmichael":2301,"Ġregion":2302,"Ġleast":2303,"cher":2304,"ino":2305,"itar":2306,"Ġ2004":2307,"Ġhost":2308,"Ġopened":2309,"ata":2310,"Ġsocial":2311,"Ġlack":2312,"Ġpract":2313,"Ġquest":2314,"Ġtyp":2315,"Ġrelationship":2316,"Ġinn":2317,"Ġminutes":2318,"Ġsepar":2319,"Ġcalif":2320,"Ġsour":2321,"Ġnar":2322,"Ġindivid":2323,"Ġ186":2324,"Ġfrance":2325,"Ġleading":2326,"imes":2327,"Ġangel":2328,"Ġcaliforn":2329,"ceed":2330,"Ġwashing":2331,"Ġfund":2332,"Ġweeks":2333,"ements":2334,"Ġworking":2335,"Ġ2015":2336,"Ġaccom":2337,"Ġradio":2338,"hic":2339,"ula":2340,"Ġgoing":2341,"Ġworked":2342,"Ġale":2343,"Ġsecret":2344,"Ġdiffic":2345,"Ġdifficult":2346,"Ġconn":2347,"Ġunion":2348,"Ġwanted":2349,"Ġrecording":2350,"ki":2351,"Ġyes":2352,"Ġtowards":2353,"ica":2354,"Ġmust":2355,"to":2356,"Ġmel":2357,"medi":2358,"Ġbomb":2359,"Ġmac":2360,"Ġappo":2361,"Ġfa":2362,"istic":2363,"Ġquar":2364,"hest":2365,"Ġquick":2366,"Ġhours":2367,"Ġrain":2368,"rison":2369,"Ġrap":2370,"Ġlaun":2371,"Ġcouncil":2372,"anch":2373,"Ġscene":2374,"Ġlooking":2375,"Ġspace":2376,"Ġeither":2377,"Ġwashington":2378,"asing":2379,"Ġfly":2380,"Ġmaterial":2381,"Ġwid":2382,"Ġtoday":2383,"Ġnorm":2384,"igned":2385,"Ġpast":2386,"Ġrepubl":2387,"Ġrespect":2388,"Ġhenry":2389,"Ġrecords":2390,"ky":2391,"Ġcalifornia":2392,"Ġaccept":2393,"Ġfig":2394,"eth":2395,"Ġrobert":2396,"Ġcru":2397,"Ġreve":2398,"Ġhere":2399,"Ġearth":2400,"Ġfood":2401,"Ġaverage":2402,"Ġey":2403,"Ġnavy":2404,"xic":2405,"Ġscored":2406,"ference":2407,"Ġvot":2408,"Ġ2000":2409,"Ġtraining":2410,"Ġprovided":2411,"pec":2412,"Ġpossible":2413,"Ġreach":2414,"50":2415,"Ġnomin":2416,"elling":2417,"Ġtroops":2418,"iding":2419,"ows":2420,"Ġbrought":2421,"Ġstop":2422,"ams":2423,"antic":2424,"Ġproper":2425,"board":2426,"Ġdut":2427,"Ġbrig":2428,"Ġrecogn":2429,"Ġrob":2430,"Ġfeatured":2431,"ological":2432,"Ġstars":2433,"Ġ500":2434,"Ġcolon":2435,"Ġwife":2436,"aut":2437,"osition":2438,"Ġfoc":2439,"Ġthink":2440,"Ġcome":2441,"Ġallowed":2442,"Ġpriv":2443,"Ġ187":2444,"Ġfut":2445,"ville":2446,"Ġdark":2447,"ected":2448,"Ġtar":2449,"Ġplaced":2450,"Ġestim":2451,"Ġsummer":2452,"Ġfeder":2453,"Ġcontract":2454,"Ġcou":2455,"Ġstudio":2456,"Ġvictory":2457,"iff":2458,"Ġgenerally":2459,"Ġrul":2460,"Ġcycl":2461,"pre":2462,"Ġruns":2463,"Ġach":2464,"Ġboard":2465,"Ġphys":2466,"Ġevents":2467,"Ġexample":2468,"Ġchief":2469,"Ġmagazine":2470,"ago":2471,"Ġder":2472,"Ġbattal":2473,"Ġrepublic":2474,"Ġleng":2475,"Ġpaul":2476,"Ġgot":2477,"Ġunc":2478,"Ġut":2479,"Ġregular":2480,"Ġsomething":2481,"Ġinsp":2482,"Ġwil":2483,"Ġstaff":2484,"Ġcred":2485,"Ġdro":2486,"uel":2487,"ential":2488,"Ġ2003":2489,"Ġpie":2490,"Ġparticip":2491,"Ġjoined":2492,"Ġdesigned":2493,"Ġsquadron":2494,"Ġsurf":2495,"Ġtype":2496,"Ġdan":2497,"Ġspan":2498,"Ġmiddle":2499,"ka":2500,"Ġnine":2501,"Ġoperation":2502,"Ġshot":2503,"anks":2504,"Ġemploy":2505,"Ġspeed":2506,"Ġgrad":2507,"Ġthreat":2508,"Ġcondu":2509,"Ġopening":2510,"ving":2511,"ike":2512,"aper":2513,"Ġmedia":2514,"men":2515,"Ġregard":2516,"Ġbelieved":2517,"ude":2518,"Ġgive":2519,"Ġrelig":2520,"ugh":2521,"Ġmary":2522,"Ġpay":2523,"Ġber":2524,"Ġwinds":2525,"Ġbir":2526,"Ġatl":2527,"Ġstone":2528,"Ġox":2529,"Ġhop":2530,"iction":2531,"Ġtransport":2532,"Ġcaptain":2533,"han":2534,"Ġfinished":2535,"Ġreplaced":2536,"Ġmph":2537,"Ġben":2538,"Ġhighest":2539,"Ġreviews":2540,"Ġprior":2541,"Ġemp":2542,"Ġscen":2543,"Ġearlier":2544,"Ġcommerc":2545,"right":2546,"Ġpolice":2547,"Ġinfant":2548,"oring":2549,"imin":2550,"Ġdeter":2551,"west":2552,"ston":2553,"Ġbad":2554,"Ġsequ":2555,"Ġeuropean":2556,"off":2557,"Ġbetter":2558,"Ġinvolved":2559,"erous":2560,"ification":2561,"fall":2562,"Ġlangu":2563,"lic":2564,"Ġkeep":2565,"ha":2566,"Ġsaying":2567,"Ġchange":2568,"Ġresearch":2569,"Ġstay":2570,"Ġsociety":2571,"asion":2572,"Ġmom":2573,"aled":2574,"reg":2575,"utive":2576,"Ġlength":2577,"Ġcontrib":2578,"Ġfilms":2579,"Ġroman":2580,"Ġindic":2581,"Ġimmedi":2582,"Ġboy":2583,"Ġpil":2584,"oke":2585,"icket":2586,"Ġassociation":2587,"Ġtrib":2588,"ida":2589,"sel":2590,"Ġscott":2591,"Ġparticularly":2592,"Ġlower":2593,"Ġny":2594,"Ġvirgin":2595,"Ġlargest":2596,"Ġadmin":2597,"Ġremov":2598,"Ġkey":2599,"Ġplat":2600,"Ġpersonal":2601,"Ġbeginning":2602,"Ġexist":2603,"ishing":2604,"Ġlay":2605,"Ġtex":2606,"Ġadm":2607,"'m":2608,"pected":2609,"wer":2610,"Ġpercent":2611,"Ġforced":2612,"Ġrespons":2613,"Ġtravel":2614,"mp":2615,"Ġfeel":2616,"ipp":2617,"Ġsection":2618,"Ġoutside":2619,"Ġ2001":2620,"Ġdeal":2621,"sc":2622,"joy":2623,"Ġheart":2624,"Ġhell":2625,"Ġtaking":2626,"Ġdisp":2627,"Ġlear":2628,"aring":2629,"Ġachie":2630,"Ġuk":2631,"hib":2632,"anned":2633,"Ġanti":2634,"ails":2635,"Ġcharles":2636,"Ġbeat":2637,"ems":2638,"Ġmeas":2639,"Ġabove":2640,"Ġcommitte":2641,"Ġthomas":2642,"ey":2643,"Ġgrant":2644,"ography":2645,"Ġnovel":2646,"Ġmaint":2647,"Ġreason":2648,"of":2649,"ĠÂ°":2650,"Ġended":2651,"oph":2652,"Ġlake":2653,"Ġturned":2654,"Ġincreased":2655,"Ġunits":2656,"ases":2657,"Ġpan":2658,"Ġnin":2659,"Ġcommunity":2660,"aded":2661,"Ġhous":2662,"Ġacad":2663,"mar":2664,"key":2665,"aker":2666,"Ġpassed":2667,"for":2668,"heast":2669,"Ġmove":2670,"Ġpraised":2671,"Ġrestaur":2672,"Ġtheat":2673,"Ġmcc":2674,"Ġult":2675,"Ġadditional":2676,"Ġfuture":2677,"Ġenough":2678,"ios":2679,"Ġenjoy":2680,"Ġ2002":2681,"Ġfranc":2682,"Ġpac":2683,"Ġappearance":2684,"Ġbird":2685,"iation":2686,"Ġphot":2687,"Ġguitar":2688,"Ġthus":2689,"Ġlik":2690,"Ġliter":2691,"Ġordered":2692,"Ġdoc":2693,"Ġcanada":2694,"Ġsmith":2695,"itor":2696,"Ġps":2697,"Ġcastle":2698,"Ġdaugh":2699,"Ġexc":2700,"Ġplot":2701,"Ġinfantry":2702,"ership":2703,"Ġ-":2704,"Ġpun":2705,"Ġpreviously":2706,"ilities":2707,"back":2708,"Ġmarket":2709,"Ġprob":2710,"Ġsquare":2711,"Ġleave":2712,"Ġmusical":2713,"edy":2714,"Ġleaving":2715,"my":2716,"Ġsigned":2717,"Ġabs":2718,"ocr":2719,"Ġminor":2720,"Ġalex":2721,"Ġrichard":2722,"nal":2723,"sen":2724,"ush":2725,"Ġmic":2726,"Ġmexic":2727,"Ġterrit":2728,"pper":2729,"Ġour":2730,"Ġdead":2731,"Ġelements":2732,"Ġdig":2733,"tered":2734,"arily":2735,"Ġinstit":2736,"Ġaccess":2737,"agon":2738,"nes":2739,"Ġrights":2740,"Ġviol":2741,"rated":2742,"Ġha":2743,"pped":2744,"Ġpositive":2745,"Ġfemale":2746,"gen":2747,"erson":2748,"Ġblue":2749,"oor":2750,"Ġdirected":2751,"Ġlord":2752,"itz":2753,"Ġcritical":2754,"Ġmoney":2755,"Ġaw":2756,"Ġparts":2757,"Ġlines":2758,"Ġpow":2759,"Ġchic":2760,"Ġhapp":2761,"Ġbackground":2762,"ique":2763,"ites":2764,"Ġbeg":2765,"Ġoverall":2766,"ump":2767,"Ġtold":2768,"Ġ35":2769,"Ġspent":2770,"Ġsubject":2771,"Ġprinc":2772,"cts":2773,"Ġpet":2774,"Ġ60":2775,"clus":2776,"Ġscient":2777,"Ġvictor":2778,"Ġtax":2779,"Ġsand":2780,"Ġdeep":2781,"Ġchap":2782,"Ġroll":2783,"uation":2784,"Ġflood":2785,"onst":2786,"Ġdomin":2787,"Ġcommittee":2788,"uter":2789,"Ġinterview":2790,"elled":2791,"Ġcorn":2792,"Ġcommercial":2793,"Ġ1990":2794,"mon":2795,"Ġfailed":2796,"Ġrequired":2797,"Ġscreen":2798,"nel":2799,"bers":2800,"reng":2801,"tt":2802,"Ġmach":2803,"ga":2804,"Ġwoman":2805,"Ġpoor":2806,"Ġgermany":2807,"Ġguard":2808,"Ġdebut":2809,"Ġgroups":2810,"Ġdistrict":2811,"ee":2812,"Ġflor":2813,"Ġclear":2814,"Ġdre":2815,"Ġpeter":2816,"Ġlu":2817,"Ġkil":2818,"Ġenv":2819,"Ġwal":2820,"Ġfrank":2821,"Ġbroadcast":2822,"ume":2823,"Ġobject":2824,"Ġhealth":2825,"Ġterm":2826,"Ġitself":2827,"ĠÃ":2828,"Ġindia":2829,"Ġconstit":2830,"Ġanal":2831,"Ġchristian":2832,"Ġstep":2833,"Ġwalk":2834,"stand":2835,"Ġliving":2836,"Ġsometimes":2837,"Ġevidence":2838,"berg":2839,"Ġbattalion":2840,"Ġbank":2841,"isl":2842,"ibility":2843,"ready":2844,"Ġconference":2845,"Ġasked":2846,"Ġprison":2847,"Ġburn":2848,"Ġ?":2849,"Ġoccup":2850,"Ġreception":2851,"Ġinvestig":2852,"Ġexcept":2853,"Ġelection":2854,"Ġparl":2855,"Ġtransfer":2856,"ĠÂ£":2857,"enue":2858,"Ġdefend":2859,"erved":2860,"Ġstreng":2861,"ability":2862,"Ġwhom":2863,"ii":2864,"gar":2865,"Ġcomplete":2866,"Ġwhose":2867,"Ġsyn":2868,"Ġalready":2869,"onna":2870,"Ġbud":2871,"Ġadminist":2872,"apt":2873,"Ġsov":2874,"airs":2875,"Ġnatural":2876,"onse":2877,"Ġqueen":2878,"Ġbey":2879,"Ġstudy":2880,"Ġapproxim":2881,"Ġreact":2882,"Ġclaimed":2883,"Ġgovernor":2884,"Ġwatch":2885,"Ġinformation":2886,"Ġclim":2887,"Ġamb":2888,"Ġforest":2889,"wor":2890,"Ġfrequ":2891,"igan":2892,"Ġmuse":2893,"Ġsoviet":2894,"Ġusually":2895,"Ġintroduced":2896,"Ġmight":2897,"Ġze":2898,"Ġwild":2899,"Ġminister":2900,"Ġdraw":2901,"Ġstudents":2902,"Ġrh":2903,"Ġidea":2904,"Ġfavor":2905,"Ġ32":2906,"Ġquickly":2907,"Ġeducation":2908,"Ġlimited":2909,"Ġbul":2910,"ta":2911,"Ġfifth":2912,"bc":2913,"Ġcertain":2914,"Ġanc":2915,"Ġreally":2916,"fl":2917,"Ġdate":2918,"Ġconcern":2919,"Ġeffects":2920,"Ġlib":2921,"Ġgro":2922,"Ġmovement":2923,"Ġslow":2924,"Ġtun":2925,"Ġgard":2926,"Ġanything":2927,"Ġbox":2928,"Ġteams":2929,"ays":2930,"aint":2931,"Ġresponse":2932,"Ġprevent":2933,"Ġissue":2934,"Ġcentre":2935,"Ġcommander":2936,"Ġself":2937,"ining":2938,"Ġ1970":2939,"atory":2940,"Ġplant":2941,"Ġsurface":2942,"ba":2943,"Ġpolic":2944,"Ġmanager":2945,"Ġespec":2946,"Ġdepartment":2947,"Ġface":2948,"Ġarrived":2949,"Ġhosp":2950,"bour":2951,"Ġkind":2952,"Ġfer":2953,"Ġshows":2954,"Ġbritain":2955,"Ġvillage":2956,"Ġservices":2957,"Ġ1980":2958,"Ġespecially":2959,"Ġdecision":2960,"Ġvoice":2961,"Ġimpact":2962,"ergy":2963,"pr":2964,"sec":2965,"Ġrat":2966,"tr":2967,"ties":2968,"Ġrac":2969,"Ġscience":2970,"Ġoperations":2971,"Ġchicago":2972,"Ġmuseum":2973,"Ġlouis":2974,"Ġlie":2975,"Ġcourse":2976,"Ġparliam":2977,"ror":2978,"Ġstructure":2979,"Ġcongress":2980,"Ġran":2981,"Ġcontr":2982,"Ġfest":2983,"Ġlyric":2984,"anded":2985,"inese":2986,"Ġindustry":2987,"Ġlarger":2988,"Ġquarter":2989,"Ġdefeated":2990,"Ġwriter":2991,"Ġartist":2992,"Ġremaining":2993,"Ġsize":2994,"Ġbecoming":2995,"Ġheav":2996,"Ġthr":2997,"wh":2998,"Ġestimated":2999,"Ġmultip":3000,"Ġlatter":3001,"Ġremain":3002,"Ġfant":3003,"porary":3004,"ises":3005,"Ġepisodes":3006,"Ġsurround":3007,"Ġcell":3008,"Ġol":3009,"Ġcarried":3010,"Ġprefer":3011,"Ġparliament":3012,"aries":3013,"Ġblood":3014,"Ġultim":3015,"iron":3016,"outh":3017,"Ġnetwork":3018,"Ġconsider":3019,"Ġdiscuss":3020,"ully":3021,"ulf":3022,"Ġprogress":3023,"Ġpressure":3024,"Ġchinese":3025,"Ġacqu":3026,"Ġ1999":3027,"Ġflag":3028,"ift":3029,"Ġbrief":3030,"Ġrunning":3031,"erve":3032,"Ġros":3033,"Ġscenes":3034,"Ġcm":3035,"Ġchanges":3036,"chester":3037,"Ġ36":3038,"Ġcand":3039,"Ġvirginia":3040,"Ġwel":3041,"Ġcomplet":3042,"Ġpurch":3043,"ession":3044,"Ġjew":3045,"Ġdom":3046,"Ġcoach":3047,"Ġ80":3048,"Ġemb":3049,"Ġwinning":3050,"Ġnaval":3051,"Ġsuggested":3052,"Ġfinally":3053,"Ġdone":3054,"val":3055,"Ġentered":3056,"Ġnearly":3057,"Ġjackson":3058,"Ġbed":3059,"enty":3060,"orial":3061,"Ġdepression":3062,"Ġvan":3063,"de":3064,"Ġhigher":3065,"Ġapproximately":3066,"Ġappointed":3067,"ander":3068,"Ġinfluence":3069,"Ġcapital":3070,"Ġempire":3071,"asc":3072,"Ġsaf":3073,"Ġperf":3074,"Ġchall":3075,"Ġsubst":3076,"Ġgal":3077,"Ġleader":3078,"burg":3079,"Ġcann":3080,"30":3081,"Ġmission":3082,"Ġestablish":3083,"Ġlanguage":3084,"Ġequip":3085,"ania":3086,"Ġshortly":3087,"Ġpick":3088,"Ġregiment":3089,"Ġislands":3090,"Ġbra":3091,"Ġscript":3092,"Ġfederal":3093,"Ġmeth":3094,"tery":3095,"Ġprovide":3096,"Ġsounds":3097,"Ġ45":3098,"Ġfit":3099,"Ġwide":3100,"Ġdaughter":3101,"Ġunl":3102,"Ġlocation":3103,"change":3104,"Ġupper":3105,"Ġtracks":3106,"Ġoly":3107,"Ġdestroyed":3108,"Ġoh":3109,"Ġproposed":3110,"Ġspanish":3111,"Ġprivate":3112,"Ġwing":3113,"ulated":3114,"Ġolymp":3115,"Ġproducer":3116,"abor":3117,"Ġarrang":3118,"Ġenviron":3119,"Ġexperience":3120,"Ġnature":3121,"Ġcorps":3122,"rd":3123,"Ġmorning":3124,"king":3125,"Ġcer":3126,"Ġdistrib":3127,"Ġgi":3128,"Ġhorse":3129,"Ġcard":3130,"Ġprincip":3131,"ns":3132,"Ġca":3133,"Ġstandard":3134,"Ġsubsequently":3135,"Ġcolor":3136,"oid":3137,"Ġprofessional":3138,"Ġbattles":3139,"Ġhero":3140,"idents":3141,"Ġbrigade":3142,"selves":3143,"Ġparen":3144,"Ġfeature":3145,"Ġrailway":3146,"down":3147,"Ġaltern":3148,"Ġcompared":3149,"Ġdiss":3150,"ension":3151,"mitted":3152,"iser":3153,"Ġbreed":3154,"Ġcomplex":3155,"Ġmarried":3156,"Ġemerg":3157,"Ġconcept":3158,"Ġimmediately":3159,"Ġintended":3160,"Ġspir":3161,"Ġ300":3162,"Ġfair":3163,"Ġdemocr":3164,"Ġfans":3165,"omm":3166,"Ġ1960":3167,"Ġfrancis":3168,"Ġtemper":3169,"Ġcele":3170,"Ġ184":3171,"Ġpict":3172,"Ġforward":3173,"Ġjournal":3174,"Ġentertain":3175,"Ġoce":3176,"Ġsupported":3177,"ÃŃ":3178,"ny":3179,"Ġmr":3180,"Ġshoot":3181,"Ġbord":3182,"Ġagreed":3183,"oms":3184,"Ġedward":3185,"Ġmont":3186,"ole":3187,"Ġintens":3188,"Ġrestaurant":3189,"Ġbring":3190,"Ġblock":3191,"alled":3192,"Ġcompan":3193,"Ġarchit":3194,"Ġconfir":3195,"Ġincreasing":3196,"Ġwhether":3197,"Ġmodel":3198,"Ġweap":3199,"Ġhelped":3200,"gy":3201,"Ġinitial":3202,"Ġpacific":3203,"Ġliber":3204,"Ġawarded":3205,"Ġbor":3206,"ria":3207,"Ġdisplay":3208,"Ġrelated":3209,"Ġarchitect":3210,"Ġtexas":3211,"ires":3212,"Ġplanned":3213,"Ġofficer":3214,"Ġbooks":3215,"Ġlegisl":3216,"Ġimm":3217,"Ġ1998":3218,"Ġvalley":3219,"Ġyet":3220,"aph":3221,"Ġsoldiers":3222,"Ġlonger":3223,"Ġsure":3224,"Ġtrade":3225,"Ġcreate":3226,"asy":3227,"atively":3228,"uk":3229,"hem":3230,"Ã¶":3231,"Ġartic":3232,"Ġattract":3233,"Ġwit":3234,"ores":3235,"Ġkore":3236,"Ġplans":3237,"Ġfriends":3238,"ien":3239,"Ġcause":3240,"Ġprobably":3241,"ban":3242,"Ġchanged":3243,"teen":3244,"Ġiron":3245,"Ġspring":3246,"Ġbuildings":3247,"Ġitalian":3248,"Ġcaptured":3249,"Ġunit":3250,"Ġconserv":3251,"Ġdance":3252,"Ġpenn":3253,"inct":3254,"Ġflorida":3255,"well":3256,"Ġq":3257,"Ġconclud":3258,"Ġ70":3259,"Ġwithd":3260,"Ġassociated":3261,"Ġmostly":3262,"Ġinstr":3263,"Ġ185":3264,"Ġsev":3265,"Ġjohnson":3266,"Ġwinter":3267,"Ġofficers":3268,"Ġremains":3269,"Ġrequest":3270,"Ġcontem":3271,"Ġnation":3272,"Ġsingles":3273,"Ġlyrics":3274,"Ġbillboard":3275,"abit":3276,"Ġthemselves":3277,"Ġmixed":3278,"ronic":3279,"Ġpu":3280,"Ġast":3281,"ken":3282,"Ġcountries":3283,"Ġexam":3284,"ili":3285,"Ġangeles":3286,"riage":3287,"Ġneeded":3288,"Ġadult":3289,"Ġdog":3290,"ena":3291,"Ġextended":3292,"Ġray":3293,"Ġtv":3294,"Ġmethod":3295,"Ġwa":3296,"Ġmoving":3297,"Ġalways":3298,"Ġfinanc":3299,"Ġnumerous":3300,"Ġattend":3301,"Ã¼":3302,"Ġvisit":3303,"Ġgoals":3304,"Ġmoment":3305,"Ġvia":3306,"Ġdouble":3307,"ado":3308,"Ġstad":3309,"Ġportray":3310,"leg":3311,"Ġfail":3312,"isions":3313,"Ġrid":3314,"Ġcopies":3315,"Ġscot":3316,"Ġbirth":3317,"Ġmeeting":3318,"Ġindividual":3319,"Ġcit":3320,"Ġminute":3321,"Ġ37":3322,"Ġsales":3323,"Ġjim":3324,"come":3325,"Ġincludes":3326,"Ġprice":3327,"Ġfocus":3328,"Ġatlantic":3329,"Ġmess":3330,"Ġ1997":3331,"Ġstatus":3332,"Ġrang":3333,"Ġissued":3334,"Ġmale":3335,"Ġenergy":3336,"Ġmind":3337,"Ġsinger":3338,"olic":3339,"andon":3340,"can":3341,"Ġtraff":3342,"Ġsuffered":3343,"Ġtal":3344,"Ġhospital":3345,"Ġadmir":3346,"Ġmaxim":3347,"Ġmartin":3348,"Ġchina":3349,"hood":3350,"Ġalbums":3351,"ands":3352,"Ġice":3353,"Ġgall":3354,"Ġton":3355,"Ġsched":3356,"Ġedition":3357,"Ġtermin":3358,"Ġrevolution":3359,"Ġproblems":3360,"Ġtas":3361,"Ġbene":3362,"Ġlikely":3363,"bed":3364,"Ġcarry":3365,"'d":3366,"Ġcreek":3367,"Ġincrease":3368,"Ġstarting":3369,"hl":3370,"Ġsir":3371,"Ġindependent":3372,"vin":3373,"Ġassemb":3374,"Ġremoved":3375,"Ġapproach":3376,"Ġcelebr":3377,"Ġbond":3378,"Ġoffered":3379,"bury":3380,"tic":3381,"fact":3382,"pan":3383,"Ġinspired":3384,"Ġtakes":3385,"Ġcounter":3386,"Ġforeign":3387,"iest":3388,"Ġmaster":3389,"Ġterms":3390,"Ġdv":3391,"atives":3392,"chan":3393,"Ġrefle":3394,"lands":3395,"Ġmajority":3396,"hold":3397,"Ġprimary":3398,"Ġhello":3399,"Ġperfect":3400,"Ġcompos":3401,"Ġcarol":3402,"iter":3403,"Ġocean":3404,"aily":3405,"Ġconsist":3406,"Ġopt":3407,"Ġinterse":3408,"Ġmakes":3409,"vey":3410,"Ġqual":3411,"Ġtraditional":3412,"Ġtons":3413,"ograph":3414,"Ġ75":3415,"Ġvehic":3416,"Ġdrum":3417,"Ġinside":3418,"Ġsar":3419,"Ġentertainment":3420,"Ġens":3421,"Ġlog":3422,"Ġrating":3423,"ste":3424,"ously":3425,"Ġfox":3426,"Ġrepe":3427,"Ġmountain":3428,"Ġadop":3429,"Ġattacks":3430,"Ġranked":3431,"Ġbye":3432,"Ġdeg":3433,"ounted":3434,"isc":3435,"Ġword":3436,"light":3437,"Ġoil":3438,"Ġactor":3439,"Ġenvironment":3440,"Ġign":3441,"Ġ90":3442,"aches":3443,"etic":3444,"ounds":3445,"Ġraised":3446,"Ġcombat":3447,"Ġcomposed":3448,"Ġdaily":3449,"Ġdamaged":3450,"Ġund":3451,"Ġcanadian":3452,"urs":3453,"Ġprec":3454,"Ġairport":3455,"icted":3456,"Ġconcert":3457,"Ġafrica":3458,"Ġshar":3459,"Ġnick":3460,"Ġcateg":3461,"lor":3462,"Ã³":3463,"Ġtrain":3464,"zz":3465,"Ġwrest":3466,"Ġselected":3467,"ortun":3468,"Ġguest":3469,"Ġsports":3470,"Ġfighting":3471,"Ġcyclone":3472,"Ġappears":3473,"ung":3474,"ify":3475,"Ġrevealed":3476,"oo":3477,"Ġ33":3478,"Ġdiscovered":3479,"Ġdeterm":3480,"Ġwhole":3481,"Ġmetal":3482,"Ġera":3483,"Ġbab":3484,"Ġsimp":3485,"Ġunable":3486,"Ġbelow":3487,"Ġrussian":3488,"Ġactive":3489,"era":3490,"Ġstra":3491,"Ġtwenty":3492,"ucle":3493,"Ġconditions":3494,"Ġletter":3495,"Ġquestion":3496,"Ġstadium":3497,"ription":3498,"aland":3499,"Ġkent":3500,"Ġgreater":3501,"ls":3502,"uries":3503,"Ġven":3504,"Ġschol":3505,"Ġlaunched":3506,"Ġ34":3507,"istance":3508,"Ġpm":3509,"umed":3510,"Ġrespectively":3511,"uth":3512,"Ġsister":3513,"aj":3514,"Ġos":3515,"Ġnumbers":3516,"Ġ1995":3517,"ari":3518,"Ġissues":3519,"Ġjose":3520,"Ġconnect":3521,"Ġslight":3522,"Ġthir":3523,"Ġtouch":3524,"Ġsmaller":3525,"Ġincor":3526,"Ġlived":3527,"Ġadvance":3528,"Ġdin":3529,"Ġcontains":3530,"use":3531,"Ġyard":3532,"Ġcab":3533,"Ġnearby":3534,"Ġshown":3535,"Ġattempted":3536,"Ġattacked":3537,"Ġyards":3538,"ech":3539,"Ġculture":3540,"Ġsilver":3541,"Ġ38":3542,"Ġlink":3543,"Ġcart":3544,"uments":3545,"Ġ2016":3546,"Ġoccurred":3547,"Ġnewsp":3548,"aging":3549,"Ġreligious":3550,"Ġbon":3551,"Ġcust":3552,"Ġrein":3553,"uals":3554,"Ġye":3555,"Ġiii":3556,"Ġexpress":3557,"Ġfast":3558,"Ġbeach":3559,"Ġring":3560,"Ġtourn":3561,"Ġdefeat":3562,"Ġath":3563,"cting":3564,"amb":3565,"Ġrecover":3566,"Ġtalk":3567,"Ġdie":3568,"izing":3569,"Ġpeace":3570,"anced":3571,"Ġneigh":3572,"Ġrare":3573,"Ġannual":3574,"Ġlarg":3575,"20":3576,"Ġiv":3577,"Ġelected":3578,"ault":3579,"Ġfestival":3580,"Ġdra":3581,"aught":3582,"Ġ1950":3583,"Ġaudience":3584,"Ġlot":3585,"Ġ1996":3586,"Ġreferred":3587,"Ġconstant":3588,"Ġpsy":3589,"rial":3590,"Ġreform":3591,"olk":3592,"enant":3593,"Ġsav":3594,"Ġdun":3595,"Ġprince":3596,"Ġvariety":3597,"urity":3598,"ening":3599,"Ġlisted":3600,"vert":3601,"Ġhaw":3602,"Ġtheme":3603,"Ġcovered":3604,"Ġglob":3605,"Ġmagn":3606,"Ġbell":3607,"Ġnames":3608,"Ġdar":3609,"Ġschools":3610,"ads":3611,"rian":3612,"Ġsearch":3613,"Ġresulted":3614,"ental":3615,"Ġris":3616,"Ġspecific":3617,"Ġlargely":3618,"Ġassigned":3619,"Ġclosed":3620,"Ġdocument":3621,"Ġpurp":3622,"osaur":3623,"ya":3624,"Ġcollection":3625,"Ġban":3626,"Ġsend":3627,"uated":3628,"Ġ1994":3629,"ker":3630,"Ġcompetition":3631,"Ġthings":3632,"Ġexpected":3633,"Ġspot":3634,"Ġash":3635,"Ġcath":3636,"Ġcrow":3637,"Ġearned":3638,"mi":3639,"Ġtext":3640,"Ġcontrovers":3641,"Ġcompl":3642,"quar":3643,"Ġsout":3644,"Ġcommented":3645,"itude":3646,"Ġmatches":3647,"Ġrapid":3648,"Ġattention":3649,"Ġswe":3650,"Ġperformances":3651,"ãĥ":3652,"Ġgiving":3653,"Ġwaters":3654,"Ġnucle":3655,"Ġcry":3656,"Ġgreatest":3657,"Ġenter":3658,"Ġmichigan":3659,"Ġimper":3660,"Ġviet":3661,"Ġaccount":3662,"Ġmir":3663,"Ġfigh":3664,"Ġkar":3665,"Ġextre":3666,"Ġspl":3667,"Ġlegal":3668,"ona":3669,"Ġrefused":3670,"Ġeconomic":3671,"Ġcontact":3672,"uff":3673,"Ġcham":3674,"Ġcontinu":3675,"ounts":3676,"za":3677,"Ġsett":3678,"aped":3679,"Ġtower":3680,"Ġ49":3681,"ples":3682,"bridge":3683,"Ġmas":3684,"Ġmention":3685,"Ġhund":3686,"Ġrate":3687,"Ġelectric":3688,"Ġmun":3689,"Ġability":3690,"Ġdirection":3691,"Ġwales":3692,"Ġmeant":3693,"utions":3694,"Ġserious":3695,"Ġnotes":3696,"Ġstories":3697,"Ġstan":3698,"Ġnative":3699,"Ġ1940":3700,"Ġod":3701,"Ġpromin":3702,"Ġdeclared":3703,"Ġvocals":3704,"isher":3705,"Ġhundred":3706,"Ġpoll":3707,"Ġsund":3708,"Ġhus":3709,"Ġplease":3710,"Ġchann":3711,"Ġ180":3712,"Ġmatt":3713,"Ġlevels":3714,"Ġseparate":3715,"Ġhighly":3716,"Ġabandon":3717,"ols":3718,"Ġweather":3719,"Ġwords":3720,"gl":3721,"Ġkh":3722,"Ġfantasy":3723,"Ġfill":3724,"ims":3725,"Ġnecess":3726,"Ġdoctor":3727,"10":3728,"Ġmarriage":3729,"Ġproduce":3730,"ram":3731,"Ġtrail":3732,"Ġprep":3733,"win":3734,"Ġdefense":3735,"Ġcub":3736,"Ġconstitution":3737,"Ġpractice":3738,"Ġconstructed":3739,"Ġsle":3740,"Ġemper":3741,"Ġsource":3742,"Ġdvd":3743,"Ġthing":3744,"house":3745,"Ġcurrently":3746,"odies":3747,"ging":3748,"Ġfarm":3749,"iences":3750,"Ġdrive":3751,"Ġactually":3752,"Ġcandid":3753,"gs":3754,"icient":3755,"je":3756,"Ġ1992":3757,"umn":3758,"wide":3759,"pass":3760,"Ġrecomm":3761,"inem":3762,"Ġvocal":3763,"Ġflying":3764,"town":3765,"Ġeth":3766,"ibly":3767,"ping":3768,"Ġmeans":3769,"ette":3770,"Ġess":3771,"Ġlabor":3772,"Ġchris":3773,"Ġrow":3774,"Ġproblem":3775,"Ġwriters":3776,"Ġdyn":3777,"Ġadvent":3778,"Ġmexico":3779,"itation":3780,"Ġexecutive":3781,"Ġmedical":3782,"Ġda":3783,"Ġdirectly":3784,"Ġzealand":3785,"Ġsac":3786,"mas":3787,"Ġles":3788,"Ġcontroll":3789,"ellow":3790,"Ġultimately":3791,"ishop":3792,"Ġexhib":3793,"Ġcontinue":3794,"Ġobserv":3795,"Ġpositions":3796,"ickets":3797,"Ġmultiple":3798,"Ġnorthwest":3799,"Ġafrican":3800,"Ġpresented":3801,"edic":3802,"Ġjer":3803,"Ġeffort":3804,"Ġreduced":3805,"ding":3806,"Ġbit":3807,"Ġparis":3808,"Ġfinding":3809,"Ġ400":3810,"Ġbound":3811,"Ġchem":3812,"Ġadmiral":3813,"Ġbost":3814,"Ġtrue":3815,"writ":3816,"Ġanimals":3817,"Åį":3818,"Ġflow":3819,"band":3820,"kn":3821,"Ġefforts":3822,"Ġhouses":3823,"Ġgas":3824,"Ġformation":3825,"Ġdism":3826,"Ġmechan":3827,"Ġbob":3828,"Ġ1930":3829,"Ġlibr":3830,"Ġdepend":3831,"Ġlieut":3832,"Ġwear":3833,"ogue":3834,"Ġtried":3835,"Ġgreek":3836,"Ġsettle":3837,"rical":3838,"Ġcomedy":3839,"Ġmanchester":3840,"Ġmemorial":3841,"Ġsides":3842,"Ġaccepted":3843,"Ġstrateg":3844,"Ġattended":3845,"la":3846,"don":3847,"Ġstudies":3848,"Ġmadonna":3849,"Ġfinancial":3850,"Ġseem":3851,"Ġstating":3852,"Ġrule":3853,"Ġparal":3854,"Ġjones":3855,"lines":3856,"Ġpair":3857,"Ġhonor":3858,"Ġram":3859,"acher":3860,"Ġbegins":3861,"vement":3862,"Ġcoming":3863,"Ġrough":3864,"aming":3865,"Ġsymb":3866,"Ġluc":3867,"Ġsaint":3868,"Ġpack":3869,"Ġ1993":3870,"Ġtheatre":3871,"Ġ1991":3872,"Ġinch":3873,"track":3874,"Ġlif":3875,"Ġ183":3876,"Ġincorpor":3877,"Ġpilot":3878,"rier":3879,"Ġending":3880,"Ġorganization":3881,"Ġtraffic":3882,"isation":3883,"Ġenemy":3884,"rupt":3885,"Ġcerem":3886,"Äĩ":3887,"Ġeye":3888,"Ġ179":3889,"anes":3890,"ruction":3891,"Ġreturning":3892,"oper":3893,"Ġcases":3894,"ners":3895,"Ġscotland":3896,"ex":3897,"Ġ39":3898,"bre":3899,"Ġmob":3900,"Ġquality":3901,"ero":3902,"illery":3903,"Ġarrest":3904,"Ġkenn":3905,"Ġsurre":3906,"Ġedge":3907,"Ġcontemporary":3908,"Ġrose":3909,"Ġconfl":3910,"Ġresponsible":3911,"Ġ+":3912,"Ġprime":3913,"Ġforms":3914,"Ġmeaning":3915,"Ġpath":3916,"Ġmanaged":3917,"Ġuses":3918,"ips":3919,"Ġwound":3920,"Ġmos":3921,"Ġarab":3922,"Ġtournament":3923,"Ġapart":3924,"Ġresulting":3925,"Ġ48":3926,"Ġbass":3927,"olf":3928,"Ġproperty":3929,"Ġkept":3930,"Ġfeaturing":3931,"Ġacademy":3932,"Ġsoundtrack":3933,"ada":3934,"Ġthick":3935,"Ġshowed":3936,"Ġartists":3937,"Ġlieutenant":3938,"Ġdropped":3939,"une":3940,"Ġdetails":3941,"Ġprotest":3942,"Ġrecent":3943,"ket":3944,"rie":3945,"Ġfat":3946,"Ġauthority":3947,"Ġspirit":3948,"Ġdistance":3949,"Ġpolicy":3950,"Ġstrugg":3951,"Ġell":3952,"Ġmarsh":3953,"Ġfounded":3954,"claim":3955,"Ġfan":3956,"Ġdru":3957,"Ġemperor":3958,"Ġexped":3959,"Ġartillery":3960,"Ġboat":3961,"Ġrecommend":3962,"Ġhors":3963,"Ġcombined":3964,"Ġic":3965,"Ġwilliams":3966,"Ġacting":3967,"ceeded":3968,"Ġcontinues":3969,"Ġsecretary":3970,"Ġmu":3971,"Ġtrial":3972,"Ġmarked":3973,"Ġadministration":3974,"Ġtrip":3975,"'re":3976,"cend":3977,"Ġrot":3978,"Ġinches":3979,"rick":3980,"Ġplanet":3981,"Ġencoun":3982,"Ġnothing":3983,"Ġboston":3984,"Ġsystems":3985,"Ġpropos":3986,"Ġlin":3987,"Ġsubsequent":3988,"uge":3989,"Ġattempts":3990,"nam":3991,"Ġsixth":3992,"oe":3993,"inson":3994,"Ġdraft":3995,"thur":3996,"Ġahead":3997,"iated":3998,"gypt":3999,"Ġbeaut":4000,"Ġterritory":4001,"anta":4002,"Ġthous":4003,"Ġ41":4004,"ani":4005,"Ġnortheast":4006,"Ġstudios":4007,"Ġcasual":4008,"Ġchoice":4009,"Ġrear":4010,"Ġpotential":4011,"Ġcompanies":4012,"thel":4013,"Ġjob":4014,"icip":4015,"Ġliver":4016,"Ġpresence":4017,"Ġallowing":4018,"Ġmetres":4019,"Ġlee":4020,"Ġprepar":4021,"Ġviewers":4022,"ulations":4023,"Ġmachine":4024,"Ġscale":4025,"Ġsuppl":4026,"Ġamount":4027,"Ġlatin":4028,"Ġtarget":4029,"Ġcoal":4030,"Ġcommunic":4031,"Ġ1942":4032,"Ġegypt":4033,"Ġbehav":4034,"Ġofficials":4035,"Ġconducted":4036,"Ġpiece":4037,"Ġmaximum":4038,"Ġrespond":4039,"Ġobt":4040,"Ġseg":4041,"Ġ47":4042,"Ġcold":4043,"Ġyellow":4044,"Ġdigital":4045,"ingu":4046,"Ġfilming":4047,"Ġtemple":4048,"Ġdoll":4049,"Ġhyd":4050,"standing":4051,"Ġheadquar":4052,"Ġdefence":4053,"Ġcontrast":4054,"Ġoffer":4055,"Ġparents":4056,"Ġscoring":4057,"Ġfigure":4058,"Ġcollabor":4059,"Ġleaves":4060,"Ġtransferred":4061,"oes":4062,"'ll":4063,"Ġsenior":4064,"Ġopportun":4065,"Ġstephen":4066,"Ġrelatively":4067,"rain":4068,"Ġcorpor":4069,"Ġbrad":4070,"Ġdoing":4071,"enge":4072,"Ġgeorg":4073,"Ġstudent":4074,"Ġallied":4075,"Ġdemonst":4076,"Ġdise":4077,"Ġprimarily":4078,"Ġelev":4079,"cle":4080,"Ġowned":4081,"Ġoxford":4082,"iance":4083,"Ġplays":4084,"Ġbecomes":4085,"Ġtorped":4086,"Ġtherefore":4087,"Ġjoseph":4088,"Ġtheory":4089,"aga":4090,"Ġpeaked":4091,"Ġmort":4092,"Ġtitled":4093,"astic":4094,"Ġwond":4095,"Ġcorre":4096,"Ġcolumb":4097,"Ġpaid":4098,"stein":4099,"Ġpsych":4100,"Ġtree":4101,"Ġcitiz":4102,"ersey":4103,"Ġstock":4104,"Ġportion":4105,"Ġstrength":4106,"hi":4107,"Ġconver":4108,"Ġbattleship":4109,"Ġavenue":4110,"Ġjeff":4111,"Ġcert":4112,"Ġconcluded":4113,"orter":4114,"Ġmut":4115,"Ġpremi":4116,"Ġwrite":4117,"Ġharrison":4118,"Ġrequire":4119,"Ġsituation":4120,"Ġweaken":4121,"Ġseasons":4122,"Ġinvasion":4123,"Ġ46":4124,"Ġshare":4125,"ita":4126,"Ġchair":4127,"Ġbroke":4128,"uled":4129,"Ġfunction":4130,"Ġcool":4131,"ented":4132,"Ġdrama":4133,"Ġphysical":4134,"Ġtransl":4135,"Ġmile":4136,"Ġselling":4137,"Ġresults":4138,"Ġalongside":4139,"Ġserve":4140,"ider":4141,"Ġobserved":4142,"Ġ42":4143,"arent":4144,"Ġsecurity":4145,"Ġdistinct":4146,"ini":4147,"Ġborder":4148,"Ġswed":4149,"Ġpowerful":4150,"Ġshell":4151,"Ġslightly":4152,"Ġminim":4153,"Ġseconds":4154,"Ġcalling":4155,"Ġsteam":4156,"Ġconcent":4157,"Ġpersonnel":4158,"Ġathlet":4159,"adel":4160,"Ġdivided":4161,"iles":4162,"istics":4163,"Ġsources":4164,"Ġfred":4165,"Ġcities":4166,"Ġhistorical":4167,"Ġ1944":4168,"zy":4169,"Ġwars":4170,"ca":4171,"Ġarts":4172,"Ġ64":4173,"Ġinh":4174,"Ġhan":4175,"read":4176,"iced":4177,"ching":4178,"Ġcontest":4179,"Ġmanagement":4180,"Ġcharl":4181,"Ġcouple":4182,"chest":4183,"Ġreject":4184,"Ġott":4185,"Ġadj":4186,"Ġhistorian":4187,"Ġonto":4188,"Ġsust":4189,"Ġ44":4190,"Ġfear":4191,"Ġfreed":4192,"Ġplatform":4193,"ota":4194,"Ġimperial":4195,"Ġlov":4196,"Ġnominated":4197,"Ġvess":4198,"Ġcanc":4199,"Ġactions":4200,"Ġow":4201,"unt":4202,"Ġbirds":4203,"Ġtrust":4204,"Ġplaces":4205,"Ġkg":4206,"Ġcrown":4207,"Ġinfluenced":4208,"ctive":4209,"Ġactivity":4210,"Ġfish":4211,"Ġ55":4212,"mond":4213,"Ġinnings":4214,"ils":4215,"Ġire":4216,"yer":4217,"Ġolder":4218,"Ġsuc":4219,"Ġpoet":4220,"Ġresidents":4221,"where":4222,"Ġresc":4223,"force":4224,"po":4225,"Ġlane":4226,"ellig":4227,"Ġrod":4228,"Ġdesignated":4229,"Ġpassing":4230,"Ġpromoted":4231,"ees":4232,"Ġbbc":4233,"Ġcultural":4234,"Ġry":4235,"Ġconflict":4236,"Ġwebs":4237,"Ġcompletely":4238,"Ġpul":4239,"Ġmis":4240,"Ġsubs":4241,"Ġcroat":4242,"Ġassistant":4243,"Ġheight":4244,"Ġweight":4245,"Ġsense":4246,"road":4247,"Ġmainly":4248,"rate":4249,"phy":4250,"Ġsexual":4251,"Ġrated":4252,"Ġarms":4253,"Ġorchest":4254,"Ġpaper":4255,"Ġstruck":4256,"istry":4257,"Ġcharts":4258,"Ġreplac":4259,"stone":4260,"Ġ1920":4261,"Ġhands":4262,"Ġsought":4263,"Ġancient":4264,"Ġencour":4265,"Ġcontent":4266,"Ġbaseball":4267,"Ġcheck":4268,"Ġ1945":4269,"ills":4270,"Ġcharge":4271,"iano":4272,"Ġ150":4273,"Ġfeed":4274,"Ġdoub":4275,"Ġitaly":4276,"Ġ1941":4277,"Ġvari":4278,"Ġri":4279,"lement":4280,"gers":4281,"Ġconsec":4282,"Ġfres":4283,"Ġheard":4284,"Ġspect":4285,"Ġtend":4286,"Ġimage":4287,"Ġreaching":4288,"Ġwelcome":4289,"Ġdang":4290,"Ġfellow":4291,"Ġfiction":4292,"Ġkr":4293,"Ġinstrument":4294,"Ġcomes":4295,"Ġweapons":4296,"Ġmit":4297,"ube":4298,"Ġalone":4299,"Ġ181":4300,"Ġspend":4301,"Ġchannel":4302,"Ġsetting":4303,"olved":4304,"Ġamericans":4305,"Ġwidely":4306,"pool":4307,"Ġfavour":4308,"Ġunf":4309,"Ġmurder":4310,"ura":4311,"while":4312,"Ġmedal":4313,"Ġbeyond":4314,"Ġjersey":4315,"Ġ52":4316,"Ġsr":4317,"Ġeconomy":4318,"Ġemot":4319,"Ġsport":4320,"ques":4321,"Ġhabit":4322,"Ġappearances":4323,"Ġintellig":4324,"Ġshel":4325,"Ġconfirmed":4326,"ylv":4327,"dy":4328,"rative":4329,"Ġgra":4330,"Ġsteel":4331,"Ġjoin":4332,"attle":4333,"Ġlibrary":4334,"Ġgained":4335,"Ġireland":4336,"Ġbrothers":4337,"Ġfloor":4338,"Ġbru":4339,"roll":4340,"Ġcarl":4341,"bon":4342,"Ġsplit":4343,"ule":4344,"Ġextra":4345,"Ġreign":4346,"Ġsays":4347,"Ġversions":4348,"Ġelement":4349,"Ġproved":4350,"Ġsuit":4351,"known":4352,"Ġanalys":4353,"Ġalt":4354,"Ġheadquarters":4355,"aling":4356,"mans":4357,"Ġtrying":4358,"oration":4359,"Ġexplained":4360,"Ġbowl":4361,"Ġmanu":4362,"Ġtay":4363,"Ġsens":4364,"cers":4365,"Ġmatter":4366,"Ġactors":4367,"Ġexpans":4368,"oman":4369,"Ġnegot":4370,"ares":4371,"Ġfal":4372,"Ġrainfall":4373,"Ġ1989":4374,"Ġspeech":4375,"Ġcausing":4376,"Ġdedic":4377,"Ġactress":4378,"Ġ182":4379,"Ġbarb":4380,"Ġ1943":4381,"Ġvictoria":4382,"Ġfrancisco":4383,"ancy":4384,"ij":4385,"Ġdw":4386,"Ġcatholic":4387,"Ġexpressed":4388,"Ġfigures":4389,"inn":4390,"Ġequipment":4391,"Ġworkers":4392,"Ġatm":4393,"Ġpap":4394,"Ġarticle":4395,"Ġhorses":4396,"Ġapparent":4397,"Ġreserve":4398,"gu":4399,"Ġroads":4400,"Ġreports":4401,"Ġ43":4402,"Ġexperiment":4403,"mark":4404,"Ġgrowth":4405,"usion":4406,"ety":4407,"Ġactivities":4408,"Ġbranch":4409,"Ġbott":4410,"Ġoccasion":4411,"Ġhusband":4412,"Ġgross":4413,"Ġoffensive":4414,"Ġjustice":4415,"Ġprominent":4416,"Ġadvanced":4417,"Ġcategory":4418,"Ġwhy":4419,"Ġsnow":4420,"Ġfine":4421,"stre":4422,"bye":4423,"ighth":4424,"Ġcapture":4425,"yle":4426,"Ġidentified":4427,"Ġserving":4428,"Ġofficially":4429,"Ġbelieve":4430,"oured":4431,"Ġworldwide":4432,"Ġtells":4433,"Ġinteract":4434,"Ġsoft":4435,"Ġtry":4436,"Ġarmed":4437,"Ġescape":4438,"Ġhear":4439,"Ġpattern":4440,"Ġmanufact":4441,"iring":4442,"Ġpieces":4443,"Ġgolden":4444,"Ġheavily":4445,"Ġcomputer":4446,"Ġtrees":4447,"Ġsenate":4448,"Ġjul":4449,"iÄĩ":4450,"Ġorders":4451,"Ġrepresented":4452,"Ġadapt":4453,"Ġmeanwhile":4454,"Ġcricket":4455,"Ġtreatment":4456,"Ġtable":4457,"Ġatmosp":4458,"Ġlives":4459,"Ġhat":4460,"Ġ65":4461,"Ġavoid":4462,"bit":4463,"Ġimag":4464,"Ġleaders":4465,"Ġfired":4466,"Ġprin":4467,"Ġtoward":4468,"Ġlaid":4469,"Ġid":4470,"Ġanth":4471,"Ġinjury":4472,"Ġduke":4473,"ylvania":4474,"Ġunknown":4475,"rid":4476,"Ġsupply":4477,"Ġagreement":4478,"Ġlosses":4479,"Ġexpedition":4480,"abeth":4481,"Ġdutch":4482,"Ġillust":4483,"Ġevening":4484,"Ġdescription":4485,"Ġalbert":4486,"Ġdata":4487,"iday":4488,"Ġcarolina":4489,"iber":4490,"Ġkilomet":4491,"Ġunlike":4492,"Ġeliz":4493,"Ġstrike":4494,"more":4495,"Ġeditor":4496,"Ġstore":4497,"Ġwalls":4498,"Ġcinem":4499,"acity":4500,"Ġmig":4501,"Ġconsisted":4502,"Ġcra":4503,"essions":4504,"Ġdebuted":4505,"ours":4506,"bi":4507,"Ġsher":4508,"ola":4509,"Ġbart":4510,"Ġta":4511,"Ġgil":4512,"Ġopin":4513,"Ġaired":4514,"Ġspin":4515,"ushed":4516,"Ġargued":4517,"Ġsunday":4518,"Ġsky":4519,"Ġstations":4520,"Ġjon":4521,"Ġtypically":4522,"osen":4523,"Ġopposition":4524,"Ġreference":4525,"Ġsevere":4526,"Ġresident":4527,"Ġtwice":4528,"Ġ51":4529,"pton":4530,"Ġhomer":4531,"Ġpowers":4532,"Ġmounted":4533,"Ġknight":4534,"Ġtechnology":4535,"Ġclaims":4536,"Ġpolish":4537,"Ġnations":4538,"bn":4539,"Ġaffected":4540,"Ġindustrial":4541,"Ġfaced":4542,"Ġlanding":4543,"Ġanimal":4544,"Ġaspect":4545,"Ġaccident":4546,"Ġsupre":4547,"Ġ600":4548,"ux":4549,"Ġnotable":4550,"Ġkid":4551,"Ġkick":4552,"Ġvalue":4553,"Ġric":4554,"Ġemph":4555,"Ġdaniel":4556,"elle":4557,"Ġseat":4558,"onc":4559,"oty":4560,"Ġprotection":4561,"Ġmaintained":4562,"rey":4563,"Ġconne":4564,"Ġba":4565,"Ġconvers":4566,"Ġholly":4567,"Ġsail":4568,"Ġdur":4569,"ifying":4570,"Ġvisited":4571,"Ġspread":4572,"Ġcriticized":4573,"Ġassault":4574,"Ġjoint":4575,"Ġdelay":4576,"Ġfully":4577,"Ġbroken":4578,"Ġsom":4579,"Ġfuel":4580,"Ġhope":4581,"Ġmotor":4582,"ocks":4583,"worth":4584,"Ġdefin":4585,"iate":4586,"emic":4587,"Ġgrowing":4588,"Ġmoon":4589,"Ġcooper":4590,"Ġchosen":4591,"enger":4592,"ruit":4593,"Ġseventh":4594,"Ġmotion":4595,"Ġnarrow":4596,"ockey":4597,"Ġscottish":4598,"Ġtwel":4599,"gian":4600,"Ġlands":4601,"Ġet":4602,"Ġhip":4603,"Ġtaylor":4604,"Ġ1987":4605,"Ġbac":4606,"agn":4607,"Ġcondition":4608,"Ġmul":4609,"Ġinstitute":4610,"Ġfrequently":4611,"Ġlabel":4612,"estic":4613,"Ġtwelve":4614,"Ġ1988":4615,"Ġcompar":4616,"Ġrival":4617,"under":4618,"Ġyouth":4619,"Ġsolo":4620,"Ġcriticism":4621,"har":4622,"ano":4623,"Ġproducers":4624,"Ġmd":4625,"Ġurban":4626,"hire":4627,"clusion":4628,"ayer":4629,"Ġentr":4630,"Ġreserv":4631,"Ġpenns":4632,"Ġtheater":4633,"izes":4634,"Ġphilos":4635,"Ġcaval":4636,"Ġbol":4637,"Ġtra":4638,"Ġwounded":4639,"Ġnest":4640,"Ġcomic":4641,"Ġcreation":4642,"Ġaccompan":4643,"Ġvice":4644,"Ġchor":4645,"Ġoppos":4646,"Ġinte":4647,"Ġlew":4648,"Ġnewspaper":4649,"Ġbillion":4650,"Ġsurrounding":4651,"Ġindependence":4652,"Ġdegree":4653,"rael":4654,"ew":4655,"Ġcomposition":4656,"Ġoperated":4657,"ordin":4658,"Ġregister":4659,"Ġchampion":4660,"Ġassembly":4661,"Ġjac":4662,"Ġflat":4663,"Ġrepublican":4664,"Ġnuclear":4665,"Ġeyes":4666,"Ġlosing":4667,"Ġdry":4668,"illy":4669,"Ġchristmas":4670,"Ġpalace":4671,"Ġsoutheast":4672,"Ġfamous":4673,"Ġgrew":4674,"Ġsell":4675,"wise":4676,"Ġdream":4677,"Ġfollows":4678,"Ġsimply":4679,"Ġaddress":4680,"Ġoppon":4681,"Ġbudget":4682,"hew":4683,"Ġincident":4684,"Ġandrew":4685,"Ġ54":4686,"Ġrisk":4687,"Ġcontained":4688,"Ġnewly":4689,"Ġegg":4690,"Ġkilling":4691,"Ġvote":4692,"Ġexpansion":4693,"Ġnormal":4694,"Ġaer":4695,"urb":4696,"Ġcannot":4697,"Ġherself":4698,"Ġends":4699,"Ġpasses":4700,"Ġagric":4701,"Ġjoe":4702,"Ġpros":4703,"Ġwebsite":4704,"mission":4705,"Ġbc":4706,"Ġweekly":4707,"kin":4708,"osh":4709,"Ġgoodbye":4710,"Ġplanning":4711,"fully":4712,"Ġindividuals":4713,"Ġwilson":4714,"Ġtam":4715,"Ġgh":4716,"wall":4717,"Ġclassic":4718,"jo":4719,"ivity":4720,"Ġapplic":4721,"ucky":4722,"Ġstraight":4723,"ias":4724,"Ġhistoric":4725,"Ġcook":4726,"ote":4727,"Ġattrib":4728,"Ġ97":4729,"Ġhomes":4730,"Ġpossibly":4731,"Ã¨":4732,"water":4733,"isters":4734,"Ġnav":4735,"ala":4736,"Ġconsecutive":4737,"Ġfresh":4738,"Ġemphas":4739,"Ġ56":4740,"Ġchronic":4741,"Ġchose":4742,"Ġcrossing":4743,"Ġvolume":4744,"Ġweak":4745,"Ġyeah":4746,"Ġrise":4747,"Ġevac":4748,"Ġ1986":4749,"Ġmeasure":4750,"Ġsupporting":4751,"gend":4752,"Ġconsequ":4753,"Ġperman":4754,"Ġdates":4755,"Ġnote":4756,"Ġelizabeth":4757,"Ġmax":4758,"Ġopposed":4759,"Ġdavis":4760,"Ġalexander":4761,"Ġstanding":4762,"kins":4763,"Ġrooms":4764,"akers":4765,"Ġgarden":4766,"ographer":4767,"Ġsequence":4768,"Ġwave":4769,"Ġnic":4770,"Ġpoly":4771,"Ġparticipated":4772,"Ġagricult":4773,"rane":4774,"Ġscheduled":4775,"Ġthemes":4776,"Ġpier":4777,"Ġdub":4778,"lam":4779,"Ġarc":4780,"Ġcapacity":4781,"ancing":4782,"Ġcolonel":4783,"Ġleadership":4784,"Ġvon":4785,"Ġadopted":4786,"Ġbasket":4787,"prise":4788,"Ġkit":4789,"Ġmike":4790,"Ġeld":4791,"Ġcustom":4792,"Ġharry":4793,"adelph":4794,"Ġhair":4795,"azz":4796,"Ġskin":4797,"Ġfamil":4798,"Ġdisease":4799,"Ġlady":4800,"Ġadvant":4801,"Ġabandoned":4802,"Ġdowntown":4803,"rong":4804,"Ġalright":4805,"ãĤ":4806,"Ġextend":4807,"Ġtorpedo":4808,"Ġfilmed":4809,"Ġphiladelph":4810,"Ġpennsylvania":4811,"aven":4812,"room":4813,"Ġplants":4814,"Ġvac":4815,"Ġ76":4816,"onic":4817,"Ã¤":4818,"Ġvisual":4819,"Ġdemocratic":4820,"Ġrand":4821,"Ġbasis":4822,"imens":4823,"iled":4824,"uting":4825,"Ġnegative":4826,"Ġtall":4827,"Ġlegend":4828,"Ġgirls":4829,"Ġprompt":4830,"Ġdeploy":4831,"greg":4832,"uit":4833,"Ġspain":4834,"Ġcreating":4835,"Ġdrop":4836,"Ġappl":4837,"Ġwed":4838,"Ġeag":4839,"Ġfailure":4840,"Ġchalleng":4841,"Ġbenef":4842,"Ġgameplay":4843,"Ġtank":4844,"Ġ177":4845,"Ġclin":4846,"Ġphiladelphia":4847,"Ġregarded":4848,"uses":4849,"Ġirish":4850,"Ġridge":4851,"Ġtreaty":4852,"isers":4853,"Ġcore":4854,"Ġbodies":4855,"Ġcanal":4856,"iana":4857,"ko":4858,"Ġdistingu":4859,"Ġfoundation":4860,"Ġdeliver":4861,"Ġflu":4862,"Ġsin":4863,"Ġdidn":4864,"Ġsel":4865,"Ġlap":4866,"Ġeverything":4867,"Ġmist":4868,"Ġ95":4869,"Ġinterchange":4870,"Ġideas":4871,"Ġzone":4872,"Ġdeck":4873,"Ġmerch":4874,"Ġextensive":4875,"Ġparalle":4876,"gal":4877,"Ġpin":4878,"Ġretired":4879,"Ġadvert":4880,"Ġdismiss":4881,"Ġlind":4882,"Ġ53":4883,"amm":4884,"Ġpy":4885,"Ġnob":4886,"Ġtypes":4887,"Ġori":4888,"uls":4889,"tv":4890,"rol":4891,"Ġgate":4892,"Ġsurrender":4893,"Ġ178":4894,"Ġyounger":4895,"Ġaid":4896,"Ġperforming":4897,"rich":4898,"Ġlic":4899,"ruct":4900,"Ġratings":4901,"Ġhockey":4902,"Ġrecently":4903,"Ġglass":4904,"hol":4905,"Ġthor":4906,"Ġexplos":4907,"Ġscholars":4908,"Ġroles":4909,"anda":4910,"ledge":4911,"Ġlimit":4912,"Ġworth":4913,"Ġdial":4914,"Ġarthur":4915,"Ġpret":4916,"Ġfranch":4917,"Ġsoul":4918,"Ġlem":4919,"mes":4920,"Ġbishop":4921,"Ġ1939":4922,"Ġanalysis":4923,"Ġopera":4924,"Ġaim":4925,"Ġsouthwest":4926,"Ġbanks":4927,"Ġregional":4928,"Ġdrew":4929,"Ġga":4930,"Ġpiano":4931,"Ġimproved":4932,"Ġrepeated":4933,"Ġachieved":4934,"Ġnecessary":4935,"Ġbom":4936,"Ġnap":4937,"Ġhay":4938,"Ġeffective":4939,"Ġdip":4940,"Ġbriefly":4941,"va":4942,"Ġtrou":4943,"Ġisrael":4944,"Ġsche":4945,"Ġliverpool":4946,"Ġpurpose":4947,"Ġturns":4948,"ienced":4949,"Ġ66":4950,"Ġroof":4951,"Ġchamber":4952,"Ġdram":4953,"Ġfame":4954,"Ġunsu":4955,"eper":4956,"orters":4957,"Ġsud":4958,"Ġonline":4959,"Ġfro":4960,"Ġhousehold":4961,"Ġcalc":4962,"Ġdefensive":4963,"Ġvehicles":4964,"Ġcaught":4965,"Ġgranted":4966,"Ġcitizens":4967,"Ġped":4968,"Ġ1985":4969,"Ġrejected":4970,"Ġupgr":4971,"Ġtransform":4972,"ja":4973,"arked":4974,"Ġkir":4975,"Ġorganized":4976,"Ġ1968":4977,"Ġreceive":4978,"Ġmarine":4979,"Ġgenus":4980,"Ġkilometres":4981,"Ġhorn":4982,"Ġhou":4983,"Ġble":4984,"Ġjes":4985,"Ġprovince":4986,"Ġrhy":4987,"resp":4988,"Ġsecondary":4989,"Ġsimple":4990,"Ġexpanded":4991,"Ġgoes":4992,"Ġbraz":4993,"set":4994,"Ġauthorities":4995,"Ġcode":4996,"Ġflooding":4997,"Ġarrival":4998,"Ġcommissioned":4999,"Ġchance":5000,"Ġwhit":5001,"Ġshowing":5002,"Ġwins":5003,"Ġohio":5004,"lers":5005,"iments":5006,"shire":5007,"Ġfamilies":5008,"Ġfreedom":5009,"Ġcavalry":5010,"Ġdivers":5011,"station":5012,"Ġacquired":5013,"illa":5014,"zer":5015,"rat":5016,"Ġweb":5017,"Ġmentioned":5018,"Ġmoder":5019,"Ġsuccessfully":5020,"Ġpicture":5021,"Ġagent":5022,"fri":5023,"Ġletters":5024,"Ġdetermined":5025,"Ġalle":5026,"Ġliterature":5027,"stream":5028,"ading":5029,"Ġunus":5030,"het":5031,"Ġdescribes":5032,"Ġfought":5033,"uate":5034,"umber":5035,"Ġtitles":5036,"Ġkings":5037,"Ġbright":5038,"utation":5039,"Ġtowns":5040,"Ġ57":5041,"Ġtenn":5042,"Ġclou":5043,"Ġsinging":5044,"Ġfreeway":5045,"Ġsafety":5046,"Ġhydro":5047,"Ġconvention":5048,"Å¡":5049,"Ġtail":5050,"Ġ1984":5051,"Ġ800":5052,"ope":5053,"rec":5054,"iger":5055,"Ġgives":5056,"sp":5057,"Ġgenre":5058,"inity":5059,"oln":5060,"Ġsuggests":5061,"haps":5062,"Ġgeorgia":5063,"rif":5064,"Ġmicro":5065,"Ġsupreme":5066,"Ġcommonly":5067,"Ġclar":5068,"Ġ85":5069,"Ġcrime":5070,"Ġperhaps":5071,"oted":5072,"Ġcenturies":5073,"Ġspr":5074,"Ġcontain":5075,"Ġunique":5076,"Ġrevol":5077,"Ġregarding":5078,"Ġtrains":5079,"ifications":5080,"Ġsave":5081,"Ġdistribution":5082,"Ġ120":5083,"Ġkel":5084,"Ġfinds":5085,"Ġcambridge":5086,"Ġmyth":5087,"Ġready":5088,"Ġlocations":5089,"Ġfix":5090,"Ġprotect":5091,"Ġshooting":5092,"Ġcontrolled":5093,"Ġalternative":5094,"Ġron":5095,"Ġsets":5096,"Ġwithdraw":5097,"Ġfacilities":5098,"Ġquite":5099,"Ġgri":5100,"wick":5101,"Ġmerc":5102,"tar":5103,"Ġbrook":5104,"een":5105,"Ġka":5106,"Ġmedic":5107,"Ġprincipal":5108,"Ġvirt":5109,"Ġreaction":5110,"Ġgraph":5111,"oma":5112,"Ġsie":5113,"Ġdecre":5114,"Ġkorean":5115,"Ġselection":5116,"Ġlis":5117,"Ġ1967":5118,"Ġeat":5119,"Ġwrestling":5120,"amin":5121,"Ġestate":5122,"Ġrules":5123,"umes":5124,"Ġwitness":5125,"Ġrussia":5126,"fort":5127,"Ġrub":5128,"Ġsubmar":5129,"Ġsession":5130,"Ġreading":5131,"Ġhits":5132,"box":5133,"ĠÎ":5134,"Ġtag":5135,"Ġbelong":5136,"Ġdemand":5137,"Ġmand":5138,"Ġscientific":5139,"outs":5140,"Ġfinish":5141,"Ġgain":5142,"ilton":5143,"Ġexchange":5144,"Ġcontaining":5145,"oul":5146,"Ġanne":5147,"pa":5148,"Ġaccompanied":5149,"Ġpublication":5150,"Ġbrid":5151,"Ġdomestic":5152,"Ġfighter":5153,"Ġteach":5154,"Ġtact":5155,"Ġnintend":5156,"Ġss":5157,"Ġtouchdown":5158,"Ġcrowd":5159,"mouth":5160,"Ġceremony":5161,"Ġlinc":5162,"och":5163,"Ġboats":5164,"Ġmouth":5165,"Ġpurchased":5166,"ables":5167,"Ġasia":5168,"Ġentirely":5169,"Ġcampus":5170,"Ġnintendo":5171,"friend":5172,"unk":5173,"da":5174,"Ġrum":5175,"Ġwindows":5176,"Ġ58":5177,"Ġcolumbia":5178,"ington":5179,"Ġconcer":5180,"Ġfash":5181,"agan":5182,"inger":5183,"Ġexisting":5184,"Ġboys":5185,"Ġremix":5186,"Ġbrand":5187,"Ġgrey":5188,"Ġprovides":5189,"Ġfirm":5190,"Ġdedicated":5191,"Ġlegacy":5192,"Ġsingap":5193,"Ġjean":5194,"Ġintensity":5195,"Ġcd":5196,"Ġcontributed":5197,"Ġbes":5198,"Ġbrazil":5199,"Ġpremier":5200,"Ġcars":5201,"Ġjewish":5202,"Ġuns":5203,"Ġ74":5204,"Ġgetting":5205,"Ġbasketball":5206,"Ġthrow":5207,"Ġken":5208,"rising":5209,"Ġheat":5210,"Ġadap":5211,"Ġpage":5212,"Ġeighth":5213,"Ġcasualties":5214,"burgh":5215,"Ġoak":5216,"Ġ1983":5217,"Ġresemb":5218,"kes":5219,"Ġresistance":5220,"Ġbattery":5221,"icks":5222,"Ġax":5223,"Ġsites":5224,"Ġadvantage":5225,"Ġans":5226,"Ġcarey":5227,"ulate":5228,"Ġoccupied":5229,"Ġmarc":5230,"Ġproduct":5231,"Ġ1969":5232,"Ġlincoln":5233,"Ġsingapore":5234,"Ġgib":5235,"Ġheads":5236,"Ġholding":5237,"respond":5238,"Ġcorrespond":5239,"Ġexact":5240,"Ġgulf":5241,"oses":5242,"Ġ1964":5243,"Ġcoastal":5244,"Ġmiller":5245,"Ġgay":5246,"Ġlad":5247,"Ġresour":5248,"Ġpromotion":5249,"Ġstructures":5250,"Ġelimin":5251,"Ġdrawn":5252,"Ġsteve":5253,"Ġprotected":5254,"Ġregions":5255,"Ġgill":5256,"Ġsor":5257,"Ġ1914":5258,"iny":5259,"itled":5260,"Ġconqu":5261,"Ġdisney":5262,"Ġclosely":5263,"engers":5264,"Ġbaby":5265,"Ġhms":5266,"rons":5267,"Ġ59":5268,"Ġreceiving":5269,"ection":5270,"Ġplaystation":5271,"Ġuncle":5272,"Ġpenal":5273,"Ġopportunity":5274,"ĠâĪ":5275,"Ġlaws":5276,"cript":5277,"Ġ1918":5278,"Ġlewis":5279,"Ġhung":5280,"Ġturning":5281,"Ġ#":5282,"Ġshall":5283,"Ġjudge":5284,"Ġmyster":5285,"Ġ1971":5286,"Ġjr":5287,"Ġneighbor":5288,"Ġ1982":5289,"Ġcalls":5290,"Ġconsists":5291,"Ġbrian":5292,"gn":5293,"Ġgeneration":5294,"Ġanderson":5295,"Ġcorner":5296,"Ġrolling":5297,"Ġ1972":5298,"Ġ1979":5299,"Ġroughly":5300,"Ġgrade":5301,"Ġproviding":5302,"Ġ1966":5303,"Ġacts":5304,"Ġdefined":5305,"Ġjourney":5306,"Ġfashion":5307,"Ġviews":5308,"ware":5309,"Ġbyz":5310,"Ġrailroad":5311,"otic":5312,"Ġstrengt":5313,"Ġolympic":5314,"Ġsymbol":5315,"Ġextrem":5316,"verse":5317,"Ġexperienced":5318,"Ġtask":5319,"Ġbull":5320,"Ġhyp":5321,"Ġbands":5322,"garian":5323,"Ġcorrect":5324,"Ġrome":5325,"ocated":5326,"bound":5327,"una":5328,"Ġsurvey":5329,"Ġretire":5330,"Ġ1965":5331,"Ġbyzant":5332,"Ġfocused":5333,"Ġengaged":5334,"Ġhind":5335,"awa":5336,"Ġpolitics":5337,"Ġviewed":5338,"ua":5339,"Ġintelligence":5340,"Ġ99":5341,"Ġreligion":5342,"rant":5343,"ifically":5344,"Ġ62":5345,"mann":5346,"Ġsolid":5347,"Ġbottom":5348,"Ġguy":5349,"Ġmountains":5350,"Ġsemi":5351,"Ġdeveloping":5352,"Ġ1975":5353,"Ġ61":5354,"Ġmap":5355,"Ġrelief":5356,"Ġhollywood":5357,"Ġshared":5358,"Ġappeal":5359,"Ġnhl":5360,"Ġdress":5361,"Ġtemperature":5362,"Ġhired":5363,"Ġrapidly":5364,"Ġthin":5365,"Ġinvestigation":5366,"Ġearliest":5367,"opher":5368,"Ġtow":5369,"Ġdisapp":5370,"Ġwalter":5371,"Ġmissing":5372,"Ġenl":5373,"Ġsort":5374,"Ġmales":5375,"Ġplayoff":5376,"Ġshut":5377,"Ġhighlight":5378,"Ġfaith":5379,"Ã¸":5380,"Ġcredits":5381,"Ġphase":5382,"Ġgram":5383,"Ġgermans":5384,"Ã¡n":5385,"Ġlaunch":5386,"Ġpretty":5387,"Ġrecognized":5388,"Ġintroduction":5389,"Ġshape":5390,"heim":5391,"Ġ77":5392,"cles":5393,"omy":5394,"Ġhart":5395,"Ġ1974":5396,"Ġjunior":5397,"Ġpainting":5398,"Ġvent":5399,"Ġgord":5400,"Ġbelief":5401,"Ġfalls":5402,"Ġ1973":5403,"nic":5404,"see":5405,"Ġgy":5406,"iful":5407,"Ġfolk":5408,"Ġappoint":5409,"Ġprepared":5410,"Ġwonder":5411,"Ġisol":5412,"Ġfranchise":5413,"Ġdescend":5414,"Ġwings":5415,"essed":5416,"Ġsubstant":5417,"Ġknew":5418,"Ġtyph":5419,"Ġconve":5420,"Ġglobal":5421,"Ġnaz":5422,"Ġopinion":5423,"enc":5424,"Ġ1976":5425,"Ġserb":5426,"Ġraid":5427,"Ġsignificantly":5428,"Ġcens":5429,"Ġauth":5430,"Ġlb":5431,"Ġamend":5432,"Ġintersection":5433,"aka":5434,"Ġprojects":5435,"Ġapproved":5436,"Ġliterary":5437,"Ġadding":5438,"Ġinterested":5439,"Ġdiam":5440,"Ġcabin":5441,"Ġexerc":5442,"etts":5443,"Ġarchae":5444,"Ġpenins":5445,"Ġknowledge":5446,"Ġvic":5447,"rence":5448,"Ġthanks":5449,"Ġsab":5450,"Ġwheel":5451,"Ġmovies":5452,"apped":5453,"Ġreasons":5454,"Ġari":5455,"Ġcris":5456,"wart":5457,"mod":5458,"Ġcape":5459,"Ġconfeder":5460,"Ġarsen":5461,"Ġshop":5462,"bl":5463,"ologist":5464,"Ġward":5465,"ishes":5466,"Ġchallenge":5467,"ographic":5468,"Ġunsuccess":5469,"oncÃ©":5470,"ients":5471,"Ġ67":5472,"achus":5473,"Ġmexican":5474,"Ġmusl":5475,"Ġcryst":5476,"ocked":5477,"Ġsatur":5478,"eme":5479,"asty":5480,"Ġatmosphere":5481,"Ġplus":5482,"Ġsyd":5483,"Ġ250":5484,"erted":5485,"Ġstages":5486,"wich":5487,"Ġevolution":5488,"Ġexpect":5489,"Ġsettlement":5490,"Ġoperating":5491,"Ġequal":5492,"zen":5493,"atures":5494,"Ġpoem":5495,"Ġescort":5496,"eds":5497,"Ġstoryline":5498,"lav":5499,"itan":5500,"ira":5501,"Ġjam":5502,"unte":5503,"Ġinternal":5504,"Ġthirty":5505,"Ġblues":5506,"Ġhills":5507,"Ġrenamed":5508,"ĠbeyoncÃ©":5509,"Ġreputation":5510,"Ġscul":5511,"Ġtriple":5512,"ador":5513,"Ġallies":5514,"Ġshaped":5515,"Ġwatched":5516,"Ġsed":5517,"Ġrebu":5518,"Ġinjured":5519,"Ġproceed":5520,"Ġheaded":5521,"Ġshore":5522,"Ġvolunte":5523,"Ġbern":5524,"Ġneverthel":5525,"Ġemployed":5526,"Ġnevertheless":5527,"ati":5528,"Ġpopularity":5529,"Ġhumans":5530,"Ġenjoyed":5531,"Ġautom":5532,"Ġneither":5533,"Ġprofessor":5534,"Ġfavorite":5535,"Ġlas":5536,"Ġincreasingly":5537,"Ġpaint":5538,"hens":5539,"Ġguide":5540,"Ġneut":5541,"Ġways":5542,"Ġhouston":5543,"Ġfemales":5544,"Ġraf":5545,"Ġconnected":5546,"Ġcited":5547,"Ġkentucky":5548,"Ġ96":5549,"aver":5550,"ev":5551,"Ġwealth":5552,"Ġ72":5553,"Ġ1946":5554,"appe":5555,"Ġ68":5556,"Ġgrav":5557,"Ġmodels":5558,"Ġdeclined":5559,"Ġexistence":5560,"Ġviolence":5561,"Ġ1981":5562,"Ġconverted":5563,"Ġpear":5564,"Ġsculpt":5565,"ato":5566,"istan":5567,"Ġcollected":5568,"arm":5569,"Ġentry":5570,"Ġswim":5571,"Ġlabour":5572,"Ġdepth":5573,"Ġmassachus":5574,"Ġlearned":5575,"Ġsustained":5576,"sey":5577,"ĠâĪĴ":5578,"kend":5579,"Ġgrounds":5580,"time":5581,"Ġcontroversy":5582,"Ġnorway":5583,"met":5584,"inum":5585,"ella":5586,"Ġmassachusetts":5587,"Ġsad":5588,"Ġtorn":5589,"Ġconsum":5590,"onym":5591,"Ġ1917":5592,"Ġimpl":5593,"Ġvolcan":5594,"Ġchampionships":5595,"Ġcrimin":5596,"Ġouter":5597,"oli":5598,"Ġflights":5599,"Ġquestions":5600,"Ġolympics":5601,"Ġvel":5602,"Ġ78":5603,"Ġroy":5604,"Ġseems":5605,"Ġbron":5606,"Ġsynt":5607,"Ġnone":5608,"Ġ87":5609,"Ġapplied":5610,"ceived":5611,"Ġcamera":5612,"hr":5613,"istol":5614,"iform":5615,"Ġallows":5616,"Ġspecifically":5617,"Ġteacher":5618,"ek":5619,"Ġmine":5620,"Ġinterp":5621,"Ġdinner":5622,"Ġgang":5623,"Ġpitch":5624,"Ġones":5625,"Ġoccas":5626,"ava":5627,"apes":5628,"Ġclark":5629,"Ġhang":5630,"Ġcells":5631,"Ġbuff":5632,"Ġdecade":5633,"ropri":5634,"Ġ160":5635,"Ġaware":5636,"Ġentrance":5637,"Ġapproached":5638,"Ġeasily":5639,"Ġcarrying":5640,"Ġgray":5641,"Ġtests":5642,"Ġdiscovery":5643,"Ġgree":5644,"Ġraw":5645,"Ġjay":5646,"osis":5647,"Ġconfron":5648,"Ġdesigns":5649,"Ġteen":5650,"Ġdownlo":5651,"Ġresponded":5652,"Ġdoor":5653,"Ġitems":5654,"Ġhug":5655,"Ġtechnical":5656,"Ġfoss":5657,"Ġevil":5658,"Ġsons":5659,"Ġ1948":5660,"ima":5661,"Ġts":5662,"ras":5663,"Ġindu":5664,"Ġ700":5665,"Ġacres":5666,"Ġchairman":5667,"psons":5668,"Ġburied":5669,"Ġduty":5670,"Ġbush":5671,"eral":5672,"Ġextension":5673,"Ġsalt":5674,"Ġnas":5675,"Ġ69":5676,"Ġgradually":5677,"Ġconvoy":5678,"break":5679,"ipe":5680,"Ġsucceeded":5681,"Ġgone":5682,"Ġ63":5683,"Ġsections":5684,"aine":5685,"Ġmayor":5686,"Ġastron":5687,"Äģ":5688,"eman":5689,"Ġoffers":5690,"ignment":5691,"Ġhull":5692,"Ġprograms":5693,"Ġbreeding":5694,"Ġmunicip":5695,"issance":5696,"Ġinstall":5697,"Ġmode":5698,"Ġlev":5699,"Ġprize":5700,"Ġsimpsons":5701,"Ġwinner":5702,"Ġ94":5703,"Ġstret":5704,"Ġexclus":5705,"tical":5706,"rell":5707,"Ġpurs":5708,"Ġsax":5709,"Ġ1978":5710,"ÅĤ":5711,"antly":5712,"Ġpool":5713,"Ġprisoners":5714,"Ġarranged":5715,"Ġdiamond":5716,"15":5717,"Ġ73":5718,"Ġmagic":5719,"Ġsimilarly":5720,"Ġcredited":5721,"aked":5722,"Ġanimated":5723,"Ġvietnam":5724,"itors":5725,"Ġseattle":5726,"Ġross":5727,"Ġbear":5728,"Ġassist":5729,"Ġproducing":5730,"Ġstatement":5731,"Ġweakened":5732,"Ġadam":5733,"Ġbath":5734,"Ġimprove":5735,"Ġmaryland":5736,"Ġadditionally":5737,"Ġdeparture":5738,"Ġparties":5739,"Ġkat":5740,"ansas":5741,"Ġromantic":5742,"Ġlandfall":5743,"wa":5744,"Ġplac":5745,"Ġdivisions":5746,"Ġwarning":5747,"Ġrural":5748,"Ġcandidate":5749,"put":5750,"Ġpresidential":5751,"Ġroutes":5752,"Ġcombination":5753,"Ġthreatened":5754,"Ġengineer":5755,"Ġfields":5756,"rel":5757,"Ġ1915":5758,"Ġinner":5759,"ogen":5760,"ss":5761,"Ġalien":5762,"Ġmoore":5763,"Ġkim":5764,"okes":5765,"Ġretained":5766,"Ġbasic":5767,"entions":5768,"rations":5769,"Ġpurchase":5770,"Ġottoman":5771,"Ġsha":5772,"oles":5773,"Ġsydney":5774,"Ġ98":5775,"Ġpoland":5776,"Ġ1977":5777,"Ġproducts":5778,"Ġinstru":5779,"Ġlasted":5780,"Ġcow":5781,"now":5782,"Ġdrink":5783,"ivered":5784,"Ġinterior":5785,"Ġbrain":5786,"Ġreplace":5787,"Ġchemical":5788,"Ġmtv":5789,"eless":5790,"onia":5791,"Ġsusp":5792,"Ġsupplies":5793,"Ġadapted":5794,"Ġot":5795,"cks":5796,"aly":5797,"athan":5798,"Ġsurviv":5799,"chers":5800,"Ġdelivered":5801,"Ġfrag":5802,"Ġintegr":5803,"Ġafterwards":5804,"Ġclean":5805,"Ġinspir":5806,"Ġkur":5807,"Ġspeaking":5808,"Ġpeninsula":5809,"math":5810,"Ġcul":5811,"Ġengines":5812,"Ġfilled":5813,"Ġentitled":5814,"Ġ1963":5815,"Ġmaintain":5816,"Ġmessage":5817,"rets":5818,"ctors":5819,"Ġagency":5820,"Ġcrash":5821,"Ġcu":5822,"Ġstopped":5823,"Ġweekend":5824,"Ġticket":5825,"ali":5826,"Ġrhodes":5827,"Ġequival":5828,"Ġrene":5829,"Ġaffairs":5830,"Ġpermanent":5831,"Ġreturns":5832,"Ġarsenal":5833,"Ġscar":5834,"Ġ1916":5835,"Ġextremely":5836,"Ġsupporters":5837,"Ġindicated":5838,"Ġsole":5839,"Ġclimate":5840,"Ġarchitecture":5841,"Ġwides":5842,"izations":5843,"Ġshr":5844,"Ġcad":5845,"Ġdrug":5846,"Ġfruit":5847,"Ġengineering":5848,"Ġdecor":5849,"Ġaffect":5850,"mun":5851,"Ġdeaths":5852,"Ġcauses":5853,"Ġremember":5854,"ushing":5855,"Ġgreg":5856,"Ġphilipp":5857,"Ġches":5858,"Ġpad":5859,"Ġsecure":5860,"Ġcopy":5861,"Ġproposal":5862,"book":5863,"ante":5864,"Ġsomeone":5865,"Ġswit":5866,"Ġimportance":5867,"Ġgordon":5868,"Ġ89":5869,"lee":5870,"Ġrivers":5871,"ropol":5872,"Ġstreets":5873,"Ġstarts":5874,"Ġformal":5875,"Ġmulder":5876,"Ġplate":5877,"Ġalf":5878,"Ġclassical":5879,"Ġpig":5880,"Ġjur":5881,"Ġmans":5882,"Ġhappy":5883,"leton":5884,"othes":5885,"Ġdeleg":5886,"Ġ82":5887,"Ġspons":5888,"Ġspeak":5889,"Ġharv":5890,"Ġknots":5891,"Ġphilip":5892,"Ġtyphoon":5893,"Ġtel":5894,"emies":5895,"Ġchapter":5896,"Ġcomposer":5897,"Ġacid":5898,"Ġbos":5899,"Ġ1962":5900,"Ġ1919":5901,"Ġimplement":5902,"aki":5903,"Ġna":5904,"Ġconvin":5905,"Ġconsc":5906,"inois":5907,"Ġtanks":5908,"Ġgiant":5909,"iversary":5910,"Ġsweet":5911,"Ġaftermath":5912,"Ġsurvived":5913,"Ġsaturday":5914,"Ġthunder":5915,"pective":5916,"Ġll":5917,"Ġrab":5918,"Ġira":5919,"Ġbure":5920,"Ġmes":5921,"itt":5922,"Ġmah":5923,"Ġreferences":5924,"Ġexcell":5925,"Ġko":5926,"Ġdescribing":5927,"Ġwrites":5928,"Ġcompon":5929,"Ġtub":5930,"Ġprint":5931,"Ġfeeling":5932,"rig":5933,"Ġbought":5934,"Ġcolour":5935,"bourne":5936,"Ġ88":5937,"Ġholy":5938,"Ġfict":5939,"Ġimages":5940,"Ġtypical":5941,"Ġconcerns":5942,"Ġclassification":5943,"Ġjane":5944,"Ġsongwrit":5945,"Ġack":5946,"Ġvul":5947,"Ġruled":5948,"ela":5949,"Ġ1938":5950,"Ġmedie":5951,"Ġflo":5952,"Ġentering":5953,"acks":5954,"Ġmars":5955,"Ġago":5956,"Ġarmor":5957,"Ġenvironmental":5958,"mus":5959,"Ġtony":5960,"Ġnba":5961,"Ġsale":5962,"Ġstudied":5963,"Ġuniverse":5964,"Ġarrested":5965,"Ġwarm":5966,"Ġretreat":5967,"Ġdecline":5968,"Ġportrayed":5969,"Ġbang":5970,"Ġaftern":5971,"Ġowner":5972,"entially":5973,"rus":5974,"Ġaz":5975,"Ġcruiser":5976,"Ġpreced":5977,"Ġdriving":5978,"Ġvoted":5979,"arian":5980,"Ġloyal":5981,"Ġreduce":5982,"Ġalan":5983,"Ġactual":5984,"Ġeleven":5985,"Ġrecalled":5986,"Ġcorporation":5987,"Ġrecommended":5988,"Ġkong":5989,"Ġfinals":5990,"adow":5991,"Ġnomination":5992,"Ġsiege":5993,"Ġdiet":5994,"Ġak":5995,"Ġprincess":5996,"Ġbry":5997,"Ġalliance":5998,"Ġcapable":5999,"Ġidentity":6000,"Ġmedieval":6001,"Ġcolonial":6002,"Ġconcerned":6003,"Ġequipped":6004,"Ġpav":6005,"cop":6006,"Ġacademic":6007,"Ġcourts":6008,"Ġhunting":6009,"Ġadults":6010,"stop":6011,"Ġjord":6012,"Ġadventure":6013,"lying":6014,"Ġnel":6015,"Ġmeters":6016,"Ġ130":6017,"Ġobjects":6018,"Ġobl":6019,"Ġliberal":6020,"Ġrecognition":6021,"Ġsessions":6022,"Ġconnection":6023,"Ġker":6024,"Ġsufficient":6025,"ji":6026,"Ġbou":6027,"Ġthousands":6028,"Ġmarg":6029,"Ġadams":6030,"veland":6031,"Ġcamer":6032,"Ġbreaking":6033,"Ġfunds":6034,"ranean":6035,"Ġtu":6036,"Ġ79":6037,"Ġserves":6038,"Ġeric":6039,"Ġpassage":6040,"Ġhistorians":6041,"Ġnoting":6042,"Ġdecades":6043,"Ġanniversary":6044,"Ġ1956":6045,"Ġdebate":6046,"Ġundert":6047,"Ġairlines":6048,"Ġlam":6049,"Ġconsisting":6050,"Ġcrossed":6051,"Ġchain":6052,"oked":6053,"Ġestablishment":6054,"hus":6055,"Ġdetect":6056,"Ġsight":6057,"Ġadmitted":6058,"inal":6059,"eller":6060,"Ġgam":6061,"Ġsimon":6062,"athe":6063,"Ġprogramme":6064,"uct":6065,"Ġpound":6066,"Ġuniversal":6067,"Ġdipl":6068,"Ġcolony":6069,"Ġinvited":6070,"Ġbeautiful":6071,"Ġdougl":6072,"Ġmaria":6073,"Ġinstalled":6074,"Ġcleveland":6075,"Ġtruth":6076,"Ġconsiderable":6077,"oir":6078,"Ġtickets":6079,"Ġafternoon":6080,"regon":6081,"Ġmonument":6082,"Ġsequel":6083,"Ġ1936":6084,"Ġanimation":6085,"Ġveter":6086,"Ġhamilton":6087,"iques":6088,"Ġoregon":6089,"Ġenemies":6090,"Ġstyles":6091,"ingly":6092,"Ġamaz":6093,"Ġcharged":6094,"Ġindiana":6095,"Ġryan":6096,"uan":6097,"onto":6098,"Ġimprov":6099,"Ġduties":6100,"Ġbot":6101,"Ġ84":6102,"pread":6103,"eland":6104,"Ġquant":6105,"Ġremainder":6106,"Ġjump":6107,"Ġmanner":6108,"Ġparallel":6109,"Ġpure":6110,"Ġutc":6111,"heas":6112,"Ġpictures":6113,"eb":6114,"Ġalleg":6115,"Ġassistance":6116,"Ġcommunist":6117,"Ġsharp":6118,"Ġshield":6119,"Ġnegoti":6120,"Ġwidespread":6121,"Ġdean":6122,"Ġclasses":6123,"ilation":6124,"iling":6125,"Ġpassengers":6126,"Ġpromote":6127,"Ġcatch":6128,"Ġcos":6129,"Ġnether":6130,"Ġseeing":6131,"Ġconservative":6132,"Ġslowly":6133,"Ġbid":6134,"Ġindones":6135,"Ġbehavior":6136,"Ġlun":6137,"Ġ1961":6138,"osaurus":6139,"Ġthro":6140,"Ġmole":6141,"Ġherit":6142,"Ġcontinuing":6143,"Ġbuy":6144,"Ġpir":6145,"Ġhoward":6146,"Ġaspects":6147,"Ġkennedy":6148,"Ġoccasionally":6149,"Ġacclaim":6150,"Ġtransition":6151,"Ġelectronic":6152,"Ġneeds":6153,"Ġrhyth":6154,"Ġresources":6155,"Ġgrass":6156,"Ġwwe":6157,"Ġdestruction":6158,"Ġ1953":6159,"Ġturk":6160,"Ġride":6161,"Ġargent":6162,"Ġwearing":6163,"Ġtransportation":6164,"Ġorchestra":6165,"Ġposted":6166,"Ġhitler":6167,"Ġemergency":6168,"Ġveget":6169,"Ġrug":6170,"Ġsuperior":6171,"Ġdisappo":6172,"Ġleon":6173,"Ġnorwe":6174,"Ġtreas":6175,"Ġsanta":6176,"Ġscout":6177,"Ġcredit":6178,"Ġsleep":6179,"uous":6180,"con":6181,"Ġsenator":6182,"ione":6183,"Ġcarbon":6184,"Ġoccurs":6185,"Ġvessels":6186,"Ġaccur":6187,"Ġattached":6188,"Ġcosts":6189,"Ġtied":6190,"ashed":6191,"Ġmemory":6192,"Ġcant":6193,"Ġdated":6194,"Ġcertified":6195,"Ġincome":6196,"Ġpopulations":6197,"Ġscully":6198,"Ġfisher":6199,"Ġancest":6200,"iro":6201,"icide":6202,"Ġwarri":6203,"Ġ1947":6204,"Ġ110":6205,"Ġ86":6206,"bey":6207,"bar":6208,"cul":6209,"Ġchorus":6210,"rad":6211,"Ġportug":6212,"Ġproperties":6213,"aware":6214,"Ġdemol":6215,"Ġapprec":6216,"Ġrig":6217,"Ġpink":6218,"Ġshots":6219,"Ġmathem":6220,"Ġ1958":6221,"Ġ1910":6222,"Ġconservation":6223,"Ġninth":6224,"Ġequivalent":6225,"Ġinvolving":6226,"Ġoldest":6227,"ivals":6228,"Ġchapel":6229,"oard":6230,"Ġeu":6231,"Ġ91":6232,"Ġheritage":6233,"ophy":6234,"after":6235,"Ġcircum":6236,"Ġtoronto":6237,"Ġterminus":6238,"uing":6239,"Ġacknow":6240,"pir":6241,"Ġ1957":6242,"Ġpleas":6243,"Ġpriest":6244,"Ġtunnel":6245,"Ġexpand":6246,"Ġphill":6247,"Ġ1937":6248,"Ġsettled":6249,"Ġrescue":6250,"Ġillinois":6251,"Ġfinishing":6252,"Ġpope":6253,"Ġdynasty":6254,"Ġobtained":6255,"Ġlenn":6256,"Ġbombard":6257,"Ġauthors":6258,"Ġkevin":6259,"Ġjunction":6260,"Ġbeatles":6261,"icit":6262,"Ġworst":6263,"Ġsword":6264,"Ġmediter":6265,"Ġcolumn":6266,"Ġaccused":6267,"Ġcharges":6268,"Ġpull":6269,"aza":6270,"ooth":6271,"Ġsupposed":6272,"Ġreviewers":6273,"Ġderived":6274,"Ġjordan":6275,"Ġ71":6276,"agues":6277,"Ġbringing":6278,"Ġandy":6279,"Ġincorporated":6280,"Ġsafe":6281,"Ġlisten":6282,"Ġcrisis":6283,"Ġdouglas":6284,"Ġcircuit":6285,"Ġmediterranean":6286,"Ġcommitted":6287,"Ġreplacement":6288,"Ġnavig":6289,"ran":6290,"Ġmissions":6291,"Ġmoves":6292,"Ġprede":6293,"etime":6294,"Ġhosted":6295,"heastern":6296,"Ġchoose":6297,"Ġunp":6298,"Ġprey":6299,"Ġbelt":6300,"Ġsegment":6301,"wan":6302,"western":6303,"Ġ<":6304,"Ġdor":6305,"Ġrebell":6306,"Ġaudio":6307,"Ġvehicle":6308,"Ġunusual":6309,"Ġshear":6310,"aret":6311,"Ġcircle":6312,"Ġstanley":6313,"inary":6314,"Ġassumed":6315,"Ġ1959":6316,"Ġclubs":6317,"Ġdenied":6318,"Ġmol":6319,"Ġbruce":6320,"Ġaccommod":6321,"Ġinterpret":6322,"ĠâĢĿ":6323,"Ġrecre":6324,"Ġcirculation":6325,"Ġbah":6326,"eline":6327,"Ġrepresentatives":6328,"Ġoutstanding":6329,"Ġstrongly":6330,"Ġdens":6331,"Ġroger":6332,"Ġfictional":6333,"Ġmusicians":6334,"Ġwet":6335,"Ġconte":6336,"Ġnorwegian":6337,"Ġcommanded":6338,"agonist":6339,"Ġcathed":6340,"ician":6341,"ĠâĢľ":6342,"Ġdifferences":6343,"suit":6344,"Ġbegun":6345,"Ġdocumentary":6346,"Ġintercept":6347,"Ġ93":6348,"Ġdeput":6349,"Ġcompletion":6350,"Ġsurviving":6351,"Ġorange":6352,"Ġpersu":6353,"Ġgust":6354,"Ġbristol":6355,"Ġ1954":6356,"Ġreality":6357,"Ġcharacteristics":6358,"Ġ1955":6359,"Ġhorror":6360,"Ġmaterials":6361,"Ġexception":6362,"bell":6363,"Ġdeem":6364,"Ġeveryone":6365,"Ġrif":6366,"Ġmonarch":6367,"Ġlanc":6368,"Ġconsult":6369,"Ġpossibility":6370,"Ġattor":6371,"Ġsolar":6372,"Ġisbn":6373,"Ġalleged":6374,"works":6375,"Ġwickets":6376,"Ġpassenger":6377,"Ġmethods":6378,"Ġvision":6379,"Ġsailed":6380,"Ġford":6381,"Ġ81":6382,"Ġgene":6383,"Ġresponsibility":6384,"state":6385,"Ġ92":6386,"borne":6387,"Ġlisa":6388,"Ġhaz":6389,"Ġreconst":6390,"ez":6391,"Ġpraise":6392,"atus":6393,"Ġ175":6394,"idden":6395,"ager":6396,"Ġdriven":6397,"ami":6398,"Ġcancer":6399,"Ġaggress":6400,"ucks":6401,"Ġmissed":6402,"Ġtonight":6403,"Ġopposite":6404,"lets":6405,"Ġdragon":6406,"Ġwrong":6407,"Ġeru":6408,"Ġcarrier":6409,"Ġscheme":6410,"Ġrepresentative":6411,"Ġintention":6412,"Ġdesire":6413,"Ġkorea":6414,"char":6415,"Ġotherwise":6416,"chen":6417,"Ġvary":6418,"Ġmassive":6419,"Ġhabitat":6420,"no":6421,"Ġsoph":6422,"Ġnich":6423,"weight":6424,"Ġnice":6425,"Ġvoy":6426,"Ġthereafter":6427,"Ġplane":6428,"burn":6429,"Ġdod":6430,"Ġtwin":6431,"Ġrecovered":6432,"Ġcoff":6433,"ĠÃĹ":6434,"Ġthrone":6435,"Ġfunding":6436,"organ":6437,"alf":6438,"Ġplatinum":6439,"Ġstrategy":6440,"erged":6441,"Ġske":6442,"Ġattributed":6443,"Ġreinforce":6444,"itable":6445,"Ġshif":6446,"Ġretirement":6447,"Ġpunk":6448,"Ġweapon":6449,"Ġdisappe":6450,"Ġstayed":6451,"Ġmobile":6452,"fast":6453,"Ġjazz":6454,"oking":6455,"Ġmorris":6456,"Ġemerged":6457,"Ġlooks":6458,"Ġclassified":6459,"Ġmorgan":6460,"Ġnorman":6461,"Ġrobinson":6462,"Ġille":6463,"Ġeffectively":6464,"Ġcommunities":6465,"Ġhawai":6466,"Ġhud":6467,"Ġaboard":6468,"Ġ1952":6469,"Ġcock":6470,"Ġlies":6471,"Ġministry":6472,"Ġoutbreak":6473,"Ġtownship":6474,"Ġceme":6475,"Ġom":6476,"Ġinse":6477,"elsh":6478,"coming":6479,"Ġfalling":6480,"Ġnelson":6481,"Ġcrosses":6482,"Ġregularly":6483,"Ġbatting":6484,"Ġjenn":6485,"Ġcha":6486,"Ġdissip":6487,"Ġtoll":6488,"Ġaccounts":6489,"Ġunderground":6490,"Ġelections":6491,"Ġpartn":6492,"Ġmeets":6493,"Ġpremiere":6494,"Ġwy":6495,"Ġsatis":6496,"Ġanton":6497,"Ġ1933":6498,"riers":6499,"Ġbag":6500,"Ġstrengthen":6501,"Ġinspiration":6502,"ito":6503,"Ġneck":6504,"Ġsubmarine":6505,"Ġattracted":6506,"Ġfactor":6507,"Ġcriminal":6508,"Ġcrop":6509,"Ġstood":6510,"uts":6511,"Ġtrials":6512,"Ġcla":6513,"Ġparks":6514,"Ġlyn":6515,"Ġforming":6516,"isms":6517,"enses":6518,"pping":6519,"Ġ176":6520,"Ġmoderate":6521,"imate":6522,"Ġraces":6523,"Ġinjuries":6524,"oslav":6525,"Ġmck":6526,"Ġangle":6527,"Ġracing":6528,"Ġallen":6529,"Ġraise":6530,"Ġlith":6531,"anth":6532,"iami":6533,"rett":6534,"Ġdesert":6535,"Ġmovements":6536,"Ġcommem":6537,"Ġpatrick":6538,"Ġimmig":6539,"Ġrenew":6540,"Ġadvis":6541,"Ġsid":6542,"sole":6543,"Ġharm":6544,"Ġvotes":6545,"Ġbattleships":6546,"Ġgets":6547,"Ġrecru":6548,"Ġseparated":6549,"Ġarriving":6550,"Ġalco":6551,"abled":6552,"Ġrequested":6553,"Ġ1935":6554,"Ġarrive":6555,"Ġqueens":6556,"Ġatom":6557,"Ġrelative":6558,"Ġconduct":6559,"Ġsudden":6560,"Ġsweden":6561,"Ġfacility":6562,"Ġeggs":6563,"Ġanyone":6564,"Ġpale":6565,"Ġstandards":6566,"Ġshark":6567,"Ġgarrison":6568,"Ġmatthew":6569,"bing":6570,"Ġnom":6571,"icken":6572,"Ġpredecess":6573,"Ġ1949":6574,"Ġphotograph":6575,"Ġwelsh":6576,"Ġearn":6577,"Ġpublisher":6578,"Ġsymph":6579,"Ġeasy":6580,"Ġpartner":6581,"Ġ1951":6582,"Ġmiami":6583,"Ġrestored":6584,"Ġtemporary":6585,"Ġah":6586,"Ġinternet":6587,"night":6588,"Ġkiss":6589,"Ġremn":6590,"Ġsurrounded":6591,"Ġech":6592,"Ġflank":6593,"Ġmetropol":6594,"Ġdifficulty":6595,"aug":6596,"Ġorb":6597,"Ġdistinguished":6598,"Ġseemed":6599,"Ġports":6600,"Ġdelayed":6601,"Ġcurt":6602,"Ġhem":6603,"teenth":6604,"Ġgor":6605,"Ġuss":6606,"what":6607,"Ġelder":6608,"Ġali":6609,"Ġdepict":6610,"Ġframe":6611,"Ġelsewhere":6612,"Ġnetherlands":6613,"body":6614,"Ġbridges":6615,"Ġpel":6616,"Ġbatman":6617,"Ġmurd":6618,"Ã³n":6619,"Ġshir":6620,"oyd":6621,"Ġbyzantine":6622,"gets":6623,"Ġbiggest":6624,"Ġhoped":6625,"ila":6626,"Ġchildhood":6627,"Ġconvinced":6628,"Ġhin":6629,"Ġclaiming":6630,"Ġdangerous":6631,"real":6632,"Ġjacob":6633,"ogy":6634,"Ġwolf":6635,"Ġyan":6636,"Ġreviewer":6637,"Ġpenalty":6638,"Ġconvection":6639,"Ġages":6640,"Ġpatri":6641,"Ġcathedral":6642,"Ġgreatly":6643,"Ġstands":6644,"Ġexamples":6645,"roit":6646,"Ġrud":6647,"Ġtemperatures":6648,"40":6649,"Ġiraq":6650,"erto":6651,"Ġere":6652,"Ġassass":6653,"Ġdrag":6654,"Ġrussell":6655,"oral":6656,"Ġlock":6657,"Ġip":6658,"Ġjews":6659,"Ġappropri":6660,"Ġpublishing":6661,"Ġpainted":6662,"Ġcycle":6663,"Ġgiants":6664,"yard":6665,"Ġdick":6666,"Ġinvolvement":6667,"iley":6668,"Ġaccompl":6669,"Ġwright":6670,"Ġsatell":6671,"Ġlearn":6672,"Ġunderstand":6673,"Ġwooden":6674,"Ġ1900":6675,"Ġlod":6676,"Ġadaptation":6677,"Ġtries":6678,"Ġsumm":6679,"Ġstrip":6680,"Ġbears":6681,"oz":6682,"Ġrit":6683,"Ġberlin":6684,"Ġfu":6685,"Ġspoke":6686,"Ġhundreds":6687,"tim":6688,"Ġarn":6689,"pson":6690,"Ġsalv":6691,"Ġimmediate":6692,"Ġcoin":6693,"Ġrecordings":6694,"abil":6695,"Ġfled":6696,"sea":6697,"Ġleaf":6698,"berts":6699,"Ġdating":6700,"imet":6701,"war":6702,"Ġcloser":6703,"Ġparish":6704,"Ġtechniques":6705,"Ġlearning":6706,"Ġkl":6707,"Ġsomewhat":6708,"Âł":6709,"Ġnfl":6710,"Ġencouraged":6711,"Ġbureau":6712,"rees":6713,"Ġappearing":6714,"going":6715,"uther":6716,"Ġbarr":6717,"Ġthousand":6718,"'t":6719,"agu":6720,"Ġdetermine":6721,"Ġsynthes":6722,"reck":6723,"omot":6724,"Ġchur":6725,"Ġdispl":6726,"Ġupd":6727,"Ġsuffering":6728,"Ġarmen":6729,"bro":6730,"Ġmeasures":6731,"Ġbuck":6732,"Ġpuerto":6733,"Ġkelly":6734,"Ġdynam":6735,"Ġprohib":6736,"Ġinsur":6737,"Ġcolorado":6738,"iat":6739,"Ġwindow":6740,"Ġthompson":6741,"Ġpoetry":6742,"Ġcroatian":6743,"Ġgraphics":6744,"Ġusa":6745,"aska":6746,"agement":6747,"Ġfighters":6748,"Ġtan":6749,"Ġlegislation":6750,"Ġhub":6751,"Ġhend":6752,"Ġindians":6753,"Ġwhereas":6754,"Ġjournalist":6755,"Ġdetroit":6756,"Ġflash":6757,"Ġinterests":6758,"Ġnickn":6759,"Ġdismissed":6760,"Ġpak":6761,"alo":6762,"Ġjoy":6763,"Ġfacing":6764,"Ġensure":6765,"Ġcreative":6766,"Ġoptions":6767,"Ġislam":6768,"Ġwes":6769,"Ġmargin":6770,"Ġau":6771,"formula":6772,"Ġholds":6773,"iva":6774,"Ġcarter":6775,"Ġattempting":6776,"Ġabsor":6777,"bra":6778,"Ġay":6779,"Ġ06":6780,"Ġfitted":6781,"Ġfreder":6782,"Ġgent":6783,"Ġstarred":6784,"iant":6785,"Ġdriver":6786,"Ġtrophy":6787,"Ġcommonwe":6788,"Ġtip":6789,"Ġconclusion":6790,"Ġsant":6791,"Ġattacking":6792,"Ġdepos":6793,"Ġbypass":6794,"Ġscrap":6795,"Ġlion":6796,"eld":6797,"Ġformerly":6798,"Ġdoesn":6799,"Ġextreme":6800,"Ġspears":6801,"Ġoutd":6802,"Ġvisible":6803,"apping":6804,"Ġcommonwealth":6805,"Ã±":6806,"Ġgather":6807,"itzer":6808,"Ġabsence":6809,"encies":6810,"Ġbats":6811,"ighter":6812,"Ġmete":6813,"Ġinfluences":6814,"Ġwatching":6815,"Ġhungarian":6816,"oen":6817,"Ġproductions":6818,"uv":6819,"Ġniel":6820,"Ġmodified":6821,"Ġharbor":6822,"Ġinstruments":6823,"Ġleads":6824,"Ġparker":6825,"Ġlanded":6826,"Ġmainstream":6827,"Ġprosec":6828,"iller":6829,"Ġmedium":6830,"Ġcloth":6831,"Ġreprodu":6832,"Ġreleases":6833,"Ġdeemed":6834,"Ġhonour":6835,"Ġ1913":6836,"Ġapparently":6837,"Ġdiplom":6838,"Ġharris":6839,"Ġlandsc":6840,"Ġcontroversial":6841,"Ġpremiered":6842,"Ġoverse":6843,"Ġlongest":6844,"Ġzero":6845,"Ġbronze":6846,"Ġstor":6847,"Ġscand":6848,"Ġmurray":6849,"Ġoption":6850,"Ġlaboratory":6851,"Ġnovels":6852,"Ġfried":6853,"Ġnarrative":6854,"illed":6855,"Ġjason":6856,"á»":6857,"Ġ1927":6858,"Ġrhythm":6859,"vis":6860,"Ġterritories":6861,"Ġdistributed":6862,"Ġ83":6863,"Ġ1926":6864,"Ġgallery":6865,"Ġalph":6866,"Ġlaure":6867,"rete":6868,"Ġlocomot":6869,"Ġoperate":6870,"Ġreun":6871,"Ġfiles":6872,"Ġtrained":6873,"Ġrestoration":6874,"Ġvictims":6875,"Ġthinking":6876,"Ġarrangement":6877,"ivan":6878,"Ġattorney":6879,"Ġfriendly":6880,"Ġcov":6881,"ameter":6882,"Ġdiscip":6883,"Ġpreferred":6884,"chang":6885,"Ġbaltim":6886,"hanna":6887,"Ġsees":6888,"Ġdies":6889,"Ġacknowled":6890,"aya":6891,"Ġ1934":6892,"Ġvisitors":6893,"star":6894,"Ġvideos":6895,"Ġ1921":6896,"Ġbaltimore":6897,"Ġuniform":6898,"Ġcarib":6899,"Ġcloud":6900,"Ġwol":6901,"Ġwag":6902,"Ġmamm":6903,"Ġoffering":6904,"Ġliqu":6905,"Ġrefuge":6906,"Ġdna":6907,"sex":6908,"Ġunsuccessful":6909,"Ġlegs":6910,"Ġsubstit":6911,"Ġconcur":6912,"iliar":6913,"Ġ900":6914,"Ġinfluential":6915,"Ġexit":6916,"Ġowners":6917,"Ġbelieves":6918,"Ġrepresenting":6919,"ĠâĤ":6920,"Ġkw":6921,"Ġexcess":6922,"Ġlooked":6923,"Ġresolution":6924,"aws":6925,"ixon":6926,"tz":6927,"Ġdepicted":6928,"Ġhut":6929,"entional":6930,"igg":6931,"Ġcoins":6932,"owa":6933,"Ġbasin":6934,"Ġmini":6935,"Ġdominated":6936,"Ġguardian":6937,"Ġ08":6938,"dd":6939,"Äį":6940,"oster":6941,"Ġgalax":6942,"apers":6943,"Ġsecured":6944,"illing":6945,"Ġraaf":6946,"Ġchurches":6947,"Ġtie":6948,"ici":6949,"eler":6950,"Ġcomics":6951,"Ġhearing":6952,"Ġfinn":6953,"Ġ1912":6954,"Ġyug":6955,"Ġnotably":6956,"Ġimposs":6957,"Ġinformed":6958,"Ġhu":6959,"Ġdevice":6960,"Ġexpos":6961,"Ġterror":6962,"Ġcasting":6963,"ture":6964,"pany":6965,"agre":6966,"vens":6967,"using":6968,"Ġroberts":6969,"iner":6970,"Ġasian":6971,"Ġku":6972,"Ġoffices":6973,"Ġmeteor":6974,"Ġdiego":6975,"olph":6976,"Ġtone":6977,"Ġlanguages":6978,"Ġcemetery":6979,"acent":6980,"Ġswedish":6981,"Ġdeployed":6982,"Ġskills":6983,"Ġrelationships":6984,"Ġsimpson":6985,"Ġ1932":6986,"Ġhousing":6987,"Ġminnes":6988,"Ġlowest":6989,"Ġbehavi":6990,"ultane":6991,"Ġneighbour":6992,"Ġsimultane":6993,"Ġresear":6994,"Ġclay":6995,"Ġlob":6996,"iously":6997,"Ġopponents":6998,"eenth":6999,"li":7000,"Ġtesting":7001,"fare":7002,"Ġanthony":7003,"Ġcabinet":7004,"ni":7005,"bean":7006,"Ġwarner":7007,"Ġcontinental":7008,"Ġdiagn":7009,"Ġsang":7010,"Ġdrums":7011,"Ġemotional":7012,"Ġpregn":7013,"Ġdetail":7014,"Ġachieve":7015,"Ġhappened":7016,"Ġexcellent":7017,"Ġmoments":7018,"Ġbun":7019,"apse":7020,"Ġabd":7021,"Ġintense":7022,"Ġfootage":7023,"Ġoperational":7024,"Ġliz":7025,"Ġimpressed":7026,"Ġincom":7027,"Ġgenerated":7028,"Ġagents":7029,"Ġgaga":7030,"Ġ09":7031,"ructure":7032,"Ġdj":7033,"Ġfactors":7034,"Ġreportedly":7035,"Ġmainten":7036,"Ġdifference":7037,"Ġbh":7038,"Ġdialogue":7039,"Ġdownload":7040,"Ġexperiences":7041,"Ġbapt":7042,"ctic":7043,"arts":7044,"Ġformat":7045,"ternal":7046,"Ġmaintenance":7047,"Ġrender":7048,"tering":7049,"rum":7050,"Ġnbc":7051,"Ġcommemor":7052,"sa":7053,"Ġlose":7054,"Ġyugoslav":7055,"Ġfishing":7056,"Ġmud":7057,"Ġsuccessor":7058,"Ġabsol":7059,"Ġagricultural":7060,"aints":7061,"Ġfiring":7062,"mat":7063,"Ġtrek":7064,"Ġemployees":7065,"Ġdescribe":7066,"Ġgoods":7067,"Ġsomers":7068,"Ġabbey":7069,"icial":7070,"Ġrising":7071,"Ġbelg":7072,"ache":7073,"Ġrevolutionary":7074,"Ġscientists":7075,"fire":7076,"tw":7077,"udes":7078,"otype":7079,"Ġraj":7080,"Ġexpensive":7081,"Ġark":7082,"Ġteeth":7083,"Ġcroatia":7084,"Ġdefended":7085,"mate":7086,"ora":7087,"Ġseas":7088,"Ġnegotiations":7089,"Ġ1929":7090,"Ġpic":7091,"Ġpersonality":7092,"Ġstem":7093,"Ġ140":7094,"anny":7095,"Ġexecuted":7096,"Ġcollect":7097,"ontin":7098,"Ġnormally":7099,"Ġgilbert":7100,"Ġsic":7101,"Ġcher":7102,"Ġcod":7103,"Ġdiscussed":7104,"Ġ1911":7105,"Ġhuge":7106,"Ġrecur":7107,"ci":7108,"fe":7109,"Ġfeud":7110,"Ġportra":7111,"Ġbreat":7112,"Ġturkish":7113,"Ġtreated":7114,"Ġtribute":7115,"Ġinterstate":7116,"Ġtenth":7117,"stic":7118,"igen":7119,"Ġenters":7120,"rim":7121,"otes":7122,"Ġstewart":7123,"arf":7124,"Ġmeat":7125,"Ġradar":7126,"Ġsympt":7127,"Ġclinton":7128,"Ġneighborhood":7129,"Ġ1922":7130,"Ġdrawing":7131,"Ġresidential":7132,"Ġjesus":7133,"Ġportland":7134,"Ġresign":7135,"Ġaged":7136,"Ġ1931":7137,"Ġevans":7138,"ih":7139,"ois":7140,"achment":7141,"Ġaccompany":7142,"Ġvessel":7143,"Ġpartly":7144,"Ġarrives":7145,"Ġmelbourne":7146,"Ġstorms":7147,"Ġminnesota":7148,"Ġflew":7149,"olis":7150,"Ġresigned":7151,"Ġboil":7152,"Ġfounder":7153,"Ġdirectors":7154,"Ġloop":7155,"Ġdesigner":7156,"Ġinnov":7157,"Ġethnic":7158,"Ġboss":7159,"Ġmetro":7160,"Ġadvoc":7161,"Ġdetailed":7162,"Ġyanke":7163,"Ġinhabit":7164,"Ġtornado":7165,"Ġutil":7166,"Ġupgraded":7167,"Ġbudd":7168,"Ġorigins":7169,"Ġrick":7170,"Ġformally":7171,"Ġexposed":7172,"Ġnielsen":7173,"Ġpointed":7174,"Ġsynd":7175,"Ġpartnership":7176,"Ġmathemat":7177,"lyn":7178,"Ġreveals":7179,"Ġkeeping":7180,"Ġtechnique":7181,"Ġmilitia":7182,"Ġwalking":7183,"Ġtimber":7184,"Ġprevented":7185,"pet":7186,"Ġsisters":7187,"Ġpushed":7188,"Ġforb":7189,"Ġdisturb":7190,"Ġglac":7191,"Ġxbox":7192,"Ġstable":7193,"Ġtempor":7194,"Ġdeparted":7195,"Ġsarah":7196,"Ġmail":7197,"Ġmanh":7198,"lev":7199,"Ġinteresting":7200,"Ġinstitution":7201,"sk":7202,"Ġphen":7203,"Ġannounce":7204,"Ġisolated":7205,"Ġnash":7206,"orous":7207,"Ġorganizations":7208,"Ġsmooth":7209,"Ġoxy":7210,"Ġwedding":7211,"Ġmarshall":7212,"Ġmuslim":7213,"Ġforty":7214,"Ġfactory":7215,"Ġmissou":7216,"Ġsubstantial":7217,"lie":7218,"Ġhanded":7219,"Ġghost":7220,"Ġsigns":7221,"Ġhans":7222,"Ġlinked":7223,"die":7224,"Ġmack":7225,"Ġsamuel":7226,"Ġanaly":7227,"Ġlennon":7228,"vere":7229,"Ġimprison":7230,"Ġmeg":7231,"Ġimpossible":7232,"Ġenthus":7233,"rose":7234,"Ġearthqu":7235,"Ġdramatic":7236,"Ġcomplic":7237,"Ġranking":7238,"Ġapple":7239,"mad":7240,"Ġaustria":7241,"Ġinstrumental":7242,"Ġbenn":7243,"Ġherald":7244,"Ġcovers":7245,"Ġswift":7246,"Ġdave":7247,"Ġsuspend":7248,"Ġcaribbean":7249,"Ġfab":7250,"usted":7251,"inder":7252,"Ġgreece":7253,"Ġfifteen":7254,"Ġpione":7255,"Ġexisted":7256,"Ġavo":7257,"Ġfrequent":7258,"Ġassess":7259,"rating":7260,"ologists":7261,"Ġperiods":7262,"Ġproced":7263,"Ġpatrol":7264,"Ġshock":7265,"Ġextent":7266,"Ġmoral":7267,"Ġ170":7268,"Ġcatal":7269,"Ġsymp":7270,"Ġparticipate":7271,"Ġschedule":7272,"Ġseeking":7273,"Ġoccupation":7274,"Ġconcerts":7275,"rome":7276,"Ġload":7277,"Ġski":7278,"Ġinstance":7279,"Ġinher":7280,"Ġtru":7281,"Ġphone":7282,"Ġgrace":7283,"Ġanticip":7284,"Ġhunt":7285,"boy":7286,"rm":7287,"ullivan":7288,"Ġiniti":7289,"Ġdir":7290,"Ġarmament":7291,"Ġhelic":7292,"Ġmalays":7293,"Ġcruisers":7294,"Ġscholar":7295,"Ġaqu":7296,"Ġarena":7297,"Ġdeputy":7298,"Ġspecimens":7299,"Ġturb":7300,"Ġtaught":7301,"Ġimpress":7302,"Ġseek":7303,"Ġern":7304,"Ġverse":7305,"Ġspending":7306,"music":7307,"Ġwine":7308,"Ġsem":7309,"Ġfinale":7310,"Ġmys":7311,"Ġalab":7312,"Ġseats":7313,"Ġmetropolitan":7314,"Ġmanus":7315,"Ġjoining":7316,"Ġgates":7317,"Ġrarely":7318,"25":7319,"Ġrepair":7320,"Ġcreator":7321,"Ġamendment":7322,"arn":7323,"Ġgab":7324,"Ġnewspapers":7325,"Ġdc":7326,"Ġpicked":7327,"Ġcous":7328,"Ġkansas":7329,"Ġminimum":7330,"inals":7331,"Ġtrend":7332,"Ġmulti":7333,"gate":7334,"Ġchase":7335,"Ġpoison":7336,"Ġfrederick":7337,"Ġobser":7338,"Ġdiameter":7339,"Ġwithdrew":7340,"Ġnag":7341,"Ġstro":7342,"Ġrates":7343,"Ġrelie":7344,"Ġpip":7345,"Ġprecip":7346,"Ġdivor":7347,"cope":7348,"Ġdegrees":7349,"Ġskull":7350,"Ġ1928":7351,"Ġuncertain":7352,"Ġanna":7353,"Ġexhibition":7354,"Ġencountered":7355,"Ġsuicide":7356,"Ġchanging":7357,"Ġgardens":7358,"Ġtrailer":7359,"idae":7360,"Ġpounds":7361,"Ġmississ":7362,"Ġanch":7363,"Ġchanc":7364,"Ġpermission":7365,"obi":7366,"Ġmario":7367,"Ġrefere":7368,"Ġdifficulties":7369,"Ġlect":7370,"Ġagree":7371,"umin":7372,"ski":7373,"Ġsomerset":7374,"icians":7375,"Ġ1925":7376,"Ġcollaps":7377,"Ġdisaster":7378,"Ġpolicies":7379,"Ġinqu":7380,"Ġrestrict":7381,"col":7382,"borough":7383,"Ġlegislature":7384,"Ġinaug":7385,"Ġpartially":7386,"atch":7387,"Ġseed":7388,"Ġovers":7389,"Ġ1890":7390,"Ġshakes":7391,"Ġpilots":7392,"Ġloan":7393,"chell":7394,"Ġadjacent":7395,"Ġhelping":7396,"Ġadvice":7397,"Ġmerchant":7398,"Ġrav":7399,"Ġturrets":7400,"Ġrice":7401,"Ġcapit":7402,"aria":7403,"Ġplain":7404,"Ġbombers":7405,"anium":7406,"ĠÃ¦":7407,"Ġathletic":7408,"Ġsank":7409,"Ġanglo":7410,"Ġfederation":7411,"Ġcharlie":7412,"Ġfran":7413,"Ġwaves":7414,"Ġsoldier":7415,"olas":7416,"Ġpref":7417,"Ġstream":7418,"Ġplayoffs":7419,"Ġpiz":7420,"Ġmall":7421,"Ġrestric":7422,"Ġaffair":7423,"amese":7424,"Ġtraveled":7425,"Ġgap":7426,"Ġkal":7427,"Ġcomments":7428,"Ġsector":7429,"attan":7430,"Ġrefers":7431,"Ġ1924":7432,"Ġrebellion":7433,"Ġdal":7434,"Ġmines":7435,"fr":7436,"Ġeagle":7437,"Ġbenefit":7438,"Ġtennes":7439,"esis":7440,"Ġalabama":7441,"Ġbrun":7442,"Ġexplo":7443,"Ġspa":7444,"Ã©e":7445,"Ġatlanta":7446,"Ġphilosophy":7447,"Ġmarry":7448,"Ġjet":7449,"Ġiowa":7450,"Ġproport":7451,"ascar":7452,"Ġwait":7453,"Ġmood":7454,"Ġmunicipal":7455,"Ġworship":7456,"Ġ07":7457,"Ġlawrence":7458,"Ġpitched":7459,"atically":7460,"ti":7461,"Ġsurprise":7462,"Ġdepending":7463,"Ġsoil":7464,"Ġcriticised":7465,"Ġsi":7466,"Ġbases":7467,"Ġstruggle":7468,"iot":7469,"Ġpine":7470,"Ġcoordin":7471,"Ġnapole":7472,"Ġmint":7473,"Ġphr":7474,"Ġaustralians":7475,"Ġcompete":7476,"Ġfifty":7477,"Ġdestroyers":7478,"Ġdollars":7479,"Ġprompted":7480,"gery":7481,"Ġremove":7482,"Ġdanc":7483,"Ġparent":7484,"Ġneutral":7485,"sters":7486,"Ġdollar":7487,"Ġpc":7488,"usal":7489,"Ġmedicine":7490,"uster":7491,"Ġoverl":7492,"Ġsatellite":7493,"Ġwhil":7494,"Ġindicate":7495,"gi":7496,"Ġindeed":7497,"inction":7498,"Ġblow":7499,"Ġhelicop":7500,"power":7501,"oren":7502,"Ġstring":7503,"Ġcollapse":7504,"Ġwalker":7505,"Ġion":7506,"Ġgrown":7507,"Ġvs":7508,"Ġcommunication":7509,"Ġsurvivors":7510,"pie":7511,"Ġmanuscript":7512,"Ġfriday":7513,"Ġspiritual":7514,"Ġforcing":7515,"Ġul":7516,"mont":7517,"Ġbros":7518,"Ġdesignation":7519,"Ġhalo":7520,"Ġpreferences":7521,"Ġarmored":7522,"Ġenterprise":7523,"Ġ1923":7524,"Ġtennessee":7525,"uman":7526,"Ġhey":7527,"Ġpowered":7528,"imb":7529,"Ġcollaboration":7530,"Ġwreck":7531,"unes":7532,"Ġscat":7533,"ika":7534,"Ġteaching":7535,"Ġpaintings":7536,"Ġwhilst":7537,"Ġmonster":7538,"Ġchristopher":7539,"Ġelectron":7540,"Ġconfirm":7541,"isd":7542,"Ġian":7543,"gas":7544,"nings":7545,"leans":7546,"Ġjen":7547,"Ġcovering":7548,"Ġprotagonist":7549,"Ġciting":7550,"Ġkhan":7551,"oken":7552,"Ġmane":7553,"Ġvalues":7554,"Ġpossession":7555,"Ġyor":7556,"Ġappointment":7557,"enh":7558,"Ġmarketing":7559,"Ġbranc":7560,"Ġalcohol":7561,"Ġbrill":7562,"Ġrestaurants":7563,"Ġharbour":7564,"Ġrounds":7565,"Ġfel":7566,"Ġdim":7567,"Ġnazi":7568,"Ġbenj":7569,"Ġapproval":7570,"Ġprovinc":7571,"mates":7572,"Ġcandidates":7573,"rates":7574,"Ġtravelled":7575,"ception":7576,"Ġreconna":7577,"Ġformula":7578,"Ġlisting":7579,"Ġbalance":7580,"Ġrib":7581,"Ġunderstanding":7582,"Ġalive":7583,"Ġfortress":7584,"Ġcrystal":7585,"Ġoxygen":7586,"Ġorbit":7587,"Ġabb":7588,"Ġpoems":7589,"Ġhungary":7590,"Ġbelgium":7591,"Ġorleans":7592,"Ġdispute":7593,"Ġalfred":7594,"fted":7595,"Ġwake":7596,"Ġbowling":7597,"Ġpant":7598,"Ġcomfort":7599,"Ġvictories":7600,"Ġdancing":7601,"Ġholiday":7602,"phone":7603,"imeter":7604,"Ġcyl":7605,"Ġsituated":7606,"nie":7607,"Ġclosing":7608,"Ġviolent":7609,"Ġminimal":7610,"anna":7611,"Ġdisplayed":7612,"Ġphoen":7613,"Ġsugar":7614,"Ġsurvive":7615,"Ġbattalions":7616,"Ġhamp":7617,"Ġvillages":7618,"lan":7619,"Ġarticles":7620,"Ġliked":7621,"Ġpole":7622,"Ġreconnaissance":7623,"Ġcot":7624,"Ġdock":7625,"Ġserial":7626,"Ġnam":7627,"Ġrugby":7628,"Ġdelta":7629,"Ġlegislative":7630,"Ġprol":7631,"Ġfemin":7632,"esome":7633,"Ġcharter":7634,"Ġassisted":7635,"Ġtelling":7636,"Ġjar":7637,"Ġshakespe":7638,"Ġcargo":7639,"Ġfuneral":7640,"Ġmush":7641,"Ġpublications":7642,"Ġamongst":7643,"Ġforests":7644,"Ġsink":7645,"Ġinterpre":7646,"Ġsoftware":7647,"Ġguil":7648,"Ġtomb":7649,"Ġsymptoms":7650,"Ġmarks":7651,"Ġcolonies":7652,"Ġsubt":7653,"Ġeliminated":7654,"Ġresidence":7655,"Ġacted":7656,"odore":7657,"Ġasks":7658,"opes":7659,"Ġriders":7660,"Ġcole":7661,"Ġ05":7662,"Ġtrouble":7663,"Ġbenjamin":7664,"Ġdisl":7665,"Ġpurposes":7666,"Ġmissouri":7667,"Ġmississipp":7668,"Ġ*":7669,"velt":7670,"Ġmichel":7671,"Ġadministrative":7672,"ãģ":7673,"mo":7674,"Ġ1908":7675,"Ġmanhattan":7676,"Ġhong":7677,"Ġvietn":7678,"Ġblind":7679,"Ġmason":7680,"Ġdrivers":7681,"Ġing":7682,"Ġvietnamese":7683,"Ġroose":7684,"Ġ1905":7685,"Ġcircumst":7686,"Ġfatal":7687,"Ġrepairs":7688,"Ġsimpl":7689,"Ġoccasions":7690,"esh":7691,"Ġcompilation":7692,"Ġ1909":7693,"Ġconcrete":7694,"Ġrout":7695,"Ġcinema":7696,"Ġnad":7697,"orted":7698,"Ġcheap":7699,"Ġstevens":7700,"Ġstatue":7701,"Ġmontreal":7702,"Ġmental":7703,"Ġquarterback":7704,"Ġinland":7705,"rac":7706,"Ġairline":7707,"Ã§":7708,"Ġbreakfast":7709,"Ġdogs":7710,"Ġsick":7711,"Ġcannon":7712,"Ġlists":7713,"Ġwilling":7714,"Ġcrus":7715,"Ġwaiting":7716,"Ġattendance":7717,"rupted":7718,"Ġhoriz":7719,"Ġpreparation":7720,"Ġask":7721,"Ġanime":7722,"Ġpreserved":7723,"Ġfranklin":7724,"Ġpublicly":7725,"Ġtraveling":7726,"Ġbusinesses":7727,"Ġgrammy":7728,"Ġtang":7729,"Ġconsole":7730,"Ġabilities":7731,"Ġasking":7732,"Ġpron":7733,"Ġbour":7734,"Ġramp":7735,"eing":7736,"Ġelabor":7737,"Ġillness":7738,"ng":7739,"Ġvoiced":7740,"agen":7741,"Ġorganisation":7742,"Ġcommunications":7743,"Ġwider":7744,"oker":7745,"Ġdefeating":7746,"jan":7747,"Ġjos":7748,"Ġwoods":7749,"Ġopponent":7750,"Ġhighways":7751,"Ġlouisiana":7752,"Ġargument":7753,"forced":7754,"ographical":7755,"atherine":7756,"Ġroosevelt":7757,"Ġtouring":7758,"Ġunderst":7759,"Ġprices":7760,"Ġsignal":7761,"Ġammun":7762,"din":7763,"Ġchand":7764,"Ġresumed":7765,"Ġtast":7766,"Ġfamiliar":7767,"Ġ1907":7768,"uda":7769,"acle":7770,"ivated":7771,"Ġbelieving":7772,"Ġbeauty":7773,"Ġprel":7774,"Ġcompeted":7775,"Ġdall":7776,"Ġsurge":7777,"Ġintensified":7778,"Ġbilly":7779,"Ġcrews":7780,"Ġatomic":7781,"Ġammunition":7782,"Ġalignment":7783,"Ġusual":7784,"Ġpeters":7785,"Ġaustin":7786,"Ġexcav":7787,"Ġsuitable":7788,"Ġarchb":7789,"Ġfallen":7790,"Ġrush":7791,"iable":7792,"Ġfriendship":7793,"45":7794,"Ġassists":7795,"ounced":7796,"Ġbacking":7797,"Ġcounties":7798,"Ġairborne":7799,"Ġcampbell":7800,"Ġamate":7801,"Ġdocuments":7802,"Ġsubjects":7803,"Ġstrategic":7804,"Ġusd":7805,"ishment":7806,"Ġspar":7807,"Ġsteven":7808,"Ġsigning":7809,"Ġnit":7810,"Ġsib":7811,"Ġstu":7812,"Ġdeliber":7813,"Ġmississippi":7814,"orph":7815,"Ġdoubt":7816,"Ġaudiences":7817,"Ġgenetic":7818,"Ġalternate":7819,"Ġceremon":7820,"Ġlucas":7821,"Ġphilippines":7822,"Ġstick":7823,"Ġbiographer":7824,"Ġcoc":7825,"Ġnoble":7826,"Ġ1880":7827,"Ġfeelings":7828,"Ġquiet":7829,"Ġengineers":7830,"ulating":7831,"Ġariz":7832,"Ġpercentage":7833,"ensions":7834,"Ġcass":7835,"Ġwarren":7836,"Ġabol":7837,"Ġcob":7838,"Ġstarring":7839,"Ġradical":7840,"ses":7841,"Ġpor":7842,"ifer":7843,"Ġbutter":7844,"Ġsas":7845,"Ġrip":7846,"yr":7847,"lah":7848,"Ġprovincial":7849,"Ġtab":7850,"dale":7851,"Ġguards":7852,"Ġtribes":7853,"Ġvinc":7854,"Ġosc":7855,"Ġunderw":7856,"Ġsubmitted":7857,"Ġcompleting":7858,"donald":7859,"Ġexplosion":7860,"Ġalexand":7861,"à¤":7862,"Ġownership":7863,"Ġfunctions":7864,"Ġadopt":7865,"Ġsullivan":7866,"Ġdisord":7867,"Ġbehalf":7868,"Ġguer":7869,"itated":7870,"Ġcharity":7871,"Ġbrick":7872,"Ġshakespeare":7873,"Ġted":7874,"Ġautobi":7875,"Ġwire":7876,"Ġobv":7877,"iveness":7878,"rator":7879,"utor":7880,"Ġretail":7881,"12":7882,"Ġpolar":7883,"Ġalter":7884,"Ġartistic":7885,"Ġarizona":7886,"Ġevolved":7887,"Ġchest":7888,"ods":7889,"Ġbirthday":7890,"Ġlakes":7891,"Ġheading":7892,"Ġhole":7893,"Ġhindu":7894,"father":7895,"Ġchronicle":7896,"cel":7897,"Ġnep":7898,"Ġfrust":7899,"Ġfalse":7900,"ader":7901,"Ġtargets":7902,"Ġ105":7903,"Ġrevenue":7904,"Ġcartoon":7905,"Ġastronom":7906,"Ġquad":7907,"Ġfrig":7908,"Ġremark":7909,"oh":7910,"hetic":7911,"Ġregistered":7912,"Ġsuspended":7913,"Ġspider":7914,"Ġcliff":7915,"cular":7916,"eston":7917,"Ġhotels":7918,"Ġideal":7919,"onymous":7920,"rav":7921,"Ġgoth":7922,"Ġawesome":7923,"Ġfavorable":7924,"Ġchel":7925,"Ġsummit":7926,"Ġrecip":7927,"Ġdimens":7928,"Ġkin":7929,"Ġreluct":7930,"Ġcivilian":7931,"ige":7932,"oto":7933,"Ġegyptian":7934,"Ġhob":7935,"Ġborough":7936,"icts":7937,"Ġpoorly":7938,"Ġguilty":7939,"Ġblocks":7940,"Ġprovision":7941,"Ġglobe":7942,"Ġreplacing":7943,"Ġforth":7944,"Ġprospect":7945,"icate":7946,"pecies":7947,"Äĥ":7948,"Ġperry":7949,"Ġpace":7950,"Ġclearly":7951,"Ġhidden":7952,"Ġrequirements":7953,"Ġpup":7954,"inations":7955,"Ġ125":7956,"Ġ1906":7957,"pes":7958,"Ġarmies":7959,"Ġarmour":7960,"Ġsolution":7961,"Ġ1870":7962,"Ġkids":7963,"Ġshells":7964,"Ġaimed":7965,"Ġwants":7966,"Ġpulled":7967,"Ġwasn":7968,"Ġmeasured":7969,"Ġrocks":7970,"inea":7971,"Ġretrie":7972,"zech":7973,"Ġboundary":7974,"Ġesp":7975,"Ġacceler":7976,"Ġengagement":7977,"sky":7978,"keeper":7979,"Ġglad":7980,"Ġmargaret":7981,"Ġsitting":7982,"Ġtemporarily":7983,"Ġforg":7984,"ËĪ":7985,"Ġpalest":7986,"Ġcraw":7987,"Ġfaster":7988,"Ġgear":7989,"Ġforecast":7990,"ylan":7991,"Ġrecognised":7992,"Ġ360":7993,"Ġtort":7994,"Ġshipping":7995,"Ġ1904":7996,"Ġsimultaneously":7997,"Ġfurn":7998,"Ġgran":7999,"Ġfiled":8000,"Ġvulner":8001,"Ġbare":8002,"Ġrepr":8003,"Ġsequences":8004,"iac":8005,"uable":8006,"rix":8007,"Ġbehaviour":8008,"Ġconspir":8009,"Ġaviation":8010,"Ġphoenix":8011,"Ġtalent":8012,"Ġsaved":8013,"Ġremnants":8014,"Ġessential":8015,"Ġstorage":8016,"Ġstores":8017,"Ġparking":8018,"Ġrepresents":8019,"Ġmitchell":8020,"Ġagriculture":8021,"Ġtig":8022,"wned":8023,"Ġmonaster":8024,"Ġfastest":8025,"Ġkirk":8026,"crib":8027,"fa":8028,"Ġwore":8029,"Ġcontext":8030,"Ġreaders":8031,"Ġfra":8032,"Ġcomparison":8033,"life":8034,"Ġil":8035,"Ġvib":8036,"Ġcoverage":8037,"Ġczech":8038,"Ġclosest":8039,"Ġpars":8040,"Ġmatters":8041,"Ġsq":8042,"Ġamph":8043,"Ġsket":8044,"Ġcoinc":8045,"Ġpatterns":8046,"Ġtight":8047,"otte":8048,"Ġmining":8049,"car":8050,"Ġferry":8051,"Ġcancelled":8052,"Ġgraham":8053,"Ġaside":8054,"Ġpropag":8055,"Ġml":8056,"yon":8057,"Ġsurgery":8058,"Ġ03":8059,"Ġsuggesting":8060,"Ġperspective":8061,"Ġoverseas":8062,"Ġinstitutions":8063,"Ġthirteen":8064,"Ġshadow":8065,"Ġcarn":8066,"Ġspotted":8067,"Ġnotice":8068,"fts":8069,"Ġjosh":8070,"Ġhunter":8071,"Ġmaneu":8072,"Ġlesser":8073,"Ġreflected":8074,"Ġpractices":8075,"Ġmetall":8076,"Ġcontributions":8077,"ori":8078,"Ġempt":8079,"Ġrebuilt":8080,"Ġnominations":8081,"Ġroots":8082,"Ġprotein":8083,"issions":8084,"Ġstrict":8085,"Ġyankees":8086,"Ġranks":8087,"Ġfurthermore":8088,"Ġpredomin":8089,"Ġapplication":8090,"Ġwish":8091,"mn":8092,"Ġoklah":8093,"Ġflagship":8094,"Ġdestroyer":8095,"Ġescaped":8096,"artney":8097,"Ġvertical":8098,"Ġoliv":8099,"Ġdylan":8100,"Ġpearl":8101,"Ġportions":8102,"Ġdrugs":8103,"Ġsatisf":8104,"Ġarchbishop":8105,"net":8106,"storm":8107,"Ġdecides":8108,"Ġbroadway":8109,"Ġbombs":8110,"Ġbadly":8111,"Ġjobs":8112,"Ġamounts":8113,"Ġsubspecies":8114,"Ġsult":8115,"Ġcave":8116,"Ġunex":8117,"Ġmaur":8118,"Ġtriang":8119,"rants":8120,"Ġdrove":8121,"Ġranging":8122,"Ġtoky":8123,"Ġlacked":8124,"Ġcuba":8125,"Ġrings":8126,"uma":8127,"Ġslaves":8128,"vereign":8129,"Ġexclud":8130,"Ġsovereign":8131,"Ġpanel":8132,"Ġallmusic":8133,"Ġintelle":8134,"Ġvisiting":8135,"Ġtoy":8136,"Ġsubur":8137,"osing":8138,"Ġconfederate":8139,"Ġintellect":8140,"Ġwicket":8141,"Ġargues":8142,"kshire":8143,"Ġcontrols":8144,"Ġbulk":8145,"vo":8146,"Ġstriking":8147,"Ġvast":8148,"Ġacou":8149,"Ġautumn":8150,"Ġbald":8151,"Ġindies":8152,"Ġtale":8153,"Ġexpression":8154,"Ġsquadrons":8155,"Ġmarvel":8156,"Ġearning":8157,"Ġseverely":8158,"Ġfo":8159,"Ġpersian":8160,"Ġbiography":8161,"Ġinhabitants":8162,"Ġdistinctive":8163,"Ġoutdoor":8164,"Ġcrest":8165,"orer":8166,"urally":8167,"Ġphenom":8168,"Ġtack":8169,"Ġprinted":8170,"Ġoklahoma":8171,"tha":8172,"Ġtamil":8173,"Ġ04":8174,"Ġpitts":8175,"Ġtalking":8176,"away":8177,"Ġwarship":8178,"Ġambass":8179,"Ġcondem":8180,"Ġnik":8181,"Ġmainland":8182,"Ġclock":8183,"Ġmarie":8184,"Ġcoron":8185,"Ġplanets":8186,"Ġguitarist":8187,"Ġsony":8188,"Ġdefinition":8189,"Ġbonus":8190,"Ġobservations":8191,"Ġrestricted":8192,"Ġstern":8193,"Ġgodd":8194,"lings":8195,"Ġrevival":8196,"Ġstere":8197,"Ġcharacterized":8198,"Ãº":8199,"Ġorth":8200,"Ġliberty":8201,"Ġconstitutional":8202,"Ġfixed":8203,"fish":8204,"Ġmik":8205,"Ġflower":8206,"Ġjury":8207,"ieties":8208,"Ġbarry":8209,"rog":8210,"Ġexplain":8211,"Ġgalaxy":8212,"oga":8213,"Ġcommanding":8214,"cru":8215,"Ġdy":8216,"Ġfault":8217,"Ġpill":8218,"Ġcurren":8219,"Ġrent":8220,"Ġbone":8221,"Ġamy":8222,"Ġni":8223,"Ġfeels":8224,"athy":8225,"Ġultimate":8226,"Ġplut":8227,"Ġwilhel":8228,"Ġmeetings":8229,"idency":8230,"Ġswimming":8231,"Ġtiss":8232,"Ġlt":8233,"Ġthrew":8234,"Ġexplains":8235,"Ġsig":8236,"Ġbombing":8237,"Ġathletes":8238,"Ġdanger":8239,"Ġillegal":8240,"Ġamateur":8241,"Ġdominant":8242,"olid":8243,"Ġstatistics":8244,"Ġcarriers":8245,"Ġburns":8246,"Ġmrs":8247,"ele":8248,"equ":8249,"Ġdemonstrated":8250,"owed":8251,"unction":8252,"estone":8253,"Ġartwork":8254,"Ġexactly":8255,"Ġswitzer":8256,"hu":8257,"Ġharvey":8258,"Ġaustrian":8259,"Ġpredicted":8260,"Ġeducational":8261,"Ġreaches":8262,"Ġfounding":8263,"Ġartific":8264,"Ġmultipl":8265,"Ġdust":8266,"Ġparliamentary":8267,"urer":8268,"Ġlex":8269,"Ġcaf":8270,"Ġvanc":8271,"Ġyield":8272,"Ġorn":8273,"Ġprepare":8274,"Ġswitzerland":8275,"Ġgrave":8276,"Ġ1901":8277,"Ġaerial":8278,"ridge":8279,"Ġlen":8280,"thy":8281,"di":8282,"Ġnut":8283,"Ġmurphy":8284,"Ġrever":8285,"Ġcoat":8286,"Ġpush":8287,"Ġslave":8288,"Ġexperimental":8289,"Ġabund":8290,"Ġnorthward":8291,"Ġarist":8292,"Ġdelivery":8293,"Ġfile":8294,"Ġstops":8295,"Ġcensus":8296,"ested":8297,"Ġdelaware":8298,"anian":8299,"Ġbeam":8300,"Ġjoh":8301,"elli":8302,"Ġtracy":8303,"Ġdeclar":8304,"Ġinnoc":8305,"Ġpeaking":8306,"Ġsteps":8307,"Ġjohnny":8308,"ouver":8309,"Ġcompliment":8310,"Ġconversion":8311,"Ġberg":8312,"Ġabc":8313,"Ġapartment":8314,"Ġconscious":8315,"Ġovert":8316,"Ġfeeding":8317,"Ġlanes":8318,"Ġfunny":8319,"Ġvii":8320,"Ġbaker":8321,"apolis":8322,"Ġrico":8323,"uations":8324,"Ġbones":8325,"Ġhouseholds":8326,"Ġlaugh":8327,"bec":8328,"Ġstones":8329,"Ġoverw":8330,"Ġerr":8331,"Ġliquid":8332,"teries":8333,"Ġsymphony":8334,"Ġaccum":8335,"asts":8336,"Ġprost":8337,"Ġwestward":8338,"Ġseriously":8339,"Ġuseful":8340,"orship":8341,"Ġcruc":8342,"Ġhog":8343,"Ġmembership":8344,"Ġlayer":8345,"Ġmate":8346,"ardo":8347,"Ġwells":8348,"Ġcopper":8349,"Ġobtain":8350,"Ġbach":8351,"Ġrepeatedly":8352,"Ġconsidering":8353,"Ġaudition":8354,"Ġpredecessor":8355,"Ġfasc":8356,"Ġshaw":8357,"Ġpalm":8358,"Ġninet":8359,"Ġ1903":8360,"Ġsprings":8361,"Ġbod":8362,"Ġcongreg":8363,"umps":8364,"Ġpatron":8365,"rast":8366,"Ġmong":8367,"Ġcircumstances":8368,"Ġgw":8369,"Ġ1902":8370,"Ġconsequently":8371,"Ġkurt":8372,"Ġvancouver":8373,"imp":8374,"Ġattained":8375,"Ġpreserv":8376,"iders":8377,"osa":8378,"Ġmelody":8379,"Ġ01":8380,"Ġbacked":8381,"Ġmemor":8382,"suing":8383,"Ġrook":8384,"Ġjuan":8385,"cs":8386,"Ġfate":8387,"Ġtodd":8388,"Ġphysics":8389,"the":8390,"icut":8391,"Ġmadag":8392,"Ġedwards":8393,"Ġleslie":8394,"Ġrihanna":8395,"ym":8396,"Å«":8397,"Ġhav":8398,"imen":8399,"Ġanat":8400,"Ġfeather":8401,"Ġmillenn":8402,"Ġrevolt":8403,"Ġtokyo":8404,"Ġperceived":8405,"eton":8406,"Ġspell":8407,"Ġflowers":8408,"uki":8409,"Ġrenov":8410,"angel":8411,"Ġrevers":8412,"Ġvig":8413,"Ġrecon":8414,"oons":8415,"Ġpatt":8416,"Ġpages":8417,"isp":8418,"Ġmusician":8419,"Ġvaluable":8420,"oned":8421,"abs":8422,"Ġduo":8423,"Ġsunk":8424,"Ġsubsid":8425,"Ġengage":8426,"Ġdinosaur":8427,"Ġdawn":8428,"Ġjonathan":8429,"Ġimprovements":8430,"Ġdallas":8431,"Ġpossess":8432,"Ġremarked":8433,"Ġeve":8434,"Ġtravels":8435,"Ġdenmark":8436,"Ġtactics":8437,"Ġment":8438,"estyle":8439,"Ġcompens":8440,"Ġretain":8441,"Ġsung":8442,"Ġpromised":8443,"Ġpersonally":8444,"Ġballad":8445,"Ġturret":8446,"Ġtowers":8447,"Ġguar":8448,"Äĳ":8449,"Ġbak":8450,"Ġlandscape":8451,"Ġkam":8452,"itely":8453,"Ġbattlecru":8454,"Ġtheatrical":8455,"Ġvik":8456,"Ġexecution":8457,"uded":8458,"Ġspart":8459,"Ġ115":8460,"Ġenlisted":8461,"Ġisa":8462,"Ġcompound":8463,"Ġairfield":8464,"place":8465,"Ġextract":8466,"Ġencounter":8467,"Ġnixon":8468,"Ġobst":8469,"Ġkeith":8470,"Ġsixteen":8471,"Ġmanga":8472,"Ġdemands":8473,"onomy":8474,"Ġraising":8475,"Ġjimmy":8476,"vi":8477,"Ġstrengthened":8478,"mingham":8479,"Ġprofile":8480,"Ġcampaigns":8481,"Ġqualified":8482,"mith":8483,"low":8484,"Ġmechanical":8485,"asa":8486,"Ġral":8487,"Ġexplan":8488,"Ġelevation":8489,"Ġ165":8490,"Ġrede":8491,"Ġdemanded":8492,"Ġruth":8493,"Ġ168":8494,"Ġrachel":8495,"Ġarnold":8496,"inian":8497,"ruption":8498,"Ġpapers":8499,"Ġillustrated":8500,"Ġexercise":8501,"Ġtales":8502,"60":8503,"bard":8504,"Ġsuccession":8505,"bird":8506,"Ġaggreg":8507,"Ġsak":8508,"Ġinterpretation":8509,"Ġclothing":8510,"Ġwaste":8511,"ova":8512,"Ġms":8513,"athered":8514,"Ġcarp":8515,"rows":8516,"Ġstress":8517,"Ġbeats":8518,"Ġmend":8519,"Ġinsisted":8520,"Ġrangers":8521,"Ġpersons":8522,"Ġdread":8523,"ghan":8524,"Ġdiscovers":8525,"Ġenroll":8526,"Ġlimits":8527,"Ġdressed":8528,"nik":8529,"Ġbaron":8530,"Ġcompounds":8531,"Ġmond":8532,"Ġhugh":8533,"Ġpassion":8534,"Ġruling":8535,"Ġelectricity":8536,"Ġhood":8537,"Ġmirror":8538,"Ġsettlers":8539,"Ġlag":8540,"Ġvenue":8541,"Ġcanter":8542,"Ġfewer":8543,"Ġjudg":8544,"Ġlying":8545,"emen":8546,"Ġgentle":8547,"Ġlights":8548,"Ġstronger":8549,"Ġstruggled":8550,"Ġglee":8551,"acked":8552,"Ġranges":8553,"Ġepic":8554,"Ġtrading":8555,"Ġselect":8556,"Ġdecisions":8557,"Ġhybr":8558,"Ġ02":8559,"ĠÏ":8560,"Ġblu":8561,"Ġwayne":8562,"Ġsucceed":8563,"Ġoblig":8564,"Ġdemolished":8565,"Ġencl":8566,"Ġkiller":8567,"Ġerected":8568,"gie":8569,"esty":8570,"Ġstuff":8571,"Ġriding":8572,"Ġfourteen":8573,"Ġcutting":8574,"Ġost":8575,"Ġbog":8576,"acre":8577,"Ġ109":8578,"Ġincreases":8579,"Ġconquest":8580,"Ġshift":8581,"Ġparas":8582,"ensis":8583,"Ġmills":8584,"Ġcancel":8585,"Ġcoup":8586,"Ġpursue":8587,"Ġinsects":8588,"folk":8589,"utt":8590,"odox":8591,"Ġgriff":8592,"Ġfis":8593,"Ġdenn":8594,"Ġmeter":8595,"Ġremoval":8596,"aro":8597,"Ġexternal":8598,"Ġbirmingham":8599,"Ġdaughters":8600,"Ġsurpass":8601,"Ġobjective":8602,"Ġwatershed":8603,"Ġadvertising":8604,"iy":8605,"Ġcraft":8606,"jection":8607,"Ġculmin":8608,"Ġlip":8609,"Ġbobby":8610,"Ġburial":8611,"Ġtong":8612,"Ġwarfare":8613,"Ġdefences":8614,"Ġdefending":8615,"Ġloved":8616,"xual":8617,"Ġobama":8618,"Ġdeterior":8619,"Ġadventures":8620,"Ġconcentration":8621,"35":8622,"lock":8623,"Ġshak":8624,"Ġdevelopers":8625,"Ġmccartney":8626,"avery":8627,"Ġaltered":8628,"Ġwealthy":8629,"Ġhudson":8630,"Ġoverwhel":8631,"Ġcomprom":8632,"Ġresol":8633,"Ġdisagre":8634,"Ġorganised":8635,"Ġmercury":8636,"omp":8637,"Ġmaybe":8638,"Ġmagazines":8639,"Ġbacter":8640,"Ġfossil":8641,"nat":8642,"Ġspur":8643,"Ġbuddh":8644,"Ġfold":8645,"Ġgosp":8646,"Ġsending":8647,"kh":8648,"Ġemployment":8649,"Ġkarl":8650,"Ġhearts":8651,"Ġhydrogen":8652,"Ġacoustic":8653,"grad":8654,"Ġelectrical":8655,"Ġced":8656,"Ġapproaching":8657,"Ġhook":8658,"Ġerupt":8659,"Ġeval":8660,"Ġdebt":8661,"Ġyout":8662,"Ġcenters":8663,"Ġarmoured":8664,"Ġtours":8665,"Ġrend":8666,"Ġjup":8667,"Ġshorter":8668,"zzle":8669,"Ġmadagascar":8670,"ctr":8671,"Ġraids":8672,"Ġconnecting":8673,"Ġconnecticut":8674,"Ġwarriors":8675,"Ġgods":8676,"Ġestablishing":8677,"Ġexposure":8678,"Ġhoney":8679,"Ġmorrison":8680,"Ġputting":8681,"Ġinvestment":8682,"Ġcommentary":8683,"cha":8684,"rises":8685,"Ġsurvival":8686,"Ġaggressive":8687,"Ġmaid":8688,"Ġprofit":8689,"Ġbernard":8690,"Ġontar":8691,"Ġjurisd":8692,"Ġprove":8693,"Ġunless":8694,"Ġmature":8695,"Ġhence":8696,"mund":8697,"Ġcable":8698,"Ġplaza":8699,"rams":8700,"Ġpartial":8701,"Ġstaying":8702,"Ġarchitectural":8703,"Ġontario":8704,"Ġqualifying":8705,"Ġgary":8706,"aux":8707,"Ġlor":8708,"ensively":8709,"Ġparach":8710,"Ġdecide":8711,"Ġslip":8712,"Ġyoutube":8713,"Ġliv":8714,"Ġgren":8715,"Ġtrick":8716,"Ġ155":8717,"Ġcanterbury":8718,"Ġexter":8719,"Ġresort":8720,"Ġpend":8721,"Ġappropriate":8722,"hous":8723,"Ġedited":8724,"Ġindicating":8725,"Ġdwarf":8726,"Ġongoing":8727,"Ġarrangements":8728,"Ġmarkets":8729,"Ġdetermin":8730,"Ġfc":8731,"Ġnapoleon":8732,"Ġtruck":8733,"Ġextrat":8734,"Ġradiation":8735,"Ġplacing":8736,"Ġisot":8737,"Ġimprovement":8738,"Ġcelebrated":8739,"Ġevacuated":8740,"Ġwithdrawal":8741,"Ġannouncement":8742,"rous":8743,"Ġsultan":8744,"Ġsevent":8745,"Ġtube":8746,"Ġvolumes":8747,"Ġmcm":8748,"Ġtheore":8749,"Ġpredict":8750,"Ġstationed":8751,"Ġcruise":8752,"ifies":8753,"pert":8754,"Ġpruss":8755,"Ġpreparations":8756,"Ġbomber":8757,"Ġdissipated":8758,"Ġacknowledged":8759,"Ġextratropical":8760,"Ġsciences":8761,"anger":8762,"Ġparam":8763,"Ġromance":8764,"Ġfleming":8765,"Ġprecipitation":8766,"Ġdict":8767,"Ġgolf":8768,"Ġpermitted":8769,"Ġslavery":8770,"Ġcler":8771,"Ġrealized":8772,"Ġsilent":8773,"Ġvoices":8774,"Ġdiscussion":8775,"caa":8776,"Ġkills":8777,"Ġhardy":8778,"Ġgraduate":8779,"bow":8780,"pin":8781,"rh":8782,"itter":8783,"Ġnurs":8784,"Ġyoungest":8785,"Ġtna":8786,"Ġdubbed":8787,"Ġinitiated":8788,"Ġdisappoint":8789,"Ġdistant":8790,"Ġwis":8791,"ulous":8792,"Ġgraduated":8793,"11":8794,"lain":8795,"Ġhosts":8796,"efa":8797,"Ġrecovery":8798,"Ġphotographs":8799,"Ġindustries":8800,"Ġcort":8801,"Ġattitude":8802,"Ġtranslation":8803,"itis":8804,"aser":8805,"Ġvamp":8806,"Ġsignature":8807,"Ġjupiter":8808,"ingham":8809,"Ġuefa":8810,"Ġhypothes":8811,"Ġconfront":8812,"Ġchicken":8813,"Ġrequires":8814,"Ġluke":8815,"Ġcash":8816,"oven":8817,"Ġmonte":8818,"shore":8819,"Ġstrongest":8820,"Ġnerv":8821,"Ġrehe":8822,"Ġfract":8823,"uese":8824,"Ġvoyage":8825,"Ġcelt":8826,"Ġusers":8827,"Ġconventional":8828,"Ġalice":8829,"ello":8830,"Ġoverlo":8831,"Ġaffili":8832,"amental":8833,"Ġrp":8834,"Ġknock":8835,"Ġreferring":8836,"Ġoriginated":8837,"Ġheaven":8838,"hard":8839,"Ġstol":8840,"Ġexclusive":8841,"Ġreporter":8842,"Ġtransit":8843,"Ġharmon":8844,"Ġestimates":8845,"itudes":8846,"Ġbeng":8847,"Ġsonic":8848,"Ġrecall":8849,"pled":8850,"Ġburning":8851,"Ġeug":8852,"Ġexpert":8853,"Ġdevil":8854,"Ġtubes":8855,"Ġecho":8856,"py":8857,"Ġtrough":8858,"autical":8859,"Ġmosc":8860,"Ġcord":8861,"Ġexha":8862,"Ġdonated":8863,"Ġdevast":8864,"Ġtak":8865,"iph":8866,"Ġedin":8867,"Ġrus":8868,"atever":8869,"hips":8870,"Ġendors":8871,"Ġsupplement":8872,"Ġpotter":8873,"Ġearthquake":8874,"Ġmanor":8875,"Ġcousin":8876,"Ġspecimen":8877,"Ġ164":8878,"Ġminority":8879,"Ġcolleagues":8880,"Ã¦":8881,"itively":8882,"Ġwhatever":8883,"Ġparody":8884,"Ġguinea":8885,"Ġpakistan":8886,"Ġuser":8887,"Ġpromotional":8888,"Ġsoutheastern":8889,"Ġdrinking":8890,"Ġindicates":8891,"Ġaxis":8892,"Ġbearing":8893,"Ġmant":8894,"rep":8895,"Ġlac":8896,"Ġkap":8897,"Ġchallenged":8898,"Ġscattered":8899,"Ġoutf":8900,"ĠÃ¦thel":8901,"Ġvisits":8902,"Ġattending":8903,"Ġguests":8904,"Ġsporting":8905,"Ġdwight":8906,"Ġportuguese":8907,"Ġwool":8908,"adier":8909,"Ġlegit":8910,"Ġlawyer":8911,"Ġtraditionally":8912,"Ġvictorian":8913,"Ġgathered":8914,"ivation":8915,"Ġ1860":8916,"Ġbradman":8917,"Ġemphasis":8918,"Ġcoffee":8919,"case":8920,"Ġum":8921,"Ġtap":8922,"Ġalaska":8923,"Ġhanna":8924,"Ġdensity":8925,"Ġstrange":8926,"inces":8927,"Ġrena":8928,"aks":8929,"Ġmerely":8930,"Ġidentify":8931,"Ġconcentrated":8932,"Ġncaa":8933,"Ġprogramming":8934,"Ġjama":8935,"Ġcertainly":8936,"Ġcollapsed":8937,"gle":8938,"Ġcotton":8939,"Ġmorph":8940,"Ġcoalition":8941,"Ġpam":8942,"Ġdale":8943,"pers":8944,"Ġgovernments":8945,"Ġbarn":8946,"Ġfacult":8947,"Ġterritorial":8948,"Ġsupplied":8949,"feld":8950,"à¸":8951,"Ġov":8952,"Ġachievement":8953,"Ġdiff":8954,"Ġannually":8955,"Ġscreenplay":8956,"Ġdemocrats":8957,"Ġturner":8958,"Ġblocked":8959,"Ġsacrif":8960,"Ġartificial":8961,"Ġtai":8962,"uration":8963,"Ġsubm":8964,"Ġ1893":8965,"Ġportrait":8966,"icy":8967,"Ġindigen":8968,"Ġprinciples":8969,"Ġelectro":8970,"Ġalpha":8971,"Ġphotography":8972,"claimed":8973,"Ġspy":8974,"Ġ127":8975,"Ġprisoner":8976,"Ġbuffalo":8977,"bal":8978,"graph":8979,"Ġafghan":8980,"Ġhampshire":8981,"nia":8982,"Ġfed":8983,"Ġstal":8984,"Ġoffense":8985,"Ġboom":8986,"Ġ1896":8987,"Ġoptim":8988,"Ġprovinces":8989,"Ġglen":8990,"Ġpond":8991,"Ġtopped":8992,"andy":8993,"soft":8994,"Ġterminal":8995,"Ġuncom":8996,"Ġpredators":8997,"Ġheir":8998,"Ġchemistry":8999,"Ġig":9000,"Ġdoctr":9001,"Ġtherm":9002,"Ġsmart":9003,"Ġterr":9004,"Ġterrain":9005,"Ġoliver":9006,"Ġaccompanying":9007,"Ġpittsburgh":9008,"Ġinvestigate":9009,"Ġpizza":9010,"Ġdeclaration":9011,"Ġlav":9012,"Ġseized":9013,"Ġedinburgh":9014,"agger":9015,"Ġtalks":9016,"Ġcraig":9017,"Ġapplications":9018,"Ġnu":9019,"Ġcompeting":9020,"Ġturkey":9021,"Ã¼r":9022,"Ġfailing":9023,"Ġreverse":9024,"Ġreinforcements":9025,"Ġindigenous":9026,"Ġrevenge":9027,"Ġveloc":9028,"irm":9029,"Ġstead":9030,"Ġuranium":9031,"Ġportrayal":9032,"Ġansw":9033,"Ġuniversities":9034,"Ġlux":9035,"Ġmaya":9036,"Ġ1898":9037,"iti":9038,"Ġgaz":9039,"Ġ350":9040,"Ġtenure":9041,"Ġguid":9042,"Ġpenet":9043,"Ġsuspect":9044,"Ġchord":9045,"Ġapoll":9046,"Ġbroadcasting":9047,"Ġbeneath":9048,"Ġoutput":9049,"Ġsmoke":9050,"bu":9051,"Ġcros":9052,"Ġhitting":9053,"Ġduration":9054,"itch":9055,"Ġspaces":9056,"Ġregime":9057,"Ġreconstruction":9058,"Ġrecurring":9059,"Ġyam":9060,"Ġtroub":9061,"13":9062,"Ġexperiments":9063,"Ġconsolid":9064,"Ġsharks":9065,"Ġvolunteers":9066,"Ġbeds":9067,"imetres":9068,"Ġbub":9069,"Ġdual":9070,"Ġjuven":9071,"Ġhoping":9072,"Ġflooded":9073,"Ġkan":9074,"Ġprofession":9075,"Ġandre":9076,"Ġobsc":9077,"Ġjerry":9078,"Ġgoddess":9079,"Ġralph":9080,"Ġbranches":9081,"Ġcontribution":9082,"Ġargentina":9083,"Ġyorkshire":9084,"ieth":9085,"Ġredes":9086,"Ġvoting":9087,"Ġceased":9088,"Ġlords":9089,"Ġrio":9090,"ellation":9091,"ologies":9092,"Ġtribe":9093,"Ġassembled":9094,"Ġimagery":9095,"Ġibn":9096,"run":9097,"rooms":9098,"Ġhes":9099,"Ġgender":9100,"Ġtexts":9101,"Ġquestioned":9102,"Ġsongwriter":9103,"Ġhistorically":9104,"fc":9105,"idal":9106,"owski":9107,"Ã°":9108,"Ġsox":9109,"Ġdecay":9110,"Ã©s":9111,"Ġtraded":9112,"Ġdrummer":9113,"Ġhast":9114,"Ġmasters":9115,"Ġenforce":9116,"Ġimpression":9117,"Ġrevised":9118,"Ġcollins":9119,"Ġcommenting":9120,"Ġcharlotte":9121,"ayan":9122,"Ġinfrast":9123,"Ġvirus":9124,"Ġreflect":9125,"Ġunderwent":9126,"Ġchelsea":9127,"cribed":9128,"icing":9129,"Ġconce":9130,"Ġelig":9131,"Ġdestroying":9132,"Ġdors":9133,"Ġserge":9134,"Ġ104":9135,"Ġchoir":9136,"Ġmillennium":9137,"Ġreduction":9138,"Ġchristianity":9139,"mania":9140,"Ġcomponents":9141,"Ġreward":9142,"iary":9143,"Ġreorgan":9144,"Ġfulf":9145,"unc":9146,"oviÄĩ":9147,"Ġhowe":9148,"Ġdevices":9149,"Ġ1899":9150,"Ġreducing":9151,"Ġcomponent":9152,"Ġunclear":9153,"Ġstamp":9154,"Ġinvent":9155,"Ġreplied":9156,"Ġbend":9157,"Ġsurve":9158,"atra":9159,"Ġruler":9160,"onian":9161,"hammad":9162,"Ġ108":9163,"Ġtrium":9164,"Ġpirates":9165,"Ġreviewed":9166,"Ġreveal":9167,"Ġconsistent":9168,"Ġqueensland":9169,"Ġapproaches":9170,"Ġhumor":9171,"Ġlloyd":9172,"Ġsamples":9173,"Ġmystery":9174,"Ġmarge":9175,"Ġmarines":9176,"Ġdirections":9177,"Ġidentical":9178,"Ġturnp":9179,"Ġmultiplayer":9180,"pler":9181,"Ġgarn":9182,"Ġlifetime":9183,"Ġgirlfriend":9184,"Ġambassador":9185,"rawn":9186,"Ġnorfolk":9187,"Ġcorrid":9188,"Ġpatients":9189,"Ġfinland":9190,"Ġnights":9191,"Ġsings":9192,"Ġdak":9193,"Ġrobin":9194,"Ġgaming":9195,"castle":9196,"Ġfrequency":9197,"Ġproposals":9198,"ded":9199,"Ġfier":9200,"arr":9201,"Ġpartis":9202,"beat":9203,"Ġresur":9204,"Ġutah":9205,"Ġintervention":9206,"Ġplatforms":9207,"Ġsurrendered":9208,"Ġreed":9209,"Ġ152":9210,"Ġswiss":9211,"oting":9212,"Ġunw":9213,"Ġspoken":9214,"active":9215,"Ġchess":9216,"Ġwinners":9217,"Ġconflic":9218,"Ġhawaii":9219,"Ġsuddenly":9220,"nell":9221,"ensed":9222,"Ġclimb":9223,"Ġconnections":9224,"illes":9225,"itary":9226,"Ġfairly":9227,"cott":9228,"Ġconceived":9229,"Ġdonald":9230,"Ġburton":9231,"Ġnicholas":9232,"Ġtill":9233,"oria":9234,"ampton":9235,"Ġ169":9236,"Ġresearchers":9237,"Ġwii":9238,"Ġeating":9239,"Ġmansion":9240,"gom":9241,"Ġbanned":9242,"Ġrejo":9243,"Ġcelebration":9244,"Ġanswer":9245,"Ġasc":9246,"ricts":9247,"Ġexclusively":9248,"Ġtape":9249,"Ġbelgian":9250,"Ġrepresentation":9251,"Ġpractical":9252,"Ġbench":9253,"Ġvincent":9254,"Ġchore":9255,"Ġvaried":9256,"Ġcrimes":9257,"Ġbrew":9258,"Ġmoscow":9259,"born":9260,"Ġfaces":9261,"icated":9262,"Ġ1850":9263,"Ġcommanders":9264,"Ġstyl":9265,"Ġsample":9266,"uras":9267,"Ġweigh":9268,"Ġlighting":9269,"Ġrebels":9270,"Ġburned":9271,"Ġcontinuous":9272,"Ġfee":9273,"Ġspeaker":9274,"ocy":9275,"Ġmanif":9276,"Ġfinance":9277,"Ġcollections":9278,"Ġdavies":9279,"Ġbennett":9280,"ista":9281,"ibilities":9282,"Ġcompetitive":9283,"itarian":9284,"Ġconfidence":9285,"dles":9286,"Ġcatherine":9287,"Ġsailing":9288,"Ġpod":9289,"Ġprest":9290,"Ġdistricts":9291,"Ġshoulder":9292,"Ġpraising":9293,"world":9294,"Ġprogressive":9295,"Ġdecorated":9296,"Ġflames":9297,"phal":9298,"Ġguild":9299,"Ġ101":9300,"Ġamazing":9301,"Ġhughes":9302,"Ġlauren":9303,"Ġpon":9304,"Ġscores":9305,"Ġrivalry":9306,"gam":9307,"Ġbeer":9308,"Ġkate":9309,"Ġdarwin":9310,"Ġtaxes":9311,"Ġreactions":9312,"Ġthorough":9313,"Ġcott":9314,"Ġfern":9315,"Ġdispers":9316,"Ġbast":9317,"Ġabuse":9318,"Ġadvised":9319,"roy":9320,"Ġshares":9321,"Ġcamps":9322,"Ġsignificance":9323,"Ġfilmm":9324,"Ġprix":9325,"iciency":9326,"Ġgif":9327,"Ġeleph":9328,"Ġconsiders":9329,"Ġfoster":9330,"Ġub":9331,"Ġscientology":9332,"Ġwitch":9333,"mers":9334,"oly":9335,"ethel":9336,"Ġrivals":9337,"Ġcompr":9338,"Ġboilers":9339,"Ġmasc":9340,"Ġworn":9341,"Ġintersects":9342,"Ġtranslated":9343,"Ġmyself":9344,"Ġvulnerable":9345,"terly":9346,"acles":9347,"Ġproceeded":9348,"Ġtrig":9349,"ugu":9350,"ication":9351,"Ġshep":9352,"Ġharvard":9353,"Ġunderstood":9354,"Ġfare":9355,"ellor":9356,"Ġdischar":9357,"zh":9358,"Ġpresidency":9359,"Ġoslo":9360,"Ġjudges":9361,"ican":9362,"ffield":9363,"Ġopportunities":9364,"ĠÃ©":9365,"Ġlocally":9366,"Ġhandled":9367,"Ġpresentation":9368,"Ġvilla":9369,"Ġ1897":9370,"cr":9371,"Ġpairs":9372,"Ġministers":9373,"Ġmedals":9374,"Ġrocky":9375,"Ġcompanion":9376,"Ġnautical":9377,"Ġenthusi":9378,"Ġpall":9379,"encing":9380,"Ġterry":9381,"Ġgeoff":9382,"Ġracial":9383,"Ġmarshal":9384,"hs":9385,"Ġmanufacturing":9386,"Ġphrase":9387,"Ġcanyon":9388,"Ġassum":9389,"Ġnumbered":9390,"Ġrepeat":9391,"point":9392,"Ġbombardment":9393,"Ġcrops":9394,"Ġinfrastructure":9395,"Ġbind":9396,"Ġds":9397,"Ġlover":9398,"Ġlayover":9399,"Ġobservation":9400,"Ġindonesia":9401,"Ġseal":9402,"Ġunlik":9403,"Ġsaxon":9404,"Ġcards":9405,"Ġvital":9406,"Ġexceed":9407,"Ġflows":9408,"Ġknights":9409,"haw":9410,"Ġcommissioner":9411,"Ġrespective":9412,"Ġpetition":9413,"Ġmim":9414,"strong":9415,"igs":9416,"Ġdescent":9417,"ico":9418,"Ġelite":9419,"anche":9420,"Ġcaes":9421,"Ġcameron":9422,"Ġhide":9423,"Ġexile":9424,"Ġantonio":9425,"uating":9426,"hers":9427,"Ġproof":9428,"Ġexplicit":9429,"Ġpeng":9430,"Ġoutl":9431,"Ġcleared":9432,"Ġcyclones":9433,"Ġtransported":9434,"Ġgrossing":9435,"Ġkitchen":9436,"Ġtraditions":9437,"Ġcuts":9438,"Ġjtw":9439,"Ġintermedi":9440,"Ġrehears":9441,"Ġjtwc":9442,"Ġkane":9443,"Ã¶n":9444,"Ġextending":9445,"Ġvl":9446,"Ġspong":9447,"vant":9448,"Ġgift":9449,"ĠâĢ¦":9450,"Ġ173":9451,"Ġprotests":9452,"Ġ167":9453,"Ġxx":9454,"Ġteles":9455,"roph":9456,"Ġreinforced":9457,"Ġrandom":9458,"Ġdrain":9459,"berry":9460,"Ġcoaches":9461,"Ġstructural":9462,"Ġthriller":9463,"oa":9464,"Ġtiger":9465,"Ġdum":9466,"Ġexists":9467,"Ġtoured":9468,"Ġtoler":9469,"Ġnur":9470,"sts":9471,"Ġcourses":9472,"Ġnonethel":9473,"Ġparticipation":9474,"Ġtonnes":9475,"Ġnonetheless":9476,"Ġcommenced":9477,"Ġrestore":9478,"Ġcharacteristic":9479,"Ã«":9480,"Ġhaven":9481,"Ġbib":9482,"atoes":9483,"Ġtroop":9484,"erce":9485,"Ġmilk":9486,"Ġbin":9487,"Ġdri":9488,"Ġrelatives":9489,"Ġsteep":9490,"Ġrichmond":9491,"Ġwallace":9492,"Ġmaintaining":9493,"Ġdaw":9494,"Ġfert":9495,"Ġhollow":9496,"Ġcolum":9497,"Ġtested":9498,"Ġpreparing":9499,"Ġnavigation":9500,"inge":9501,"Ġvictim":9502,"Ġquarters":9503,"Ġwithdrawn":9504,"face":9505,"hum":9506,"Ġdil":9507,"Ġrelocated":9508,"Ġguerr":9509,"Ġtheories":9510,"Ġcel":9511,"Ġbert":9512,"Ġcosm":9513,"Ġmp":9514,"Ġclan":9515,"Ġtheaters":9516,"Ġskill":9517,"cules":9518,"Ġwisc":9519,"Ġlarry":9520,"Ġstef":9521,"Ġabsent":9522,"Ġturnpike":9523,"ario":9524,"Ġgest":9525,"Ġeis":9526,"illo":9527,"Ġreforms":9528,"Ġunexpected":9529,"Ġdying":9530,"anders":9531,"Ġwarnings":9532,"onsin":9533,"Ġsenators":9534,"Ġcardinals":9535,"Ġtoxic":9536,"ashes":9537,"Ġhonours":9538,"Ġboulev":9539,"Ġinquir":9540,"Ġpse":9541,"Ġlearns":9542,"Ġjess":9543,"Ġwritings":9544,"aha":9545,"Ġmonthly":9546,"Ġmicrosoft":9547,"Ġnev":9548,"Ġnord":9549,"Ġsyria":9550,"minster":9551,"Ġclothes":9552,"cester":9553,"Ġorganic":9554,"itious":9555,"oda":9556,"Ġdesper":9557,"Ġloud":9558,"Ġdisplaced":9559,"Ġempty":9560,"Ġupset":9561,"Ġrepublicans":9562,"Ġsculpture":9563,"Ġblo":9564,"Ġdoors":9565,"Ġseating":9566,"Ġcarries":9567,"Ġsusan":9568,"Ġarchaeological":9569,"Ġfitz":9570,"ashi":9571,"Ġflex":9572,"avia":9573,"Ġmanip":9574,"Ġinterviews":9575,"Ġww":9576,"Ġtract":9577,"Ġbeck":9578,"Ġmixing":9579,"Ġmagnitude":9580,"Ġinteraction":9581,"Ġcolors":9582,"Ġheavyweight":9583,"Ġconcerning":9584,"Ġbryan":9585,"Ġvit":9586,"Ġjefferson":9587,"Ġidol":9588,"Ġsheffield":9589,"Ġparkway":9590,"Ġvariations":9591,"Ġstreak":9592,"Ġlightning":9593,"Ġchambers":9594,"Ġtelegraph":9595,"Ġheroes":9596,"Ġmalaysia":9597,"fi":9598,"Ġsega":9599,"Ġsalary":9600,"Ġmythology":9601,"Ġwisconsin":9602,"Ġfbi":9603,"Ġinterpreted":9604,"Ġdreadn":9605,"isive":9606,"Ġtravelling":9607,"Ġ1895":9608,"Ġdisplays":9609,"Ġisraeli":9610,"Ġneil":9611,"Ġhurricanes":9612,"Ġcommercially":9613,"Ġowen":9614,"Ġmeteorological":9615,"Ġadvertis":9616,"kee":9617,"Ġjohnston":9618,"Ġconfusion":9619,"Ġarguing":9620,"Ġcorporate":9621,"Ġaft":9622,"Ġrunner":9623,"Ġpseud":9624,"Ġdemo":9625,"Ġessentially":9626,"aired":9627,"Ġpock":9628,"Ġclarke":9629,"reen":9630,"Ġairing":9631,"Ġcream":9632,"Ġsegments":9633,"rang":9634,"Ġtooth":9635,"Ġemmy":9636,"Ġcyrus":9637,"Ġvolcanic":9638,"Ġunlikely":9639,"Ġvariation":9640,"backs":9641,"Ġgrap":9642,"Ġ174":9643,"Ġconstitu":9644,"erts":9645,"Ġreleg":9646,"adesh":9647,"atis":9648,"Ġgrandfather":9649,"Ġaccurate":9650,"hal":9651,"Ġregiments":9652,"Ġcostume":9653,"Ġshifted":9654,"Ġfaculty":9655,"Ġlon":9656,"Ġrey":9657,"Ġopens":9658,"Ġmyc":9659,"Ġversus":9660,"Ġrebel":9661,"Ġties":9662,"Ġpitcher":9663,"Ġbreaks":9664,"Ġdreams":9665,"Ġbrazilian":9666,"Ġinternation":9667,"prised":9668,"Ġhd":9669,"Ġstall":9670,"Ġcircular":9671,"Ġemotion":9672,"Ġcrazy":9673,"Ġparsons":9674,"Ġswing":9675,"Ġopposing":9676,"rot":9677,"Ġreh":9678,"abe":9679,"Ġacre":9680,"Ġeditions":9681,"Ġshallow":9682,"Ġcolours":9683,"Ġ106":9684,"Ġ172":9685,"nan":9686,"Ġduch":9687,"Ġsuspic":9688,"Ġtaste":9689,"far":9690,"Ġgon":9691,"Ġorient":9692,"Ġdenver":9693,"Ġsponsored":9694,"Ġcattle":9695,"aman":9696,"Ġcorp":9697,"Ġangry":9698,"Ġvalid":9699,"Ġmacar":9700,"mal":9701,"tes":9702,"Ã¢":9703,"Ġlasting":9704,"Ã¥":9705,"Ġarmstrong":9706,"Ġhappen":9707,"Ġkon":9708,"arest":9709,"Ġsurprised":9710,"Ġpent":9711,"Ġdiverse":9712,"Ġmckin":9713,"Ġwished":9714,"Ġembr":9715,"Ġdanish":9716,"Ġmarl":9717,"Ġcommerce":9718,"Ġ111":9719,"Ġdancers":9720,"lete":9721,"Ġnewcastle":9722,"Ġworlds":9723,"Ġafford":9724,"Ġtigers":9725,"rin":9726,"onium":9727,"Ġfi":9728,"Ġva":9729,"Ġsustain":9730,"hell":9731,"Ġcav":9732,"Ġnewton":9733,"Ġaber":9734,"Ġdeeply":9735,"Ġgru":9736,"Ġsnake":9737,"Ġbible":9738,"eness":9739,"Ġquebec":9740,"Ġtir":9741,"Ġrecreation":9742,"Ġgamb":9743,"Ġenact":9744,"Ġboulevard":9745,"ussion":9746,"Ġprinciple":9747,"Ġdiplomatic":9748,"Ġwart":9749,"isons":9750,"Ġmild":9751,"Ġexamination":9752,"Ġkaiser":9753,"asters":9754,"Ġlift":9755,"Ġtension":9756,"Ġhammer":9757,"Ġefficient":9758,"Ġplum":9759,"Ġinfer":9760,"Ġadvancing":9761,"Ġnorthwestern":9762,"Ġpursuit":9763,"Ġpok":9764,"Ġbeating":9765,"Ġprosper":9766,"Ġrifle":9767,"Ġinclusion":9768,"Ġmg":9769,"Ġcivilians":9770,"Ġhul":9771,"Ġnose":9772,"Ġnaming":9773,"chi":9774,"Ġdrafted":9775,"Ġliner":9776,"Ġdisturbance":9777,"Ġcinc":9778,"Ġsheep":9779,"Ġconstantin":9780,"yan":9781,"onica":9782,"Ġrevel":9783,"Ġparad":9784,"Ġemer":9785,"Ġbiological":9786,"Ġratio":9787,"Ġparachute":9788,"Ġstolen":9789,"ortion":9790,"Ġkilome":9791,"arsh":9792,"Ġpromise":9793,"Ġrocket":9794,"Ġwonderful":9795,"Ġine":9796,"Ġreich":9797,"Ġvin":9798,"Ġblacks":9799,"Ġrebuild":9800,"gue":9801,"agi":9802,"Ġferr":9803,"nor":9804,"Ġky":9805,"Ġhamlet":9806,"Ġdivorce":9807,"Ġwilhelm":9808,"wright":9809,"enon":9810,"Ġwhale":9811,"ules":9812,"Ġdioc":9813,"Ġconcurrent":9814,"Ġalg":9815,"osexual":9816,"Ġmidnight":9817,"Ġlatest":9818,"Ġchile":9819,"Ġisn":9820,"Ġconven":9821,"abilities":9822,"iko":9823,"asha":9824,"Ġinsurance":9825,"Ġkidn":9826,"Ġ158":9827,"Ġharold":9828,"Ġprocesses":9829,"Ġpump":9830,"Ġkeys":9831,"Ġsettlements":9832,"Ġsubstitute":9833,"Ġverte":9834,"Ġ1000":9835,"Ġvillain":9836,"Ġconspiracy":9837,"itted":9838,"Ġcomed":9839,"Ġ1861":9840,"Ġequally":9841,"Ġpotentially":9842,"iqu":9843,"lane":9844,"uri":9845,"Ġbeaten":9846,"Ġchallenges":9847,"Ġsentence":9848,"Ġmonastery":9849,"itate":9850,"Ġdense":9851,"Ġrect":9852,"Ġseb":9853,"Ġknows":9854,"Ġfifa":9855,"Ġrookie":9856,"Ġjustin":9857,"Ġ1889":9858,"Ġserbian":9859,"inis":9860,"Ġtwent":9861,"Ġmanage":9862,"Ġrains":9863,"Ġ163":9864,"affe":9865,"Ġfunded":9866,"Ġcolumns":9867,"rific":9868,"Ġscr":9869,"Ġerror":9870,"Ġcharted":9871,"Ġcanon":9872,"Ġtyler":9873,"Ġbenefits":9874,"Ġproportion":9875,"Ġflav":9876,"Ġevident":9877,"Ġfollowers":9878,"eted":9879,"Ġcox":9880,"Ġnova":9881,"Ġaltitude":9882,"Ġbore":9883,"Ġstim":9884,"Ġamid":9885,"Ġtet":9886,"Ġsized":9887,"Ġ102":9888,"Ġ1894":9889,"Ġsearching":9890,"Ġmuhammad":9891,"Ġscandal":9892,"Ġenzy":9893,"Ġrecept":9894,"Ġexplaining":9895,"rehens":9896,"Ġoffshore":9897,"Ġparticipants":9898,"Ġmerged":9899,"Ġcaps":9900,"Ġveteran":9901,"Ġlamb":9902,"Ġperc":9903,"Ġforever":9904,"Ġadminister":9905,"Ġcbs":9906,"Ġextinct":9907,"Ġstuart":9908,"Ġlud":9909,"Ġsemin":9910,"Ġabu":9911,"Ġrequiring":9912,"reated":9913,"Ġbent":9914,"Ġknee":9915,"hill":9916,"vised":9917,"Ġdevoted":9918,"Ġapollo":9919,"Ġoz":9920,"Ġpersuaded":9921,"Ġjurisdiction":9922,"Ġknocked":9923,"Ġsimilarities":9924,"Ġtempo":9925,"Ġmemoir":9926,"Ġaar":9927,"Ġconstantine":9928,"Ġreservoir":9929,"Ġaa":9930,"Ġ166":9931,"Ġoperates":9932,"Ġgoalkeeper":9933,"Ġborrow":9934,"Ġnickel":9935,"Ġveterans":9936,"Ġaccommodate":9937,"Ġpregnant":9938,"Ġxii":9939,"Ġcounterp":9940,"Ġfarmers":9941,"Ġblend":9942,"Ġwitnesses":9943,"vet":9944,"adi":9945,"Ġ1891":9946,"Ġstrikes":9947,"Ġjudicial":9948,"Ġimplemented":9949,"Ġblast":9950,"Ġdivine":9951,"Ġeducated":9952,"Ġparaly":9953,"Ġbrooks":9954,"Ġdisorder":9955,"Ġtuck":9956,"rov":9957,"Ġreef":9958,"Ġgaining":9959,"Ġmassacre":9960,"Ġsocialist":9961,"Ġstudying":9962,"Ġwildlife":9963,"Ġbarbara":9964,"Ġoriented":9965,"atched":9966,"Ġcardiff":9967,"Ġmcl":9968,"aco":9969,"Ġplates":9970,"Ġaddressed":9971,"Ġprototype":9972,"Ġcategories":9973,"Ġinitiative":9974,"cription":9975,"Ġkyle":9976,"iah":9977,"Ġstatements":9978,"Ġtune":9979,"Ġlinks":9980,"chy":9981,"Ġboyfriend":9982,"Ġodd":9983,"Ġboundaries":9984,"master":9985,"Ġpeas":9986,"Ġvirtually":9987,"Ġindonesian":9988,"piece":9989,"heric":9990,"izer":9991,"Ġnan":9992,"enos":9993,"amas":9994,"rien":9995,"Ġleices":9996,"Ġfavourite":9997,"Ġcincinn":9998,"Ġtools":9999,"Ġfeared":10000,"Ġpersona":10001,"Ġproteins":10002,"Ġhostile":10003,"Ġ1800":10004,"Ġjoan":10005,"boards":10006,"Ġcomplained":10007,"Ġweakening":10008,"Ġtent":10009,"Ġpas":10010,"Ġâģ":10011,"Ġtide":10012,"Ġdanny":10013,"ocation":10014,"Ġtrapped":10015,"Ġhyper":10016,"Ġ1892":10017,"cliff":10018,"Ġkeen":10019,"Ġanarch":10020,"Ġ240":10021,"mented":10022,"ashing":10023,"Ġmaps":10024,"Ġdealing":10025,"Ġchrom":10026,"pine":10027,"Ġemail":10028,"Ġthreats":10029,"Ġmontgom":10030,"Ġtactical":10031,"Ġhipp":10032,"Ġpreserve":10033,"Ġpanzer":10034,"Ġchop":10035,"ront":10036,"Ġhenri":10037,"Ġzh":10038,"Ġcitizen":10039,"Ġfires":10040,"Ġthrown":10041,"Ġextensively":10042,"osph":10043,"Ġmarit":10044,"Ġhonorary":10045,"usalem":10046,"gow":10047,"Ġsean":10048,"nels":10049,"Ġschum":10050,"Ġtrio":10051,"Ġgothic":10052,"eter":10053,"Ġfrontier":10054,"19":10055,"Ġsoap":10056,"Ġbills":10057,"Ġrider":10058,"Ġivan":10059,"Ġtennis":10060,"Ġgospel":10061,"gus":10062,"aters":10063,"Ġboeing":10064,"Ġembarked":10065,"Ġzoo":10066,"Ġislamic":10067,"Ġjohann":10068,"Ġhelps":10069,"ometric":10070,"Ġsentenced":10071,"fly":10072,"Ġamen":10073,"Ġtasked":10074,"Ġconflicts":10075,"ĠâģĦ":10076,"Ġhurt":10077,"Ġhighlighted":10078,"Ġremote":10079,"auc":10080,"Ġfitness":10081,"Ġjerusalem":10082,"Ġstretch":10083,"Ġoscar":10084,"Ġhonors":10085,"hop":10086,"Ġsuperst":10087,"Ġtribune":10088,"eria":10089,"Ġlions":10090,"Ġusage":10091,"othy":10092,"Ġmadison":10093,"Ġdisb":10094,"Ġcincinnati":10095,"Ġteammate":10096,"Ġrecruited":10097,"Ġwarships":10098,"Ġsurp":10099,"Ġtourism":10100,"Ġobvious":10101,"Ġmacarthur":10102,"Ġstein":10103,"Ġlodge":10104,"rically":10105,"Ġchad":10106,"Ġprovisions":10107,"Ġresolved":10108,"Ġpartners":10109,"Ġbarnes":10110,"Ġexplore":10111,"Ġdocumented":10112,"Ġevacuation":10113,"Ġvelocity":10114,"eto":10115,"Ġpupp":10116,"ĠâĤ¹":10117,"Ġhybrid":10118,"Ġspo":10119,"Ġdarkness":10120,"14":10121,"Ġabroad":10122,"Ġpoliticians":10123,"Ġordinary":10124,"Ġsaturn":10125,"Ġlacking":10126,"Ġmachin":10127,"Ġreass":10128,"Ġtelephone":10129,"Ġ1888":10130,"Ġencounters":10131,"zing":10132,"Ġregardless":10133,"Ġfus":10134,"Ġrushing":10135,"Ġintent":10136,"Ġcolored":10137,"Ġdiscontin":10138,"Ġhoused":10139,"ÃŃn":10140,"Ġrenewed":10141,"ju":10142,"Ġnoise":10143,"Ġscholarship":10144,"Ġrescued":10145,"Ġelaborate":10146,"Ġware":10147,"class":10148,"Ġassert":10149,"uches":10150,"Ġdefenders":10151,"Ġsorry":10152,"istent":10153,"sch":10154,"ublin":10155,"lington":10156,"Ġorthodox":10157,"Ġdimin":10158,"Ġdozen":10159,"Ġbund":10160,"Ġbeliefs":10161,"Ġmontgomery":10162,"Ġconj":10163,"ackdown":10164,"Ġbattlefield":10165,"Ġhumanity":10166,"Ġamphib":10167,"Ġrogers":10168,"Ġprayer":10169,"Ġreceives":10170,"Ġescorted":10171,"Ġtyr":10172,"ulsion":10173,"Ġbrilliant":10174,"Ġwiz":10175,"Ġpp":10176,"aments":10177,"Ġburger":10178,"Ġauthorized":10179,"Ġ1885":10180,"Ġseparation":10181,"Ġpierre":10182,"enburg":10183,"urst":10184,"Ġcompetitions":10185,"Ġpyram":10186,"Ġimprisoned":10187,"roid":10188,"olly":10189,"Ġenabled":10190,"Ġconsiderably":10191,"Ġpresents":10192,"Ġace":10193,"Ġgau":10194,"Ġconfident":10195,"Ġhandle":10196,"Ġcats":10197,"Ġscots":10198,"Ġbrigadier":10199,"Ġpursued":10200,"Ġinhib":10201,"Ġ153":10202,"Ġcrashed":10203,"Ġsuspension":10204,"Ġinvolves":10205,"assy":10206,"Ġashore":10207,"mel":10208,"Ġtrunk":10209,"Ġobserver":10210,"uters":10211,"Ġkos":10212,"Ġsinking":10213,"Ġtherap":10214,"Ġchristians":10215,"Ġiceland":10216,"Ġgarnered":10217,"Ġjaw":10218,"Ġspeculation":10219,"Ġinning":10220,"Ġuprising":10221,"Ġmonitor":10222,"Ġdepicts":10223,"Ġpromoting":10224,"Ġunve":10225,"Ġsoccer":10226,"oca":10227,"ocene":10228,"Ġhandling":10229,"Ġbatteries":10230,"oded":10231,"Ġfru":10232,"anim":10233,"Ġsanct":10234,"Ġbaltic":10235,"Ġbesides":10236,"Ġathens":10237,"ÃŃa":10238,"Ġ978":10239,"Ġoccasional":10240,"Ġloose":10241,"Ġbars":10242,"Ġkrist":10243,"Ġhopes":10244,"Ġtriumph":10245,"uz":10246,"Ġcage":10247,"Ġsuites":10248,"Ġflour":10249,"Ġswitch":10250,"pot":10251,"opsis":10252,"Ġbatted":10253,"Ġremembered":10254,"enberg":10255,"akh":10256,"Ġapply":10257,"Ġarcade":10258,"Ġbooth":10259,"Ġdevelopments":10260,"Ġ113":10261,"Ġleonard":10262,"eg":10263,"Ġbeth":10264,"ogle":10265,"Ġregulations":10266,"Ġitunes":10267,"Ġleop":10268,"Ġeddie":10269,"Ġcapturing":10270,"Ġthunderstorm":10271,"Ġtruly":10272,"view":10273,"ÉĻ":10274,"Ġlaps":10275,"ovak":10276,"Ġmagnetic":10277,"Ġimpressive":10278,"Ġupl":10279,"Ġ117":10280,"Ġmixture":10281,"Ġurged":10282,"Ġsuspected":10283,"Ġthames":10284,"Ġmetric":10285,"Ġeventual":10286,"Ġbreeds":10287,"Ġorganisms":10288,"Ġinternationally":10289,"Ġediting":10290,"Ġclip":10291,"Ġsau":10292,"Ġensemb":10293,"Ġupdated":10294,"Ġtint":10295,"Ġcs":10296,"Ġcompositions":10297,"Ġwi":10298,"Ġpolitician":10299,"Ġlicense":10300,"Ġdat":10301,"Ġupcoming":10302,"olds":10303,"Ġphoto":10304,"Ġowing":10305,"Ġaest":10306,"Ġreagan":10307,"Ġassociate":10308,"Ġtissue":10309,"Ġ1865":10310,"Ġsherman":10311,"Ġcustomers":10312,"Ġdug":10313,"rible":10314,"Ġmetre":10315,"Ġdistract":10316,"Ġ118":10317,"Ġcastles":10318,"Ġburg":10319,"Ġrailways":10320,"ando":10321,"Ġmccar":10322,"Ġvolunteer":10323,"Ġchancellor":10324,"Ġrestrictions":10325,"Ġhorizont":10326,"Ġrelation":10327,"Ġ159":10328,"Ġlyrical":10329,"Ġrendered":10330,"Ġchron":10331,"Ġthereby":10332,"Ġaccidentally":10333,"Ġernest":10334,"Ġromney":10335,"Ġmechanism":10336,"Ġbris":10337,"Ġballs":10338,"Ġathletics":10339,"Ġdecreased":10340,"Ġdisappointed":10341,"Ġnancy":10342,"Ġsouthwestern":10343,"Ġnato":10344,"16":10345,"Î±":10346,"dam":10347,"zed":10348,"Ġintellectual":10349,"Ġwarned":10350,"Ġdirecting":10351,"Ġtracked":10352,"Ġinhab":10353,"Ġchamberlain":10354,"Å¾":10355,"Ġshah":10356,"Ġunn":10357,"Ġgenu":10358,"Ġpositively":10359,"Ġmarking":10360,"Ġtitan":10361,"Ġconsumption":10362,"Ġinherited":10363,"Ġanticipated":10364,"wing":10365,"Ġenh":10366,"Ġcounsel":10367,"Ġmutual":10368,"Ġportugal":10369,"agh":10370,"Ġpete":10371,"Ġconversation":10372,"Ġhelicopter":10373,"udi":10374,"rene":10375,"Ġpatient":10376,"Ġdetective":10377,"Ġdublin":10378,"Ġspokes":10379,"Ġsacr":10380,"18":10381,"rage":10382,"isition":10383,"unning":10384,"Ġ450":10385,"oys":10386,"Ġmachines":10387,"Ġbradley":10388,"Ġcontracts":10389,"ĠjosÃ©":10390,"Ġcum":10391,"Ġinvaded":10392,"Ġmammals":10393,"Ġmushroom":10394,"Ġglas":10395,"Ġphillies":10396,"enter":10397,"Ġbreast":10398,"Ġauto":10399,"Ġduck":10400,"Ġmemories":10401,"Ġvolt":10402,"Ġdependent":10403,"Ġconstantinople":10404,"nda":10405,"Ġagu":10406,"anton":10407,"Ġapolog":10408,"Ġclosure":10409,"aire":10410,"Ġheb":10411,"idia":10412,"ended":10413,"Ġantib":10414,"Ġreader":10415,"Ġdelegates":10416,"Î¿":10417,"Ġroot":10418,"Ġlighter":10419,"restrial":10420,"Ġassessment":10421,"gary":10422,"ĠÄĳ":10423,"Ġwrap":10424,"Ġmak":10425,"Ġinaugural":10426,"zo":10427,"Ġrally":10428,"Ġeasier":10429,"Ġtea":10430,"Ġfundamental":10431,"Ġaccessible":10432,"Ġpsychiat":10433,"Ġfossils":10434,"Ġgrid":10435,"aders":10436,"ovic":10437,"Ġlawsuit":10438,"Ġdebris":10439,"Ġnephew":10440,"Ġcorridor":10441,"Ġsaints":10442,"Ġster":10443,"annon":10444,"Ġvoters":10445,"colm":10446,"wald":10447,"Ġdud":10448,"Ġspit":10449,"nery":10450,"Ġconstruct":10451,"17":10452,"Ġ135":10453,"Ã©n":10454,"Ġviewing":10455,"Ġtram":10456,"phan":10457,"Ġborders":10458,"Ġsweep":10459,"Ġheights":10460,"Ġnickname":10461,"ho":10462,"adal":10463,"Ġsharing":10464,"Ġchester":10465,"Ġgibral":10466,"Ġcomplicated":10467,"Ġtib":10468,"Ġmeal":10469,"Ġmerced":10470,"Ġ1864":10471,"Ġgibraltar":10472,"Ġboost":10473,"Ġoccurring":10474,"ught":10475,"Ġpand":10476,"Ġantar":10477,"Ġcornwall":10478,"Ġdolph":10479,"Ġpeop":10480,"Ġinfection":10481,"Ġsheriff":10482,"Ġbeau":10483,"Ġpleasure":10484,"áº":10485,"Ġvick":10486,"Ġunre":10487,"Ġshaft":10488,"pat":10489,"neys":10490,"Ġprelimin":10491,"ilda":10492,"Ġremind":10493,"Ġslav":10494,"Ġtourist":10495,"Ġfantastic":10496,"Ġmalcolm":10497,"took":10498,"Ġlesb":10499,"Ġmolecular":10500,"Ġmurdered":10501,"lu":10502,"Ġheath":10503,"Ġkaz":10504,"Ġremar":10505,"Ġsuggestion":10506,"Ġsupports":10507,"Ġparticles":10508,"Ġicon":10509,"Ġfeathers":10510,"Ġcena":10511,"Ġbee":10512,"Ġxi":10513,"Ġcamb":10514,"Ġflags":10515,"Ġbotan":10516,"Ġaj":10517,"Ġavoided":10518,"hall":10519,"Ġsaving":10520,"Ġrecruit":10521,"Ġcurve":10522,"Ġkenneth":10523,"inated":10524,"Ġthrowing":10525,"Ġarmenian":10526,"enna":10527,"Ġib":10528,"Ġprogressed":10529,"Ġprotestant":10530,"Ġpom":10531,"Ġ162":10532,"Ġ112":10533,"edia":10534,"Ġsyl":10535,"Ġeastward":10536,"Ġdoctrine":10537,"Ġwartime":10538,"Ġnortheastern":10539,"Ġconsequence":10540,"Ġautobiography":10541,"ether":10542,"Ġmounts":10543,"Ġinspect":10544,"Ġisaac":10545,"var":10546,"Ġmv":10547,"ampa":10548,"Ġimposed":10549,"Ġconvicted":10550,"Ġpunishment":10551,"Ġpedro":10552,"Ġgabri":10553,"Ġintermediate":10554,"Ġtier":10555,"roe":10556,"Ġproduces":10557,"gett":10558,"Ġfortune":10559,"Ġwarrior":10560,"Ġlung":10561,"ielder":10562,"Ġbrowns":10563,"Ġattraction":10564,"Ġbailey":10565,"Ġintegrated":10566,"Ġbrut":10567,"ellar":10568,"izers":10569,"Ġcrane":10570,"Ġreporting":10571,"Ġkilog":10572,"Ġnoticed":10573,"Ġ154":10574,"Ġmicha":10575,"Ġexhibit":10576,"Ġdepicting":10577,"rip":10578,"Ġclouds":10579,"changed":10580,"Ġsap":10581,"Ġresid":10582,"Ġ107":10583,"Ġexploration":10584,"Ġthreatening":10585,"Ġtouchdowns":10586,"ws":10587,"Ġmonit":10588,"Ġbackst":10589,"Ġverses":10590,"Ġcouldn":10591,"oba":10592,"Ġtommy":10593,"Ġpeoples":10594,"ht":10595,"Ġannex":10596,"Ġvicinity":10597,"Ġunh":10598,"Ġcourage":10599,"Ġ1862":10600,"flow":10601,"Ġphilosopher":10602,"encer":10603,"Ġposts":10604,"Ġholes":10605,"Ġbrooklyn":10606,"bie":10607,"Ġãĥ":10608,"Ġincred":10609,"heimer":10610,"Ġdent":10611,"Ġhier":10612,"Ġmathematics":10613,"Ġhed":10614,"Ġsear":10615,"ocol":10616,"Ġmelod":10617,"Ġrotten":10618,"Ġfib":10619,"cht":10620,"pez":10621,"acht":10622,"cca":10623,"Ġlinear":10624,"Ġcoaching":10625,"Ġconstantly":10626,"Ġcapitol":10627,"orf":10628,"Ġsheet":10629,"Ġvegas":10630,"Ġundertaken":10631,"Ġnashville":10632,"Ġns":10633,"Ġshin":10634,"Ġreleasing":10635,"Ġremoving":10636,"found":10637,"Ġsulf":10638,"Ġentert":10639,"Ġmartial":10640,"Ġjournalists":10641,"gÃ©":10642,"Ġblame":10643,"Ġdiversity":10644,"Ġdecrease":10645,"Ġignored":10646,"Ġmk":10647,"Ġjake":10648,"Ġmaine":10649,"Ġ157":10650,"ahl":10651,"Ġå":10652,"Ġanthem":10653,"ener":10654,"Ġmonsters":10655,"Ġrealistic":10656,"Ġexecut":10657,"Ġlan":10658,"Ġclergy":10659,"Ġeagles":10660,"Ġpredominantly":10661,"Ġfacil":10662,"Ġcreature":10663,"bach":10664,"elin":10665,"Ġauthen":10666,"Ġcuis":10667,"Ġsacrifice":10668,"Ġaur":10669,"Ġkru":10670,"Ġexpanding":10671,"Ġ156":10672,"Ġwick":10673,"Ġsubd":10674,"Ġeighteen":10675,"Ġfocuses":10676,"irect":10677,"Ġ220":10678,"Ġluft":10679,"ais":10680,"Ġaux":10681,"olia":10682,"Ġspringfield":10683,"held":10684,"Ġisle":10685,"Ġgrows":10686,"gent":10687,"Ġcongressional":10688,"Ġups":10689,"Ġpaying":10690,"Ġalberta":10691,"Ġserbia":10692,"Ġmaritime":10693,"aping":10694,"etta":10695,"Ġunfortun":10696,"Ġdisappeared":10697,"Ġwagner":10698,"kar":10699,"orrow":10700,"Ġenorm":10701,"Ġdeparting":10702,"Ġchoices":10703,"Ġbil":10704,"icus":10705,"Ġcontacted":10706,"Ġchuck":10707,"Ġhack":10708,"Ġroster":10709,"Ġinterc":10710,"Ġgenerals":10711,"Ġpleased":10712,"Ġindependently":10713,"Ġrelieved":10714,"Ġmlb":10715,"Ġtaiwan":10716,"Ġtwentieth":10717,"Ġarose":10718,"iture":10719,"Ġnes":10720,"Ġbarrier":10721,"Ġchurchill":10722,"Ġbulgar":10723,"Ġpropaganda":10724,"umped":10725,"Ġdoctors":10726,"Ġdraws":10727,"Ġteachers":10728,"Ġrenaissance":10729,"Ġsentiment":10730,"Ġ1840":10731,"Ġcale":10732,"Ġpi":10733,"Ġdelight":10734,"Ġmeasuring":10735,"Ġcentered":10736,"Ġmetac":10737,"Ġscientist":10738,"Ġexplanation":10739,"Ġstability":10740,"Ġgenres":10741,"Ġmuslims":10742,"Ġacclaimed":10743,"Ġencom":10744,"Ġsacred":10745,"Ġbetray":10746,"Ġparade":10747,"Ġasserted":10748,"Ġpreliminary":10749,"Ġnept":10750,"Ġworse":10751,"Ġestates":10752,"Ġbarcel":10753,"Ġsri":10754,"ulus":10755,"Ġfriedrich":10756,"Ġcanceled":10757,"Ġcompiled":10758,"Ġsituations":10759,"Ġmalta":10760,"Ġoxid":10761,"hanced":10762,"Ġshiva":10763,"Ġwalt":10764,"Ġcelebrate":10765,"Ġgravity":10766,"Ġyugoslavia":10767,"Ġspeeds":10768,"Ġbullet":10769,"Ġcollaborated":10770,"Ġinducted":10771,"Ġtren":10772,"Ġtough":10773,"Ġenhanced":10774,"Ġtwitter":10775,"Ġ119":10776,"Ġsubtropical":10777,"Ġexterior":10778,"Ġincidents":10779,"Ġroadway":10780,"Ġlayers":10781,"Ġfocusing":10782,"Ġmask":10783,"Ġabsorbed":10784,"Ġlocomotives":10785,"Ġtol":10786,"Ġcontinent":10787,"Ġbrah":10788,"Ġplains":10789,"Ġmega":10790,"Ġdefinitely":10791,"Ġsut":10792,"ulum":10793,"Ġcritically":10794,"Ġreiss":10795,"Ġachiev":10796,"Ġvarying":10797,"amine":10798,"ective":10799,"gans":10800,"Ġtum":10801,"Ġaided":10802,"Ġtender":10803,"acing":10804,"Ġfloren":10805,"Ġappeals":10806,"Ġsubmarines":10807,"Ġtob":10808,"utely":10809,"osion":10810,"Ġcarr":10811,"Ġpublicity":10812,"Ġelevated":10813,"Ġinex":10814,"Ġmaced":10815,"Ġregist":10816,"Ġnetworks":10817,"Ġolivia":10818,"Ġafghanistan":10819,"avan":10820,"Ġleo":10821,"Ġsmoking":10822,"Ġburke":10823,"Ġtomatoes":10824,"ettes":10825,"Ġnormandy":10826,"regular":10827,"Ġtargeted":10828,"Ġhass":10829,"Ġatop":10830,"Ġbutler":10831,"Ġfortifications":10832,"Ġcreatures":10833,"Ġdiscussing":10834,"Ġritual":10835,"Ġleicester":10836,"Ġbold":10837,"Ġbeta":10838,"Ġangelou":10839,"asm":10840,"Ġhir":10841,"iga":10842,"Ġconfused":10843,"Ġirregular":10844,"zes":10845,"Ġtensions":10846,"Ġdive":10847,"Ġrays":10848,"opol":10849,"ritic":10850,"Ġscouting":10851,"Ġleeds":10852,"Ġdropping":10853,"Ġdislik":10854,"Ġgoogle":10855,"Ġhelen":10856,"Ġtomorrow":10857,"eding":10858,"Ã©t":10859,"Ġpositioned":10860,"Ġshopping":10861,"iors":10862,"Ġmarched":10863,"Ġreminis":10864,"Ġfungus":10865,"Ġ1887":10866,"Ġpreceding":10867,"Ġabsolute":10868,"Ġspots":10869,"Ġsummon":10870,"Ġswept":10871,"Ġmam":10872,"Ġleagues":10873,"Ġalbany":10874,"Ġtreasury":10875,"zac":10876,"Ġaub":10877,"Ġresignation":10878,"Ġcompromise":10879,"Ġauthentic":10880,"Ã´":10881,"Ġedmund":10882,"Ġtransmission":10883,"ipher":10884,"Ġ1863":10885,"Ġmechanics":10886,"Ġmysterious":10887,"Ġanchor":10888,"Ġspacecraft":10889,"Ġgrove":10890,"Ġmanifest":10891,"ĠpokÃ©":10892,"idd":10893,"Ġconcepts":10894,"Ġmentions":10895,"roscop":10896,"Ġsailors":10897,"orious":10898,"Ġwanting":10899,"Ġply":10900,"Ġ1886":10901,"Ġdennis":10902,"£o":10903,"Ġmanaging":10904,"Ġbrigades":10905,"front":10906,"Ġpover":10907,"Ġcorruption":10908,"Ġviii":10909,"Ġarguments":10910,"Ġbonds":10911,"Ġgregory":10912,"Ġtrem":10913,"Ġdarker":10914,"Ġstair":10915,"Ġproxim":10916,"Ġfarmer":10917,"Ġatmospheric":10918,"Ġcinemat":10919,"Ġventure":10920,"nn":10921,"Ġjna":10922,"Ġbrings":10923,"Ġworker":10924,"Ġwalks":10925,"Ġstored":10926,"Ġtrap":10927,"Ġflown":10928,"umberland":10929,"hart":10930,"Ġloaded":10931,"Ġslam":10932,"Ġpurple":10933,"Ġassassination":10934,"Ġpoverty":10935,"rogen":10936,"acular":10937,"Ġsacrament":10938,"imony":10939,"Ġseam":10940,"aku":10941,"aba":10942,"Ġswan":10943,"Ġjulian":10944,"Ġcorresponding":10945,"Ġschumacher":10946,"Ġmour":10947,"Ġconced":10948,"Ġmarath":10949,"Ġknowing":10950,"Ġdevot":10951,"Ġinstructions":10952,"Ġgraves":10953,"aneous":10954,"Ġcondemned":10955,"icking":10956,"Ġphyl":10957,"ugg":10958,"Ġiran":10959,"Ġeman":10960,"Ġorton":10961,"Ġfinest":10962,"Ġmissile":10963,"Ġmckinley":10964,"instein":10965,"Ġnass":10966,"Ġrar":10967,"Ġ114":10968,"Ġ145":10969,"Ġlistening":10970,"Ġmouse":10971,"leted":10972,"Ġhispan":10973,"Ġbutt":10974,"Ġflot":10975,"Ġpride":10976,"Ġwidow":10977,"Ġnasa":10978,"Ġfinger":10979,"issioned":10980,"Ġangels":10981,"âĢ":10982,"Ġpreference":10983,"Ġbread":10984,"Ġfairy":10985,"Ġorchestral":10986,"ĠËĪ":10987,"inter":10988,"Ġisab":10989,"Ġepit":10990,"Ġmoist":10991,"Ġinver":10992,"Ġdining":10993,"Ġbutton":10994,"Ġfavored":10995,"Ġphysically":10996,"Ġprinceton":10997,"Ġrotation":10998,"Ġmigration":10999,"Ġretreated":11000,"Ġeverybody":11001,"Ġtorpedoes":11002,"Ġaria":11003,"Ġfing":11004,"Ġinhg":11005,"Ġshelter":11006,"Ġpreservation":11007,"Ġdrake":11008,"Ġdetected":11009,"Ġchallenging":11010,"Ġceremonies":11011,"stan":11012,"Ġblamed":11013,"Ġhok":11014,"Ġgenesis":11015,"Ġparticipating":11016,"Ġgusts":11017,"Ġnathan":11018,"Ġmodest":11019,"Ġholland":11020,"Ġmock":11021,"Ġbarcelona":11022,"agg":11023,"Ġsue":11024,"Ġ1884":11025,"Ġmontana":11026,"Ġhubbard":11027,"Ġdisbanded":11028,"Ġmull":11029,"omon":11030,"Ġconsciousness":11031,"Ġdisabled":11032,"aja":11033,"Ġachievements":11034,"rod":11035,"agers":11036,"occ":11037,"Ġmaple":11038,"Ġsteadily":11039,"Ġrebounds":11040,"Ġmessages":11041,"Ġcomposers":11042,"mill":11043,"Ġagencies":11044,"Ġflesh":11045,"Ġradius":11046,"Ġseeds":11047,"Ġcomprehens":11048,"Ġfluor":11049,"Ġglasgow":11050,"yll":11051,"Ġposter":11052,"Ġcalculated":11053,"Ġvegetation":11054,"Ġants":11055,"Ġsummar":11056,"Ġcommitment":11057,"Ġemerging":11058,"Ġvariable":11059,"Ġdistinction":11060,"Ġ132":11061,"Ġsoci":11062,"Ġconvince":11063,"Ġvenues":11064,"Ġprinting":11065,"usters":11066,"Ġabst":11067,"Ġsingers":11068,"Ġpostp":11069,"Ġsod":11070,"Ġquit":11071,"Ġsmackdown":11072,"Ġconvey":11073,"Ġbelle":11074,"Ġcooperation":11075,"Ġreserves":11076,"Ġdad":11077,"Ġcanucks":11078,"Ġaustro":11079,"Ġopinions":11080,"Ġascend":11081,"Ġconfig":11082,"Ġelectoral":11083,"Ġwondering":11084,"Ġintend":11085,"Ġtril":11086,"Ġsolely":11087,"Ġvest":11088,"Ġquoted":11089,"Ġmotif":11090,"sis":11091,"Ġgig":11092,"Ġmenu":11093,"Ġpilgr":11094,"eda":11095,"Ġendang":11096,"Ġ129":11097,"Ġconducting":11098,"Ġgast":11099,"Ġneuro":11100,"Ġpriority":11101,"Ġsongwriting":11102,"Ġtheodore":11103,"Ġlaz":11104,"Ġherbert":11105,"Ġwalked":11106,"ËĲ":11107,"lem":11108,"Ġrams":11109,"Ġwhales":11110,"Ġmanuel":11111,"Ġcope":11112,"Ġemma":11113,"Ġlandmark":11114,"aughter":11115,"Ġnevada":11116,"Ġpocket":11117,"Ã¶r":11118,"Ġceltic":11119,"Ġdepot":11120,"Ġnaturally":11121,"Ġchiefs":11122,"Ġexamined":11123,"Ġextraordin":11124,"Ġgraphic":11125,"arus":11126,"Ġweakness":11127,"Ġnem":11128,"Ġhein":11129,"Ġisles":11130,"lett":11131,"inus":11132,"Ġbark":11133,"Ġscreens":11134,"Ġessay":11135,"Ġeligible":11136,"Ġharsh":11137,"ulates":11138,"Ġindirect":11139,"Ġwestminster":11140,"Ġtracking":11141,"onso":11142,"itals":11143,"icon":11144,"Ġjin":11145,"Ġintr":11146,"Ġdemon":11147,"Ġ230":11148,"Ġrounded":11149,"Ġheavier":11150,"Ġjamaica":11151,"Ġbce":11152,"Ġbeast":11153,"Ġrouting":11154,"Ġpoe":11155,"Ġremake":11156,"Ġtemples":11157,"Ġmadrid":11158,"Ġtintin":11159,"Ġaids":11160,"Ġdeer":11161,"Ġmarqu":11162,"Ġpatro":11163,"Ġhomosexual":11164,"Ġvolcano":11165,"rels":11166,"Ġlut":11167,"Ġalam":11168,"ishops":11169,"Ġpray":11170,"Ġlibert":11171,"Ġdecisive":11172,"Ġcurved":11173,"Ġ1877":11174,"Ġawareness":11175,"Ġfragments":11176,"Ġjets":11177,"Ġcomparing":11178,"Ġnewfound":11179,"Ġdemographic":11180,"Ġ138":11181,"iki":11182,"Ġfarms":11183,"Ġtaxonomy":11184,"Ġconsideration":11185,"Ġthemed":11186,"Ġphon":11187,"Ġnationalist":11188,"Ġspectrum":11189,"Ġprompting":11190,"oi":11191,"arded":11192,"Ġvern":11193,"Ġlegion":11194,"Ġ1876":11195,"Ġlogo":11196,"Ġchannels":11197,"Ġmercedes":11198,"Ġtool":11199,"Ġlikewise":11200,"Ġguadal":11201,"Ġposthum":11202,"abad":11203,"Ġ103":11204,"Ġangles":11205,"Ġnonstop":11206,"Ġcarlos":11207,"Ġaccomplished":11208,"ĠÐ":11209,"iev":11210,"Ġpercy":11211,"Ġdescript":11212,"Ġpsychological":11213,"Ġyd":11214,"Ġglou":11215,"Ġtourists":11216,"Ġcontrad":11217,"Ġronald":11218,"Ġgathering":11219,"Ġsurprising":11220,"Ġmanning":11221,"Ġsilence":11222,"Ġagrees":11223,"Ġbulgarian":11224,"Ġelementary":11225,"acc":11226,"Ġafterward":11227,"Ġconsens":11228,"Ġperformers":11229,"Ġmilan":11230,"Ġvirtual":11231,"Ġdynamic":11232,"roc":11233,"Ġconfer":11234,"Ġproclaimed":11235,"Ġunoff":11236,"Ġpossessed":11237,"Ġprivile":11238,"Ġconnects":11239,"Ġexpectations":11240,"dan":11241,"lake":11242,"asia":11243,"oming":11244,"Ġplayable":11245,"Ġemig":11246,"Ġrefuses":11247,"season":11248,"Ġmcg":11249,"Ġsensitive":11250,"Ġsergeant":11251,"Ġmast":11252,"Ġfrigate":11253,"Ġensemble":11254,"Ġcommentators":11255,"umbered":11256,"Ġladies":11257,"Ġcommons":11258,"Ġsignals":11259,"Ġconsequences":11260,"Ġharvest":11261,"Ġrosen":11262,"Ġrefugees":11263,"Ġkilometers":11264,"Ġcuisine":11265,"Ġnak":11266,"Ġchip":11267,"Ġchains":11268,"Ġoutcome":11269,"Ġinsuff":11270,"Ġukrain":11271,"Ġcubic":11272,"Ġmunicipality":11273,"Ä«":11274,"Ġcomprising":11275,"Ġguit":11276,"Ġottawa":11277,"Ġnig":11278,"Ġdiscipline":11279,"Ġsans":11280,"isations":11281,"Ġstom":11282,"Ġjoke":11283,"istical":11284,"Ġsteady":11285,"Ġembassy":11286,"Ġfears":11287,"Ġwr":11288,"atar":11289,"Ġcong":11290,"Ġdiscour":11291,"Ġadjust":11292,"Ġtransformed":11293,"Ġforgot":11294,"rium":11295,"Ġcolin":11296,"Ġunderwater":11297,"Ġdepiction":11298,"á»ĩ":11299,"Ġfabric":11300,"eta":11301,"Ġ1830":11302,"ennial":11303,"Ġintelligent":11304,"Ġexercises":11305,"Ġpioneer":11306,"Ġencompass":11307,"rians":11308,"Ġpla":11309,"Ġopined":11310,"Ġcelebrity":11311,"Ġemotions":11312,"Ġmisc":11313,"Ġandr":11314,"Ġnok":11315,"Ġrational":11316,"Ġranch":11317,"Ġabra":11318,"Ġbanksia":11319,"Ġdeposits":11320,"Ġprocedure":11321,"Ġchal":11322,"Ġstrings":11323,"Ġwidth":11324,"Ġproperly":11325,"Ġpayment":11326,"ders":11327,"Ġdishes":11328,"Ġgrim":11329,"Ġ128":11330,"Ġstriker":11331,"Ġmichaels":11332,"Ġdeliberately":11333,"Ġmonday":11334,"Ġexecutives":11335,"ĠpokÃ©mon":11336,"olan":11337,"Ġ1875":11338,"Ġbarracks":11339,"Ġroutine":11340,"Ġsaga":11341,"Ġanger":11342,"Ġusher":11343,"Ġreluctant":11344,"Ġwer":11345,"Ġproud":11346,"atty":11347,"Ġphosph":11348,"Ġkeyboard":11349,"Ġgale":11350,"Ġprocessing":11351,"anka":11352,"Ġsandy":11353,"Ġtwe":11354,"Ġformations":11355,"Ġpowell":11356,"Ġraymond":11357,"Ġana":11358,"Ġpermit":11359,"Ġceo":11360,"Ġdialect":11361,"Ġguitars":11362,"iens":11363,"000":11364,"Ġenix":11365,"Ġcontribute":11366,"Ġcomplimented":11367,"Ġbout":11368,"Ġbever":11369,"Ġvaries":11370,"Ġherb":11371,"Ġdestination":11372,"Ġgauge":11373,"Ġsul":11374,"Ġecl":11375,"ighed":11376,"Ġmiddles":11377,"Ġestimate":11378,"Ġphotos":11379,"Ġvenice":11380,"Ġvocalist":11381,"Ġextends":11382,"Ġloyalty":11383,"Ġgem":11384,"Ġunanim":11385,"Ġmetals":11386,"Ġcomplement":11387,"Ġrichardson":11388,"Ġhenderson":11389,"inth":11390,"Ġdome":11391,"amation":11392,"Ġtribut":11393,"Ġenlar":11394,"Ġonwards":11395,"Ġsting":11396,"Ġkum":11397,"Ġblair":11398,"Ġcarved":11399,"Ġfarming":11400,"Ġbowled":11401,"Ġferdin":11402,"Ġphilosoph":11403,"Ġnervous":11404,"urd":11405,"etary":11406,"Ġchen":11407,"Ġfunk":11408,"Ġceiling":11409,"Ġ1883":11410,"Ġexpressway":11411,"Ġlamp":11412,"Ġcollecting":11413,"Ġparalymp":11414,"isting":11415,"Ġspite":11416,"Ġmillions":11417,"Ġromanian":11418,"herent":11419,"oric":11420,"Ġpoles":11421,"Ġ1881":11422,"Ġcontributing":11423,"Ġcontempor":11424,"Ġrequirement":11425,"Ġinput":11426,"Ġstaged":11427,"chw":11428,"ĠâĻ":11429,"Ġrockets":11430,"Ġroller":11431,"Ġinstrumentation":11432,"Ġpont":11433,"Ġrag":11434,"Ġalumn":11435,"appa":11436,"Ġrevealing":11437,"Ġberm":11438,"Ġcomplaints":11439,"Ġstir":11440,"Ġstabil":11441,"Ġcheese":11442,"Ġdiseases":11443,"aun":11444,"zi":11445,"Ġpix":11446,"Ġdop":11447,"Ġassets":11448,"Ġdamaging":11449,"Ġconsistently":11450,"Ġteenage":11451,"yers":11452,"alt":11453,"Ġunaware":11454,"Ġclause":11455,"Ġmonk":11456,"Ġradi":11457,"Ġlemurs":11458,"Ġsuite":11459,"actic":11460,"Ġblog":11461,"Ġcameo":11462,"Ġderby":11463,"Ġsymbols":11464,"Ġphenomenon":11465,"Ġling":11466,"ema":11467,"Ġlancash":11468,"anted":11469,"iper":11470,"Ġmidway":11471,"Ġpolitically":11472,"Ġwatson":11473,"Ġduncan":11474,"Ġlocomotive":11475,"Ġenvironments":11476,"Ġellen":11477,"Ġjumping":11478,"Ġsixty":11479,"Ġpowder":11480,"Ġchapters":11481,"Ġpermanently":11482,"adows":11483,"Ġfloyd":11484,"Ġcalgary":11485,"Ġ1869":11486,"Ġbelonging":11487,"fs":11488,"Ġimproving":11489,"Ġlancashire":11490,"Ġpreventing":11491,"Ġadvisory":11492,"Ġreferee":11493,"Ġdisputed":11494,"Ġrodrig":11495,"Ġdetachment":11496,"Ġdiary":11497,"Ġacceptance":11498,"Ġpercussion":11499,"Ġ750":11500,"Ġgenera":11501,"Ġdispatched":11502,"vent":11503,"Ġng":11504,"Ġtrinity":11505,"Ġveronica":11506,"Ġswitched":11507,"Ġchlor":11508,"iang":11509,"Ġwheat":11510,"atern":11511,"Ġlessons":11512,"Ġ1866":11513,"Ġeruption":11514,"Ġtelescope":11515,"Ġthai":11516,"Ġally":11517,"Ġanx":11518,"Ġquint":11519,"Ġcolleges":11520,"Ġdestiny":11521,"Ġfaction":11522,"Ġhabitats":11523,"Ġretrieved":11524,"Ġunrel":11525,"Ġfrances":11526,"Ġhypothesis":11527,"Ġpatrols":11528,"Ġfart":11529,"riages":11530,"Ġglory":11531,"Ġobjectives":11532,"Ġredevelop":11533,"bus":11534,"hend":11535,"Ġcircles":11536,"Ġargue":11537,"Ġblockade":11538,"Ġwitnessed":11539,"Ġfraud":11540,"Ġconsensus":11541,"iar":11542,"Ġsag":11543,"Ġplanes":11544,"Ġinteractions":11545,"Ġunsuccessfully":11546,"keep":11547,"Ġgrants":11548,"Ġironcl":11549,"alia":11550,"Ġbeij":11551,"Ġreson":11552,"Ġcostumes":11553,"Ġlengths":11554,"Ġadaptations":11555,"Ġexplosive":11556,"Ġcrawford":11557,"Ġsyndrome":11558,"Ġdimensional":11559,"Ġaccus":11560,"Ġtradem":11561,"Ġloves":11562,"Ġfreshman":11563,"Ġinnocent":11564,"Ġsebast":11565,"omed":11566,"Ġeccles":11567,"Ġsuffer":11568,"Ġencourage":11569,"Ġallegations":11570,"Ġpublishers":11571,"Ġbacteria":11572,"stown":11573,"Ġperpet":11574,"Ġactively":11575,"Ġ126":11576,"Ġhomeless":11577,"Ġimmigrants":11578,"Ġjudgment":11579,"kers":11580,"Ġbiz":11581,"Ġincl":11582,"Ġeb":11583,"Ġrenown":11584,"Ġsubmerged":11585,"oni":11586,"Ġdesired":11587,"Ġdigit":11588,"brien":11589,"Ġmbar":11590,"Ġlil":11591,"Ġreop":11592,"Ġaccol":11593,"Ġbelonged":11594,"Ġsara":11595,"Ġconvert":11596,"abl":11597,"Ġflanders":11598,"Ġhemisp":11599,"Ġabundant":11600,"Ġthoughts":11601,"Ġtasks":11602,"Ġdistinguish":11603,"Ġpalestine":11604,"zig":11605,"Ġdot":11606,"Ġlandings":11607,"Ġ1882":11608,"Ġparamount":11609,"Ġoverd":11610,"enues":11611,"Ġnaked":11612,"boat":11613,"erm":11614,"Ġreds":11615,"Ġbalc":11616,"Ġnicknamed":11617,"omys":11618,"Ġfever":11619,"Ġ122":11620,"Ġintroduce":11621,"Ġ1873":11622,"Ġcongregation":11623,"Ġfischer":11624,"Ġtucker":11625,"Ġunusually":11626,"Ġdudley":11627,"Ġfusion":11628,"Ġlava":11629,"Ġcontrary":11630,"Ġbachel":11631,"fin":11632,"istle":11633,"Ġseaf":11634,"lando":11635,"Ġshipped":11636,"Ġfringe":11637,"Ġeldest":11638,"Ġcafe":11639,"Ġaaron":11640,"Ġmachinery":11641,"Ġeg":11642,"Ġdemocracy":11643,"Ġproceedings":11644,"Ġadvocate":11645,"Ġcylinder":11646,"Ġcrucial":11647,"Ġbeijing":11648,"Ġiw":11649,"Ġ1867":11650,"eon":11651,"Ġnearest":11652,"Ġclif":11653,"Ġnewman":11654,"Ġnineteenth":11655,"Ġmccarthy":11656,"avian":11657,"Ġ1871":11658,"Ġgibson":11659,"Ġoverwhelming":11660,"Ġtrench":11661,"Ġdeals":11662,"Ġviv":11663,"Ġproc":11664,"Ġadequ":11665,"Ġsubordin":11666,"Ġinstruction":11667,"Ġfights":11668,"Ġsurpassed":11669,"Ġtil":11670,"Ġrepet":11671,"rington":11672,"Ġbigger":11673,"Ġetc":11674,"Ġtriangle":11675,"Ġful":11676,"Ġfount":11677,"Ġkem":11678,"Ġdefenses":11679,"Ġsouthampton":11680,"Ġadvocated":11681,"Ġwoodland":11682,"Ġchaos":11683,"Ġvampire":11684,"Ãł":11685,"Ġhil":11686,"ulture":11687,"Ġkepler":11688,"Ġhorsepower":11689,"Ġverd":11690,"Ġexport":11691,"Ġchet":11692,"Ġreviewing":11693,"Ġholl":11694,"Ġdiving":11695,"Ġplatoon":11696,"Ġfestivals":11697,"Ġhorns":11698,"Ġpounder":11699,"Ġwolver":11700,"Ġaristocr":11701,"Ġamenities":11702,"Ġcric":11703,"Ġunity":11704,"Ġtruman":11705,"Ġmonuments":11706,"Ġzones":11707,"Ġ116":11708,"Ġhunters":11709,"Ġmalay":11710,"Ġ1878":11711,"Ġlunch":11712,"Ġmott":11713,"Ġslower":11714,"Ã¨re":11715,"Ġmaker":11716,"Ġune":11717,"Ġspores":11718,"Ġintim":11719,"Ġtrips":11720,"Ġstorylines":11721,"Ġcomprised":11722,"cu":11723,"mother":11724,"Ġshan":11725,"Ġadela":11726,"Ġrelax":11727,"Ġ137":11728,"Ġnests":11729,"Ġthorn":11730,"Ġchi":11731,"Ġhonest":11732,"Ġmanufactured":11733,"Ġmosque":11734,"Ġabsolutely":11735,"waffe":11736,"Ġwander":11737,"Ġrushed":11738,"Ġchances":11739,"Ġboot":11740,"Ġexplored":11741,"Ġliterally":11742,"Ġcustoms":11743,"Ġvariant":11744,"Ġnobel":11745,"inqu":11746,"Ġpist":11747,"Ġdere":11748,"Ġdorm":11749,"Ġgeography":11750,"chel":11751,"Ġborne":11752,"Ġeleventh":11753,"Ġraven":11754,"Ġaveraged":11755,"heads":11756,"Ġmacdonald":11757,"Ġendangered":11758,"ystem":11759,"Ġsomewhere":11760,"ipping":11761,"Ġlogan":11762,"Ġturbines":11763,"Ġunveiled":11764,"Ġhorizontal":11765,"olith":11766,"Ġresemble":11767,"Ġvlad":11768,"Ġferg":11769,"Ġming":11770,"alid":11771,"Ġnh":11772,"Ġcompact":11773,"Ġspeculated":11774,"Ġeconomics":11775,"Ġbrass":11776,"Ġgrain":11777,"Ġindex":11778,"Ġathlete":11779,"Ġcubs":11780,"Ġspectators":11781,"Ġcopyright":11782,"Ġcurrency":11783,"Ġaston":11784,"Ġundertook":11785,"Ġrelating":11786,"Ġstripped":11787,"Ġlengthy":11788,"Ġshirt":11789,"Ġlp":11790,"Ġouts":11791,"Ġmeyer":11792,"Ġdissolved":11793,"Ġmanages":11794,"Ġadds":11795,"Ġdamages":11796,"Ġineff":11797,"Ġenormous":11798,"Ġlone":11799,"Ġchin":11800,"Ġensuing":11801,"Ġovercome":11802,"Ġchandler":11803,"Ġprostit":11804,"Ġmetacritic":11805,"Ġbalcony":11806,"igo":11807,"Ġket":11808,"Ġtrump":11809,"appy":11810,"pit":11811,"oning":11812,"Ġluther":11813,"Ġswamp":11814,"Ġcoastline":11815,"Ġselena":11816,"Ġmaneuver":11817,"Ġrah":11818,"Ġanywhere":11819,"Ġadmiralty":11820,"Ġbaptist":11821,"Ġtrigger":11822,"Ġmick":11823,"Ġwellington":11824,"Ġinstallation":11825,"Ġguarant":11826,"nut":11827,"Ġnl":11828,"Ġank":11829,"Ġsynopsis":11830,"Ġeditorial":11831,"otypes":11832,"Ġcoral":11833,"Ġinterviewed":11834,"Ġdiscussions":11835,"Ġstroke":11836,"Ġoral":11837,"Ġjail":11838,"Ġkay":11839,"Ġextinction":11840,"Ġanonymous":11841,"Ġleather":11842,"Ġrelied":11843,"Ġqualities":11844,"Ġmistake":11845,"Ġnomine":11846,"Ġaguil":11847,"cock":11848,"Ġintact":11849,"Ġmonroe":11850,"Ġlynch":11851,"Ġtrilogy":11852,"Ġwishes":11853,"employ":11854,"Ġawa":11855,"jections":11856,"Ġmerchand":11857,"Ġlemur":11858,"Ġasp":11859,"hand":11860,"Ġadrian":11861,"Ġengaging":11862,"Ġcasino":11863,"Ġluftwaffe":11864,"Ġmarx":11865,"Ġjoins":11866,"ographed":11867,"Ġshelley":11868,"Ġbermuda":11869,"enz":11870,"ichi":11871,"overed":11872,"Ġsilk":11873,"Ġinsufficient":11874,"Ġaguilera":11875,"Ãª":11876,"ums":11877,"Ġblake":11878,"Ġbankrupt":11879,"Ġlifted":11880,"Ġfunctional":11881,"Ġmaxwell":11882,"Ġsacramento":11883,"origin":11884,"asaki":11885,"Ġalert":11886,"through":11887,"Ġrelay":11888,"Ġadvances":11889,"Ġsummary":11890,"Ġrapper":11891,"Ġgains":11892,"olo":11893,"Ġaliens":11894,"Ġtin":11895,"Ġshack":11896,"oves":11897,"Ġnewport":11898,"Ġrevived":11899,"Ġcultures":11900,"Ġotto":11901,"Ġphillips":11902,"Ġbattlecruisers":11903,"Ġweighed":11904,"Ġflee":11905,"Ġproceeds":11906,"Ġglam":11907,"Ġ1868":11908,"Ġ1872":11909,"Ġgrossed":11910,"Ġwise":11911,"Ġnegle":11912,"Ġscreening":11913,"Ġfluid":11914,"Ġdish":11915,"Ġgle":11916,"Ġcrust":11917,"Ġjungle":11918,"Ġbusy":11919,"Ġnobody":11920,"Ġinstructed":11921,"Ġaus":11922,"Ġfeminist":11923,"Ġreminiscent":11924,"ovsky":11925,"Ġrulers":11926,"monton":11927,"Ġellis":11928,"Ġbrighton":11929,"Ġarctic":11930,"Ġsuccessive":11931,"Ġphotographer":11932,"Ġmarcus":11933,"kas":11934,"Ġcere":11935,"Ġcres":11936,"Ġbik":11937,"ells":11938,"Ġphant":11939,"mitt":11940,"Ġsoviets":11941,"Ġcurtis":11942,"Ġdakota":11943,"Ġferdinand":11944,"Ġriff":11945,"Ġshops":11946,"ubs":11947,"Ġincomple":11948,"Ġenrolled":11949,"gener":11950,"Ġintersections":11951,"Ġcoronation":11952,"Ġitem":11953,"Ġdeeper":11954,"Ġunemploy":11955,"Ġdisgu":11956,"Ġrumors":11957,"Ġgorge":11958,"Ġbarely":11959,"Ġsuited":11960,"Ġorlando":11961,"neath":11962,"Ġlobby":11963,"Ġwald":11964,"Ġraz":11965,"Ġriley":11966,"Ġblank":11967,"Ġpepper":11968,"Ġbowie":11969,"Ġdealt":11970,"Ġbishops":11971,"Ġappealed":11972,"Ġmasses":11973,"Ġdeployment":11974,"Ġflorence":11975,"hered":11976,"Ġwashed":11977,"Ġleigh":11978,"keley":11979,"Ġmerchants":11980,"Ġgrammar":11981,"lia":11982,"rs":11983,"Ġtrace":11984,"Ġmann":11985,"Ġbatsman":11986,"Ġhond":11987,"imer":11988,"Ġamp":11989,"Ġinterference":11990,"Ġassign":11991,"Ġsubsc":11992,"Ġtermed":11993,"aurus":11994,"Ġpackage":11995,"Ġfloating":11996,"atem":11997,"Ġscrat":11998,"Ġconting":11999,"Ġimported":12000,"Ġrobot":12001,"Ġpengu":12002,"Ġsymmet":12003,"Ġwrestle":12004,"Ġquantities":12005,"Ġdart":12006,"bery":12007,"Ġarbit":12008,"Ġspencer":12009,"Ġdisrupt":12010,"Ġundergrad":12011,"Ġgamespot":12012,"Ġcalm":12013,"Ġdisputes":12014,"Ġpanels":12015,"Ġinvestigations":12016,"guard":12017,"odon":12018,"ptic":12019,"Ġprivately":12020,"Ġadelaide":12021,"Ġsier":12022,"ean":12023,"Ġhanc":12024,"Ġretros":12025,"Ġpersec":12026,"Ġgeoffrey":12027,"Ġconform":12028,"Ġexhibited":12029,"Ġmobil":12030,"Ġras":12031,"Ġtwins":12032,"obile":12033,"Ġseparately":12034,"Ġanalog":12035,"Ġthickness":12036,"Ġjennifer":12037,"Ġwwf":12038,"Ġalk":12039,"Ġescal":12040,"Ġsurrey":12041,"Ġinquiry":12042,"hin":12043,"Ġbooked":12044,"Ġcurves":12045,"Ġdelays":12046,"Ġshoo":12047,"Ġunrest":12048,"ologically":12049,"Ġecology":12050,"Ġvienna":12051,"Ġfloors":12052,"Ġchan":12053,"alling":12054,"Ġsupporter":12055,"Ġinvolve":12056,"Ġdiesel":12057,"Ġbaldwin":12058,"rect":12059,"izz":12060,"Ġexpense":12061,"Ġessex":12062,"Ġromans":12063,"Ġrealm":12064,"gon":12065,"Ġtables":12066,"Ġpagan":12067,"Ġvander":12068,"Ġinterrupted":12069,"Ġbarrett":12070,"Ġmagical":12071,"Ġpatch":12072,"Ġcustody":12073,"Ġpavil":12074,"Ġappreciate":12075,"Ġdisliked":12076,"Ġflotilla":12077,"Ġabraham":12078,"Ġgenius":12079,"Ġunderneath":12080,"Ġdecomp":12081,"Ġstark":12082,"Ġlaf":12083,"Ġtotally":12084,"Ġanthrop":12085,"Ġmathematical":12086,"Ġcylind":12087,"Ġcheapest":12088,"Ġredesign":12089,"kinson":12090,"Ġkub":12091,"Ġcoaster":12092,"Ġcease":12093,"Ġpuzz":12094,"writer":12095,"Ġcontested":12096,"Ġsurvivor":12097,"Ġplymouth":12098,"how":12099,"Ġplastic":12100,"Ġrepaired":12101,"issa":12102,"Ġdeveloper":12103,"Ġdeton":12104,"Ġexperts":12105,"Ġprotecting":12106,"Ġuncon":12107,"Ġtribal":12108,"Ġdunge":12109,"Ġlicensed":12110,"Ġtherapy":12111,"Ġproximity":12112,"assed":12113,"Ġwarrant":12114,"Ġrefit":12115,"Ġballet":12116,"Ġdescendants":12117,"Ġautomatic":12118,"pic":12119,"Ġfm":12120,"ĠâĢ²":12121,"Ġpresum":12122,"eches":12123,"Ġmvp":12124,"inte":12125,"utors":12126,"Ġkes":12127,"Ġlimestone":12128,"Ġprojected":12129,"Ġruins":12130,"Ġlunar":12131,"Ġmolecules":12132,"Ġplutonium":12133,"Ġneo":12134,"Ġlocate":12135,"Ġcaliber":12136,"Ġpyramid":12137,"Ġcec":12138,"Ġria":12139,"Ġseasonal":12140,"Ġoperator":12141,"Ġmyst":12142,"Ġcardinal":12143,"Ġseemingly":12144,"Ġexcessive":12145,"Ġá":12146,"Ġump":12147,"Ġcaptivity":12148,"Ġcollision":12149,"Ġmotors":12150,"Ġpedest":12151,"bt":12152,"Ġporter":12153,"icity":12154,"iri":12155,"Ġpled":12156,"Ġsecular":12157,"Ġarchitects":12158,"Ġjeremy":12159,"Ġfergus":12160,"Ġcomet":12161,"Ġcoloured":12162,"Ġnorse":12163,"Ġkeeps":12164,"Ġthrust":12165,"Ġrequests":12166,"Ġdelegation":12167,"Ġltd":12168,"Ġluck":12169,"Ġinvented":12170,"Ġpronounced":12171,"Ġhancock":12172,"urg":12173,"Ġpreston":12174,"Ġmonks":12175,"Ġassociates":12176,"Ġfloods":12177,"Ġdaniels":12178,"Ġbosnia":12179,"Ġmaiden":12180,"Ġoval":12181,"Ġhate":12182,"add":12183,"Ġvault":12184,"ourt":12185,"Ġacquisition":12186,"Ġtul":12187,"Ġcrom":12188,"aching":12189,"Ġtrout":12190,"Ġlifestyle":12191,"Ġallocated":12192,"Ġtunnels":12193,"Ġbengal":12194,"Ġshat":12195,"Ġ123":12196,"Ġcolumbus":12197,"dot":12198,"Ġdomain":12199,"Ġimmun":12200,"Ġstruggling":12201,"Ġcomparable":12202,"Ġhawaiian":12203,"Ġextraordinary":12204,"Ġcree":12205,"Ġstrang":12206,"Ġmoor":12207,"Ġgarc":12208,"Ġacquire":12209,"Ġsophistic":12210,"Î½":12211,"Ġnewer":12212,"Ġquart":12213,"Ġedmonton":12214,"houses":12215,"stad":12216,"acon":12217,"Ġhect":12218,"Ġmarble":12219,"Ġgarage":12220,"eli":12221,"Ġ202":12222,"Ġsubtle":12223,"Ġmcdonald":12224,"athetic":12225,"Ġfog":12226,"Ġleban":12227,"Ġundergo":12228,"Ġdemanding":12229,"Ġforts":12230,"ido":12231,"Ġindoor":12232,"Ġclimbing":12233,"Ġimmigration":12234,"Ġarkansas":12235,"Ġsne":12236,"urbed":12237,"Ġcruz":12238,"Ġreflecting":12239,"Ġsavage":12240,"immer":12241,"Ġsuburb":12242,"Ġgenerations":12243,"grade":12244,"Ġfatalities":12245,"Ġseventeen":12246,"xide":12247,"Ġbrom":12248,"asi":12249,"Ġtwelf":12250,"aceous":12251,"Ġhighland":12252,"Ġpublish":12253,"Ġpopulated":12254,"Ġromania":12255,"Ġtwelfth":12256,"ÏĤ":12257,"Ġreyn":12258,"Ġbyr":12259,"Ġyu":12260,"ĠhergÃ©":12261,"Ġevolutionary":12262,"Ġdisappear":12263,"Ġdirty":12264,"tan":12265,"eries":12266,"Ġadri":12267,"Ġstarr":12268,"Ġscrapped":12269,"wig":12270,"Ġnun":12271,"Ġbackup":12272,"Ġ1879":12273,"Ġpierce":12274,"Ġauction":12275,"Ġenforcement":12276,"Ġfierce":12277,"Ġai":12278,"imir":12279,"Ġmuscle":12280,"Ġgenes":12281,"Ġtransp":12282,"Ġmodifications":12283,"Ġdodgers":12284,"Ġaccomplish":12285,"do":12286,"osity":12287,"Ġperfectly":12288,"Ġnost":12289,"Ġworried":12290,"Ġdiscontinued":12291,"Ġjanet":12292,"Ġopenly":12293,"Ġcrowned":12294,"Ġdescended":12295,"Ġneighbouring":12296,"Ġlesbian":12297,"ede":12298,"Ġshank":12299,"Ġtraged":12300,"Ġperimeter":12301,"Ġcriteria":12302,"Ġdemonstrate":12303,"ishn":12304,"Ġconfess":12305,"Ġmccain":12306,"Ġbitter":12307,"Ġdemonstration":12308,"Ġamazon":12309,"Ġsuburban":12310,"Ġore":12311,"Ġperth":12312,"Ġminer":12313,"Ġstreams":12314,"Ġmerit":12315,"Ġinteractive":12316,"Ġpaved":12317,"Ġadministered":12318,"Ġarcher":12319,"Ġminogue":12320,"nae":12321,"Ġhalted":12322,"Ġlancaster":12323,"Ġlithuan":12324,"Ġgonz":12325,"irts":12326,"abet":12327,"Ġbesie":12328,"bel":12329,"Ġdio":12330,"Ġyok":12331,"Ġspeakers":12332,"Ġskinner":12333,"Ġupgrade":12334,"Ġsketch":12335,"Ġregained":12336,"Ġartif":12337,"Ġ270":12338,"Ġrewrit":12339,"Ġjokes":12340,"Ġ134":12341,"Ġsubstance":12342,"lies":12343,"isle":12344,"Ġcreates":12345,"Ġvalent":12346,"Ġnecessarily":12347,"Ġnewfoundland":12348,"hero":12349,"Ġses":12350,"umi":12351,"Ġattachment":12352,"Ġvacation":12353,"Ġconfirmation":12354,"Ġgriffin":12355,"Ġclerk":12356,"hening":12357,"Ġoperas":12358,"Ġerosion":12359,"Ġcontracted":12360,"Ġscenario":12361,"Ġhealthy":12362,"Ġbanner":12363,"Ġelderly":12364,"Ġplug":12365,"Ġdeclaring":12366,"Ġridic":12367,"Ġmodes":12368,"atorial":12369,"Ġhoff":12370,"Ġturks":12371,"Ġkoreans":12372,"Ġhawk":12373,"Ġpregnancy":12374,"Ġerrors":12375,"Ġcalend":12376,"Ġspiel":12377,"Ġantiqu":12378,"natural":12379,"Ġcure":12380,"Ġ124":12381,"Ġmonarchy":12382,"gel":12383,"sl":12384,"ovich":12385,"Ġblond":12386,"Ġtorch":12387,"Ġbalk":12388,"Ġpus":12389,"entric":12390,"Ġambitious":12391,"Ġcaution":12392,"Ġopted":12393,"roads":12394,"Ġkom":12395,"Ġdrunk":12396,"Ð°":12397,"Ġscouts":12398,"Ġblade":12399,"Ġspecialized":12400,"Ġampl":12401,"Ġretro":12402,"Ġcheer":12403,"Ġidentification":12404,"Ġbiology":12405,"99":12406,"Ġcig":12407,"Ġfool":12408,"Ġmath":12409,"Ġrode":12410,"Ġarrow":12411,"Ġfindings":12412,"Ġstrait":12413,"Ġprohibited":12414,"Ġgrab":12415,"Ġdivide":12416,"Ġsometime":12417,"Ġnorthwestward":12418,"Ġog":12419,"Ġfond":12420,"lew":12421,"Ġperm":12422,"Ġstrat":12423,"Ġharmony":12424,"Ġbuddhist":12425,"Ġsierra":12426,"Ġjg":12427,"Ġlease":12428,"Ġreserved":12429,"Ġemily":12430,"Ġdecomm":12431,"pro":12432,"Ġinvitation":12433,"Ġpalmer":12434,"lessly":12435,"Ġlouise":12436,"Ġmotorway":12437,"Ġstrengthening":12438,"Ġthroat":12439,"Ġaggregate":12440,"Ġcricke":12441,"oft":12442,"Ġlingu":12443,"Ġrust":12444,"Ġkle":12445,"Ġspare":12446,"Ġlau":12447,"Ġwouldn":12448,"Ġdetached":12449,"Ġspecialist":12450,"Ġlacks":12451,"Ġspongeb":12452,"bank":12453,"gins":12454,"Ġcaroline":12455,"Ġriot":12456,"Ġmemorable":12457,"Ġkra":12458,"Ġdeciding":12459,"Ġmoz":12460,"Ġmerger":12461,"Ġremarkable":12462,"Ġcomprehensive":12463,"aved":12464,"Ġroth":12465,"Ġcontents":12466,"Ġloading":12467,"Ġharper":12468,"Ġcorners":12469,"Ġliberation":12470,"Ġelephant":12471,"Ġstuck":12472,"Ġkens":12473,"Ġsphere":12474,"Ġteammates":12475,"Ġsocieties":12476,"Ġfreight":12477,"Ġrecognize":12478,"post":12479,"Ġhab":12480,"Ġgut":12481,"Ġspark":12482,"Ġrunway":12483,"Ġcollector":12484,"Ġbj":12485,"Ġrut":12486,"Ġrunners":12487,"Ġanatomy":12488,"core":12489,"wic":12490,"Ġmold":12491,"Ġinterfer":12492,"Ġcentres":12493,"Ġfragment":12494,"Ġjuvenile":12495,"Ġjag":12496,"Ġtran":12497,"Ġbachelor":12498,"Ġcater":12499,"uba":12500,"Ġcalvin":12501,"Ġtopic":12502,"Ġbusch":12503,"Ġberry":12504,"Ġallegedly":12505,"anus":12506,"Ġrochester":12507,"Ġintroducing":12508,"Ġlayout":12509,"Ġmeasurements":12510,"Ġobservers":12511,"Ġhann":12512,"Ġwhites":12513,"Ġkath":12514,"Ġard":12515,"enson":12516,"Ġmetab":12517,"inae":12518,"Ġfranco":12519,"list":12520,"Ġwelf":12521,"anto":12522,"Ġrealizes":12523,"Ġbassist":12524,"stock":12525,"Ġhopkins":12526,"Ġprogression":12527,"Ġlegends":12528,"Ġdiagnosis":12529,"Ġcompensation":12530,"Ġdesperate":12531,"Ġbasement":12532,"Ġdrowned":12533,"Ġconsumer":12534,"Ġsuburbs":12535,"Ġincomplete":12536,"Ã£o":12537,"Ġmere":12538,"Ġhiding":12539,"Ġkas":12540,"ulu":12541,"Ġmuzzle":12542,"Ġmaurice":12543,"ye":12544,"Ġpian":12545,"Ġdys":12546,"Ġgir":12547,"Ġkot":12548,"Ġ210":12549,"Ġdefender":12550,"Ġsurfaces":12551,"Ġattractive":12552,"Ġdiamonds":12553,"Ġcomfortable":12554,"Ġtampa":12555,"Ġunpre":12556,"Ġgenerate":12557,"Ġreservations":12558,"Ġfrozen":12559,"oop":12560,"Ġned":12561,"Ġease":12562,"Ġedges":12563,"Ġgarfield":12564,"Ġdoubles":12565,"Ġeliminate":12566,"Ġvow":12567,"Ġspeeches":12568,"Ġmoreover":12569,"Ġsuperman":12570,"Ġdevon":12571,"Ġgrande":12572,"Ġsynth":12573,"Ġproven":12574,"Ġpushing":12575,"ormal":12576,"Ġoverth":12577,"Ġconsent":12578,"ficial":12579,"Ġrandy":12580,"Ġdrainage":12581,"hd":12582,"achi":12583,"Ġguatem":12584,"Ġreversed":12585,"Ġcrack":12586,"holm":12587,"person":12588,"Ġdian":12589,"Ġslot":12590,"Ġsupervis":12591,"Ġclaire":12592,"pow":12593,"Ġrna":12594,"Ġconjunction":12595,"Ġbio":12596,"Ġcomputers":12597,"Ġsecuring":12598,"Ġlocked":12599,"Ġcollective":12600,"Ġirving":12601,"Ġwindsor":12602,"mm":12603,"Ġbred":12604,"Ġsolutions":12605,"Ġchoosing":12606,"Ġpanic":12607,"Ġbacon":12608,"Ġsufficiently":12609,"Ġunpop":12610,"nar":12611,"Ġfuck":12612,"Ġdh":12613,"Ġregulation":12614,"Ġ1848":12615,"Ġcatalog":12616,"Ġspielberg":12617,"Ġrhodesia":12618,"Ġrifles":12619,"Ġsubdiv":12620,"Ġwelfare":12621,"Ġhospitals":12622,"Ġembarr":12623,"Ġhanging":12624,"Ġtreasure":12625,"rators":12626,"Ġtat":12627,"Ġhardware":12628,"Ġ1874":12629,"Ġpanama":12630,"Ġluis":12631,"Ġcameras":12632,"brook":12633,"Ġtiny":12634,"Ġhod":12635,"urers":12636,"Ġscales":12637,"Ġhelm":12638,"Ġpromising":12639,"Ġbasil":12640,"Ġhemisphere":12641,"Ġairplay":12642,"Ġsop":12643,"ayette":12644,"Ġevol":12645,"Ġbuses":12646,"Ġputs":12647,"Ġappreciated":12648,"Ġmichelle":12649,"Ġspongebob":12650,"Ġchat":12651,"Ġsolomon":12652,"Ġholmes":12653,"Ġwo":12654,"Ġcontend":12655,"Ġvolunt":12656,"Ġexciting":12657,"Ġraiders":12658,"birds":12659,"Ġedwin":12660,"Ġelim":12661,"Ġplateau":12662,"Ġauxili":12663,"Ġdegener":12664,"Ġguess":12665,"erness":12666,"ĠÂµ":12667,"Ġeaster":12668,"Ġbreakthrough":12669,"Ġcounteratt":12670,"Ġemphasized":12671,"Ġmurders":12672,"Ġarmenia":12673,"Ġchick":12674,"Ġpreview":12675,"Ġrape":12676,"Ġspecifications":12677,"Ġarabic":12678,"Ġfinnish":12679,"Ġreads":12680,"Ġstanford":12681,"Ġillustrations":12682,"Ġreservation":12683,"Ġjacques":12684,"Ġnaples":12685,"Ġaster":12686,"eded":12687,"Ġchim":12688,"Ġmanual":12689,"Ġassessed":12690,"Ġvariants":12691,"Ġskiing":12692,"elines":12693,"Ġtrin":12694,"Ġix":12695,"Ġbuzz":12696,"Ġinfected":12697,"Ġmercy":12698,"Ġcompetitors":12699,"Ġdoug":12700,"Ġdimensions":12701,"Ġdow":12702,"Ġkang":12703,"Ġnotion":12704,"Ġaborigin":12705,"Ġpresley":12706,"Ġgraduating":12707,"Ġberkeley":12708,"Ġincorporates":12709,"Ġdinosaurs":12710,"Ġlegitimate":12711,"Ġgabriel":12712,"Ġhale":12713,"Ġcompat":12714,"Ġserbs":12715,"Ġfrustrated":12716,"Ġbree":12717,"Ġvect":12718,"ovo":12719,"Ġincons":12720,"Ġflet":12721,"Ġburst":12722,"Ġrhode":12723,"Ġlindwall":12724,"Ġfrost":12725,"Ġwounds":12726,"quer":12727,"Ġlineup":12728,"osphere":12729,"Ġcoupled":12730,"Ġbloody":12731,"Ġcuban":12732,"Ġcitizenship":12733,"Ġglacier":12734,"wy":12735,"istically":12736,"cker":12737,"Ġassignment":12738,"Ġterrestrial":12739,"Ġaugustus":12740,"Ġmissiles":12741,"Ġunders":12742,"Ġcontrolling":12743,"Ġdiagnosed":12744,"'ve":12745,"Ġfen":12746,"Ġmoss":12747,"alous":12748,"Ġstunt":12749,"Ġalc":12750,"Ġves":12751,"Ġorgans":12752,"qual":12753,"Ġduet":12754,"Ġhamburg":12755,"Ġstalin":12756,"Ġartifact":12757,"Ġdrift":12758,"agic":12759,"Ġmartha":12760,"Ġgerald":12761,"Ġbreakdown":12762,"Ġphysician":12763,"Ġinvestigated":12764,"Ġpupils":12765,"oline":12766,"Ġnorthbound":12767,"Ġshipyard":12768,"Ġcircus":12769,"Ġinhabited":12770,"Ġgav":12771,"Ġweird":12772,"Ġblaz":12773,"Ġdrives":12774,"Ġpreval":12775,"Ġconfined":12776,"Ġranged":12777,"Ġqualify":12778,"Ġtended":12779,"ĠÅ¡":12780,"ĠrÃ©":12781,"Ġadmit":12782,"raid":12783,"Ġ280":12784,"Ġaccolades":12785,"Ġelimination":12786,"rez":12787,"elia":12788,"Ġpressed":12789,"Ġfacts":12790,"Ġcaesar":12791,"Ġtus":12792,"Ġmonkey":12793,"Ġzel":12794,"Ġcarefully":12795,"Ġpatent":12796,"Ġtestimony":12797,"Ġsexually":12798,"Ġmaintains":12799,"eling":12800,"Ġstance":12801,"Ġcarriage":12802,"Ġgrandson":12803,"Ġskeleton":12804,"Ġunfortunately":12805,"Ġsz":12806,"Ġober":12807,"Ġsatir":12808,"Ġemployee":12809,"Ġlaying":12810,"Ġoccupy":12811,"Ġkenny":12812,"Ġsummers":12813,"Ġhelicopters":12814,"Ġcarpenter":12815,"ocaust":12816,"Ġsunder":12817,"Ġ2017":12818,"Ġmanagers":12819,"Ġgenuine":12820,"Ġfet":12821,"Ġnc":12822,"Ġtravers":12823,"oro":12824,"oshi":12825,"Ġlean":12826,"Ġgover":12827,"Ġglenn":12828,"Ġsleeping":12829,"Ġjennings":12830,"Ġbulgaria":12831,"Ġforget":12832,"quet":12833,"Ġdelhi":12834,"Ġredd":12835,"Ġpainter":12836,"Ġsandwich":12837,"Ġfitting":12838,"Ġenable":12839,"Ġevangel":12840,"Ġwarwick":12841,"Ġdisco":12842,"Ġhazard":12843,"Ġexhaust":12844,"Ġblown":12845,"Ġdesigners":12846,"atsu":12847,"Ġreformed":12848,"Ġvacc":12849,"Ġentertaining":12850,"Ġunofficial":12851,"Ġcauc":12852,"omes":12853,"Ġheter":12854,"Ġseiz":12855,"Ġchapman":12856,"Ġenthusiastic":12857,"Ġlig":12858,"Ġtopics":12859,"Ġstatute":12860,"Ġecos":12861,"Ġcivilization":12862,"Ġmaneuvers":12863,"matic":12864,"Ġpard":12865,"ishi":12866,"Ġprofits":12867,"Ġcivic":12868,"Ġinnovative":12869,"Ġwash":12870,"Ġsuccesses":12871,"Ġdefeats":12872,"Ġmistaken":12873,"kel":12874,"Ġbism":12875,"Ġashes":12876,"rosse":12877,"Ġhonored":12878,"Ġboxing":12879,"Ġeurop":12880,"Ġenhance":12881,"Ġbicy":12882,"ailing":12883,"Ġtechnologies":12884,"Ġ1851":12885,"Ġgoverning":12886,"Ġscope":12887,"Ġwaterline":12888,"Ġescapes":12889,"canal":12890,"Ġbolton":12891,"Ġprose":12892,"Ġprosecution":12893,"Ġfletcher":12894,"Ġrises":12895,"Ġmumb":12896,"acement":12897,"Ġguided":12898,"Ġprotective":12899,"Ġholocaust":12900,"Ġhayes":12901,"Ġprocedures":12902,"Ġisotopes":12903,"Ġbust":12904,"Ġduches":12905,"Ġmineral":12906,"Ġ148":12907,"Ġbedroom":12908,"Ġdisappointment":12909,"Ġstepped":12910,"Ġfurious":12911,"Ġaccuracy":12912,"Ġnurse":12913,"Ġphylogen":12914,"Ġdign":12915,"onsc":12916,"Ġedgar":12917,"Ġneighboring":12918,"ao":12919,"ripp":12920,"Ġgoeb":12921,"Ġassume":12922,"neum":12923,"uchi":12924,"Ġinscription":12925,"Ġanglic":12926,"Ġgraduation":12927,"Ġreferend":12928,"Ġreconcil":12929,"Ġguadalcanal":12930,"Ġscorer":12931,"Ġbrandon":12932,"Ġ149":12933,"Ġspawned":12934,"Ġcement":12935,"Ġregret":12936,"Ġinspe":12937,"Ġmomentum":12938,"Ġperformer":12939,"Ġlaura":12940,"Ġnationally":12941,"ĠÎ¼":12942,"Ġtongue":12943,"Ġdup":12944,"Ġtrails":12945,"rup":12946,"pling":12947,"Ġjoel":12948,"Ġsubmit":12949,"Ġdemocrat":12950,"Ġtraits":12951,"Ġimprisonment":12952,"hurst":12953,"Ġtac":12954,"Ġstruggles":12955,"Ġsynthesis":12956,"Ġunnamed":12957,"55":12958,"Ġfake":12959,"oud":12960,"Ġexceeded":12961,"Ġacadem":12962,"Ġslowed":12963,"Ġincorporate":12964,"Ġforgotten":12965,"Ġrely":12966,"Ġears":12967,"Ġarray":12968,"Ġconcludes":12969,"Ġcustomer":12970,"Ġeisenh":12971,"Ġaval":12972,"Ġrealize":12973,"Ġconvinc":12974,"Ġreadily":12975,"Ġmunich":12976,"Ġshout":12977,"Ġirre":12978,"ophone":12979,"Ġshale":12980,"Ġlucy":12981,"Ġbangl":12982,"Ġrehabil":12983,"Ġphilosophical":12984,"Ġtrademark":12985,"Ġtoss":12986,"Ġasyl":12987,"Ġriv":12988,"odia":12989,"Ġstup":12990,"Ġatoms":12991,"Ġrolls":12992,"Ġvenus":12993,"Ġhendrix":12994,"Ġshepher":12995,"bage":12996,"Ġvas":12997,"Ġconsumed":12998,"Ġpitching":12999,"Ġkeyboards":13000,"Ġreflects":13001,"rified":13002,"Ġaffecting":13003,"Ġunpopular":13004,"ibal":13005,"tenham":13006,"cycl":13007,"Ġdreadnought":13008,"Ġvand":13009,"Ġthirds":13010,"Ġderiv":13011,"Ġ370":13012,"Ġnobility":13013,"Ġgravel":13014,"Ġpatton":13015,"Ġwu":13016,"Ġstap":13017,"apa":13018,"Ġcombine":13019,"Ġwarsaw":13020,"Ġnegotiated":13021,"Ġtheft":13022,"Ġug":13023,"Ġpreceded":13024,"Ġbam":13025,"Ġdemolition":13026,"gro":13027,"Ġecc":13028,"Ġrelevant":13029,"Ġposed":13030,"Ġcran":13031,"Ġbarber":13032,"rews":13033,"Ġstomach":13034,"Ġpose":13035,"Ġcapabilities":13036,"Ġmorton":13037,"Ġilleg":13038,"Ġpredecessors":13039,"Ġbav":13040,"essa":13041,"Ġemble":13042,"Ġdistances":13043,"Ġcastro":13044,"Ġanthology":13045,"Ġalumni":13046,"Ġeisenhower":13047,"Ġwillie":13048,"Ġcrowds":13049,"Ġlimitations":13050,"aul":13051,"Ġlia":13052,"Ġathen":13053,"Ġrespected":13054,"Ġancestors":13055,"cliffe":13056,"iott":13057,"kat":13058,"Ġwals":13059,"Ġnebr":13060,"Ġavailability":13061,"Ġcertific":13062,"Ġsexuality":13063,"Ġlined":13064,"Ġbritney":13065,"Ġethan":13066,"Ġaltar":13067,"Ġplacement":13068,"Ġsho":13069,"Ġcluster":13070,"Ġspike":13071,"Ġloos":13072,"Ġinfin":13073,"Ġhammond":13074,"Ġaltog":13075,"Ġargentine":13076,"Ġhutch":13077,"Ġferguson":13078,"Ġecosystem":13079,"Ġgore":13080,"idian":13081,"berger":13082,"clamation":13083,"Ġterrible":13084,"Ġvarieties":13085,"Ġsalmon":13086,"Ġconviction":13087,"Ġcherry":13088,"Ġreynolds":13089,"Ġaltogether":13090,"Ġtears":13091,"Ġstefani":13092,"eit":13093,"fo":13094,"Ġnie":13095,"Ġkab":13096,"Ġtiming":13097,"Ġwillis":13098,"Ġrussians":13099,"Ġexcited":13100,"Ġdigest":13101,"Ġvictorious":13102,"Ġclimax":13103,"Ġincorrect":13104,"bul":13105,"Ġkre":13106,"ogical":13107,"Ġefficiency":13108,"Ã¡r":13109,"Ġbadge":13110,"Ġoakland":13111,"Ġcorrespondence":13112,"Ġsettings":13113,"Ġobservatory":13114,"Ġhatch":13115,"Ġkicked":13116,"van":13117,"Ġhort":13118,"Ġdex":13119,"Ġextant":13120,"Ġhaun":13121,"Ġprecise":13122,"Ġtrustees":13123,"Ġinsect":13124,"Ġfountain":13125,"enes":13126,"tershire":13127,"Ġacids":13128,"Ġslopes":13129,"Ġjeffrey":13130,"Ġfranz":13131,"Ġnamely":13132,"olics":13133,"Ġorch":13134,"Ġfees":13135,"Ġretaining":13136,"Ġdoubled":13137,"Ġsprint":13138,"Ġmaturity":13139,"Ġsussex":13140,"Ġadoption":13141,"istence":13142,"Ġtrucks":13143,"Ġsouthbound":13144,"Ġgifts":13145,"Ġunderlying":13146,"Ġannie":13147,"Ġordin":13148,"Ġ260":13149,"Ġrankings":13150,"Ġhighlights":13151,"changes":13152,"rimination":13153,"Ġinade":13154,"Ġconquered":13155,"lined":13156,"uates":13157,"Ġumb":13158,"Ġbeef":13159,"Ġamino":13160,"Ġinsult":13161,"Ġivy":13162,"Ġsemif":13163,"Ġeugene":13164,"Ġinadequ":13165,"Ġcp":13166,"Ġclash":13167,"Ġendorsed":13168,"Ġsolve":13169,"Ġconcluding":13170,"aic":13171,"uania":13172,"Ġperception":13173,"Ġsecretly":13174,"Ġslee":13175,"Ġrectang":13176,"Ġguys":13177,"Ġsteering":13178,"Ġservants":13179,"Ġachieving":13180,"Ġpleasant":13181,"Ġtheoretical":13182,"orp":13183,"isbury":13184,"Ġhighlands":13185,"Ġviolin":13186,"Ġsatisfied":13187,"Ġunhappy":13188,"jud":13189,"Ġfol":13190,"Ġfails":13191,"Ġunst":13192,"Ġfilter":13193,"Ġpointing":13194,"Ġdepartments":13195,"Ġwan":13196,"Ġamal":13197,"Ġapprent":13198,"Ġcountryside":13199,"Ġfortified":13200,"Ġwrestlers":13201,"Ġlandsl":13202,"Ġlithuania":13203,"Ġnebraska":13204,"ÅĦ":13205,"Ġnd":13206,"acer":13207,"Ġyar":13208,"Ġdeceased":13209,"Ġstopping":13210,"Ġboarding":13211,"Ġconfronted":13212,"Ġrecreational":13213,"Ġabolished":13214,"Ġschem":13215,"Ġmusically":13216,"Ġprimitive":13217,"Ġhomage":13218,"Ġtransformation":13219,"Ġeaten":13220,"Ġgreeks":13221,"vae":13222,"Ġcomprises":13223,"Ġstew":13224,"Ġresembles":13225,"Ġcowboy":13226,"Ġsubsidiary":13227,"Ġwend":13228,"Ġ146":13229,"Ġpawn":13230,"Ġsalad":13231,"Ġderek":13232,"icia":13233,"Ġseize":13234,"Ġaccidents":13235,"Ġsubc":13236,"Ġboyd":13237,"bone":13238,"iast":13239,"jar":13240,"umble":13241,"Ġsci":13242,"Ġsomebody":13243,"Ġactivated":13244,"Ġbahamas":13245,"Ġformats":13246,"Ġbinding":13247,"rained":13248,"Ġroc":13249,"bern":13250,"Ġdrawings":13251,"Ġchronicles":13252,"Ġtimberlake":13253,"Ġsparrow":13254,"Ġcalendar":13255,"Ġphases":13256,"Ġannoy":13257,"Ġaccordance":13258,"Ġsafely":13259,"Ġreferendum":13260,"drop":13261,"iolet":13262,"Ġdispos":13263,"Ġbloom":13264,"itating":13265,"anu":13266,"Ġparan":13267,"Ġmedley":13268,"Ġsuperhero":13269,"Ġbusinessman":13270,"Ġ1859":13271,"Ġdiocese":13272,"Ġlithuanian":13273,"Ġballot":13274,"Ġnegotiate":13275,"Ġorbital":13276,"ĠâĤ¬":13277,"ÅĽ":13278,"Ġspecified":13279,"Ġsubstantially":13280,"Ġdorsal":13281,"Ġwoll":13282,"Ġstam":13283,"Ġalpine":13284,"Ġyang":13285,"Ġgenet":13286,"Ġrhys":13287,"Ġprecurs":13288,"Ġcatholics":13289,"walk":13290,"Ġathe":13291,"Ġconcord":13292,"Ġwhitney":13293,"ĠfranÃ§":13294,"Ġlighth":13295,"Ã¡l":13296,"Ġinherit":13297,"Ġenacted":13298,"Ġfraser":13299,"Ġalbeit":13300,"Ġlois":13301,"Ġcareers":13302,"Ġshrine":13303,"nas":13304,"Ġsg":13305,"idel":13306,"Ġsuz":13307,"Ġcoch":13308,"shi":13309,"Ġfactions":13310,"Ġtotaled":13311,"ãĥ¼":13312,"criptions":13313,"ications":13314,"Ġnim":13315,"Ġcolomb":13316,"Ġeleg":13317,"Ġaveraging":13318,"Ġimagination":13319,"Ġmemoirs":13320,"Ġnewark":13321,"Ġ131":13322,"Ġsalam":13323,"Ġcoul":13324,"Ġmagnific":13325,"Ġshuttle":13326,"Ġrobertson":13327,"Ġterrace":13328,"Ġdescriptions":13329,"jord":13330,"Ġrept":13331,"ipel":13332,"Ġmillimetres":13333,"Ġ133":13334,"Ġsalisbury":13335,"Ġsandstone":13336,"Ġthinks":13337,"Ġdecommissioned":13338,"Ġresist":13339,"Ġcanber":13340,"ictions":13341,"Ġsteal":13342,"Ġgeographical":13343,"Ġpapal":13344,"Ġlinda":13345,"Ġkerr":13346,"Ġresolve":13347,"âĢĻ":13348,"Ġcogn":13349,"Ġgeological":13350,"Ġordering":13351,"Ġarchives":13352,"Ġmotivated":13353,"Ġwelcom":13354,"Ġruther":13355,"Ġspont":13356,"Ġswall":13357,"Ġconception":13358,"Ġjoyce":13359,"Ġthurs":13360,"Ġcaptive":13361,"Ġcooking":13362,"Ġshawn":13363,"Ġancestry":13364,"Ġtheor":13365,"ructed":13366,"Ġblaine":13367,"Ġeffectiveness":13368,"Ġtorres":13369,"Ġcontroller":13370,"Ġpipe":13371,"Ġlg":13372,"abling":13373,"ĠâĢĺ":13374,"Ġreceiver":13375,"Ġ1200":13376,"Ġmedian":13377,"Ġclearing":13378,"inely":13379,"Ġpub":13380,"Ġgly":13381,"Ġeditors":13382,"Ġphilippine":13383,"Ġhiv":13384,"Ġgott":13385,"riet":13386,"Ġmonica":13387,"Ġinflicted":13388,"Ġnorton":13389,"Ġpropulsion":13390,"Ġcomparisons":13391,"Ġhugo":13392,"Ġoath":13393,"Ġald":13394,"Ġcommodore":13395,"Ġmonso":13396,"Ġmorale":13397,"Ġconductor":13398,"Ġfarther":13399,"aru":13400,"Ġexpend":13401,"Ġlawyers":13402,"Ġpollution":13403,"Ġintercepted":13404,"Ġsunderland":13405,"vik":13406,"inks":13407,"Ġpneum":13408,"Ġkaren":13409,"imeters":13410,"Ġcaliph":13411,"Ġcroc":13412,"Ġangela":13413,"agonists":13414,"Ġ1845":13415,"Ġelliott":13416,"Ġabolition":13417,"Ġasylum":13418,"Ġairways":13419,"Ġcourty":13420,"Ġadmission":13421,"Ġaccelerated":13422,"Ġtrigg":13423,"Ġindie":13424,"Ġadmired":13425,"Ġreproduction":13426,"Ġtyrann":13427,"gun":13428,"Ġdiction":13429,"adic":13430,"aceae":13431,"Ġquinn":13432,"Ġcommands":13433,"Ġexhibits":13434,"Ġdepends":13435,"Ġmortal":13436,"Ġisolation":13437,"cat":13438,"Ġdayton":13439,"Ġintroduces":13440,"Ġdominican":13441,"Ġtendency":13442,"Ġreunion":13443,"Ġjenna":13444,"Ġbened":13445,"Ġfow":13446,"itic":13447,"Ġanders":13448,"ilia":13449,"Ġkend":13450,"Ġoperators":13451,"Ġvisuals":13452,"Ġorganisations":13453,"Ġrubber":13454,"Ġespn":13455,"ĠmÃ¼":13456,"Ġkun":13457,"Ġacute":13458,"Ġfoundations":13459,"Ġ147":13460,"Ġpolls":13461,"Ġdrops":13462,"Ġavoiding":13463,"Ġriaa":13464,"Ġpike":13465,"Ġdear":13466,"Ġmatched":13467,"Ġdepress":13468,"Ġpitt":13469,"agonal":13470,"Ġmanuscripts":13471,"Ġbutterfly":13472,"Ġthursday":13473,"Ġæ":13474,"Ġtrop":13475,"Ġshed":13476,"Ġrealised":13477,"Ġinteg":13478,"Ġconquer":13479,"Ġpetersburg":13480,"Ġazer":13481,"opp":13482,"Ġinsight":13483,"Ġ144":13484,"Ġwatches":13485,"Ġdenomin":13486,"Ġsatisfact":13487,"Ġportsmouth":13488,"mons":13489,"Ġwang":13490,"roke":13491,"child":13492,"Ġveto":13493,"Ġreliable":13494,"Ġsuggestions":13495,"Ġarabian":13496,"Ġbreath":13497,"oan":13498,"Ġgills":13499,"Ġkor":13500,"Ġspear":13501,"Ġlarvae":13502,"Ġausten":13503,"Ġbowler":13504,"Ġconservatives":13505,"Ġincorporating":13506,"Ġundergraduate":13507,"Ġsophisticated":13508,"Ġkann":13509,"Ġshapes":13510,"ovan":13511,"Ġbuenos":13512,"Ġzinc":13513,"Ġdurham":13514,"Ġattributes":13515,"Ġforbes":13516,"isch":13517,"omorph":13518,"Ġdominance":13519,"Ġmcmah":13520,"Ġremarks":13521,"ĠãĤ":13522,"Ġdiana":13523,"Ġretiring":13524,"Ġlegally":13525,"Ġactivist":13526,"iji":13527,"bane":13528,"Ġdull":13529,"Ġhik":13530,"Ġgand":13531,"Ġstoke":13532,"Ġpresenting":13533,"Ġscotia":13534,"Ġpeaceful":13535,"Ġborrowed":13536,"Ġsaves":13537,"Ġstake":13538,"Ġlend":13539,"Ġfins":13540,"Ġwhenever":13541,"Ġaccounting":13542,"Ġclinical":13543,"Ġeccentric":13544,"Ġdol":13545,"Ġlucky":13546,"Ġcommended":13547,"Ġrecommendation":13548,"Ġhallow":13549,"Ġclaud":13550,"Ġcurric":13551,"Ġ....":13552,"Ġlyrically":13553,"Ġfavoured":13554,"Ġlance":13555,"keys":13556,"Ġdowned":13557,"Ġcolleague":13558,"Ġpatroll":13559,"Ġaccepting":13560,"Ġhappens":13561,"Ġambig":13562,"Ġwong":13563,"Ġinev":13564,"armed":13565,"Ġvene":13566,"Ġende":13567,"Ġsingh":13568,"Ġ142":13569,"Ġfuller":13570,"Ġnationwide":13571,"Ġscandin":13572,"Ġpartisan":13573,"Ġpuzzles":13574,"Ġduchess":13575,"zel":13576,"ilis":13577,"ithm":13578,"Ġgovernors":13579,"boro":13580,"Ġmagnet":13581,"Ġdetermination":13582,"Ġtired":13583,"Ġmarin":13584,"Ġ1820":13585,"Ġzomb":13586,"Ġgardner":13587,"Ġimmort":13588,"Ġsicily":13589,"Ġbibl":13590,"Ġkrish":13591,"Ġpoisoning":13592,"Ġferrari":13593,"Ġauxiliary":13594,"itory":13595,"Ġrovers":13596,"Ġamber":13597,"Ġsms":13598,"Ġgeographic":13599,"Ġhumph":13600,"Ġtestament":13601,"ylon":13602,"Ġresponses":13603,"Ġworthy":13604,"Ġastronomical":13605,"Ġmonitoring":13606,"Ġeject":13607,"Ġrats":13608,"Ġcommissioners":13609,"Ġreasonable":13610,"Ġgalile":13611,"Ġwebber":13612,"Ġremixes":13613,"Ġsovereignty":13614,"ections":13615,"Ġcly":13616,"rock":13617,"Ġstab":13618,"oton":13619,"Ġharder":13620,"Ġpeaks":13621,"Ġaccommodation":13622,"Ġomaha":13623,"gence":13624,"xton":13625,"Ïģ":13626,"Ġbeet":13627,"idad":13628,"estock":13629,"Ġcompart":13630,"Ġstrain":13631,"Ã©r":13632,"Ġhampton":13633,"Ġphysic":13634,"Ġgur":13635,"Ġminne":13636,"Ġcolleg":13637,"ikh":13638,"Ġolive":13639,"Ġimplementation":13640,"Ġthunderstorms":13641,"roft":13642,"Ġja":13643,"Ġpharm":13644,"Ġbritt":13645,"Ġsounded":13646,"Ġscripts":13647,"Ġtalked":13648,"Ġjesse":13649,"Ġinstallment":13650,"Ġpriests":13651,"bin":13652,"fold":13653,"uana":13654,"Ġwigg":13655,"Ġnumer":13656,"Ġdepr":13657,"Ġpersisted":13658,"Ġtaun":13659,"ÅĤaw":13660,"Ġconfiguration":13661,"Ġjagu":13662,"Ġdisk":13663,"Ġlopez":13664,"Ġdissent":13665,"Ġshelters":13666,"Ġjoshua":13667,"Ġcelest":13668,"Ġabstract":13669,"Ġti":13670,"Ġexagger":13671,"Ġmillimeter":13672,"Ġgoverned":13673,"Ġvalued":13674,"retion":13675,"Ġsiblings":13676,"Ġthermal":13677,"Ġmerg":13678,"Ġrer":13679,"Ġcharting":13680,"Ġexplicitly":13681,"arte":13682,"Ġintentions":13683,"Ġovertime":13684,"Ġvisitor":13685,"Ġresponsibilities":13686,"Ġspirits":13687,"Ġleaked":13688,"Ġwednes":13689,"Ġenthusias":13690,"rina":13691,"Ġlots":13692,"irmed":13693,"Ġaspir":13694,"Ġaccent":13695,"Ġ136":13696,"Ġdeparts":13697,"Ġfrog":13698,"Ġquantum":13699,"Ġmumbai":13700,"Ġcanberra":13701,"orus":13702,"acco":13703,"Ġperforms":13704,"Ġkingston":13705,"Ġyester":13706,"Ġimmune":13707,"Ġtournaments":13708,"Ġrecommendations":13709,"Ġimagine":13710,"Ġreunited":13711,"Ġ1854":13712,"Ġodds":13713,"Ġnitrogen":13714,"Ġwrestlemania":13715,"Ġtragedy":13716,"Ġwhis":13717,"Ġyank":13718,"Ġconsort":13719,"Ġdisturbed":13720,"Ġmagist":13721,"Ġfreestyle":13722,"Ġdevils":13723,"Ġcontemporaries":13724,"Ġintrig":13725,"Ġexpelled":13726,"Ġactivists":13727,"Ġcommittees":13728,"Ġresource":13729,"Ġneighborhoods":13730,"Ġlecture":13731,"Î¹":13732,"igious":13733,"Ġspor":13734,"Ġdiscrimination":13735,"Ġprussia":13736,"Ġbm":13737,"Ġpoul":13738,"Ġlent":13739,"Ġnme":13740,"Ġoutlets":13741,"Ġpoetic":13742,"unciation":13743,"ounce":13744,"Ġsaff":13745,"Ġepid":13746,"Ġwinters":13747,"Ġshortened":13748,"Ġ1857":13749,"Ġpearson":13750,"Ġrutherford":13751,"ellers":13752,"Ġradioactive":13753,"marks":13754,"Ġinvestigating":13755,"Ġmoderately":13756,"Ġfrigates":13757,"Ġregistration":13758,"Ġshocked":13759,"Ġpoets":13760,"Ġprimetime":13761,"Ġcosta":13762,"Ġflora":13763,"Ġrhine":13764,"Ġfinancially":13765,"Ġensured":13766,"Ġiconic":13767,"Ġorbits":13768,"Ġaccumulated":13769,"Ġguidance":13770,"Ġresurre":13771,"Ġunwilling":13772,"Ġregener":13773,"Ġambul":13774,"Ġcertifications":13775,"Ġrebuilding":13776,"lon":13777,"Ġtailed":13778,"Ġwhip":13779,"Ġinterim":13780,"Ġhelium":13781,"mir":13782,"Ġpony":13783,"Ġoverha":13784,"Ġoversee":13785,"Ġapoc":13786,"Ġsyrian":13787,"Ġdevelops":13788,"Ġcrater":13789,"hyd":13790,"38":13791,"Ġaires":13792,"Ġaunt":13793,"Ġboards":13794,"Ġlaunching":13795,"Ġlegendary":13796,"Ġconvoys":13797,"Ġtornadoes":13798,"Ġfalk":13799,"throp":13800,"Ġcasc":13801,"Ġbenz":13802,"Ġà":13803,"Ġtense":13804,"enary":13805,"Ġgag":13806,"Ġintimate":13807,"Ġdoz":13808,"Ġbrock":13809,"Ġoppen":13810,"Ġnortheastward":13811,"Ġroofs":13812,"onscious":13813,"hey":13814,"anor":13815,"Ġamc":13816,"Ġallan":13817,"Ġminers":13818,"Ġrevenues":13819,"Ġsuperv":13820,"Ġcontinuously":13821,"Ġsymbolic":13822,"Ġdisagreed":13823,"Ġlivestock":13824,"Ġenthusiasm":13825,"oufl":13826,"Ġscreened":13827,"Ġlinking":13828,"Ġexpressing":13829,"Ġprominence":13830,"Ġrejoined":13831,"dal":13832,"Ġbury":13833,"Ġlich":13834,"ĠnÃ©e":13835,"quin":13836,"Ġholden":13837,"Ġnarrator":13838,"Ġrelegated":13839,"empl":13840,"Ġportal":13841,"Ġvalve":13842,"Ġsupernatural":13843,"Ġlaser":13844,"Ġconfrontation":13845,"ovakia":13846,"Ġinability":13847,"Ġfratern":13848,"Ġ139":13849,"Ġ320":13850,"Ġsanctuary":13851,"Ġenlarged":13852,"Ġyesterday":13853,"Ġwheels":13854,"Ġorganize":13855,"Ġtelevised":13856,"Ġportrays":13857,"Ġnarrowly":13858,"Ġbeside":13859,"Ġingred":13860,"Ġbiblical":13861,"jack":13862,"Ġlowered":13863,"Ġillumin":13864,
[...]
