{"<eos>":0,"<eoc>":1,"!":2,"\"":3,"#":4,"$":5,"%":6,"&":7,"'":8,"(":9,")":10,"*":11,"+":12,",":13,"-":14,".":15,"/":16,"0":17,"1":18,"2":19,"3":20,"4":21,"5":22,"6":23,"7":24,"8":25,"9":26,":":27,";":28,"<":29,"=":30,">":31,"?":32,"@":33,"A":34,"B":35,"C":36,"D":37,"E":38,"F":39,"G":40,"H":41,"I":42,"J":43,"K":44,"L":45,"M":46,"N":47,"O":48,"P":49,"Q":50,"R":51,"S":52,"T":53,"U":54,"V":55,"W":56,"X":57,"Y":58,"Z":59,"[":60,"\\":61,"]":62,"^":63,"_":64,"`":65,"a":66,"b":67,"c":68,"d":69,"e":70,"f":71,"g":72,"h":73,"i":74,"j":75,"k":76,"l":77,"m":78,"n":79,"o":80,"p":81,"q":82,"r":83,"s":84,"t":85,"u":86,"v":87,"w":88,"x":89,"y":90,"z":91,"{":92,"|":93,"}":94,"~":95,"¡":96,"¢":97,"£":98,"¤":99,"¥":100,"¦":101,"§":102,"¨":103,"©":104,"ª":105,"«":106,"¬":107,"®":108,"¯":109,"°":110,"±":111,"²":112,"³":113,"´":114,"µ":115,"¶":116,"·":117,"¸":118,"¹":119,"º":120,"»":121,"¼":122,"½":123,"¾":124,"¿":125,"À":126,"Á":127,"Â":128,"Ã":129,"Ä":130,"Å":131,"Æ":132,"Ç":133,"È":134,"É":135,"Ê":136,"Ë":137,"Ì":138,"Í":139,"Î":140,"Ï":141,"Ð":142,"Ñ":143,"Ò":144,"Ó":145,"Ô":146,"Õ":147,"Ö":148,"×":149,"Ø":150,"Ù":151,"Ú":152,"Û":153,"Ü":154,"Ý":155,"Þ":156,"ß":157,"à":158,"á":159,"â":160,"ã":161,"ä":162,"å":163,"æ":164,"ç":165,"è":166,"é":167,"ê":168,"ë":169,"ì":170,"í":171,"î":172,"ï":173,"ð":174,"ñ":175,"ò":176,"ó":177,"ô":178,"õ":179,"ö":180,"÷":181,"ø":182,"ù":183,"ú":184,"û":185,"ü":186,"ý":187,"þ":188,"ÿ":189,"Ā":190,"ā":191,"Ă":192,"ă":193,"Ą":194,"ą":195,"Ć":196,"ć":197,"Ĉ":198,"ĉ":199,"Ċ":200,"ċ":201,"Č":202,"č":203,"Ď":204,"ď":205,"Đ":206,"đ":207,"Ē":208,"ē":209,"Ĕ":210,"ĕ":211,"Ė":212,"ė":213,"Ę":214,"ę":215,"Ě":216,"ě":217,"Ĝ":218,"ĝ":219,"Ğ":220,"ğ":221,"Ġ":222,"ġ":223,"Ģ":224,"ģ":225,"Ĥ":226,"ĥ":227,"Ħ":228,"ħ":229,"Ĩ":230,"ĩ":231,"Ī":232,"ī":233,"Ĭ":234,"ĭ":235,"Į":236,"į":237,"İ":238,"ı":239,"Ĳ":240,"ĳ":241,"Ĵ":242,"ĵ":243,"Ķ":244,"ķ":245,"ĸ":246,"Ĺ":247,"ĺ":248,"Ļ":249,"ļ":250,"Ľ":251,"ľ":252,"Ŀ":253,"ŀ":254,"Ł":255,"ł":256,"Ń":257,"an":258,"Ġt":259,"er":260,"is":261,"as":262,"Ġth":263,"ou":264,"ant":265,"Ġa":266,"ist":267,"Ġi":268,"ass":269,"assist":270,"assistant":271,"us":272,"Ġh":273,"Ġo":274,"user":275,"Ġy":276,"Ġs":277,"Ġw":278,"at":279,"in":280,"Ġyou":281,"re":282,"Ġf":283,"Ġm":284,"Ġc":285,"Ġthe":286,"Ġl":287,"Ġp":288,"Ġb":289,"el":290,"ay":291,"ing":292,"es":293,"Ġan":294,"or":295,"Ġto":296,"Ġg":297,"on":298,"Ġd":299,"en":300,"ar":301,"om":302,"Ġn":303,"th":304,"Ġthat":305,"Ġok":306,"Ġho":307,"ke":308,"Ġokay":309,"Ġand":310,"oo":311,"ll":312,"Ġfor":313,"Ġis":314,"Ġon":315,"ic":316,"Ġli":317,"Ġit":318,"Ġin":319,"ed":320,"Ġwh":321,"le":322,"ve":323,"Ġlike":324,"gh":325,"Ġwi":326,"Ġr":327,"Ġcan":328,"ld":329,"vi":330,"Ġhel":331,"Ġmo":332,"igh":333,"ight":334,"Ġof":335,"'s":336,"Ġha":337,"Ġre":338,"ere":339,"et":340,"ould":341,"Ġme":342,"Ġhot":343,"Ġwhat":344,"Ġbe":345,"Ġmovi":346,"Ġhelp":347,"Ġhave":348,"it":349,"ome":350,"Ġhotel":351,"Ġthan":352,"ch":353,"il":354,"ow":355,"Ġone":356,"Ġwith":357,"al":358,"Ġthank":359,"Ġne":360,"se":361,"Ġhow":362,"out":363,"Ġmovie":364,"Ġst":365,"Ġse":366,"Ġby":367,"Ġwould":368,"nd":369,"Ġare":370,"Ġor":371,"Ġyour":372,"st":373,"ook":374,"ood":375,"Ġdo":376,"ind":377,"ent":378,"Ġany":379,"Ġat":380,"thing":381,"Ġsu":382,"Ġgood":383,"Ġj":384,"ound":385,"Ġpl":386,"Ġgo":387,"ion":388,"Ġyes":389,"Ġch":390,"ct":391,"ea":392,"ur":393,"Ġfr":394,"Ġlook":395,"Ġno":396,"Ġab":397,"Ġ1":398,"Ġthere":399,"Ġsome":400,"Ġhi":401,"Ġfind":402,"'m":403,"ail":404,"Ġro":405,"Ġ$":406,"Ġel":407,"im":408,"Ġe":409,"Ġabout":410,"der":411,"Ġ2":412,"Ġk":413,"Ġal":414,"lo":415,"Ġper":416,"Ġelse":417,"Ġthis":418,"id":419,"ong":420,"Ġgre":421,"ir":422,"'d":423,"Ġgreat":424,"est":425,"Ġsh":426,"ad":427,"Ġlooking":428,"Ġwill":429,"Ġu":430,"Ġwant":431,"ver":432,"Ġsong":433,"Ġsee":434,"all":435,"fer":436,"am":437,"ell":438,"ce":439,"Ġfl":440,"Ġnight":441,"ust":442,"ut":443,"Ġroom":444,"Ġplay":445,"ri":446,"ice":447,"Ġfrom":448,"ck":449,"Ġall":450,"ree":451,"Ġlet":452,"Ġhere":453,"ble":454,"leas":455,"Ġpr":456,"Ġneed":457,"Ġsure":458,"con":459,"Ġpre":460,"Ġorder":461,"lease":462,"Ġhello":463,"Ġbye":464,"op":465,"ast":466,"Ġsound":467,"Ġam":468,"Ġplease":469,"Ġanything":470,"Ġso":471,"Ġhe":472,"Ġtim":473,"'ll":474,"if":475,"ater":476,"Ġjust":477,"by":478,"Ġtw":479,"Ġsomething":480,"Ġar":481,"Ġtwo":482,"ge":483,"Ġen":484,"Ġlo":485,"00":486,"nt":487,"Ġsp":488,"Ġflight":489,"oy":490,"Ġmu":491,"Ġco":492,"fe":493,"Ġtr":494,"ther":495,"tt":496,"Ġrat":497,"Ġsounds":498,"our":499,"ard":500,"Ġstar":501,"Ġout":502,"Ġpm":503,"'re":504,"ul":505,"Ġyea":506,"ess":507,"ation":508,"Ġyeah":509,"qu":510,"Ġmuch":511,"ket":512,"and":513,"joy":514,"ak":515,"Ġshow":516,"Ġenjoy":517,"ake":518,"ly":519,"Ġ3":520,"ter":521,"able":522,"bye":523,"Ġprefer":524,"Ġstay":525,"Ġhas":526,"Ġpar":527,"right":528,"un":529,"icket":530,"Ġticket":531,"atch":532,"ink":533,"Ġalright":534,"Ġ4":535,"ool":536,"Ġtime":537,"Ġact":538,"Ġmin":539,"Ġgoodbye":540,"Ġfree":541,"Ġtheater":542,"Ġche":543,"cond":544,"Ġmy":545,"Ġav":546,"come":547,"end":548,"Ġsecond":549,"Ġwel":550,"Ġnew":551,"Ġmore":552,"Ġwelcome":553,"ew":554,"Ġfound":555,"ick":556,"um":557,"ies":558,"Ġwas":559,"Ġavail":560,"Ġwatch":561,"Ġavailable":562,"Ġcould":563,"Ġprice":564,"Ġ7":565,"Ġbook":566,"Ġas":567,"Ġrating":568,"Ġtell":569,"Ġcom":570,"Ġget":571,"Ġfinding":572,"so":573,"ich":574,"Ġ20":575,"Ġad":576,"Ġright":577,"ine":578,"Ġgot":579,"Ġbre":580,"Ġmom":581,"Ġif":582,"Ġrest":583,"Ġmoment":584,"'t":585,"Ġcheck":586,"Ġmar":587,"Ġkn":588,"Ġtake":589,"Ġthink":590,"ity":591,"pe":592,"ally":593,"Ġdoes":594,"Ġde":595,"Ġalso":596,"Ġup":597,"very":598,"ss":599,"aur":600,"Ġplaying":601,"Ġnot":602,"aurant":603,"Ġmovies":604,"Ġdet":605,"Ġknow":606,"Ġrestaurant":607,"Ġmay":608,"Ġ10":609,"Ġfi":610,"Ġday":611,"ails":612,"Ġbed":613,"Ġbreak":614,"Âł":615,"Ġrooms":616,"rect":617,"Ġdetails":618,"ate":619,"av":620,"Ġcall":621,"Ġhear":622,"Ġvi":623,"Ġcon":624,"day":625,"ort":626,"Ġ5":627,"Ġwe":628,"fect":629,"Ġnow":630,"fast":631,"Ġbreakfast":632,"Ġv":633,"Ġperfect":634,"Ġnear":635,"be":636,"Ġbut":637,"Ġwell":638,"Ġcalled":639,"xt":640,"Ġmus":641,"Ġpe":642,"Ġlea":643,"ach":644,"Ġman":645,"ork":646,"son":647,"Ġ&":648,"Ġla":649,"Ġart":650,"Ġthey":651,"Ġbar":652,"Ġpool":653,"ain":654,"ac":655,"Ġfir":656,"Ġminut":657,"Ġfirst":658,"Ġ9":659,"Ġfe":660,"Ġartist":661,"Ġwhich":662,"pt":663,"Ġthree":664,"ni":665,"Ġthing":666,"Ġsuit":667,"ame":668,"Ġother":669,"Ġpo":670,"Ġpark":671,"Ġmusic":672,"Ġtickets":673,"ary":674,"Ġgoing":675,"ry":676,"Ġwhen":677,"Ġdr":678,"Ġcl":679,"ack":680,"Ġnext":681,"Ġ6":682,"de":683,"Ġcent":684,"Ġhold":685,"Ġbo":686,"ro":687,"Ġdon":688,"Ġminutes":689,"iz":690,"co":691,"Ġaw":692,"Ġtoday":693,"Ġgu":694,"ive":695,"ans":696,"own":697,"urn":698,"up":699,"ople":700,"Ġqu":701,"Ġbeach":702,"Ġpeople":703,"ough":704,"are":705,"15":706,"ace":707,"Ġap":708,"ates":709,"Ġem":710,"ure":711,"night":712,"Ġvery":713,"Ġ-":714,"Ġtom":715,"Ġstars":716,"Ġlist":717,"Ġloc":718,"Ġ8":719,"Ġhotels":720,"fi":721,"Ġsuites":722,"Ġdid":723,"ose":724,"Ġking":725,"ers":726,"Ġoh":727,"Ġpreferen":728,"ions":729,"Ġmany":730,"Ġdif":731,"Ġpick":732,"Ġperson":733,"Ġex":734,"Ġdiffer":735,"ven":736,"ces":737,"Ġdi":738,"Ġthen":739,"Ġtonight":740,"ber":741,"Ġle":742,"ady":743,"Ġcity":744,"ated":745,"Ġret":746,"ite":747,"Ġwhere":748,"Ġreally":749,"Ġtrail":750,"Ġres":751,"tty":752,"Ġthose":753,"Ġplus":754,"ub":755,"Ġcor":756,"Ġpretty":757,"for":758,"Ġkind":759,"Ġdifferent":760,"Ġtrailer":761,"ide":762,"Ġ(":763,"Ġreturn":764,"star":765,"Ġwon":766,"Ġfour":767,"Ġair":768,"Ġbal":769,"ale":770,"Ġthem":771,"ities":772,"ular":773,"Ġcomed":774,"ax":775,"Ġdates":776,"Ġpro":777,"Ġbalcon":778,"Ġcorrect":779,"Ġthanks":780,"ving":781,"row":782,"pl":783,"do":784,"Ġgive":785,"Ġinn":786,"30":787,"Ġready":788,"other":789,"Ġanother":790,"esome":791,"ci":792,"Ġwonder":793,"50":794,"Ġawesome":795,"Ġmarch":796,"ts":797,"Ġpreferences":798,"Ġadd":799,"Ġamen":800,"Ġclass":801,"Ġhome":802,"ill":803,"Ġund":804,"Ġsan":805,"Ġamenities":806,"Ġinter":807,"Ġshowing":808,"Ġim":809,"Ġcal":810,"ato":811,"sc":812,"Ġhigh":813,"Ġwork":814,"Ġgen":815,"ull":816,"Ġcar":817,"Ġrent":818,"alk":819,"Ġunder":820,"Ġcenter":821,"Ġsa":822,"rit":823,"ifor":824,"Ġaction":825,"nia":826,"ifornia":827,"Ġemail":828,"ead":829,"Ġcalifornia":830,"ag":831,"Ġtoo":832,"form":833,"ish":834,"Ġshould":835,"ange":836,"Ġfran":837,"isco":838,"Ġoffer":839,"Ġfit":840,"een":841,"Ġlisten":842,"rough":843,"Ġcomedy":844,"ress":845,"Ġfile":846,"em":847,"Ġjo":848,"Ġthrough":849,"door":850,"az":851,"Ġbalcony":852,"Ġgenre":853,"ffe":854,"Ġclo":855,"Ġrated":856,"Ġcoffe":857,"Ġparking":858,"Ġpart":859,"Ġun":860,"Ġty":861,"Ġsend":862,"Ġarri":863,"Ġpersonal":864,"par":865,"Ġheard":866,"Ġtomato":867,"Ġtimes":868,"ue":869,"att":870,"ton":871,"Ġtv":872,"Ġleave":873,"Ġjun":874,"Ġless":875,"10":876,"ig":877,"Ġactor":878,"ness":879,"Ġfil":880,"Ġhis":881,"Ġinterest":882,"Ġwho":883,"rip":884,"ked":885,"Ġfilm":886,"ab":887,"view":888,"uary":889,"Ġnon":890,"Ġspe":891,"ning":892,"oman":893,"Ġopt":894,"gle":895,"ring":896,"Ġgr":897,"Ġview":898,"Ġset":899,"ie":900,"Ġfine":901,"Ġfranc":902,"Ġsim":903,"erv":904,"Ġjune":905,"tim":906,"ssi":907,"Ġfitness":908,"Ġdram":909,"ize":910,"Ġfrancisco":911,"Ġratings":912,"oose":913,"reen":914,"Ġconf":915,"Ġamc":916,"20":917,"Ġpossi":918,"Ġstaying":919,"Ġfood":920,"man":921,"Ġnice":922,"ian":923,"ire":924,"Ġchoose":925,"Ġdirect":926,"cl":927,"Ġonly":928,"vers":929,"pp":930,"Ġbl":931,"ific":932,"oup":933,"deo":934,"Ġbet":935,"Ġtype":936,"Ġreview":937,"Ġvideo":938,"Ġgoo":939,"gg":940,"ves":941,"room":942,"'ve":943,"br":944,"ek":945,"Ġflat":946,"irm":947,"iday":948,"Ġ16":949,"Ġsame":950,"Ġgoogle":951,"ren":952,"Ġconfirm":953,"ra":954,"Ġsqu":955,"Ġrange":956,"Ġtomatoes":957,"Ġlove":958,"Ġaf":959,"ud":960,"bo":961,"Ġlar":962,"Ġbur":963,"Ġlooks":964,"ix":965,"ely":966,"Ġcho":967,"ilar":968,"Ġcour":969,"Ġtheir":970,"one":971,"Ġca":972,"ore":973,"ttle":974,"Ġpartic":975,"Ġcool":976,"Ġag":977,"Ġalb":978,"Ġcoffee":979,"ices":980,"Ġresort":981,"Ġparticular":982,"ntown":983,"Ġtry":984,"os":985,"Ġtub":986,"Ġalbum":987,"owntown":988,"Ġmil":989,"arch":990,"Ġplace":991,"Ġsimilar":992,"Ġher":993,"stop":994,"Ġshowtim":995,"Ġadul":996,"ger":997,"Ġfew":998,"tten":999,"Ġmini":1000,"Ġmaybe":1001,"Ġlast":1002,"Ġrequ":1003,"Ġcost":1004,"ment":1005,"Ġdowntown":1006,"ury":1007,"Ġsearch":1008,"Ġbeds":1009,"Ġevery":1010,"Ġdrama":1011,"Ġlarge":1012,"Ġsor":1013,"Ġname":1014,"Ġunt":1015,"Ġpal":1016,"ol":1017,"Ġfull":1018,"Ġhour":1019,"Ġback":1020,"Ġ19":1021,"17":1022,"Ġplan":1023,"Ġsorry":1024,"Ġleast":1025,"port":1026,"ous":1027,"Ġboth":1028,"Ġchick":1029,"Ġeven":1030,"Ġpossible":1031,"ep":1032,"Ġoptions":1033,"fin":1034,"Ġreg":1035,"Ġbeen":1036,"Ġrotten":1037,"Ġwoman":1038,"fri":1039,"blem":1040,"Ġproblem":1041,"ations":1042,"Ġspa":1043,"45":1044,"Ġdepar":1045,"Ġchicken":1046,"Ġlittle":1047,"Ġuntil":1048,"Ġorle":1049,"Ġorleans":1050,"300":1051,"Ġapr":1052,"Ġspec":1053,"40":1054,"eric":1055,"Ġsw":1056,"Ġside":1057,"Ġmind":1058,"Ġlater":1059,"Ġtrip":1060,"Ġaround":1061,"mit":1062,"Ġstand":1063,"ia":1064,"Ġassistant":1065,"Ġlocated":1066,"Ġafter":1067,"Ġapril":1068,"99":1069,"Ġpalm":1070,"Ġsay":1071,"Ġspecific":1072,"iss":1073,"Ġoce":1074,"Ġmiles":1075,"ting":1076,"avor":1077,"Ġbest":1078,"Ġoutdoor":1079,"ta":1080,"Ġocean":1081,"Ġlou":1082,"Ġbr":1083,"Ġserv":1084,"Ġinform":1085,"Ġreviews":1086,"go":1087,"Ġyork":1088,"ance":1089,"Ġfavor":1090,"Ġred":1091,"Ġhou":1092,"rill":1093,"to":1094,"tu":1095,"Ġairl":1096,"Ġsal":1097,"Ġmad":1098,"ence":1099,"Ġwar":1100,"Ġinformation":1101,"ile":1102,"Ġwest":1103,"Ġsquare":1104,"Ġstandard":1105,"Ġcur":1106,"ful":1107,"ese":1108,"Ġah":1109,"Ġmake":1110,"Ġagain":1111,"Ġtakeout":1112,"ops":1113,"per":1114,"Ġthese":1115,"Ġrec":1116,"ne":1117,"Ġameric":1118,"Ġfeat":1119,"Ġwere":1120,"Ġdes":1121,"Ġbu":1122,"Ġoff":1123,"ually":1124,"Ġba":1125,"Ġland":1126,"Ġincl":1127,"Ġguest":1128,"vent":1129,"Ġlocation":1130,"yn":1131,"Ġna":1132,"Ġgl":1133,"idge":1134,"ory":1135,"Ġeverything":1136,"Ġtalk":1137,"Ġold":1138,"age":1139,"Ġcr":1140,"Ġinterested":1141,"mer":1142,"Ġahead":1143,"ath":1144,"Ġweek":1145,"Ġx":1146,"Ġmor":1147,"Ġfavorite":1148,"Ġgal":1149,"Ġdown":1150,"bruary":1151,"ash":1152,"Ġclose":1153,"Ġbus":1154,"ks":1155,"Ġactually":1156,"Ġleaving":1157,"Ġsc":1158,"Ġfebruary":1159,"Ġgy":1160,"Ġlimit":1161,"Ġhim":1162,"Ġshowtimes":1163,"200":1164,"ls":1165,"ount":1166,"Ġmak":1167,"Ġchea":1168,"Ġrequire":1169,"25":1170,"ium":1171,"rent":1172,"Ġevening":1173,"Ġus":1174,"Ġfin":1175,"Ġarea":1176,"ments":1177,"lf":1178,"Ġac":1179,"Ġsugg":1180,"Ġ11":1181,"Ġsuggest":1182,"screen":1183,"ert":1184,"iness":1185,"Ġamaz":1186,"Ġtrav":1187,"ild":1188,"enn":1189,"Ġwalk":1190,"Ġcurrent":1191,"ap":1192,"Ġ15":1193,"Ġguard":1194,"arl":1195,"Ġfly":1196,"axy":1197,"ples":1198,"Ġ12":1199,"Ġservice":1200,"Ġgalaxy":1201,"13":1202,"Ġph":1203,"inem":1204,"Ġsm":1205,"Ġexc":1206,"Ġbusiness":1207,"Ġapp":1208,"Ġnaples":1209,"hn":1210,"ines":1211,"Ġlay":1212,"Ġburrit":1213,"Ġmorning":1214,"Ġtheaters":1215,"Ġchoice":1216,"Ġband":1217,"Ġover":1218,"12":1219,"ise":1220,"attle":1221,"Ġrepe":1222,"itch":1223,"Ġflights":1224,"Ġcome":1225,"Ġmost":1226,"Ġrepeat":1227,"Ġdays":1228,"Ġtravel":1229,"Ġlot":1230,"Ġmon":1231,"ot":1232,"Ġfri":1233,"Ġspring":1234,"ians":1235,"Ġcre":1236,"Ġcont":1237,"Ġ\"":1238,"Ġsum":1239,"Ġcheap":1240,"Ġstre":1241,"ens":1242,"Ġlayo":1243,"Ġsyn":1244,"ooked":1245,"Ġcinem":1246,"Ġprices":1247,"Ġamerican":1248,"Ġjohn":1249,"Ġkid":1250,"Ġfive":1251,"ude":1252,"Ġround":1253,"Ġactors":1254,"lle":1255,"ator":1256,"aw":1257,"Ġte":1258,"ilton":1259,"rd":1260,"Ġquest":1261,"Ġcheese":1262,"Ġvac":1263,"Ġhilton":1264,"Ġpop":1265,"Ġmust":1266,"Ġyoutu":1267,"Ġdav":1268,"Ġamazon":1269,"Ġvacation":1270,"Ġyoutube":1271,"bad":1272,"opsis":1273,"Ġsynopsis":1274,"âĢ":1275,"Ġwifi":1276,"Ġdavis":1277,"mber":1278,"Ġrestaurants":1279,"Ġlouis":1280,"Ġrequirements":1281,"Ġguardians":1282,"Ġthrill":1283,"Ġglad":1284,"Ġmeet":1285,"Ġairlines":1286,"ween":1287,"Ġke":1288,"Ġdone":1289,"Ġinto":1290,"Ġqueen":1291,"na":1292,"Ġbetween":1293,"Ġsk":1294,"Ġbooked":1295,"Ġguests":1296,"Ġsund":1297,"Ġdog":1298,"Ġdirector":1299,"Ġhor":1300,"Ġhey":1301,"Ġcentury":1302,"Ġadults":1303,"les":1304,"ings":1305,"Ġjan":1306,"ellent":1307,"Ġinclude":1308,"Ġexcellent":1309,"Ġdel":1310,"ner":1311,"Ġsent":1312,"Ġclos":1313,"Ġnearby":1314,"Ġcrit":1315,"fore":1316,"Ġairport":1317,"Ġcurrently":1318,"Ġseattle":1319,"Ġbefore":1320,"lsbad":1321,"Ġfriday":1322,"Ġcarlsbad":1323,"yle":1324,"Ġwa":1325,"Ġ2017":1326,"antic":1327,"scale":1328,"ror":1329,"Ġcourse":1330,"ip":1331,"Ġlong":1332,"friger":1333,"Ġz":1334,"frigerator":1335,"rio":1336,"Ġupscale":1337,"Ġhours":1338,"Ġrom":1339,"ida":1340,"Ġfire":1341,"Ġfam":1342,"fl":1343,"ark":1344,"Ġimax":1345,"âĢĻ":1346,"fr":1347,"Ġcheapest":1348,"Ġmet":1349,"ston":1350,"Ġspend":1351,"ures":1352,"ear":1353,"Ġromantic":1354,"Ġcoup":1355,"Ġcouple":1356,"reci":1357,"Ġflor":1358,"Ġappreci":1359,"Ġcust":1360,"Ġtop":1361,"side":1362,"Ġhol":1363,"Ġoffering":1364,"Ġflorida":1365,"Ġcustom":1366,"Ġsize":1367,"Ġdate":1368,"Ġmiss":1369,"Ġmood":1370,"Ġwor":1371,"elf":1372,"ition":1373,"Ġregal":1374,"Ġsalad":1375,"unes":1376,"Ġsongs":1377,"Ġappreciate":1378,"Ġholiday":1379,"size":1380,"Ġter":1381,"Ġfamil":1382,"49":1383,"no":1384,"Ġmic":1385,"Ġdin":1386,"Ġchild":1387,"Ġfar":1388,"ville":1389,"55":1390,"Ġway":1391,"Ġmaker":1392,"Ġlayover":1393,"ison":1394,"Ġcas":1395,"Ġ14":1396,"ado":1397,"rench":1398,"venture":1399,"Ġsprings":1400,"Ġthriller":1401,"Ġrel":1402,"Ġhorror":1403,"Ġitunes":1404,"Ġnothing":1405,"35":1406,"erc":1407,"anta":1408,"Ġbas":1409,"ict":1410,"ff":1411,"lor":1412,"Ġwithin":1413,"Ġshe":1414,"Ġhouse":1415,"Ġtenn":1416,"Ġthinking":1417,"wh":1418,"Ġstop":1419,"ished":1420,"Ġjanuary":1421,"Ġcare":1422,"Ġchic":1423,"Ġuni":1424,"izz":1425,"ably":1426,"Ġfriend":1427,"Ġindoor":1428,"act":1429,"ious":1430,"min":1431,"Ġfrench":1432,"Ġbig":1433,"Ġbit":1434,"Ġexp":1435,"Ġbaby":1436,"Ġwait":1437,"Ġuser":1438,"Ġpizz":1439,"16":1440,"gers":1441,"Ġpur":1442,"Ġstreet":1443,"ib":1444,"Ġblo":1445,"arter":1446,"Ġsummer":1447,"Ġfries":1448,"Ġmoder":1449,"Ġwondering":1450,"05":1451,"ca":1452,"Ġwhile":1453,"Ġed":1454,"ges":1455,"uring":1456,"ug":1457,"ont":1458,"Ġrefrigerator":1459,"Ġable":1460,"Ġnet":1461,"ster":1462,"Ġground":1463,"Ġkitch":1464,"Ġecon":1465,"una":1466,"Ġclosest":1467,"flix":1468,"Ġmodern":1469,"dy":1470,"Ġsunday":1471,"Ġnetflix":1472,"Ġquarter":1473,"Ġmicrow":1474,"Ġnash":1475,"ial":1476,"Ġ25":1477,"Ġscreen":1478,"ern":1479,"Ġnashville":1480,"Ġstory":1481,"Ġbetter":1482,"Ġpopular":1483,"Ġeconom":1484,"ana":1485,"Ġperform":1486,"Ġnonstop":1487,"Ġolder":1488,"Ġlu":1489,"Ġ24":1490,"Ġarrive":1491,"Ġseat":1492,"irl":1493,"box":1494,"ave":1495,"Ġwanted":1496,"Ġtvs":1497,"self":1498,"Ġtot":1499,"ither":1500,"ty":1501,"Ġhope":1502,"Ġdece":1503,"Ġvan":1504,"Ġeconomy":1505,"Ġcustomer":1506,"Ġsanta":1507,"Ġgold":1508,"Ġgolf":1509,"cial":1510,"Ġsaid":1511,"Ġchr":1512,"ute":1513,"Ġnum":1514,"150":1515,"riott":1516,"Ġdecember":1517,"Ġmarriott":1518,"Ġlag":1519,"Ġbooking":1520,"Ġdri":1521,"Ġaway":1522,"Ġredbox":1523,"cess":1524,"Ġsci":1525,"Ġconfirmation":1526,"Ġtotal":1527,"Ġyear":1528,"ical":1529,"ited":1530,"Ġaddress":1531,"Ġpizza":1532,"Ġunivers":1533,"way":1534,"Ġadult":1535,".,":1536,"gue":1537,"uce":1538,"Ġfant":1539,"Ġlat":1540,"Ġeither":1541,"Ġhul":1542,"Ġwater":1543,"ond":1544,"Ġarrives":1545,"ington":1546,"Ġsing":1547,"Ġsoup":1548,"Ġrun":1549,"Ġdec":1550,"Ġext":1551,"cked":1552,"db":1553,"Ġcinemas":1554,"Ġuniversity":1555,"Ġhad":1556,"ny":1557,"entary":1558,"get":1559,"Ġimdb":1560,"Ġemailed":1561,"Ġhulu":1562,"Ġhaven":1563,"Ġcomp":1564,"Ġdepart":1565,"Ġsand":1566,"ird":1567,"sh":1568,"idges":1569,"Ġnights":1570,"Ġdrink":1571,"Ġinteresting":1572,"Ġnumber":1573,"land":1574,"Ġpull":1575,"Ġorders":1576,"Ġdefin":1577,"Ġgym":1578,"Ġsmall":1579,"Ġstill":1580,"orrow":1581,"io":1582,"omm":1583,"chas":1584,"Ġfeel":1585,"lit":1586,"ual":1587,"Ġfo":1588,"Ġpurchas":1589,"Ġbel":1590,"ele":1591,"Ġcover":1592,"Ġtomorrow":1593,"Ġlaguna":1594,"ouble":1595,"ara":1596,"Ġwash":1597,"Ġtraveling":1598,"Ġneeds":1599,"Ġrecent":1600,"gel":1601,"Ġea":1602,"Ġfun":1603,"Ġnewer":1604,"Ġplanning":1605,"Ġwestern":1606,"minute":1607,"Ġgrounds":1608,"18":1609,"Ġpreference":1610,"finity":1611,"Ġchildren":1612,"),":1613,"red":1614,"Ġdist":1615,"Ġguess":1616,"Ġwonderful":1617,"where":1618,"Ġmerc":1619,"aces":1620,"Ġbox":1621,"Ġtrying":1622,"fort":1623,"Ġdirected":1624,"Ġxfinity":1625,"Ġquestions":1626,"Ġwars":1627,"Ġblack":1628,"19":1629,"den":1630,"ft":1631,"val":1632,"Ġhar":1633,"Ġspecifications":1634,"Ġski":1635,"Ġrem":1636,"Ġsl":1637,"Ġhouston":1638,"ai":1639,"ina":1640,"000":1641,"Ġsuite":1642,"Ġfinished":1643,"her":1644,"Ġbad":1645,"Ġangel":1646,"Ġdouble":1647,"Ġ17":1648,"Ġwashington":1649,"ng":1650,"ins":1651,"Ġlink":1652,"vil":1653,"Ġsec":1654,"Ġear":1655,"Ġleaves":1656,"Ġmade":1657,"Ġsuper":1658,"Ġhighest":1659,"Ġbuy":1660,"Ġdining":1661,"ef":1662,"Ġrice":1663,"itely":1664,"Ġafterno":1665,"Ġdefinitely":1666,"Ġafternoon":1667,"Ġthough":1668,"Ġ13":1669,"Ġfirepl":1670,").":1671,"Ġdark":1672,"Ġliving":1673,"Ġsauce":1674,"Ġgolden":1675,"250":1676,"pes":1677,"ason":1678,"Ġhit":1679,"Ġunited":1680,"14":1681,"wich":1682,"aylor":1683,"Ġlife":1684,"ental":1685,"Ġclub":1686,"Ġburrito":1687,"Ġbased":1688,"Ġadventure":1689,"Ġstad":1690,"Ġblocked":1691,"Ġstadium":1692,"ors":1693,"Ġbalconies":1694,"Ġburritos":1695,"Ġcritic":1696,"Ġworld":1697,"Ġextra":1698,"Ġmercado":1699,"Ġ18":1700,"cks":1701,"Ġsandwich":1702,"Ġpri":1703,"my":1704,"Ġcoke":1705,"Ġworks":1706,"Ġbow":1707,"the":1708,"Ġchar":1709,"Ġtaylor":1710,"Ġsof":1711,"alet":1712,"Ġvalet":1713,"ward":1714,"Ġri":1715,"Ġimport":1716,"Ġser":1717,"Ġdelta":1718,"Ġeach":1719,"use":1720,"Ġpa":1721,"Ġpet":1722,"Ġdead":1723,"ift":1724,"Ġlod":1725,"Ġgyro":1726,"Ġimportant":1727,"Ġminute":1728,"emp":1729,"Ġfeaturing":1730,"trip":1731,"ino":1732,"ream":1733,"Ġmain":1734,"Ġham":1735,"Ġdie":1736,"te":1737,"ier":1738,"Ġda":1739,"front":1740,"arrow":1741,"omin":1742,"Ġhapp":1743,"Ġsepar":1744,"Ġneeded":1745,"Ġdoesn":1746,"Ġoffice":1747,"Ġpriv":1748,"Ġmed":1749,"ime":1750,"ember":1751,"gan":1752,"Ġfridge":1753,"Ġlos":1754,"Ġcoming":1755,"Ġviews":1756,"Ġswe":1757,"Ġperry":1758,"cle":1759,"Ġanim":1760,"Ġperforming":1761,"com":1762,"Ġnor":1763,"Ġinside":1764,"Ġabo":1765,"ames":1766,"Ġvol":1767,"Ġpepp":1768,"Ġrecomm":1769,"Ġrecommend":1770,"und":1771,"Ġcount":1772,"Ġhist":1773,"Ġyoung":1774,"Ġpast":1775,"llow":1776,"Ġliked":1777,"vid":1778,"Ġchecking":1779,"Ġgrand":1780,"friend":1781,"Ġdesc":1782,"Ġits":1783,"Ġearl":1784,"Ġactress":1785,"Ġchoices":1786,"ok":1787,"yl":1788,"ced":1789,"Ġhan":1790,"lla":1791,"Ġrock":1792,"Ġcomedies":1793,"Ġprivate":1794,"site":1795,"Ġyep":1796,"Ġkat":1797,"Ġfamily":1798,"tle":1799,"esse":1800,"Ġtex":1801,"Ġseparate":1802,"Ġsweet":1803,"Ġabove":1804,"Ġcir":1805,"Ġbay":1806,"Ġfilms":1807,"%.":1808,"Ġstyle":1809,"Ġdiego":1810,"Ġdescri":1811,"Ġtexas":1812,"wn":1813,"Ġfur":1814,"ney":1815,"ey":1816,"Ġsn":1817,"emak":1818,"Ġvers":1819,"Ġbat":1820,"ones":1821,"Ġdeparting":1822,"Ġweekend":1823,"ael":1824,"Ġaug":1825,"Ġmount":1826,"Ġpat":1827,"ident":1828,"Ġcoffeemak":1829,"Ġmadison":1830,"Ġkaty":1831,"Ġness":1832,"Ġjack":1833,"Ġele":1834,"Ġthings":1835,"Ġdogs":1836,"Ġaugust":1837,"od":1838,"ph":1839,"Ġsou":1840,"Ġgard":1841,"Ġbeat":1842,"Ġstr":1843,"Ġey":1844,"Ġfig":1845,"Ġbedroom":1846,"Ġsearching":1847,"Ġroman":1848,"pton":1849,"ized":1850,"air":1851,"ately":1852,"Ġind":1853,"ade":1854,"ago":1855,"tah":1856,"Ġfollow":1857,"Ġmeal":1858,"Ġbea":1859,"Ġrogue":1860,"Ġutah":1861,"Ġ21":1862,"Ġseeing":1863,"Ġshowtime":1864,"Ġcontin":1865,"Ġmeeting":1866,"ping":1867,"Ġnarrow":1868,"Ġterr":1869,"Ġlatest":1870,"ider":1871,"pen":1872,"Ġran":1873,"ower":1874,"Ġrequest":1875,"Ġangeles":1876,"ric":1877,"Ġshut":1878,"Ġmountain":1879,"Ġhy":1880,"Ġnever":1881,"Ġcircle":1882,"ouri":1883,"Ġoption":1884,"Ġbatman":1885,"ging":1886,"Ġthird":1887,"Ġsco":1888,"Ġwick":1889,"Ġput":1890,"Ġmean":1891,"Ġmissouri":1892,"Ġchicago":1893,"Ġbrow":1894,"Ġhalf":1895,"ichael":1896,"Ġreturning":1897,"Ġarrival":1898,"Ġfeature":1899,"Ġkeep":1900,"Ġtea":1901,"Ġnomin":1902,"Ġreleas":1903,"Ġbeef":1904,"Ġbread":1905,"Ġbeca":1906,"Ġcapt":1907,"Ġpurchase":1908,"Ġbecause":1909,"Ġassist":1910,"Ġ30":1911,"Ġpreferably":1912,"Ġmyself":1913,"Ġversion":1914,"100":1915,"gr":1916,"Ġve":1917,"Ġtennesse":1918,"Ġearly":1919,"Ġgirl":1920,"Ġsever":1921,"Ġ23":1922,"Ġstart":1923,"Ġstarring":1924,"Ġreserv":1925,"Ġmustard":1926,"Ġmicrowave":1927,"Ġromance":1928,"ien":1929,"Ġsomewhere":1930,"Ġbarbe":1931,"Ġbeaut":1932,"Ġtennessee":1933,"dden":1934,"mon":1935,"Ġ'":1936,"Ġdis":1937,"ica":1938,"Ġtrue":1939,"Ġpoin":1940,"Ġairline":1941,"Ġkitchen":1942,"Ġseveral":1943,"Ġsur":1944,"Ġplaz":1945,"Ġroll":1946,"Ġcasual":1947,"Ġplaza":1948,"cum":1949,"Ġthai":1950,"Ġpir":1951,"Ġlive":1952,"Ġry":1953,"astic":1954,"Ġtimings":1955,"Ġkings":1956,"Ġtour":1957,"Ġsle":1958,"Ġfall":1959,"Ġ28":1960,"itional":1961,"cue":1962,"kes":1963,"pool":1964,"Ġmat":1965,"Ġital":1966,"uman":1967,"Âłand":1968,"bean":1969,"Ġexpress":1970,"Ġwow":1971,"tte":1972,"ah":1973,"Ġlego":1974,"Ġcarib":1975,"Ġcaribbean":1976,"ouse":1977,"Ġbill":1978,"Ġregular":1979,"empor":1980,"Ġfigures":1981,"xic":1982,"Ġbring":1983,"Ġdeparts":1984,"emporary":1985,"Ġboy":1986,"Ġbeans":1987,"Ġfireplace":1988,"Ġhyatt":1989,"Ġpirates":1990,"11":1991,"Ġbud":1992,"Ġalong":1993,"Ġcomes":1994,"Ġcoffeemakers":1995,"iam":1996,"Ġpea":1997,"Ġareas":1998,"Ġhidden":1999,"log":2000,"asy":2001,"Ġdisco":2002,"ars":2003,"art":2004,"Ġneare":2005,"Ġnope":2006,"Ġparis":2007,"Ġlead":2008,"Ġswift":2009,"Ġchrist":2010,"Ġnearest":2011,"Ġdocum":2012,"Ġshuttle":2013,"Ġitalian":2014,"pire":2015,"oni":2016,"style":2017,"Ġatt":2018,"Ġjul":2019,"Ġ27":2020,"Ġdrury":2021,"Ġshowings":2022,"Ġsaus":2023,"Ġfollowing":2024,"Ġmichael":2025,"Ġcontemporary":2026,"Ġtennis":2027,"ma":2028,"nge":2029,"Ġmexic":2030,"ides":2031,"Ġclassic":2032,"500":2033,"ever":2034,"eria":2035,"Ġhard":2036,"Ġpass":2037,"Ġgreek":2038,"Ġhigher":2039,"Ġcable":2040,"Ġbon":2041,"Ġdam":2042,"Ġspace":2043,"Ġask":2044,"Ġdidn":2045,"Ġphone":2046,"uff":2047,"Ġhead":2048,"els":2049,"Ġegg":2050,"Ġevil":2051,"Ġmum":2052,"Ġpho":2053,"Ġfantastic":2054,"fortun":2055,"aves":2056,"Ġpepper":2057,"Ġbarbecue":2058,"Ġosc":2059,"Ġsour":2060,"Ġbour":2061,"Ġroo":2062,"Ġmoon":2063,"Ġterrace":2064,"ms":2065,"Ġsale":2066,"lotte":2067,"Ġpric":2068,"Ġcharlotte":2069,"Ġsen":2070,"ages":2071,"Ġrelax":2072,"Ġcomple":2073,"Ġhampton":2074,"gant":2075,"ith":2076,"ki":2077,"ost":2078,"Ġpac":2079,"ett":2080,"Ġste":2081,"Ġtrack":2082,"Ġbars":2083,"Ġarriving":2084,"Ġspecial":2085,"22":2086,"wood":2087,"ince":2088,"Ġfight":2089,"Ġge":2090,"Ġmyster":2091,"Ġprob":2092,"Ġlounge":2093,"Ġcaptain":2094,"Ġryan":2095,"Ġbath":2096,"ord":2097,"vit":2098,"Ġchan":2099,"Ġgreen":2100,"Ġcott":2101,"Ġunfortun":2102,"Ġcontinental":2103,"Ġprobably":2104,"ji":2105,"Ġsept":2106,"Ġ22":2107,"Ġartists":2108,"ption":2109,"Ġleg":2110,"Ġcriteria":2111,"Ġelegant":2112,"Ġphoen":2113,"Ġmater":2114,"urns":2115,"ressing":2116,"Ġkids":2117,"Ġunfortunately":2118,"Ġphoenix":2119,"Ġmaterial":2120,"ys":2121,"Ġwind":2122,"Ġprop":2123,"Ġsplit":2124,"Ġcompl":2125,"Ġdrinks":2126,"Ġsalem":2127,"Ġwis":2128,"Ġma":2129,"amed":2130,"Ġsafe":2131,"udi":2132,"Ġyears":2133,"iar":2134,"Ġpay":2135,"Ġpork":2136,"Ġjames":2137,"Ġexact":2138,"Ġseating":2139,"Ġbro":2140,"Ġ26":2141,"ketch":2142,"Ġboss":2143,"ign":2144,"Ġpossib":2145,"body":2146,"Ġburgers":2147,"Ġinclud":2148,"ertain":2149,"Ġdriver":2150,"Ġpoint":2151,"Ġketch":2152,"aded":2153,"cons":2154,"Ġspot":2155,"ather":2156,"Ġfamiliar":2157,"Ġkitchens":2158,"Ġlinkin":2159,"Ġpasta":2160,"Ġketchup":2161,"Ġcup":2162,"Ġlas":2163,"Ġpleas":2164,"Ġhoping":2165,"Ġones":2166,"Ġsoon":2167,"Ġpools":2168,"Ġmedium":2169,"Ġjuly":2170,"Ġtac":2171,"Ġdan":2172,"ction":2173,"Ġever":2174,"beat":2175,"Ġpot":2176,"Ġdiet":2177,"Ġoffers":2178,"Ġaccess":2179,"iction":2180,"ps":2181,"Ġsun":2182,"Ġfem":2183,"Ġadded":2184,"Ġdistance":2185,"Ġcomplim":2186,"oc":2187,"Â´":2188,"Ġsch":2189,"Ġtypes":2190,"ips":2191,"Ġlodging":2192,"Ġhappy":2193,"Ġhanks":2194,"Ġcomplimentary":2195,"iest":2196,"Ġsat":2197,"ley":2198,"Ġpol":2199,"Ġfeatures":2200,"Ġmicrowaves":2201,"tyard":2202,"Ġwiscons":2203,"Ġwisconsin":2204,"ling":2205,"ugh":2206,"vin":2207,"Ġmc":2208,"Ġligh":2209,"Ġrelease":2210,"sol":2211,"Ġcourtyard":2212,"Ġfriendly":2213,"Ġdocumentary":2214,"Ġfemale":2215,"ole":2216,"Ġfif":2217,"Ġdressing":2218,"Ġchap":2219,"Ġemb":2220,"Ġquestion":2221,"Ġseptember":2222,"Ġflo":2223,"Ġcree":2224,"vide":2225,"gether":2226,"Ġtrad":2227,"Ġprovide":2228,"erty":2229,"Ġgarden":2230,"Ġoscar":2231,"Ġproperty":2232,"Ġpleasure":2233,"Ġchapter":2234,"Ġtogether":2235,"Ġupbeat":2236,"Ġsausage":2237,"Ġpossibly":2238,"Ġwhite":2239,"Ġra":2240,"Ġabsol":2241,"Ġdrive":2242,"Ġden":2243,"col":2244,"gon":2245,"Ġpg":2246,"ites":2247,"Ġsuggestions":2248,"Ġcinema":2249,"Ġoct":2250,"Ġwall":2251,"Ġft":2252,"Ġreal":2253,"eak":2254,"utely":2255,"Ġmoments":2256,"Ġjolla":2257,"Ġscience":2258,"Ġfantasy":2259,"Ġscore":2260,"Ġabsolutely":2261,"Ġmight":2262,"Ġlam":2263,"engers":2264,"als":2265,"Ġbowl":2266,"Ġearliest":2267,"Ġdramas":2268,"Ġcosts":2269,"ertino":2270,"umanji":2271,"Ġaust":2272,"Ġjumanji":2273,"Ġspider":2274,"\".":2275,"bur":2276,"Ġsele":2277,"Ġmur":2278,"Ġinst":2279,"Ġwife":2280,"Ġlettu":2281,"Ġcokes":2282,"que":2283,"nie":2284,"Ġintern":2285,"Ġbacon":2286,"Ġacc":2287,"Ġreleased":2288,"Ġcupertino":2289,"Ġlettuce":2290,"Ġom":2291,"Ġsite":2292,"Ġfiction":2293,"Ġwhirl":2294,"Ġstuff":2295,"Ġseen":2296,"ention":2297,"Ġchange":2298,"Ġend":2299,"Ġgroup":2300,"Ġchris":2301,"pic":2302,"Ġmax":2303,"Ġvill":2304,"Ġmush":2305,"Ġdecor":2306,"Ġhistor":2307,"friendly":2308,"graded":2309,"Ġcottages":2310,"Ġpotato":2311,"vel":2312,"Ġopen":2313,"Ġmix":2314,"Ġburns":2315,"Ġbeast":2316,"Ġresident":2317,"Ġunderst":2318,"Ġsquaw":2319,"Ġplanet":2320,"Ġpacific":2321,"Ġcreek":2322,"Ġmushroom":2323,"Ġmile":2324,"key":2325,"edd":2326,"Ġmeat":2327,"Ġalien":2328,"Ġupgraded":2329,"Ġbilly":2330,"Ġdamon":2331,"Ġmummy":2332,"xx":2333,"Ġmatt":2334,"Ġlond":2335,"Ġaustin":2336,"Ġlondon":2337,"23":2338,"sy":2339,"Ġass":2340,"Ġcrow":2341,"Ġmonday":2342,"Ġbudget":2343,"Ġrelaxed":2344,"su":2345,"ants":2346,"Ġonions":2347,"Ġplaces":2348,"Ġenough":2349,"Ġriver":2350,"Ġkingsman":2351,"Ġpeaks":2352,"Ġomni":2353,"27":2354,"reat":2355,"order":2356,"Ġbeachfront":2357,"Ġcars":2358,"Ġdescribe":2359,"Ġfurious":2360,"Ġson":2361,"thur":2362,"Ġchin":2363,"Ġfridges":2364,"Ġpreferred":2365,"Ġgetting":2366,"Ġpepperoni":2367,"Ġtraditional":2368,"Ġwhirlpool":2369,"light":2370,"sized":2371,"Ġfate":2372,"Ġmatch":2373,"Ġdream":2374,"lly":2375,"Ġtrain":2376,"azz":2377,"Ġfinal":2378,"Ġstream":2379,"Ġgyros":2380,"bed":2381,"ball":2382,"ka":2383,"ane":2384,"era":2385,"adventure":2386,"Ġacti":2387,"agn":2388,"Ġfried":2389,"Ġseni":2390,"iner":2391,"vember":2392,"Ġdavid":2393,"lin":2394,"ues":2395,"Ġnovember":2396,"Ġarthur":2397,"Ġagainst":2398,"ftop":2399,"Ġnorth":2400,"Ġrooftop":2401,"uth":2402,"Ġour":2403,"Ġtur":2404,"Ġfan":2405,"orge":2406,"Ġjones":2407,"Ġjazz":2408,"ester":2409,"Ġeyes":2410,"Ġent":2411,"assy":2412,"Ġfac":2413,"Ġfish":2414,"Ġcu":2415,"Ġstra":2416,"Ġstone":2417,"urday":2418,"Ġtrans":2419,"Ġcons":2420,"Ġlaund":2421,"fined":2422,"Ġbrown":2423,"Ġindian":2424,"Ġlaundry":2425,"cy":2426,"rated":2427,"unt":2428,"Ġfast":2429,"Ġgrill":2430,"alley":2431,"Ġbarb":2432,"Ġsofa":2433,"Ġpaid":2434,"Ġsaturday":2435,"Ġembassy":2436,"lif":2437,"ses":2438,"ang":2439,"Ġcame":2440,"Ġrece":2441,"Ġlogan":2442,"Ġcommer":2443,"Ġcage":2444,"issance":2445,"Ġteas":2446,"Ġjackson":2447,"Ġselect":2448,"Ġcommercial":2449,"ez":2450,"fo":2451,"ona":2452,"Ġrey":2453,"ational":2454,"Ġwatching":2455,"Ġvalley":2456,"naissance":2457,"Ġsandwiches":2458,"Ġsofas":2459,"Ġpeter":2460,"Ġmurder":2461,"400":2462,"fk":2463,"Ġtak":2464,"Ġmen":2465,"Ġmid":2466,"Ġlake":2467,"Ġjfk":2468,"ifr":2469,"Ġminifr":2470,"Ġunion":2471,"Ġdesks":2472,"Ġcrime":2473,"Ġfriends":2474,"ways":2475,"Ġid":2476,"Ġore":2477,"Ġmr":2478,"ility":2479,"Ġ50":2480,"Ġvis":2481,"Ġexactly":2482,"ober":2483,"ander":2484,"Ġtill":2485,"ating":2486,"Ġpit":2487,"Ġmoana":2488,"Ġstation":2489,"Ġcharl":2490,"Ġ29":2491,"Ġsher":2492,"Ġlocal":2493,"Ġuse":2494,"Ġsummit":2495,"Ġbelie":2496,"obo":2497,"pants":2498,"ram":2499,"Ġthor":2500,"Ġhand":2501,"Ġnamed":2502,"Ġwhy":2503,"Ġcol":2504,"Ġcolor":2505,"Ġmeets":2506,"Ġedge":2507,"Ġbelow":2508,"Ġranch":2509,"Ġoctober":2510,"Ġchinese":2511,"Ġoregon":2512,"sa":2513,"Ġmention":2514,"Ġlady":2515,"oot":2516,"ili":2517,"Ġjour":2518,"imum":2519,"ada":2520,"Ġstarts":2521,"Ġmars":2522,"Ġimp":2523,"Ġunderpants":2524,"Ġpassengers":2525,"Ġbonobo":2526,"Ġfifth":2527,"Ġunderstand":2528,"Ġcry":2529,"Ġcertain":2530,"Ġlow":2531,"Ġglo":2532,"Ġdoing":2533,"Ġjason":2534,"Ġmarket":2535,"ford":2536,"Ġquarters":2537,"coming":2538,"Ġbeauty":2539,"Ġminifridges":2540,"hour":2541,"led":2542,"vd":2543,"Ġtit":2544,"Ġyet":2545,"Ġcam":2546,"Ġpad":2547,"Ġamerica":2548,"Ġserving":2549,"Ġmoonlight":2550,"Ġbarbara":2551,"bar":2552,"cas":2553,"cent":2554,"iel":2555,"ient":2556,"aton":2557,"Ġmill":2558,"Ġpower":2559,"chester":2560,"Ġvo":2561,"Ġsalt":2562,"Ġrib":2563,"Ġrenaissance":2564,"allica":2565,"Ġrequests":2566,"Ġgeorge":2567,"ved":2568,"Ġsav":2569,"Ġfore":2570,"Ġlate":2571,"Ġbrit":2572,"icy":2573,"Ġsea":2574,"Ġheart":2575,"Ġtubs":2576,"Ġmetallica":2577,"Ġmexican":2578,"Ġlight":2579,"gin":2580,"Ġtree":2581,"Ġsam":2582,"Ġfre":2583,"Ġlub":2584,"ena":2585,"Ġonce":2586,"enty":2587,"Ġchips":2588,"Ġchili":2589,"Ġshows":2590,"ensive":2591,"iami":2592,"vities":2593,"Ġwindow":2594,"Ġactivities":2595,"pm":2596,"Ġwood":2597,"Ġgame":2598,"ences":2599,"Ġstate":2600,"Ġeat":2601,"Ġkill":2602,"oph":2603,"Ġstarting":2604,"uno":2605,"Ġxxx":2606,"Ġanimated":2607,"Ġcomplete":2608,"ple":2609,"Ġes":2610,"Ġsus":2611,"Ġwin":2612,"Ġparty":2613,"bock":2614,"Ġxander":2615,"Ġflying":2616,"Ġmystery":2617,"Ġjourney":2618,"Ġlubbock":2619,"ler":2620,"ming":2621,"rise":2622,"Ġmiami":2623,"Ġdish":2624,"Ġnood":2625,"Ġordered":2626,"berg":2627,"Ġhighly":2628,"Ġlayovers":2629,"Ġrunner":2630,"rics":2631,"house":2632,"uck":2633,"ank":2634,"orn":2635,"Ġseems":2636,"unk":2637,"Ġpeps":2638,"Ġoffered":2639,"Ġcape":2640,"Ġsuggestion":2641,"Ġmission":2642,"Ġpricing":2643,"Ġlegend":2644,"28":2645,"bon":2646,"watch":2647,"istic":2648,"Ġsix":2649,"Ġled":2650,"Ġcomfort":2651,"Ġstraight":2652,"vis":2653,"zz":2654,"Ġant":2655,"erve":2656,"Ġrob":2657,"Ġordering":2658,"Ġcoach":2659,"Ġothers":2660,"Ġposh":2661,"Ġbruno":2662,"vention":2663,"Ġexpensive":2664,"Ġlux":2665,"Ġdeparture":2666,"Ġchann":2667,"Ġsheraton":2668,"24":2669,"olog":2670,"sp":2671,"Ġsom":2672,"Ġtown":2673,"Ġhill":2674,"bridge":2675,"Ġcourt":2676,"Ġcru":2677,"Ġwalking":2678,"Ġcountry":2679,"Ġsouth":2680,"Ġaudi":2681,"Ġslo":2682,"Ġpan":2683,"Ġport":2684,"Ġdest":2685,"Ġrough":2686,"Ġbey":2687,"Ġsteak":2688,"Ġseven":2689,"Âłh":2690,"Âłi":2691,"Ġapes":2692,"Ġcream":2693,"Ġrolls":2694,"Ġbathroom":2695,"Ġseniors":2696,"asis":2697,"Ġmem":2698,"ellow":2699,"Ġtiming":2700,"Ġlost":2701,"Ġsingle":2702,"Ġhistory":2703,"ike":2704,"Ġoasis":2705,"Ġsit":2706,"Ġsides":2707,"ret":2708,"Ġbb":2709,"Ġbeing":2710,"Ġjac":2711,"Ġroy":2712,"Ġstaybridge":2713,"Ġaward":2714,"Ġempire":2715,"venant":2716,"oney":2717,"Ġbuild":2718,"Ġtech":2719,"Ġbeatles":2720,"Ġpepsi":2721,"any":2722,"Ġown":2723,"Ġber":2724,"Ġduring":2725,"Ġliter":2726,"ung":2727,"class":2728,"Ġari":2729,"Ġhea":2730,"Ġmach":2731,"elle":2732,"Ġcondo":2733,"Ġpolit":2734,"Ġapart":2735,"Ġblade":2736,"Ġburger":2737,"Ġchannels":2738,"gen":2739,"wor":2740,"Ġteen":2741,"Ġiced":2742,"Ġpsy":2743,"Ġwild":2744,"Ġrefined":2745,"Ġplenty":2746,"irk":2747,"Ġquite":2748,"Ġrental":2749,"Ġbaywatch":2750,"Ġbrows":2751,"Ġnominated":2752,"Ġdiscover":2753,"res":2754,"Ġfair":2755,"onna":2756,"Ġseason":2757,"Ġshall":2758,"Ġprem":2759,"Ġpoke":2760,"Ġcarol":2761,"Ġnone":2762,"Ġsalsa":2763,"Ġcreed":2764,"Ġlodge":2765,"Ġreservation":2766,"Ġsleep":2767,"Ġvoice":2768,"Ġribs":2769,"Ġbbq":2770,"ral":2771,"ush":2772,"Ġsil":2773,"omen":2774,"idence":2775,"ference":2776,"Ġarch":2777,"Ġ31":2778,"Ġsaying":2779,"Ġgrande":2780,"Ġbourne":2781,"Ġlasag":2782,"Ġaudience":2783,"Ġpsych":2784,"26":2785,"Ġrad":2786,"Ġrochester":2787,"Ġdeal":2788,"Ġbottle":2789,"igner":2790,"Ġbuff":2791,"Ġmonth":2792,"Ġdinner":2793,"Ġglobe":2794,"ris":2795,"rict":2796,"Ġgi":2797,"Ġgun":2798,"stream":2799,"Ġsub":2800,"Ġheated":2801,"Âłthe":2802,"Ġconference":2803,"Ġanimation":2804,"Ġcrows":2805,"Ġmentioned":2806,"Ġcarolina":2807,"uard":2808,"vo":2809,"Ġhur":2810,"Ġsir":2811,"Ġsac":2812,"Ġpie":2813,"Ġisn":2814,"itz":2815,"Ġstyl":2816,"Ġgoes":2817,"Ġkab":2818,"Ġcrepe":2819,"fridge":2820,"Ġbeautif":2821,"Ġtours":2822,"Ġinternational":2823,"ique":2824,"Ġly":2825,"Ġbout":2826,"arok":2827,"Ġragn":2828,"Ġcann":2829,"Ġstops":2830,"ctor":2831,"imp":2832,"Ġpres":2833,"Ġspicy":2834,"Ġconvention":2835,"Ġmuse":2836,"Ġbob":2837,"stars":2838,"Ġworking":2839,"Ġmonster":2840,"Ġmainstream":2841,"Ġrecei":2842,"Ġragnarok":2843,"29":2844,"fic":2845,"ron":2846,"sling":2847,"uki":2848,"Ġitiner":2849,"stal":2850,"irls":2851,"Ġ2016":2852,"Ġexerc":2853,"Ġlatin":2854,"Ġearlier":2855,"Ġnominations":2856,"Ġbeautiful":2857,"Ġitinerary":2858,"%,":2859,"old":2860,"Ġsara":2861,"Ġsoph":2862,"Ġgh":2863,"Ġgirls":2864,"Ġdies":2865,"Ġhelping":2866,"Ġplat":2867,"Ġgod":2868,"Ġsomebody":2869,"Ġgreatest":2870,"Ġjustice":2871,"ult":2872,"Ġlee":2873,"Ġresidence":2874,"Ġsending":2875,"Ġsmith":2876,"Ġsundance":2877,"Ġfunny":2878,"Ġremember":2879,"Ġcounting":2880,"Ġreservations":2881,"Ġbourbon":2882,"Ġbelieve":2883,"80":2884,"ape":2885,"ied":2886,"Ġtal":2887,"Ġturn":2888,"Ġthur":2889,"Ġcast":2890,"Ġcatch":2891,"Ġnick":2892,"Ġrich":2893,"stic":2894,"Ġgosling":2895,"Ġchedd":2896,"Ġ100":2897,"Ġeng":2898,"Ġcovenant":2899,"Ġbridge":2900,"Ġsunny":2901,"Ġlamb":2902,"Ġslopes":2903,"Ġkabuki":2904,"Ġexercise":2905,"Ġcheddar":2906,"37":2907,"ynd":2908,"Ġthreat":2909,"Ġwale":2910,"Ġfet":2911,"Ġmac":2912,"Ġmag":2913,"Ġorland":2914,"ento":2915,"Ġuplif":2916,"Ġapolog":2917,"Ġlocations":2918,"Ġlucas":2919,"Ġfireplaces":2920,"Ġcritics":2921,"Ġdescription":2922,"Ġpati":2923,"Ġsurvi":2924,"Ġmatter":2925,"Ġturkey":2926,"Ġcrystal":2927,"Ġuplifting":2928,"Ġtri":2929,"Ġbattle":2930,"Ġnir":2931,"Ġhowever":2932,"Ġstud":2933,"Ġjoy":2934,"Ġcoll":2935,"Ġdeep":2936,"acam":2937,"Ġ93":2938,"Ġhomecoming":2939,"Ġgener":2940,"Ġtransform":2941,"Ġlasagna":2942,"Ġstylish":2943,"Ġorlando":2944,"gest":2945,"mas":2946,"nes":2947,"ru":2948,"rid":2949,"vana":2950,"ister":2951,"Ġtheat":2952,"eld":2953,"Ġisland":2954,"Ġinc":2955,"ilities":2956,"Ġaren":2957,"Ġrose":2958,"Ġwanting":2959,"Ġlover":2960,"Ġguacam":2961,"time":2962,"Ġcourts":2963,"Ġfavorites":2964,"Ġharmon":2965,"Ġveget":2966,"Ġsteven":2967,"ramento":2968,"Ġsacramento":2969,"Ġguacamole":2970,"60":2971,"less":2972,"mal":2973,"sday":2974,"tree":2975,"vely":2976,"water":2977,"Ġsally":2978,"Ġwine":2979,"Ġmer":2980,"Ġben":2981,"Ġanywhere":2982,"Ġeast":2983,"Ġshr":2984,"Ġuc":2985,"aked":2986,"Ġboston":2987,"bert":2988,"iana":2989,"Ġswim":2990,"Ġharry":2991,"Ġstrange":2992,"Ġbrownie":2993,"ughter":2994,"Ġsaving":2995,".?":2996,"car":2997,"erman":2998,"Ġice":2999,"Ġsince":3000,"edi":3001,"Ġmot":3002,"Ġsuch":3003,"Ġhip":3004,"Ġshop":3005,"ckt":3006,"pect":3007,"Ġcond":3008,"Ġexper":3009,"Ġdoubletree":3010,"Ġpaul":3011,"Ġchristmas":3012,"suite":3013,"Ġvisit":3014,"back":3015,"ham":3016,"anna":3017,"Ġgarl":3018,"ghett":3019,"Ġwithout":3020,"Ġshad":3021,"Ġenjoyed":3022,"Ġnewest":3023,"Ġweb":3024,"ains":3025,"forward":3026,"Ġcreation":3027,"Ġzoo":3028,"Ġrelish":3029,"Ġdistrict":3030,"Ġpolice":3031,"Ġsomet":3032,"Ġbeyond":3033,"Ġmachine":3034,"ghetti":3035,"75":3036,"ik":3037,"zel":3038,"Ġtre":3039,"ouch":3040,"Ġpant":3041,"Ġhaving":3042,"Ġorig":3043,"Ġplays":3044,"Ġprince":3045,"Ġcockt":3046,"Ġvia":3047,"Ġlistening":3048,"Ġspaghetti":3049,"Ġcruise":3050,"Ġbathrooms":3051,"Ġboutique":3052,"Ġmuseum":3053,"Ġharmony":3054,"vale":3055,"Ġcle":3056,"Ġcate":3057,"Ġdvd":3058,"Ġridge":3059,"Ġallow":3060,"Ġprin":3061,"Ġcold":3062,"ume":3063,"Ġadele":3064,"Ġleague":3065,"Ġmadrid":3066,"Ġoffic":3067,"Ġrecently":3068,"Ġfurther":3069,"Ġschool":3070,"Ġdenver":3071,"Ġstraightforward":3072,"world":3073,"Ġlyrics":3074,"Ġsunnyvale":3075,"Ġgarlic":3076,"Ġorigin":3077,"can":3078,"pod":3079,"Ġipod":3080,"Ġonion":3081,"Ġread":3082,"Ġjam":3083,"Ġcolle":3084,"Ġcomm":3085,"Ġknight":3086,"Ġdeath":3087,"acks":3088,"Ġfinally":3089,"Ġcloser":3090,"Ġdecide":3091,"Ġbowie":3092,"Ġmexico":3093,"Ġincluded":3094,"Ġtaco":3095,"Ġinstead":3096,"unkirk":3097,"isticated":3098,"Ġbuilding":3099,"Ġthursday":3100,"Ġshrimp":3101,"Ġcateg":3102,"rop":3103,"tin":3104,"wer":3105,"Ġwent":3106,"Ġwomen":3107,"Ġface":3108,"Ġdunkirk":3109,"Ġstick":3110,"Ġjim":3111,"Ġfinds":3112,"Ġvin":3113,"Ġdrake":3114,"ross":3115,"Ġprovid":3116,"Ġfits":3117,"pped":3118,"rence":3119,"Ġcasa":3120,"Ġsecret":3121,"Ġhistoric":3122,"Ġbritish":3123,"Ġbrowsing":3124,"Ġsophisticated":3125,"Ġtransformers":3126,"ga":3127,"uel":3128,"zy":3129,"ative":3130,"Ġlives":3131,"Ġdocks":3132,"Ġatl":3133,"Ġsomeone":3134,"Ġadam":3135,"Ġvir":3136,"acy":3137,"Ġ90":3138,"Ġpost":3139,"Ġfrank":3140,"Ġjoel":3141,"Ġsimple":3142,"Ġblue":3143,"Ġoceanfront":3144,"Ġcheesebur":3145,"actress":3146,"Ġfacilities":3147,"Ġguns":3148,"90":3149,"cc":3150,"lt":3151,"mes":3152,"men":3153,"ux":3154,"ining":3155,"ilt":3156,"ilad":3157,"Ġeater":3158,"Ġevent":3159,"Ġwilliam":3160,"Ġcovers":3161,"Ġlax":3162,"Ġreserve":3163,"Ġfrance":3164,"Ġjungle":3165,"enny":3166,"Ġjohnson":3167,"Ġedward":3168,"Ġghost":3169,"Ġpatios":3170,"Ġnirvana":3171,"33":3172,"jo":3173,"vol":3174,"Ġhon":3175,"Ġfut":3176,"Ġfather":3177,"ony":3178,"Ġinfo":3179,"Ġritz":3180,"ily":3181,"Ġjedi":3182,"Ġroses":3183,"Ġalas":3184,"aster":3185,"Ġspir":3186,"Ġmarble":3187,"emy":3188,"Ġdesigner":3189,"Ġcrown":3190,"Ġhimself":3191,"Ġbiggest":3192,"Ġstrong":3193,"pense":3194,"logy":3195,"bedroom":3196,"Ġsuspense":3197,"Ġtechno":3198,"bers":3199,"more":3200,"Ġci":3201,"Ġpas":3202,"esar":3203,"Ġwhatever":3204,"Ġalways":3205,"une":3206,"Ġbutter":3207,"159":3208,"Ġimag":3209,"Ġlistened":3210,"Ġwaiting":3211,"Ġsnatch":3212,"ettes":3213,"Ġhistorical":3214,"Ġcuis":3215,"Ġbuffet":3216,"Ġswimming":3217,"'.":3218,"ha":3219,"oon":3220,"pend":3221,"Ġver":3222,"Ġsort":3223,"ready":3224,"Ġbright":3225,"Ġram":3226,"Ġrap":3227,"Ġalready":3228,"Ġshack":3229,"Ġjustin":3230,"Ġcoco":3231,"Ġlocate":3232,"Ġadditional":3233,"Ġunderworld":3234,"Ġbrad":3235,"Ġamazing":3236,"Ġdaughter":3237,"Ġgardens":3238,"Ġreleases":3239,"Ġkitchenettes":3240,"Ġboys":3241,"Ġasking":3242,"Ġpriced":3243,"Ġpolished":3244,"Ġdenzel":3245,"Ġvillage":3246,"Ġassass":3247,"Ġroyal":3248,"Ġdiesel":3249,"Ġalaska":3250,"Ġtechnology":3251,".\"":3252,"Ġsized":3253,"refrigerator":3254,"Ġpow":3255,"Ġpub":3256,"Ġseth":3257,"Ġdem":3258,"Ġfee":3259,"Ġemma":3260,"Ġwhole":3261,"Ġcafe":3262,"Ġlouisiana":3263,"Ġperformed":3264,"Ġluck":3265,"Ġrunning":3266,"Ġeyez":3267,"pired":3268,"ocado":3269,"Ġpolitical":3270,"Ġtheatre":3271,"Ġcuisine":3272,"46":3273,"du":3274,"line":3275,"mare":3276,"Ġhunt":3277,"Ġsy":3278,"Ġpier":3279,"Ġban":3280,"Ġbell":3281,"Ġdance":3282,"enue":3283,"Ġforward":3284,"ics":3285,"ala":3286,"aly":3287,"lock":3288,"Ġshort":3289,"Ġnightmare":3290,"Ġminimum":3291,"Âłs":3292,"Ġcurry":3293,"Ġjohnny":3294,"Ġsky":3295,"Ġvillas":3296,"Ġselecting":3297,"Ġcondos":3298,"Ġjoyner":3299,"Ġcocktail":3300,"Ġprincess":3301,"Ġvirgin":3302,"oustic":3303,"Ġfle":3304,"Ġmass":3305,"Ġins":3306,"Ġrace":3307,"Ġrogen":3308,"Ġlob":3309,"Ġ70":3310,"Ġlaw":3311,"Ġguys":3312,"place":3313,"Ġjob":3314,"Ġcaesar":3315,"Ġhero":3316,"Ġbuble":3317,"away":3318,"Ġchico":3319,"Ġearth":3320,"Ġdarkest":3321,"Ġteam":3322,"Ġincluding":3323,"Ġfloor":3324,"Ġpitt":3325,"Ġpremium":3326,"Ġpanther":3327,"hip":3328,"mos":3329,"uzz":3330,"ying":3331,"ango":3332,"Ġoper":3333,"Ġball":3334,"Ġdj":3335,"Ġint":3336,"Ġwhe":3337,"Ġrise":3338,"Ġorange":3339,"Ġdoll":3340,"Ġroad":3341,"Ġell":3342,"Ġspiel":3343,"Ġ42":3344,"ump":3345,"Ġmarvel":3346,"Âłm":3347,"arent":3348,"Ġpickles":3349,"Ġdifferences":3350,"Ġlear":3351,"Ġsave":3352,"fried":3353,"Ġpeppers":3354,"Ġsnacks":3355,"igned":3356,"Ġmeatball":3357,"Ġconsider":3358,"Ġcharlie":3359,"Ġtitle":3360,"Ġcannot":3361,"Ġapologize":3362,"Ġcondition":3363,"Ġfuture":3364,"des":3365,"reon":3366,"Ġpitch":3367,"Ġdew":3368,"omic":3369,"Ġhall":3370,"Ġbean":3371,"Ġdoctor":3372,"ents":3373,"Ġjen":3374,"Ġ40":3375,"Ġmark":3376,"Âłit":3377,"Ġbody":3378,"Ġexce":3379,"Ġwarm":3380,"Ġcheaper":3381,"Ġpulled":3382,"ommod":3383,"Ġhits":3384,"Ġmysterious":3385,"Ġaccommod":3386,"Ġhandful":3387,"Ġcategory":3388,"Ġspielberg":3389,"ible":3390,"ucks":3391,"vy":3392,"anu":3393,"inch":3394,"Ġmall":3395,"Ġline":3396,"Ġpin":3397,"Ġdyl":3398,"thouse":3399,"Ġhost":3400,"Ġstore":3401,"Ġatmos":3402,"Ġepic":3403,"Ġshape":3404,"Ġshowman":3405,"Ġbarry":3406,"Ġquin":3407,"Ġ80":3408,"Ġcap":3409,"Ġacoustic":3410,"Ġmetreon":3411,"Ġgirlfriend":3412,"Ġdylan":3413,"Ġatmosph":3414,"bor":3415,"work":3416,"zona":3417,"Ġdur":3418,"oma":3419,"Ġnat":3420,"Ġforgo":3421,"Ġhaw":3422,"Ġhelpful":3423,"Ġfront":3424,"Ġkra":3425,"Ġ47":3426,"ully":3427,"Ġblood":3428,"Ġmaking":3429,"Ġmakers":3430,"Ġdeadpool":3431,"Ġdreams":3432,"Ġtakes":3433,"Ġjacuzz":3434,"Ġarizona":3435,"Ġsometime":3436,"Ġlobby":3437,"$.":3438,"me":3439,"Ġ.":3440,"Ġob":3441,"Ġwed":3442,"Ġmoney":3443,"Ġpil":3444,"Ġstudi":3445,"Ġorient":3446,"Ġanyone":3447,"Ġkiss":3448,"amo":3449,"Ġspan":3450,"Ġspell":3451,"Ġmult":3452,"play":3453,"illa":3454,"Ġlimits":3455,"aps":3456,"197":3457,"Ġdiscovers":3458,"Ġmaj":3459,"Ġplatter":3460,"47":3461,"fre":3462,"rick":3463,"ination":3464,"rest":3465,"Ġpian":3466,"Ġpict":3467,"Ġbaked":3468,"Ġdu":3469,"Ġmother":3470,"Ġbeg":3471,"ital":3472,"Ġplayed":3473,"Ġsol":3474,"Âłis":3475,"agon":3476,"ables":3477,"nect":3478,"Ġfeeling":3479,"Ġslow":3480,"Ġsnow":3481,"Ġassistance":3482,"Ġheads":3483,"Ġsnatched":3484,"Ġquinta":3485,"Ġstudios":3486,"600":3487,"carl":3488,"da":3489,"eves":3490,"king":3491,"rist":3492,"ray":3493,"Ġhum":3494,"Ġmas":3495,"Ġmail":3496,"Ġbird":3497,"Ġrh":3498,"Ġreeves":3499,"ality":3500,"Ġanytime":3501,"Ġequ":3502,"opher":3503,"Ġrather":3504,"aking":3505,"Ġfounder":3506,"Âłth":3507,"izes":3508,"Ġdifference":3509,"Ġjoe":3510,"Ġkevin":3511,"what":3512,"Ġfeels":3513,"Ġpurchased":3514,"Ġremind":3515,"Ġslower":3516,"Ġstreaming":3517,"Ġnoodle":3518,"Ġgeneral":3519,"carlton":3520,"39":3521,"rin":3522,"eran":3523,"Ġale":3524,"Ġhen":3525,"Ġyo":3526,"Ġyellow":3527,"arf":3528,"Ġwhit":3529,"ows":3530,"Ġstor":3531,"Ġalamo":3532,"vern":3533,"thern":3534,"aki":3535,"Ġparmes":3536,"Ġ2049":3537,"Ġcentral":3538,"Ġbott":3539,"Ġboard":3540,"Ġspecifically":3541,"Ġdespic":3542,"Ġmonica":3543,"Ġze":3544,"fridges":3545,"Ġterri":3546,"Ġsinger":3547,"Ġhappen":3548,"Ġrolling":3549,"Ġattra":3550,"Ġdecorated":3551,"Ġsitting":3552,"Ġlearn":3553,"Ġjacuzzi":3554,"Ġparmesan":3555,"Ġdespicable":3556,"38":3557,"bl":3558,"cing":3559,"ex":3560,"va":3561,"Ã©":3562,"Ġsq":3563,"Ġwrit":3564,"Ġfurn":3565,"ency":3566,"Ġlibr":3567,"Ġrings":3568,"Ġbee":3569,"Ġeur":3570,"loss":3571,"ution":3572,"Ġcoast":3573,"Ġcoloss":3574,"aven":3575,"Ġclam":3576,"osed":3577,"Ġalbums":3578,"Ġserves":3579,"awn":3580,"Ġkeanu":3581,"Ġdelight":3582,"Ġcomplet":3583,"Ġmaximum":3584,"Ġpowerful":3585,"Ġmagic":3586,"Ġatmosphere":3587,"350":3588,"800":3589,"bell":3590,"count":3591,"ged":3592,"guard":3593,"look":3594,"ob":3595,"off":3596,"py":3597,"Ġer":3598,"Ġtam":3599,"Ġtues":3600,"Ġthous":3601,"Ġaver":3602,"uss":3603,"Ġhuman":3604,"Ġcure":3605,"Ġcab":3606,"Ġrust":3607,"Ġhacks":3608,"Ġreach":3609,"ries":3610,"Ġpratt":3611,"Ġoutside":3612,"Ġavenue":3613,"Âłw":3614,"aint":3615,"ability":3616,"ppel":3617,"Ġmakes":3618,"Ġsheeran":3619,"Ġchristopher":3620,"Ġinternet":3621,"Ġseaf":3622,"Ġwoods":3623,"Ġnoodles":3624,"Ġawards":3625,"Ġberlin":3626,"Ġradio":3627,"Ġbanks":3628,"Ġbegins":3629,"Ġlibrary":3630,"Ġcolossal":3631,"Ġtuesday":3632,"Ġthousand":3633,"Ġhacksaw":3634,"58":3635,"aim":3636,"bilt":3637,"clock":3638,"iet":3639,"oor":3640,"Ġ?":3641,"Ġage":3642,"ists":3643,"Ġop":3644,"Ġsail":3645,"Ġfact":3646,"Ġfoot":3647,"Ġmale":3648,"Ġcard":3649,"Ġlin":3650,"Ġbri":3651,"Ġformer":3652,"Ġlil":3653,"edy":3654,"Ġju":3655,"Ġchance":3656,"Ġalm":3657,"Ġcoca":3658,"Ġtra":3659,"Ġgets":3660,"achel":3661,"Ġlisted":3662,"olis":3663,"Ġregency":3664,"tact":3665,"Ġdesert":3666,"Ġsouthern":3667,"Ġdanger":3668,"Ġcolorado":3669,"Ġseasons":3670,"Ġspirit":3671,"Ġassassin":3672,"Ġmeatballs":3673,"Ġzeppel":3674,"Ġzeppelin":3675,"af":3676,"dle":3677,"law":3678,"ped":3679,"Ġ0":3680,"Ġtemp":3681,"usion":3682,"Ġsister":3683,"Ġcash":3684,"Ġbag":3685,"Ġwharf":3686,"Ġjet":3687,"ended":3688,"Ġcontact":3689,"Ġvud":3690,"aining":3691,"Ġmusical":3692,"ryan":3693,"Ġappe":3694,"Ġblink":3695,"Ġwestin":3696,"Ġrelations":3697,"182":3698,"inspired":3699,"Ġtacoma":3700,"Ġdishes":3701,"nesday":3702,"designed":3703,"Ġwednesday":3704,"fredo":3705,"Ġseafood":3706,"di":3707,"fully":3708,"gar":3709,"haps":3710,"la":3711,"pa":3712,"rite":3713,"tr":3714,"Ġ,":3715,"Ġtouch":3716,"ery":3717,"Ġaer":3718,"Ġaud":3719,"Ġill":3720,"Ġfand":3721,"Ġbould":3722,"Ġdave":3723,"Ġhop":3724,"Ġfort":3725,"Ġforces":3726,"Ġmolly":3727,"Ġchow":3728,"Ġalfredo":3729,"Ġperhaps":3730,"adena":3731,"ope":3732,"ify":3733,"Ġcole":3734,"Ġcomic":3735,"inee":3736,"Ġmarri":3737,"Ġkno":3738,"Ġclar":3739,"izing":3740,"Ġviewing":3741,"Ġdirections":3742,"Ġ197":3743,"179":3744,"cape":3745,"Ġscott":3746,"Ġident":3747,"Ġluxury":3748,"Ġsilver":3749,"Ġwebsite":3750,"Ġpasadena":3751,"Ġaverage":3752,"Ġvudu":3753,"Ġrelationship":3754,"Ġboulder":3755,"ae":3756,"bit":3757,"fs":3758,"iki":3759,"mark":3760,"rison":3761,"uer":3762,"Ġtand":3763,"Ġwet":3764,"Ġtower":3765,"Ġgro":3766,"Ġgift":3767,"Ġgang":3768,"Ġforget":3769,"iling":3770,"Ġsupp":3771,"ders":3772,"Ġ200":3773,"Ġalamed":3774,"Ġknown":3775,"orts":3776,"Ġmanh":3777,"Ġfeb":3778,"cover":3779,"Ġleft":3780,"Ġguardian":3781,"riots":3782,"Ġword":3783,"Ġblock":3784,"Ġvander":3785,"Ġcompany":3786,"Ġthought":3787,"Ġvolume":3788,"Ġpatriots":3789,"Ġsoul":3790,"Ġsleek":3791,"vitz":3792,"Ġentertain":3793,"Ġfaster":3794,"Ġforest":3795,"Ġteenage":3796,"Ġpsycho":3797,"Ġofficial":3798,"Ġoriginal":3799,"Ġcheeseburger":3800,"Ġwilliams":3801,"Ġkravitz":3802,"Ġtandoor":3803,"Ġalameda":3804,"59":3805,"book":3806,"dam":3807,"epl":3808,"Ġten":3809,"Ġfoo":3810,"Ġcra":3811,"Ġbes":3812,"Ġgar":3813,"aries":3814,"Ġlif":3815,"Ġlift":3816,"ali":3817,"Ġnecess":3818,"Ġstates":3819,"Ġkung":3820,"Ġtimber":3821,"Ġ92":3822,"empt":3823,"Ġswiss":3824,"Ġused":3825,"Ġcasino":3826,"hero":3827,"Ġbrother":3828,"Ġfisherman":3829,"Ġidea":3830,"Ġcharles":3831,"vision":3832,"Ġportland":3833,"Ġreceipt":3834,"Ġshades":3835,"Ġhonor":3836,"Ġduran":3837,"Ġvanderbilt":3838,"Ġtandoori":3839,"epless":3840,"ba":3841,"bre":3842,"gy":3843,"head":3844,"lson":3845,"town":3846,"zen":3847,"Ġhu":3848,"ati":3849,"Ġcop":3850,"Ġparent":3851,"Ġbare":3852,"onde":3853,"Ġforced":3854,"Ġrain":3855,"Ġmod":3856,"Ġrefried":3857,"Ġstep":3858,"Ġstones":3859,"ama":3860,"Ġsold":3861,"Ġspy":3862,"Ġtrucks":3863,"Ġgetaway":3864,"Ġvilla":3865,"Ġguy":3866,"field":3867,"Ġworkout":3868,"Ġblonde":3869,"Ġglass":3870,"Ġtalking":3871,"Ġzac":3872,"Ġsuperhero":3873,"Ġkingsmen":3874,"Ġsleepless":3875,"Ġtaking":3876,"Ġescape":3877,"Ġmembers":3878,"Ġhurt":3879,"Ġcommun":3880,"Ġeatery":3881,"Ġalmost":3882,"48":3883,"95":3884,"band":3885,"kn":3886,"pon":3887,"van":3888,"Ġest":3889,"Ġtele":3890,"Ġave":3891,"Ġhd":3892,"Ġsia":3893,"Ġwat":3894,"Ġling":3895,"Ġann":3896,"Ġtony":3897,"arian":3898,"Ġreason":3899,"Ġmegan":3900,"Ġbegin":3901,"sters":3902,"Ġjon":3903,"urb":3904,"Ġprom":3905,"Ġarmy":3906,"Ġench":3907,"Ġhash":3908,"Ġwasn":3909,"Ġmaroon":3910,"Ġdevil":3911,"Ġguit":3912,"tage":3913,"Ġservices":3914,"Ġusing":3915,"Ġsmur":3916,"Ġthrillers":3917,"iple":3918,"Ġmetro":3919,"Ġusers":3920,"Ġpizzas":3921,"Ġedison":3922,"sterdam":3923,"Ġdeadly":3924,"okay":3925,"Ġbedrooms":3926,"Ġmountainside":3927,"Ġsons":3928,"Ġcolorful":3929,"Ġcertainly":3930,"Ġfettu":3931,"Ġvegetable":3932,"Ġmultiple":3933,"Ġpicture":3934,"Ġmasala":3935,"Ġterrific":3936,"direct":3937,"149":3938,"42":3939,"kins":3940,"rong":3941,"rum":3942,"Ġtus":3943,"istro":3944,"usband":3945,"Ġhusband":3946,"Ġsad":3947,"Ġwedd":3948,"Ġfist":3949,"Ġbir":3950,"Ġborn":3951,"Ġgary":3952,"omb":3953,"Ġonline":3954,"Ġitself":3955,"Ġwhose":3956,"Ġbecome":3957,"Ġgovern":3958,"ctions":3959,"Ġshell":3960,"elly":3961,"byrin":3962,"Ġcoles":3963,"Ġtruth":3964,"akes":3965,"Ġavailability":3966,"Ġperfectly":3967,"Ġmanil":3968,"Ġlabyrin":3969,"ained":3970,"Ġquick":3971,"Ġdiana":3972,"Ġblues":3973,"Ġcourses":3974,"Ġparticularly":3975,"Ġregard":3976,"Ġbris":3977,"Ġdowns":3978,"129":3979,"Ġdelux":3980,"Ġcase":3981,"Ġveg":3982,"Ġstarted":3983,"Ġbrings":3984,"Ġapartments":3985,"Ġedwardes":3986,"Ġcivil":3987,"Ġfandango":3988,"director":3989,"Ġcoleslaw":3990,"Ġlabyrinth":3991,"Ġdeluxe":3992,"145":3993,"ience":3994,"lake":3995,"lie":3996,"win":3997,"yon":3998,"Ġself":3999,"Ġwynd":4000,"atic":4001,"Ġfu":4002,"Ġfare":4003,"Ġmel":4004,"Ġlord":4005,"Ġans":4006,"Ġtold":4007,"Ġdating":4008,"Ġholly":4009,"Ġform":4010,"Ġlion":4011,"Ġinv":4012,"Ġcanyon":4013,"Ġreorder":4014,"Ġanymore":4015,"Ġjay":4016,"Ġchill":4017,"Ġrobert":4018,"Ġshops":4019,"elling":4020,"cker":4021,"Ġspeak":4022,"Ġval":4023,"Ġvict":4024,"Ġquality":4025,"Ġ85":4026,"Ġairways":4027,"Ġunable":4028,"Ġmilk":4029,"Ġpalace":4030,"oli":4031,"Ġsword":4032,"Ġserved":4033,"Ġwarri":4034,"Ġcraz":4035,"Ġblocks":4036,"Ġseries":4037,"Ġmumford":4038,"Ġbroc":4039,"Ġlamar":4040,"Ġcolon":4041,"center":4042,"Ġfreed":4043,"Ġcollege":4044,"Ġatlanta":4045,"ccine":4046,"Ġmajor":4047,"Ġrustic":4048,"Ġfettuccine":4049,"Ġwedding":4050,"Ġmanilow":4051,"Ġvictor":4052,"36":4053,"ded":4054,"Ġast":4055,"ism":4056,"Ġiron":4057,"Ġwes":4058,"Ġcook":4059,"Ġlenny":4060,"Ġgad":4061,"ari":4062,"aring":4063,"icked":4064,"Ġmove":4065,"ito":4066,"its":4067,"Ġplot":4068,"Ġches":4069,"Ġelm":4070,"Ġkate":4071,"Ġamy":4072,"Ġamong":4073,"Ġamsterdam":4074,"eway":4075,"Ġasked":4076,"Ġmartin":4077,"Ġconc":4078,"Ġeminem":4079,"Ġlemon":4080,"aga":4081,"Ġblvd":4082,"Ġchocol":4083,"Ġagree":4084,"Ġweeks":4085,"139":4086,"Ġphys":4087,"Ġcrew":4088,"Ġkey":4089,"Ġsalads":4090,"Ġdarker":4091,"Ġsurf":4092,"Ġmatinee":4093,"coli":4094,"Ġwindows":4095,"Ġheaven":4096,"Ġheavy":4097,"Ġpowers":4098,"Ġspanish":4099,"Ġentertainment":4100,"Ġbesides":4101,"Ġtimberlake":4102,"Ġtuscan":4103,"Ġdownsizing":4104,"Ġvegas":4105,"Ġwyndham":4106,"Ġbroccoli":4107,"125":4108,"hal":4109,"lou":4110,"tom":4111,"ya":4112,"Ġeric":4113,"Ġtune":4114,"Ġhund":4115,"elic":4116,"ories":4117,"Ġgas":4118,"Ġgate":4119,"Ġgone":4120,"Ġgaga":4121,"Ġdad":4122,"Ġrachel":4123,"Ġwouldn":4124,"Ġalice":4125,"esta":4126,"Ġmine":4127,"endrick":4128,"Ġbreath":4129,"Ġmary":4130,"Ġdev":4131,"Âłpm":4132,"Ġven":4133,"Ġ94":4134,"nifer":4135,"Ġdraf":4136,"Ġ60":4137,"ization":4138,"uper":4139,"Ġreviewed":4140,"Ġlastly":4141,"172":4142,"iah":4143,"Ġmadonna":4144,"Ġcraven":4145,"airs":4146,"Ġpeace":4147,"Ġbaths":4148,"Ġtacos":4149,"Ġmcc":4150,"Ġfifty":4151,"Ġcamp":4152,"Ġgiven":4153,"Ġsticks":4154,"known":4155,"Ġwatson":4156,"Ġregarding":4157,"Ġchocolate":4158,"Ġhundred":4159,"Ġdrafthouse":4160,"120":4161,"cel":4162,"cut":4163,"mar":4164,"pir":4165,"tch":4166,"well":4167,"Ġtest":4168,"Ġsign":4169,"Ġcoo":4170,"Ġpen":4171,"Ġpink":4172,"Ġpug":4173,"Ġhosp":4174,"Ġitem":4175,"Ġinde":4176,"Ġru":4177,"Ġdoor":4178,"Ġatomic":4179,"Ġsuc":4180,"Ġchop":4181,"Ġkendrick":4182,"Ġshare":4183,"rix":4184,"Ġspain":4185,"Ġcozy":4186,"ulf":4187,"Ġpreferable":4188,"Ġdetro":4189,"Ġhearing":4190,"Ġplush":4191,"emed":4192,"park":4193,"Ġheres":4194,"Ġbruce":4195,"Ġoverlook":4196,"Ġtermin":4197,"Ġcareer":4198,"169":4199,"Ġlaguard":4200,"Ġremaining":4201,"Ġserve":4202,"Ġnormal":4203,"Ġcounty":4204,"oking":4205,"Ġflorence":4206,"cola":4207,"Ġcrowd":4208,"Ġmatches":4209,"life":4210,"Ġmidnight":4211,"Ġshopping":4212,"Ġlucky":4213,"Ġjennifer":4214,"Ġyoga":4215,"Ġattractions":4216,"Ġeurope":4217,"Ġdangerous":4218,"Ġclarion":4219,"Ġidentity":4220,"Ġtelevision":4221,"Ġsmurfs":4222,"Ġpuget":4223,"Ġhospital":4224,"Ġdetroit":4225,"Ġlaguardia":4226,"349":4227,"89":4228,"bound":4229,"hanna":4230,"lic":4231,"lish":4232,"pre":4233,"pose":4234,"sm":4235,"west":4236,"Ġta":4237,"erry":4238,"Ġsfo":4239,"Ġwish":4240,"Ġwol":4241,"ature":4242,"Ġmagn":4243,"Ġcous":4244,"Ġlor":4245,"Ġpap":4246,"Ġbra":4247,"elph":4248,"Ġgat":4249,"Ġgave":4250,"themed":4251,"Ġformal":4252,"Ġray":4253,"Ġhell":4254,"Ġreiner":4255,"itive":4256,"Ġneigh":4257,"Ġjr":4258,"Ġjess":4259,"eapp":4260,"Ġeight":4261,"Ġshel":4262,"Ġwilling":4263,"Ġsoda":4264,"fee":4265,"Ġ34":4266,"unch":4267,"Ġdef":4268,"Ġbreaking":4269,"Ġarts":4270,"Ġsuits":4271,"Ġpos":4272,"Ġclassical":4273,"Ġjoins":4274,"attan":4275,"Ġsimon":4276,"209":4277,"Ġlands":4278,"Ġnaan":4279,"Ġphilad":4280,"Ġdeparted":4281,"Ġpurchasing":4282,"180":4283,"Ġrihanna":4284,"Ġbrowse":4285,"Ġchristina":4286,"Ġinstrum":4287,"Ġfacility":4288,"century":4289,"Ġtales":4290,"Ġsurviv":4291,"Ġsurvival":4292,"Ġconditioning":4293,"Ġpineapp":4294,"Ġpiano":4295,"Ġbrief":4296,"Ġtempo":4297,"Ġmanhattan":4298,"Ġbirth":4299,"elphia":4300,"Ġphiladelphia":4301,"Ġpineapple":4302,"cus":4303,"gi":4304,"mo":4305,"nam":4306,"rav":4307,"we":4308,"ĠâĢ":4309,"Ġsick":4310,"Ġwings":4311,"rey":4312,"Ġmis":4313,"Ġce":4314,"Ġcut":4315,"Ġbistro":4316,"Ġbeh":4317,"alito":4318,"Ġorgan":4319,"Ġje":4320,"Ġjud":4321,"Ġwants":4322,"americ":4323,"Ġenemy":4324,"Ġsports":4325,"Ġrate":4326,"condition":4327,"ews":4328,"Ġasada":4329,"Ġtells":4330,"ateful":4331,"Ġ55":4332,"Ġresur":4333,"Ġcarne":4334,"claim":4335,"Ġacross":4336,"Ġappet":4337,"Ġmonsters":4338,"Ġcreole":4339,"Ġpurpose":4340,"Ġseats":4341,"Ġrecommendations":4342,"Ġpatio":4343,"Ġrequested":4344,"Ġvevo":4345,"Ġsense":4346,"279":4347,"Ġmillion":4348,"Ġwinter":4349,"Ġsilence":4350,"Ġreceived":4351,"Ġexperim":4352,"Ġfleet":4353,"Ġforgotten":4354,"Ġreminds":4355,"Ġcompletes":4356,"Ġradiohead":4357,"Ġguitar":4358,"Ġcrazy":4359,"Ġvictorian":4360,"Ġsuccess":4361,"Ġcousin":4362,"Ġlorde":4363,"34":4364,"415":4365,"57":4366,"cer":4367,"of":4368,"ots":4369,"walk":4370,"zat":4371,"ziki":4372,"ises":4373,"Ġopp":4374,"Ġsel":4375,"Ġwage":4376,"ini":4377,"iny":4378,"Ġfa":4379,"Ġmi":4380,"Ġcynd":4381,"Ġdom":4382,"oop":4383,"Ġlies":4384,"Ġbeck":4385,"iter":4386,"aling":4387,"Ġperks":4388,"verse":4389,"Ġloving":4390,"Ġsprite":4391,"anda":4392,"Ġ37":4393,"umb":4394,"Ġdepend":4395,"Ġupon":4396,"Âłf":4397,"avocado":4398,"Ġconst":4399,"Ġconnect":4400,"Ġlauper":4401,"Ġclay":4402,"Ġspeed":4403,"Ġeverybody":4404,"Ġplane":4405,"Ġexcuse":4406,"Ġbasic":4407,"Ġwaterfront":4408,"Ġdecis":4409,"Ġdisaster":4410,"Ġgees":4411,"Ġlights":4412,"Ġaccident":4413,"Ġmiddle":4414,"Ġlegendary":4415,"Ġfairly":4416,"onnaise":4417,"Ġsarah":4418,"iladas":4419,"Ġimagin":4420,"Ġlawrence":4421,"Ġwhether":4422,"Ġpilot":4423,"Ġknocked":4424,"Ġterminal":4425,"zatziki":4426,"Ġcyndi":4427,"130":4428,"119":4429,"boy":4430,"din":4431,"ect":4432,"gs":4433,"gal":4434,"just":4435,"kra":4436,"oe":4437,"oll":4438,"roy":4439,"year":4440,"asera":4441,"Ġii":4442,"Ġoak":4443,"Ġwrong":4444,"Ġmir":4445,"Ġmia":4446,"Ġdall":4447,"ened":4448,"omas":4449,"iting":4450,"Ġyourself":4451,"steen":4452,"ional":4453,"Ġcham":4454,"Ġalter":4455,"Ġshak":4456,"Ġut":4457,"Ġallen":4458,"Ġsocial":4459,"Ġ48":4460,"Ġ75":4461,"Ġcomb":4462,"Ġmayonnaise":4463,"orton":4464,"Ġdragon":4465,"upac":4466,"aged":4467,"Ġlasts":4468,"Ġswitch":4469,"Ġtriple":4470,"Ġusher":4471,"Ġrepeating":4472,"Ġbase":4473,"wayne":4474,"Ġslight":4475,"Ġrivi":4476,"Ġanimals":4477,"Ġrecommendation":4478,"Ġcoffeemaker":4479,"Ġterraces":4480,"Ġbringing":4481,"Ġleads":4482,"Ġsteakhouse":4483,"Ġariana":4484,"Ġpieces":4485,"Ġtalent":4486,"Ġbellasera":4487,"Ġbodyguard":4488,"Ġexcept":4489,"Ġtonya":4490,"Ġgovernment":4491,"Ġbehind":4492,"claimed":4493,"kraut":4494,"Ġdallas":4495,"70":4496,"hl":4497,"han":4498,"how":4499,"ipp":4500,"ipped":4501,"like":4502,"met":4503,"mont":4504,"Ġtreat":4505,"Ġow":4506,"Ġfat":4507,"Ġfury":4508,"Ġpup":4509,"ello":4510,"Ġgall":4511,"Ġnine":4512,"Ġinch":4513,"Ġrd":4514,"Ġrome":4515,"Ġrig":4516,"ette":4517,"alo":4518,"Ġjal":4519,"Ġplans":4520,"Ġalive":4521,"Ġshake":4522,"Ġshot":4523,"added":4524,"utes":4525,"Ġcode":4526,"Ġparam":4527,"Ġ45":4528,"Ġavocado":4529,"Ġadvent":4530,"Ġdep":4531,"Ġ98":4532,"Ġdrug":4533,"Ġprote":4534,"Ġhomewood":4535,"Ġrentals":4536,"Ġtool":4537,"Ġjoin":4538,"Ġleavey":4539,"Ġafric":4540,"Ġago":4541,"Ġeveryone":4542,"Ġrecru":4543,"Ġspringsteen":4544,"Ġmetrop":4545,"Ġworked":4546,"Ġrelati":4547,"Ġexplo":4548,"Ġperformance":4549,"Ġhopefully":4550,"190":4551,"Ġhitman":4552,"Ġcharact":4553,"under":4554,"Ġelect":4555,"Ġindie":4556,"Ġsurp":4557,"artney":4558,"Ġattempt":4559,"Ġsausalito":4560,"ostor":4561,"Ġwinds":4562,"Ġrae":4563,"Ġedgewater":4564,"Ġdestination":4565,"Ġincred":4566,"Ġclear":4567,"Ġhenry":4568,"blue":4569,"Ġjetblue":4570,"Ġlingu":4571,"Ġhollywood":4572,"Ġinvest":4573,"Ġgadot":4574,"Ġmccartney":4575,"Ġcooper":4576,"Ġresurrect":4577,"Ġriviera":4578,"110":4579,"21":4580,"44":4581,"56":4582,"88":4583,"cra":4584,"iant":4585,"ky":4586,"ltim":4587,"nic":4588,"ted":4589,"ugg":4590,"ano":4591,"Ġtah":4592,"Ġtzatziki":4593,"Ġtupac":4594,"ero":4595,"Ġwoo":4596,"reas":4597,"Ġfab":4598,"Ġlis":4599,"Ġpill":4600,"ayer":4601,"ora":4602,"Ġgerman":4603,"Ġdine":4604,"Ġdwayne":4605,"arle":4606,"Ġnames":4607,"ooth":4608,"icide":4609,"lev":4610,"Ġplate":4611,"Ġchaz":4612,"Ġfro":4613,"Ġalone":4614,"Ġperio":4615,"Ġlets":4616,"aka":4617,"ters":4618,"Ġconvin":4619,"Ġpear":4620,"Ġcentric":4621,"Ġdonnie":4622,"Ġexe":4623,"Ġexpl":4624,"Ġtrailers":4625,"Ġreturns":4626,"Ġunde":4627,"Ġjosh":4628,"Ġjolie":4629,"Ġunfor":4630,"Ġunrav":4631,"Ġrecord":4632,"Ġlandmark":4633,"Ġcrash":4634,"Ġacclaimed":4635,"Ġphill":4636,"Ġhorse":4637,"Ġlonger":4638,"Ġmeters":4639,"Ġextended":4640,"Ġcovered":4641,"Ġremix":4642,"Ġdocument":4643,"Ġeggs":4644,"Ġdancing":4645,"Ġpotatoes":4646,"Ġsenior":4647,"Ġluxe":4648,"Ġhills":4649,"Ġjacob":4650,"Ġseasonal":4651,"Ġrichard":4652,"Ġthreaten":4653,"Ġmotels":4654,"Ġclean":4655,"Ġprovided":4656,"Ġevents":4657,"Ġchowder":4658,"uerkraut":4659,"Ġfreedom":4660,"Ġrelatively":4661,"Ġchazelle":4662,"Ġperiod":4663,"Ġunravel":4664,"bies":4665,"die":4666,"father":4667,"gn":4668,"gth":4669,"hire":4670,"round":4671,"isle":4672,"isson":4673,"Ġaqu":4674,"Ġoil":4675,"Ġfame":4676,"Ġbull":4677,"Ġgrow":4678,"Ġnut":4679,"thm":4680,"vie":4681,"vious":4682,"Ġref":4683,"Ġhelps":4684,"ita":4685,"stem":4686,"Ġanyway":4687,"aily":4688,"Ġeasy":4689,"Ġkelly":4690,"Ġali":4691,"irty":4692,"ademy":4693,"Ġultim":4694,"contin":4695,"Ġlovers":4696,"Ġtrust":4697,"quent":4698,"aker":4699,"Ġ300":4700,"Ġfreebies":4701,"Ġmart":4702,"Âłp":4703,"Âłsh":4704,"Ġques":4705,"ubon":4706,"Ġsauerkraut":4707,"Ġunch":4708,"109":4709,"Ġgrad":4710,"pper":4711,"Ġvideos":4712,"rilliant":4713,"Ġbald":4714,"254":4715,"Ġkeith":4716,"Ġunique":4717,"Ġangelina":4718,"Ġcharge":4719,"Ġrivers":4720,"Ġjackie":4721,"Ġcontinue":4722,"Ġnomination":4723,"Ġpoints":4724,"Ġfalls":4725,"Ġboyfriend":4726,"239":4727,"Ġstudio":4728,"Ġvegetarian":4729,"volution":4730,"Ġaccommodations":4731,"Ġequipped":4732,"Ġwhitney":4733,"Ġaudubon":4734,"Ġnecessary":4735,"Ġenchiladas":4736,"Ġgateway":4737,"Ġfleetwood":4738,"Ġundefined":4739,"212":4740,"249":4741,"98":4742,"bel":4743,"bast":4744,"hood":4745,"iac":4746,"jac":4747,"mile":4748,"oke":4749,"over":4750,"ossi":4751,"por":4752,"vich":4753,"you":4754,"Ġera":4755,"Ġturns":4756,"Ġthr":4757,"istan":4758,"istence":4759,"Ġide":4760,"Ġhun":4761,"Ġsin":4762,"Ġwal":4763,"reet":4764,"Ġmal":4765,"Ġmam":4766,"Ġmild":4767,"Ġmellow":4768,"Ġcross":4769,"Ġlines":4770,"Ġlane":4771,"Ġputh":4772,"Ġbi":4773,"Ġton":4774,"Ġdaily":4775,"Ġnas":4776,"Ġforce":4777,"Ġruth":4778,"violi":4779,"Ġregg":4780,"ety":4781,"itled":4782,"chris":4783,"Ġstri":4784,"Ġsebast":4785,"street":4786,"Ġcha":4787,"ural":4788,"imin":4789,"Ġkay":4790,"Ġgreater":4791,"Ġshy":4792,"reep":4793,"Ġsoci":4794,"Ġarcl":4795,"Ġlocker":4796,"Ġoutbound":4797,"Ġnewark":4798,"Ġrestore":4799,"Âła":4800,"Âłat":4801,"avoy":4802,"Ġpearl":4803,"Ġcla":4804,"Ġairy":4805,"Ġrenting":4806,"Ġsaw":4807,"abelle":4808,"Ġaff":4809,"Ġswish":4810,"Ġsays":4811,"Ġbrick":4812,"Ġovernight":4813,"Ġcontro":4814,"Ġskyl":4815,"Ġdirectors":4816,"Ġzoot":4817,"Ġways":4818,"Ġcompos":4819,"189":4820,"Ġeye":4821,"Ġfigure":4822,"Ġleading":4823,"Ġdamien":4824,"Ġroof":4825,"Ġfighters":4826,"Ġincludes":4827,"Ġravioli":4828,"Ġpeterson":4829,"Ġimpostor":4830,"Ġforever":4831,"Ġsamos":4832,"Ġcomfortable":4833,"Ġradisson":4834,"Ġmeryl":4835,"Ġvisiting":4836,"john":4837,"Ġcrowne":4838,"Ġsystem":4839,"Ġalex":4840,"Ġlearns":4841,"Ġpsychoan":4842,"Ġbrisas":4843,"Ġcheshire":4844,"Ġdaddy":4845,"cutive":4846,"Ġindepend":4847,"Ġinvestig":4848,"Ġexecutive":4849,"Ġdocumentaries":4850,"Ġbaldwin":4851,"Ġsebastian":4852,"Ġarclight":4853,"08":4854,"199":4855,"69":4856,"cour":4857,"hil":4858,"hill":4859,"hole":4860,"ior":4861,"max":4862,"mond":4863,"oin":4864,"rane":4865,"some":4866,"serv":4867,"ten":4868,"uc":4869,"Ġtuna":4870,"Ġavi":4871,"Ġaisle":4872,"Ġhous":4873,"Ġsaint":4874,"Ġwanna":4875,"Ġfer":4876,"Ġmess":4877,"Ġmig":4878,"Ġmental":4879,"Ġcit":4880,"Ġcia":4881,"Ġcult":4882,"Ġbou":4883,"Ġbass":4884,"Ġbub":4885,"Ġbike":4886,"Ġbrilliant":4887,"Ġanne":4888,"Ġgome":4889,"Ġgab":4890,"onard":4891,"Ġdc":4892,"Ġnation":4893,"Ġnational":4894,"lled":4895,"Ġrout":4896,"iti":4897,"alan":4898,"Ġstreep":4899,"Ġsex":4900,"ste":4901,"Ġplain":4902,"Ġchina":4903,"Ġchains":4904,"Ġnobody":4905,"Ġrole":4906,"Ġev":4907,"Ġkim":4908,"ades":4909,"Ġuh":4910,"Ġum":4911,"amalan":4912,"uter":4913,"utch":4914,"Ġallan":4915,"iff":4916,"Ġlov":4917,"lyrics":4918,"Ġcouldn":4919,"Ġfield":4920,"Ġconven":4921,"Ġvoc":4922,"Ġ91":4923,"Ġwhichever":4924,"Ġpicking":4925,"Ġdiary":4926,"Ġprodu":4927,"Ġaddition":4928,"Ġjovi":4929,"Ġcoffees":4930,"102":4931,"Ġagent":4932,"Ġbrand":4933,"Ġlanded":4934,"Ġfinest":4935,"Ġacres":4936,"Ġacademy":4937,"136":4938,"Ġcontain":4939,"Ġterror":4940,"164":4941,"Ġlucy":4942,"Ġscient":4943,"Ġdecent":4944,"ship":4945,"Ġsuperbad":4946,"146":4947,"Ġpetty":4948,"comes":4949,"Ġnorman":4950,"ground":4951,"Ġmatth":4952,"Ġbroad":4953,"Ġmcavoy":4954,"Ġbeasts":4955,"Ġkilled":4956,"Ġrobin":4957,"Ġdestroy":4958,"Ġmemories":4959,"ficult":4960,"Ġenglish":4961,"Ġofficer":4962,"Ġjamie":4963,"Ġjimmy":4964,"Ġrhy":4965,"Ġappealing":4966,"Ġgifted":4967,"Ġfootage":4968,"louis":4969,"ĠâĢĵ":4970,"american":4971,"Ġselena":4972,"Ġslightly":4973,"Ġafrican":4974,"Ġresurrection":4975,"Âłshow":4976,"Ġreggae":4977,"Ġshyamalan":4978,"Ġgomez":4979,"51":4980,"54":4981,"700":4982,"gu":4983,"jam":4984,"kish":4985,"len":4986,"pac":4987,"sion":4988,"tan":4989,"table":4990,"Ġtables":4991,"Ġocc":4992,"Ġmaster":4993,"Ġcat":4994,"Ġpine":4995,"inger":4996,"ingly":4997,"Ġgould":4998,"Ġdying":4999,"thy":5000,"Ġford":5001,"edu":5002,"Ġrid":5003,"Ġrush":5004,"vior":5005,"ets":5006,"sey":5007,"Ġsung":5008,"Ġplac":5009,"Ġgrey":5010,"rib":5011,"Ġamount":5012,"Ġ35":5013,"Ġparad":5014,"Ġavengers":5015,"Ġfears":5016,"Ġquiet":5017,"Ġexpect":5018,"Ġprocess":5019,"illes":5020,"Ġintercontin":5021,"emma":5022,"Ġjoining":5023,"igo":5024,"Ġgrateful":5025,"Ġsquad":5026,"Ġafford":5027,"175":5028,"Ġbride":5029,"ashion":5030,"Ġscarle":5031,"Ġphil":5032,"Ġmont":5033,"Ġcinemark":5034,"Ġqueens":5035,"Ġterms":5036,"Ġfarm":5037,"Ġnumb":5038,"Ġrangers":5039,"Ġranging":5040,"Ġturkish":5041,"Ġimpossi":5042,"Ġlowest":5043,"Ġtitan":5044,"Ġpanic":5045,"Âłhere":5046,"Ġpiece":5047,"Ġplatform":5048,"Ġnickel":5049,"Ġtrend":5050,"Ġadams":5051,"Ġeateries":5052,"Ġimagine":5053,"Ġshortest":5054,"Ġfrozen":5055,"Ġconvinced":5056,"Ġquesad":5057,"Ġruthless":5058,"ranean":5059,"Ġrhythm":5060,"Ġintercontinental":5061,"67":5062,"avi":5063,"bal":5064,"iers":5065,"lict":5066,"mpy":5067,"ned":5068,"zard":5069,"Ġtax":5070,"Ġtik":5071,"Ġauth":5072,"Ġhoney":5073,"Ġope":5074,"Ġsf":5075,"Ġlower":5076,"Ġpush":5077,"Ġbond":5078,"Ġbones":5079,"Ġbank":5080,"eline":5081,"Ġanch":5082,"Ġanna":5083,"Ġdic":5084,"Ġandre":5085,"ico":5086,"Ġwimpy":5087,"Ġrag":5088,"Ġreun":5089,"Ġmeg":5090,"Ġmein":5091,"Ġbecomes":5092,"itan":5093,"iles":5094,"stay":5095,"ential":5096,"Ġsugar":5097,"Ġsuicide":5098,"Ġjere":5099,"Ġchose":5100,"Ġchairs":5101,"urious":5102,"Ġnoon":5103,"ids":5104,"idious":5105,"Ġshar":5106,"ells":5107,"ception":5108,"riel":5109,"Ġsparrow":5110,"uma":5111,"Ġmarina":5112,"Ġviol":5113,"Ġweez":5114,"Ġlaid":5115,"Ġawak":5116,"arella":5117,"Ġemot":5118,"Ġemily":5119,"Ġdifficult":5120,"Ġprof":5121,"Ġunknown":5122,"Ġconflict":5123,"Ġblt":5124,"Ġdesper":5125,"Ġcran":5126,"Ġscary":5127,"Ġscream":5128,"aple":5129,"Ġskill":5130,"flu":5131,"Ġbasket":5132,"160":5133,"Ġstreets":5134,"Ġstreetcar":5135,"Ġsinging":5136,"tley":5137,"Ġsurround":5138,"Ġtourist":5139,"Ġfalling":5140,"Ġattention":5141,"Ġmaison":5142,"ocaly":5143,"Ġmaxwell":5144,"Ġcuz":5145,"Ġbrowns":5146,"Ġfrequent":5147,"Ġwinner":5148,"Ġluxurious":5149,"Ġgodfather":5150,"Ġturner":5151,"Ġcollide":5152,"Ġincreas":5153,"Ġcoldplay":5154,"Ġcheeseburgers":5155,"Ġpowell":5156,"Ġdollars":5157,"Ġillino":5158,"Ġbareilles":5159,"Ġoverlooking":5160,"Ġeuropean":5161,"Ġbrave":5162,"Ġexperiment":5163,"Ġdecision":5164,"Ġpupp":5165,"Ġadventures":5166,"Ġskyline":5167,"Ġmiguel":5168,"Ġgabriel":5169,"Ġparadise":5170,"Ġtrendy":5171,"Ġopeth":5172,"..":5173,"04":5174,"140":5175,"66":5176,"aire":5177,"cal":5178,"dd":5179,"ebell":5180,"li":5181,"lm":5182,"lÃ©":5183,"michael":5184,"nich":5185,"ze":5186,"Ġ:":5187,"Ġtor":5188,"Ġtast":5189,"Ġtale":5190,"erm":5191,"erson":5192,"Ġox":5193,"Ġwea":5194,"Ġfences":5195,"Ġmend":5196,"Ġmaz":5197,"Ġlyn":5198,"Ġbie":5199,"Ġanni":5200,"Ġtopp":5201,"Ġgames":5202,"ons":5203,"Ġdum":5204,"arium":5205,"Ġnic":5206,"Ġandy":5207,"Ġlively":5208,"Ġinf":5209,"Ġwilson":5210,"Ġrac":5211,"Ġride":5212,"Ġruss":5213,"Ġrebel":5214,"Ġneil":5215,"Ġstew":5216,"Ġjose":5217,"Ġchuck":5218,"ailable":5219,"Ġroast":5220,"rie":5221,"Ġallian":5222,"Ġtwin":5223,"Ġark":5224,"tting":5225,"ules":5226,"Ġnews":5227,"icks":5228,"Âł7":5229,"Âłwhat":5230,"available":5231,"Ġvibr":5232,"Ġmansion":5233,"Ġclara":5234,"Ġ64":5235,"Ġapocaly":5236,"Ġinterview":5237,"Ġhighway":5238,"Ġcarly":5239,"board":5240,"Ġfully":5241,"Ġcrimin":5242,"Ġrequired":5243,"Ġusually":5244,"apen":5245,"134":5246,"Ġskull":5247,"Ġdeli":5248,"229":5249,"Ġwalls":5250,"burg":5251,"Ġmushrooms":5252,"Ġsonesta":5253,"Ġfishing":5254,"Ġmraz":5255,"Ġcolony":5256,"Ġantebell":5257,"Ġbeyon":5258,"Ġstudying":5259,"Ġcollection":5260,"Ġpublic":5261,"Ġdemi":5262,"Ġsym":5263,"Ġinsidious":5264,"Ġdollar":5265,"Ġforgot":5266,"Ġstoried":5267,"Ġbottles":5268,"Ġcoastal":5269,"Ġannabelle":5270,"Ġanswer":5271,"Ġchopped":5272,"Ġwolf":5273,"Ġappetiz":5274,"Ġdepending":5275,"Ġjalapen":5276,"Ġincredible":5277,"Ġgermany":5278,"Ġcitiz":5279,"ĠbublÃ©":5280,"Ġimpossible":5281,"Ġweezer":5282,"Ġfrequently":5283,"Ġillinois":5284,"Ġbieber":5285,"Ġantebellum":5286,"06":5287,"07":5288,"43":5289,"52":5290,"augh":5291,"down":5292,"dale":5293,"eck":5294,"iara":5295,"ject":5296,"laki":5297,"pent":5298,"vlaki":5299,"wise":5300,"yd":5301,"yaki":5302,"Ġain":5303,"Ġaut":5304,"usual":5305,"Ġsist":5306,"Ġwra":5307,"atow":5308,"Ġmich":5309,"Ġmitch":5310,"Ġmike":5311,"Ġlad":5312,"Ġbab":5313,"Ġdess":5314,"arily":5315,"keep":5316,"Ġanderson":5317,"Ġonsite":5318,"icial":5319,"Ġliking":5320,"eds":5321,"Ġcans":5322,"Ġmozz":5323,"Ġmeant":5324,"alie":5325,"Ġstan":5326,"state":5327,"Ġsupre":5328,"Ġjord":5329,"Ġplates":5330,"Ġep":5331,"Ġkong":5332,"Ġamb":5333,"Ġloews":5334,"Ġspin":5335,"Ġspies":5336,"Ġmunich":5337,"ques":5338,"Ġshower":5339,"Ġash":5340,"Ġ2013":5341,"Ġadjac":5342,"Ġnote":5343,"Âł$":5344,"Âłj":5345,"Âłby":5346,"Ġvars":5347,"Ġdrum":5348,"Ġquill":5349,"Ġappl":5350,"Ġapatow":5351,"Ġ840":5352,"Ġpersons":5353,"Ġexistence":5354,"Ġcorn":5355,"Ġkinds":5356,"cient":5357,"Ġimm":5358,"ishings":5359,"Ġfranco":5360,"Ġofferings":5361,"resses":5362,"ressive":5363,"Ġunusual":5364,"Ġgrab":5365,"Ġbackstreet":5366,"170":5367,"going":5368,"Ġbucks":5369,"Ġusual":5370,"Ġsmooth":5371,"Ġcreature":5372,"Ġmetal":5373,"Ġrelated":5374,"iously":5375,"Ġluke":5376,"Ġwaters":5377,"liter":5378,"184":5379,"Ġdisturb":5380,"Ġslaw":5381,"148":5382,"Ġbowls":5383,"Ġactresses":5384,"Ġsouvlaki":5385,"Ġstrugg":5386,"Ġputting":5387,"Ġdiscount":5388,"Ġoscars":5389,"Ġmoonrise":5390,"222":5391,"Ġunderstated":5392,"Ġentitled":5393,"Ġimpact":5394,"Ġsaltwater":5395,"Ġforeigner":5396,"Ġanth":5397,"Ġcruz":5398,"Ġbrowser":5399,"Ġengland":5400,"Ġprovides":5401,"Ġvirginia":5402,"Ġfurnishings":5403,"official":5404,"Âłwith":5405,"Ġcardi":5406,"Ġlinens":5407,"Ġfortune":5408,"Ġmarried":5409,"Ġparents":5410,"Ġwarrior":5411,"Ġphysical":5412,"half":5413,"Ġbreathe":5414,"Ġvenge":5415,"Ġcampbell":5416,"Ġjudd":5417,"conditioned":5418,"Ġattempts":5419,"Ġphillips":5420,"Ġzootop":5421,"Ġindependent":5422,"hilation":5423,"Ġaviara":5424,"Ġbroadway":5425,"Ġweapon":5426,"Ġvibrant":5427,"Ġmozzarella":5428,"Ġadjacent":5429,"Ġvarsity":5430,"',":5431,"94":5432,"bul":5433,"bars":5434,"born":5435,"cci":5436,"fell":5437,"foot":5438,"iques":5439,"lton":5440,"non":5441,"ners":5442,"uit":5443,"vic":5444,"Ġtort":5445,"ising":5446,"ised":5447,"oud":5448,"Ġhom":5449,"Ġfashion":5450,"Ġcow":5451,"Ġcooked":5452,"Ġlew":5453,"Ġbound":5454,"Ġbryan":5455,"Ġbomb":5456,"eless":5457,"orter":5458,"Ġgri":5459,"Ġgav":5460,"Ġgonna":5461,"Ġdub":5462,"Ġdomin":5463,"ene":5464,"ender":5465,"aron":5466,"ario":5467,"thrill":5468,"Ġlily":5469,"Ġrick":5470,"Ġrip":5471,"itol":5472,"chez":5473,"aluma":5474,"Ġneither":5475,"Ġhoward":5476,"Ġsty":5477,"Ġstat":5478,"Ġatri":5479,"Ġsuf":5480,"Ġjur":5481,"ura":5482,"urch":5483,"Ġkenn":5484,"Ġkrist":5485,"Ġalan":5486,"idian":5487,"Ġseem":5488,"Ġplayers":5489,"Ġpreview":5490,"Ġprevious":5491,"Ġarc":5492,"Ġrates":5493,"ickets":5494,"Ġmystic":5495,"Ġnewly":5496,"Ġ71":5497,"Ġcommon":5498,"sson":5499,"Âłb":5500,"Âłt":5501,"Âłam":5502,"Ġconcl":5503,"Ġmane":5504,"Ġmanchester":5505,"sonic":5506,"Ġbarcel":5507,"pted":5508,"ackers":5509,"Ġgucci":5510,"Ġlocally":5511,"ubali":5512,"Ġprog":5513,"cially":5514,"Ġsanchez":5515,"Ġjovo":5516,"Ġgenres":5517,"Ġunavailable":5518,"Ġlarry":5519,"ilet":5520,"Ġdesp":5521,"Ġscors":5522,"screens":5523,"Ġapple":5524,"Ġoverly":5525,"Ġwave":5526,"Ġfamous":5527,"Ġteri":5528,"Ġmickey":5529,"Ġwayne":5530,"Ġharbor":5531,"Ġskiing":5532,"144":5533,"Ġcritically":5534,"Ġpets":5535,"Ġpetaluma":5536,"airie":5537,"Ġbudden":5538,"Ġchanged":5539,"Ġlegacy":5540,"atherine":5541,"ctional":5542,"Ġschind":5543,"Ġtransport":5544,"Ġconsist":5545,"Ġmarketplace":5546,"Ġsuspect":5547,"Ġsouthwest":5548,"Ġliters":5549,"269":5550,"Ġbuffalo":5551,"Ġpresident":5552,"Ġcastle":5553,"Ġbenjam":5554,"Ġexperience":5555,"Ġshadow":5556,"Ġcapitol":5557,"Ġhawth":5558,"Ġduet":5559,"Âłthis":5560,"Ġreaches":5561,"Ġopry":5562,"Ġfootball":5563,"Ġsupposed":5564,"Ġbrothers":5565,"Ġhuge":5566,"Ġsoldier":5567,"smoking":5568,"Ġneighbor":5569,"Ġorganization":5570,"Ġsuccessful":5571,"Ġconnected":5572,"levard":5573,"Ġexplor":5574,"Ġaquarium":5575,"Ġchaos":5576,"Ġsociety":5577,"Ġrestored":5578,"Ġlovato":5579,"Ġgoulding":5580,"Ġnickelback":5581,"Ġquesadilla":5582,"Ġtikka":5583,"Ġdesperate":5584,"Ġbasketball":5585,"Ġmendes":5586,"Ġannihilation":5587,"Ġjordan":5588,"Ġdisturbing":5589,"Ġzootopia":5590,"Ġlewis":5591,"Ġgavin":5592,"Ġatrium":5593,"Ġjovovich":5594,"Ġscorsese":5595,"Ġbenjamin":5596,"\"?":5597,"01":5598,"96":5599,":(":5600,"aj":5601,"aff":5602,"bb":5603,"bill":5604,"ding":5605,"dom":5606,"downtown":5607,"dington":5608,"fall":5609,"gie":5610,"ken":5611,"rano":5612,"sen":5613,"sue":5614,"syn":5615,"tub":5616,"Â¨":5617,"ase":5618,"Ġthunder":5619,"Ġace":5620,"Ġhilar":5621,"Ġhush":5622,"Ġsizes":5623,"inct":5624,"Ġfelic":5625,"Ġcy":5626,"Ġlenn":5627,"Ġluna":5628,"Ġpul":5629,"Ġpicked":5630,"esis":5631,"Ġancient":5632,"oria":5633,"Ġtoilet":5634,"Ġdre":5635,"Ġdor":5636,"enger":5637,"enomen":5638,"Ġnach":5639,"Ġnsyn":5640,"tho":5641,"than":5642,"icious":5643,"Ġwizard":5644,"Ġrail":5645,"Ġrack":5646,"Ġrab":5647,"Ġraw":5648,"Ġrunt":5649,"Ġmotley":5650,"Ġrep":5651,"Ġrecon":5652,"itary":5653,"Ġstrip":5654,"stand":5655,"Ġdoom":5656,"Ġcherry":5657,"Ġfrost":5658,"Ġabdu":5659,"imes":5660,"Ġky":5661,"Ġperri":5662,"ided":5663,"estic":5664,"estone":5665,"Ġshaw":5666,"Ġship":5667,"amond":5668,"opus":5669,"Ġsoaking":5670,"Ġencount":5671,"Ġloved":5672,"Ġspare":5673,"Ġtrop":5674,"ula":5675,"ession":5676,"andy":5677,"Ġmarley":5678,"Ġ101":5679,"Âłor":5680,"Ġvibe":5681,"Ġbreakfasts":5682,"Ġvar":5683,"Ġbart":5684,"Ġ920":5685,"Ġmusician":5686,"Ġbotan":5687,"Ġ89":5688,"Ġpickup":5689,"Ġrespon":5690,"Ġcorpor":5691,"Ġjohan":5692,"Ġspect":5693,"ired":5694,"Ġmilitary":5695,"Ġminibars":5696,"olitan":5697,"174":5698,"eph":5699,"Ġrecall":5700,"Ġamericas":5701,"Ġcrue":5702,"Ġfinish":5703,"135":5704,"Ġphenomen":5705,"Ġbands":5706,"127":5707,"Ġspringhill":5708,"Ġmissing":5709,"Ġdefinition":5710,"Ġfox":5711,"phis":5712,"Ġindia":5713,"Ġfollows":5714,"Ġvegg":5715,"Ġbuddy":5716,"Ġdiscovery":5717,"Ġrelaxing":5718,"Ġstevie":5719,"Ġcottage":5720,"Ġdaniel":5721,"Ġraise":5722,"Ġrapper":5723,"Ġoctopus":5724,"Ġselection":5725,"Ġcube":5726,"Ġselected":5727,"Ġvision":5728,"Ġbritain":5729,"Ġwinning":5730,"Ġsixth":5731,"Ġdestiny":5732,"Ġteenag":5733,"Ġgiant":5734,"Ġpresent":5735,"Ġthreatens":5736,"Ġapologies":5737,"Ġmeridian":5738,"Ġedwards":5739,"Ġramada":5740,"Ġheadset":5741,"Ġalec":5742,"Ġmodest":5743,"Ġreasonable":5744,"Ġitems":5745,"Ġshelter":5746,"Ġinstrumental":5747,"Ġsurvivors":5748,"Ġbecky":5749,"iterranean":5750,"Ġprotect":5751,"Ġwindsor":5752,"Ġlinguine":5753,"Ġaliens":5754,"Ġgradu":5755,"Ġideal":5756,"Ġboulevard":5757,"onardo":5758,"stein":5759,"Ġprofess":5760,"Ġincreasingly":5761,"thriller":5762,"Ġconclusion":5763,"Ġbarcelona":5764,"Ġteriyaki":5765,"Ġschindler":5766,"Ġtoiletries":5767,"Ġnsync":5768,"Ġrabbit":5769,"Ġruntime":5770,"Ġabduct":5771,"Ġjohansson":5772,"\",":5773,"900":5774,"bender":5775,"cin":5776,"dome":5777,"dining":5778,"free":5779,"gm":5780,"har":5781,"hear":5782,"ivid":5783,"live":5784,"mith":5785,"maker":5786,"oh":5787,"oath":5788,"otting":5789,"rac":5790,"sel":5791,"top":5792,"ube":5793,"vada":5794,"Ġ[":5795,"Ġurb":5796,"angle":5797,"Ġtar":5798,"Ġtable":5799,"Ġtrio":5800,"Ġthug":5801,"istance":5802,"assic":5803,"assbender":5804,"Ġyen":5805,"rell":5806,"reck":5807,"Ġmou":5808,"Ġmoo":5809,"Ġcin":5810,"Ġcath":5811,"Ġlang":5812,"Ġpack":5813,"Ġbun":5814,"Ġbone":5815,"eland":5816,"ingo":5817,"Ġdawn":5818,"Ġny":5819,"Ġholl":5820,"kevin":5821,"Ġinfer":5822,"Ġinception":5823,"Ġinflu":5824,"Ġrai":5825,"Ġhalen":5826,"etickets":5827,"Ġmovietickets":5828,"Ġnevada":5829,"Ġstaff":5830,"Ġseas":5831,"Ġdoors":5832,"Ġjude":5833,"Ġjesse":5834,"urig":5835,"irt":5836,"Ġshore":5837,"Ġshawn":5838,"ription":5839,"Ġallies":5840,"Ġsounded":5841,"Ġsoundtr":5842,"Ġspaces":5843,"Ġ41":5844,"Ġminaj":5845,"Ġseconds":5846,"Ġasian":5847,"Ġaspir":5848,"Ġcompar":5849,"Ġmarin":5850,"pecially":5851,"Ġdean":5852,"Ġdeer":5853,"Ġuptown":5854,"Ġknowing":5855,"Âłin":5856,"Ġweird":5857,"Ġleader":5858,"Ġfeed":5859,"Ġfeet":5860,"Ġ65":5861,"Ġdip":5862,"Ġdiamond":5863,"scription":5864,"Ġcart":5865,"Ġcarry":5866,"Ġcarpent":5867,"Ġunderoath":5868,"rought":5869,"ressed":5870,"Ġfrancis":5871,"Ġdramatic":5872,"Ġblake":5873,"Ġbetray":5874,"Ġflatscreen":5875,"Ġcaj":5876,"Ġagu":5877,"Ġresorts":5878,"Ġminibar":5879,"178":5880,"Ġbaham":5881,"Ġcrackers":5882,"aped":5883,"aprio":5884,"Ġkidna":5885,"Ġkeurig":5886,"Ġmetairie":5887,"Ġmississ":5888,"Ġcasey":5889,"minutes":5890,"Ġbelong":5891,"Ġsupersonic":5892,"Ġsuperdome":5893,"147":5894,"Ġmediterranean":5895,"Ġindivid":5896,"Ġmeals":5897,"Ġteach":5898,"iences":5899,"Ġrye":5900,"Ġtournam":5901,"Ġmatrix":5902,"ahubali":5903,"Ġattack":5904,"Ġpassion":5905,"Ġsteve":5906,"Ġbathtub":5907,"Ġschedu":5908,"ught":5909,"coln":5910,"Ġopening":5911,"Ġstrait":5912,"Ġreception":5913,"Ġrancho":5914,"Ġpaddington":5915,"Ġfresh":5916,"Ġespecially":5917,"Ġdestru":5918,"Ġberry":5919,"Ġpolitic":5920,"worth":5921,"Ġsubscription":5922,"Ġrichmond":5923,"379":5924,"Ġmotel":5925,"Ġsometimes":5926,"Ġdjango":5927,"Ġellie":5928,"Ġexception":5929,"Ġpilots":5930,"Ġsolid":5931,"Ġhumans":5932,"Ġstorm":5933,"Ġcabin":5934,"Ġlincoln":5935,"Ġbags":5936,"Ġcommunity":5937,"Ġwarriors":5938,"Ġcolonel":5939,"arius":5940,"Ġlemonade":5941,"Ġclayton":5942,"Ġaccidentally":5943,"Ġshakur":5944,"Ġcharacters":5945,"Ġlisa":5946,"Ġclapton":5947,"Ġmatthew":5948,"Ġoccup":5949,"Ġtitanic":5950,"Ġdicaprio":5951,"Ġskills":5952,"Ġsisters":5953,"Ġladies":5954,"Ġ84060":5955,"Ġjurassic":5956,"Ġkennedy":5957,"Ġsuspects":5958,"Ġfelicity":5959,"Ġbotanical":5960,"selves":5961,"Ġsoundtrack":5962,"Ġaspiring":5963,"Ġbahamas":5964,"Ġschedule":5965,"32":5966,"41":5967,"77":5968,"97":5969,"bi":5970,"ban":5971,"dan":5972,"don":5973,"did":5974,"ja":5975,"james":5976,"mical":5977,"pse":5978,"Ġ/":5979,"Ġtas":5980,"eral":5981,"ante":5982,"antis":5983,"Ġaaron":5984,"usive":5985,"ussy":5986,"Ġhud":5987,"Ġoz":5988,"Ġward":5989,"Ġwright":5990,"Ġwaves":5991,"ata":5992,"inary":5993,"Ġfassbender":5994,"Ġmist":5995,"Ġcine":5996,"Ġbul":5997,"elve":5998,"Ġtow":5999,"Ġgulf":6000,"oner":6001,"Ġduck":6002,"Ġnails":6003,"Ġnorton":6004,"Ġlie":6005,"Ġinvol":6006,"Ġiniti":6007,"edral":6008,"vey":6009,"ghan":6010,"Ġwire":6011,"Ġrow":6012,"Ġrules":6013,"vies":6014,"ights":6015,"etc":6016,"etic":6017,"etime":6018,"Ġmeans":6019,"Ġbeer":6020,"Ġhelped":6021,"alu":6022,"Ġstren":6023,"Ġstaple":6024,"Ġsean":6025,"Ġorch":6026,"sticks":6027,"Ġdozen":6028,"Ġjake":6029,"Ġjap":6030,"Ġchor":6031,"Ġelys":6032,"Ġklm":6033,"estyle":6034,"ella":6035,"elled":6036,"ellite":6037,"ria":6038,"riz":6039,"Ġprison":6040,"Ġheist":6041,"Ġlots":6042,"Ġtrag":6043,"Ġtrouble":6044,"tter":6045,"uly":6046,"kets":6047,"Ġ43":6048,"Ġchemical":6049,"Ġmariah":6050,"Ġdepp":6051,"Ġdevel":6052,"Ġupd":6053,"Ġmayer":6054,"Ġconway":6055,"Ġ53":6056,"Ġlaugh":6057,"acre":6058,"acula":6059,"Ġparker":6060,"Ġdracula":6061,"Ġ618":6062,"Ġ--":6063,"Ġkingdom":6064,"Ġresul":6065,"Ġresistance":6066,"Ġwonton":6067,"Ġfourth":6068,"Ġtheme":6069,"Ġinnoc":6070,"Ġshouldn":6071,"Ġunf":6072,"Ġuncle":6073,"Ġpersonalities":6074,"205":6075,"Ġdirectly":6076,"Ġblu":6077,"Ġblind":6078,"raid":6079,"Ġafraid":6080,"Ġcosta":6081,"Ġbrides":6082,"Ġlanding":6083,"Ġglen":6084,"Ġacce":6085,"Ġaccom":6086,"Ġtravelling":6087,"Ġexciting":6088,"Ġoverall":6089,"121":6090,"ote":6091,"Ġcred":6092,"Ġjane":6093,"Ġwahl":6094,"Ġworries":6095,"Ġbasil":6096,"erned":6097,"Ġdriving":6098,"Ġcompelled":6099,"iott":6100,"195":6101,"wards":6102,"Ġmaint":6103,"Ġmedic":6104,"gram":6105,"Ġdisp":6106,"Ġpackets":6107,"Ġfighting":6108,"Ġfloors":6109,"gonomic":6110,"Ġaccount":6111,"Ġmidtown":6112,"Ġcamino":6113,"anky":6114,"244":6115,"spir":6116,"Âłhow":6117,"Ġhuron":6118,"ronic":6119,"Ġnicki":6120,"pected":6121,"Ġoriginally":6122,"Ġmassive":6123,"Ġballpark":6124,"Ġintro":6125,"Ġellen":6126,"Ġaccommodating":6127,"Ġnatalie":6128,"Ġpianist":6129,"Ġwriter":6130,"Ġbeetho":6131,"Ġergonomic":6132,"Ġsailing":6133,"Ġjuice":6134,"Ġcraig":6135,"Ġcolonial":6136,"Ġmajority":6137,"Ġconcerned":6138,"Ġmika":6139,"dinand":6140,"Ġtalented":6141,"Ġmetropolitan":6142,"Ġmartian":6143,"Ġriverside":6144,"Ġhunger":6145,"Ġferdinand":6146,"Ġroute":6147,"Ġtaxi":6148,"Ġsurrounded":6149,"Ġpuppies":6150,"Ġtoppings":6151,"Ġalliance":6152,"Ġcriminal":6153,"Ġjalapenos":6154,"Ġcitizen":6155,"Ġdessert":6156,"Ġdespite":6157,"Ġlennon":6158,"Ġurban":6159,"Ġcathedral":6160,"Ġmarinara":6161,"Ġcajun":6162,"Ġstrength":6163,"Ġstapleton":6164,"Ġelysium":6165,"Ġbridesma":6166,"Ġwahlberg":6167,"Ġbeethoven":6168,"03":6169,"230":6170,"210":6171,"cu":6172,"eo":6173,"mi":6174,"matt":6175,"mpic":6176,"spe":6177,"tles":6178,"ww":6179,"wling":6180,"wagon":6181,"zo":6182,"Ġ|":6183,"Ġistan":6184,"ani":6185,"Ġted":6186,"Ġtap":6187,"erie":6188,"Ġthomas":6189,"Ġicon":6190,"uset":6191,"Ġhers":6192,"Ġoly":6193,"Ġodd":6194,"rem":6195,"rets":6196,"Ġfans":6197,"Ġfai":6198,"Ġcele":6199,"Ġlav":6200,"Ġpatt":6201,"Ġpunk":6202,"Ġbry":6203,"Ġbicy":6204,"Ġtoy":6205,"Ġgill":6206,"Ġgump":6207,"onto":6208,"Ġder":6209,"Ġdirty":6210,"Ġdarius":6211,"aroni":6212,"Ġnar":6213,"Ġforrest":6214,"Ġlikes":6215,"Ġinvit":6216,"let":6217,"Ġwide":6218,"Ġruck":6219,"Ġcanal":6220,"vier":6221,"vival":6222,"Ġmob":6223,"Ġmosc":6224,"Ġhaute":6225,"Ġreve":6226,"Ġreno":6227,"Ġrevolution":6228,"Ġrevival":6229,"etta":6230,"Ġhotdo":6231,"Ġbear":6232,"Ġbecoming":6233,"Ġbeha":6234,"iture":6235,"chic":6236,"Ġstea":6237,"Ġsees":6238,"Ġanybody":6239,"Ġgoodfell":6240,"Ġchurch":6241,"Ġfruit":6242,"Ġ1000":6243,"Ġrod":6244,"Ġroar":6245,"Ġeli":6246,"Ġelvis":6247,"Ġeas":6248,"Ġko":6249,"Ġkr":6250,"Ġalk":6251,"Ġalab":6252,"ira":6253,"iron":6254,"ceiling":6255,"uts":6256,"Ġprim":6257,"Ġpreston":6258,"Ġarden":6259,"Ġloan":6260,"Ġloss":6261,"Ġloves":6262,"Ġtruck":6263,"essa":6264,"Ġmyth":6265,"ending":6266,"Ġ78":6267,"Ġ2015":6268,"Ġ2010":6269,"Ġ2014":6270,"Ġcheckout":6271,"Ġdeck":6272,"Ġupcoming":6273,"Ġdeterm":6274,"Ġwellness":6275,"achuset":6276,"Ġ95":6277,"Ġ96":6278,"roll":6279,"ared":6280,"154":6281,"Ġemp":6282,"Ġemer":6283,"Ġlean":6284,"Ġlevel":6285,"Ġbaltim":6286,"Ġthemselves":6287,"Ġprod":6288,"Ġclasses":6289,"Ġgenesis":6290,"Ġunex":6291,"103":6292,"ief":6293,"Ġconfess":6294,"2016":6295,"club":6296,"Ġbluel":6297,"Ġcaught":6298,"Ġregis":6299,"Ġspawn":6300,"ission":6301,"iley":6302,"Ġbuck":6303,"Ġbaahubali":6304,"Ġglory":6305,"Ġcris":6306,"Ġcrust":6307,"Ġbush":6308,"Ġrequirement":6309,"123":6310,"128":6311,"Ġmonke":6312,"Ġcontent":6313,"Ġzone":6314,"earth":6315,"Ġholidays":6316,"Ġcarey":6317,"Ġexposed":6318,"166":6319,"ibur":6320,"Ġedition":6321,"gettable":6322,"Ġfunctional":6323,"186":6324,"Ġremains":6325,"Ġslayer":6326,"Ġpaper":6327,"Ġnorah":6328,"Ġrecommended":6329,"Ġbeatriz":6330,"Ġreserved":6331,"111":6332,"arted":6333,"Ġpassenger":6334,"Ġsourced":6335,"Ġroots":6336,"Ġsteal":6337,"Ġseptic":6338,"Ġmaid":6339,"Ġsatellite":6340,"Ġembar":6341,"Ġends":6342,"Ġtaken":6343,"ledge":6344,"Ġkillers":6345,"visions":6346,"Ġportman":6347,"ungry":6348,"Ġdiscovering":6349,"Ġmacaroni":6350,"Ġzookeep":6351,"Ġreads":6352,"Ġatlantis":6353,"Ġhonest":6354,"Ġcivic":6355,"Ġmassachuset":6356,"Ġinspired":6357,"Ġnature":6358,"Ġfurniture":6359,"Ġtampa":6360,"Ġhumanity":6361,"Ġhuh":6362,"Ġmodify":6363,"Ġpositive":6364,"Ġsurvivor":6365,"Ġceiling":6366,"Ġspeedwagon":6367,"Ġimaginative":6368,"Ġchamp":6369,"ippi":6370,"Ġowl":6371,"Ġsurprise":6372,"Ġunforgi":6373,"Ġuncharted":6374,"Ġbikes":6375,"Ġcomposure":6376,"Ġsamosa":6377,"Ġconvenience":6378,"Ġvocals":6379,"Ġaffordable":6380,"Ġapocalypse":6381,"Ġappetizers":6382,"Ġwrap":6383,"Ġstruggling":6384,"Ġsuffer":6385,"Ġnachos":6386,"Ġ92011":6387,"Ġinferno":6388,"Ġmississippi":6389,"Ġtournament":6390,"Ġinitiate":6391,"Ġjapan":6392,"Ġresults":6393,"Ġbridesmaids":6394,"Ġistanbul":6395,"Ġolympic":6396,"Ġfaith":6397,"Ġcelebr":6398,"Ġrucker":6399,"Ġmoscow":6400,"Ġbehavior":6401,"Ġgoodfellas":6402,"Ġalabama":6403,"Ġdetermine":6404,"Ġunexpected":6405,"Ġbluelight":6406,"Ġmassachusetts":6407,"02":6408,"115":6409,"117":6410,"31":6411,"450":6412,"ader":6413,"bes":6414,"fles":6415,"gly":6416,"hol":6417,"iq":6418,"made":6419,"nger":6420,"oci":6421,"pal":6422,"range":6423,"rator":6424,"tz":6425,"uya":6426,"wind":6427,"yah":6428,"za":6429,"ancy":6430,"Ġir":6431,"Ġsites":6432,"Ġsession":6433,"Ġyounger":6434,"relson":6435,"Ġfol":6436,"Ġfellow":6437,"Ġfusion":6438,"Ġfbi":6439,"Ġmast":6440,"Ġmgm":6441,"Ġcass":6442,"Ġcro":6443,"Ġcull":6444,"Ġpain":6445,"Ġpenn":6446,"Ġbump":6447,"Ġana":6448,"Ġgil":6449,"Ġdare":6450,"enge":6451,"enstein":6452,"arts":6453,"Ġnin":6454,"Ġnue":6455,"Ġnerv":6456,"Ġinvis":6457,"Ġinspir":6458,"Ġwid":6459,"Ġwits":6460,"Ġring":6461,"Ġreo":6462,"Ġreyn":6463,"Ġreplace":6464,"eters":6465,"itation":6466,"itty":6467,"aline":6468,"stone":6469,"Ġatom":6470,"Ġjop":6471,"Ġjoni":6472,"Ġplug":6473,"Ġchand":6474,"eau":6475,"Ġsomeplace":6476,"Ġelite":6477,"Ġevi":6478,"Ġkum":6479,"Ġkany":6480,"Ġkhal":6481,"Ġkalu":6482,"Ġalth":6483,"Ġpercent":6484,"Ġugly":6485,"Ġnightclub":6486,"ried":6487,"Ġproud":6488,"Ġamid":6489,"Ġamnes":6490,"Ġheal":6491,"Ġheights":6492,"ifest":6493,"Ġtwenty":6494,"Ġlovely":6495,"Ġtroy":6496,"Ġtroll":6497,"quer":6498,"Ġ32":6499,"umer":6500,"Ġada":6501,"Ġbrent":6502,"Ġdemon":6503,"Âł8":6504,"Âłfor":6505,"Âłdo":6506,"Âł10":6507,"Âłcan":6508,"Âłokay":6509,"Ġhearts":6510,"Ġwears":6511,"Ġmanifest":6512,"Ġlap":6513,"Ġpoolside":6514,"Ġ97":6515,"Ġsuitable":6516,"Ġclaim":6517,"Ġcenters":6518,"Ġapoll":6519,"Ġ84":6520,"ersp":6521,"Ġinner":6522,"309":6523,"cious":6524,"Ġundead":6525,"Ġsauna":6526,"ement":6527,"Ġclock":6528,"Ġpersonality":6529,"abor":6530,"Ġsimone":6531,"pping":6532,"Ġbless":6533,"bra":6534,"osmith":6535,"Ġuntold":6536,"olia":6537,"Ġ1950":6538,"Ġswanky":6539,"Ġcurse":6540,"Ġdesire":6541,"Ġweekday":6542,"Ġmorrison":6543,"Ġscen":6544,"Ġsuggested":6545,"enna":6546,"Ġsmoke":6547,"Ġappro":6548,"Ġtravels":6549,"Ġcontained":6550,"ators":6551,"Ġsundeck":6552,"Ġhorri":6553,"Ġdelicious":6554,"Ġzod":6555,"Ġmissy":6556,"Ġworth":6557,"Ġdiner":6558,"ffic":6559,"Ġfriendship":6560,"Ġrefrigerators":6561,"Ġsoups":6562,"Ġdecade":6563,"shine":6564,"Ġeagle":6565,"198":6566,"Ġharrelson":6567,"Ġremo":6568,"Ġslave":6569,"Ġsecrets":6570,"Ġbuying":6571,"Ġserrano":6572,"Ġhambur":6573,"Ġranges":6574,"Ġbreadsticks":6575,"Ġdisney":6576,"Ġchristian":6577,"Ġchanges":6578,"Ġpaying":6579,"Ġbroke":6580,"Ġdanny":6581,"Ġsunshine":6582,"Ġtradition":6583,"suites":6584,"Ġmenu":6585,"Ġmrs":6586,"Ġmiller":6587,"Ġesc":6588,"Ġheavier":6589,"olds":6590,"Ġfeta":6591,"Ġfrankenstein":6592,"Ġstronger":6593,"Ġpaseo":6594,"Ġhunting":6595,"alyst":6596,"Ġheroes":6597,"Ġoperation":6598,"Ġoperations":6599,"Ġoperative":6600,"Ġwheel":6601,"Âłmo":6602,"Ġbirds":6603,"Ġbottom":6604,"Ġbottled":6605,"Ġwriting":6606,"Ġtouches":6607,"Ġaerosmith":6608,"Ġlifetime":6609,"break":6610,"Ġcopy":6611,"Ġparentage":6612,"Ġconcert":6613,"Ġdevice":6614,"Ġpapas":6615,"Ġneighb":6616,"Ġimagined":6617,"Ġdragons":6618,"Ġbaseball":6619,"Ġriggs":6620,"Ġparamore":6621,"Ġsurpris":6622,"Ġraees":6623,"craft":6624,"Ġsinister":6625,"Ġmamas":6626,"Ġnasa":6627,"Ġcontainer":6628,"Ġscarlett":6629,"Ġandrew":6630,"Ġraging":6631,"Ġoxford":6632,"Ġbeyonce":6633,"Ġstanford":6634,"Ġspinach":6635,"Ġnotebook":6636,"Ġdublin":6637,"Ġneighborhood":6638,"Ġhilariously":6639,"Ġpulp":6640,"Ġphenomenal":6641,"Ġveggie":6642,"heart":6643,"Ġraiders":6644,"Ġdestruction":6645,"Ġpolitician":6646,"Ġbulworth":6647,"Ġinnocent":6648,"Ġherself":6649,"Ġlavish":6650,"Ġinvites":6651,"Ġrenov":6652,"Ġloaner":6653,"Ġbaltimore":6654,"Ġsepticfles":6655,"Ġcullum":6656,"Ġnuevo":6657,"Ġnervous":6658,"Ġinvisible":6659,"Ġkumail":6660,"Ġkanye":6661,"Ġkaluuya":6662,"Ġamnesia":6663,"Ġapollo":6664,"Ġzodiac":6665,"Ġsepticflesh":6666,"112":6667,"116":6668,"299":6669,"53":6670,"79":6671,"92":6672,"bie":6673,"cr":6674,"came":6675,"dough":6676,"gard":6677,"gort":6678,"gra":6679,"he":6680,"hen":6681,"have":6682,"iat":6683,"jess":6684,"juring":6685,"mel":6686,"nor":6687,"nce":6688,"ovies":6689,"po":6690,"px":6691,"pson":6692,"run":6693,"ridge":6694,"rang":6695,"sing":6696,"ski":6697,"vere":6698,"wy":6699,"won":6700,"with":6701,"yer":6702,"yson":6703,"Ġ#":6704,"Ġ+":6705,"Ġtem":6706,"iso":6707,"ascin":6708,"Ġthrow":6709,"Ġaali":6710,"uso":6711,"Ġyum":6712,"Ġses":6713,"Ġsight":6714,"Ġwake":6715,"Ġwag":6716,"Ġwrite":6717,"atar":6718,"read":6719,"Ġfred":6720,"Ġfascin":6721,"Ġmck":6722,"Ġcuff":6723,"Ġlon":6724,"Ġlunch":6725,"Ġpuer":6726,"Ġbang":6727,"Ġbiel":6728,"Ġanger":6729,"orc":6730,"ority":6731,"Ġgib":6732,"Ġdou":6733,"ense":6734,"arge":6735,"Ġned":6736,"Ġnerve":6737,"level":6738,"Ġwit":6739,"Ġwitch":6740,"Ġris":6741,"Ġrico":6742,"Ġrpx":6743,"Ġcancel":6744,"vig":6745,"Ġhair":6746,"Ġren":6747,"Ġreub":6748,"Ġrevenant":6749,"chie":6750,"child":6751,"alys":6752,"seek":6753,"Ġstring":6754,"Ġstately":6755,"Ġseap":6756,"str":6757,"Ġjer":6758,"Ġjup":6759,"Ġjyn":6760,"Ġplant":6761,"ionaire":6762,"Ġchim":6763,"Ġchall":6764,"urt":6765,"Ġnob":6766,"Ġnovel":6767,"Ġability":6768,"Ġhired":6769,"Ġross":6770,"Ġelgort":6771,"Ġef":6772,"Ġ2000":6773,"Ġkenny":6774,"los":6775,"Ġsho":6776,"Ġshoot":6777,"Ġshining":6778,"Ġwillie":6779,"Ġwillful":6780,"amb":6781,"ampire":6782,"Ġnightlife":6783,"uster":6784,"cking":6785,"Ġprime":6786,"Ġneeding":6787,"Ġamor":6788,"Ġsod":6789,"Ġsoy":6790,"Ġsovere":6791,"Ġtwitty":6792,"Ġarms":6793,"geon":6794,"Ġsprit":6795,"Ġspouse":6796,"Ġtray":6797,"Ġtruly":6798,"tta":6799,"Ġoutgoing":6800,"Ġshown":6801,"Ġ44":6802,"Ġ46":6803,"Ġ400":6804,"Ġactual":6805,"Ġadv":6806,"Ġmara":6807,"Ġmarcus":6808,"Ġupstate":6809,"Ġmayo":6810,"Ġfix":6811,"Ġfill":6812,"Ġfiesta":6813,"Âł9":6814,"Âłg":6815,"Ġcalls":6816,"Ġconv":6817,"Ġconjuring":6818,"ortun":6819,"Ġ58":6820,"Ġweather":6821,"Ġvs":6822,"Ġvampire":6823,"Ġlaz":6824,"Ġfever":6825,"ptions":6826,"rote":6827,"cock":6828,"owned":6829,"Ġque":6830,"155":6831,"156":6832,"filled":6833,"Ġkingston":6834,"Ġpickle":6835,"Ġproject":6836,"Ġprogram":6837,"Ġinterrac":6838,"Ġcarlton":6839,"Ġcaruso":6840,"Ġunl":6841,"Ġunp":6842,"Ġuncon":6843,"Ġunless":6844,"Ġgrah":6845,"Ġsets":6846,"206":6847,"Ġdirection":6848,"cling":6849,"Ġblur":6850,"ificent":6851,"uded":6852,"Ġmilestone":6853,"oland":6854,"Ġbrut":6855,"gover":6856,"Ġsales":6857,"Ġsalmon":6858,"Ġcrab":6859,"Ġxd":6860,"Ġgalen":6861,"Ġfinan":6862,"Ġguardia":6863,"137":6864,"Ġsmoking":6865,"Ġexcited":6866,"oted":6867,"Ġroundtrip":6868,"Ġtears":6869,"Ġkeys":6870,"Ġjanis":6871,"Ġjanelle":6872,"flight":6873,"from":6874,"Ġuniverse":6875,"action":6876,"Ġpurple":6877,"Ġtotally":6878,"Ġvanessa":6879,"Ġgoldberg":6880,"Ġwaterside":6881,"Ġruns":6882,"Ġdepartment":6883,"iolog":6884,"Ġbelg":6885,"Ġcovert":6886,"188":6887,"Ġhart":6888,"Ġremote":6889,"143":6890,"Ġpair":6891,"Ġmedia":6892,"Ġlosing":6893,"Ġhank":6894,"Ġhangover":6895,"Ġsweetened":6896,"Ġbarbeque":6897,"Ġboyce":6898,"Ġsourdough":6899,"Ġlegoland":6900,"Ġmaterialize":6901,"Ġbroken":6902,"Ġassum":6903,"Ġassign":6904,"Ġassoci":6905,"275":6906,"Ġmatching":6907,"Ġtrainsp":6908,"Ġconsists":6909,"Ġreceive":6910,"Ġbelieved":6911,"Ġtitled":6912,"Ġmilla":6913,"Ġkiller":6914,"Ġkilling":6915,"Ġbuildings":6916,"Ġdiscoveries":6917,"Ġpsychiat":6918,"Ġgiving":6919,"Ġpresley":6920,"Ġpreserve":6921,"Ġturned":6922,"Ġtriangle":6923,"Ġstudent":6924,"Ġcollins":6925,"Ġexperiences":6926,"Ġcommuter":6927,"Ġproviding":6928,"Ġspirited":6929,"Ġvermont":6930,"Ġdemand":6931,"Ġmassage":6932,"Ġelliott":6933,"Ġjenkins":6934,"Ġpinto":6935,"Ġhostel":6936,"works":6937,"Ġobserv":6938,"Ġmajestic":6939,"Ġhumble":6940,"Ġequal":6941,"Ġattraction":6942,"Ġfurnished":6943,"guardians":6944,"Ġreached":6945,"Ġjuan":6946,"Ġtraverse":6947,"Ġmarriage":6948,"Ġsupport":6949,"Ġlifestyle":6950,"Ġnecessarily":6951,"Ġbrisket":6952,"Ġpenthouse":6953,"Ġmagnolia":6954,"Ġmagnificent":6955,"Ġinstruments":6956,"Ġopportun":6957,"Ġconstance":6958,"Ġbasically":6959,"Ġrecruited":6960,"Ġmetropolis":6961,"Ġtahoe":6962,"Ġpillow":6963,"Ġunforgettable":6964,"Ġtrusted":6965,"Ġstrike":6966,"Ġpsychoanalyst":6967,"Ġpsychoanalys":6968,"Ġumg":6969,"Ġscientist":6970,"Ġdestroyed":6971,"Ġplacing":6972,"Ġanchovies":6973,"Ġemotional":6974,"Ġtaste":6975,"Ġdumpl":6976,"Ġjoseph":6977,"Ġsymph":6978,"Ġcowboy":6979,"Ġdominate":6980,"Ġstatus":6981,"Ġprogresses":6982,"Ġtransportation":6983,"Ġhawthorn":6984,"Ġcyr":6985,"standing":6986,"Ġprofessor":6987,"Ġmoore":6988,"Ġlangu":6989,"Ġfeedback":6990,"Ġkidnapped":6991,"Ġunfussy":6992,"Ġaccept":6993,"Ġconfesses":6994,"Ġunforgiven":6995,"Ġfolk":6996,"Ġreynolds":6997,"Ġjoplin":6998,"jessica":6999,"ranged":7000,"Ġaaliyah":7001,"Ġsesame":7002,"Ġpuerto":7003,"seeking":7004,"Ġseapoin":7005,"Ġjupiter":7006,"Ġsovereign":7007,"Ġsprites":7008,"Ġinterracial":7009,"Ġtrainspotting":7010,"Ġpsychiatrist":7011,"Ġpsychoanalysis":7012,"219":7013,"319":7014,"435":7015,"65":7016,"84":7017,"ald":7018,"bc":7019,"bucks":7020,"cke":7021,"cket":7022,"dc":7023,"fy":7024,"fts":7025,"gic":7026,"gia":7027,"gles":7028,"ho":7029,"hold":7030,"ii":7031,"lav":7032,"mok":7033,"nation":7034,"nap":7035,"naked":7036,"ov":7037,"oved":7038,"pet":7039,"parent":7040,"rs":7041,"rona":7042,"tments":7043,"vist":7044,"wers":7045,"xie":7046,"anas":7047,"Ġtall":7048,"Ġtough":7049,"Ġtunes":7050,"Ġtina":7051,"Ġtuc":7052,"Ġthirty":7053,"Ġaunt":7054,"Ġhans":7055,"Ġsi":7056,"Ġware":7057,"Ġwise":7058,"Ġwaka":7059,"atoni":7060,"Ġfren":7061,"Ġfund":7062,"Ġmath":7063,"Ġmash":7064,"Ġmason":7065,"Ġmouse":7066,"Ġmama":7067,"Ġcouch":7068,"Ġloop":7069,"Ġping":7070,"Ġpound":7071,"Ġpun":7072,"Ġboo":7073,"Ġbak":7074,"Ġburn":7075,"Ġbrought":7076,"elux":7077,"aya":7078,"esy":7079,"Ġanaly":7080,"Ġtove":7081,"Ġtoni":7082,"Ġgorge":7083,"Ġdun":7084,"Ġdax":7085,"Ġdyn":7086,"Ġdory":7087,"enced":7088,"arin":7089,"Ġnom":7090,"Ġnav":7091,"thank":7092,"Ġrum":7093,"Ġrare":7094,"Ġrises":7095,"Ġcandid":7096,"Ġheld":7097,"Ġmoving":7098,"Ġreco":7099,"Ġreven":7100,"Ġreese":7101,"Ġbecame":7102,"itor":7103,"chan":7104,"chise":7105,"iled":7106,"Ġnemo":7107,"outdoor":7108,"Ġyours":7109,"story":7110,"inda":7111,"entine":7112,"Ġanyways":7113,"Ġsudden":7114,"Ġsully":7115,"Ġjame":7116,"Ġjill":7117,"Ġjump":7118,"ctic":7119,"eap":7120,"Ġfray":7121,"Ġelle":7122,"immer":7123,"Ġeve":7124,"Ġegy":7125,"Ġkiara":7126,"lot":7127,"load":7128,"Ġpersu":7129,"Ġshat":7130,"adian":7131,"amic":7132,"elli":7133,"Ġflame":7134,"utton":7135,"Ġplayer":7136,"rial":7137,"Ġalley":7138,"Ġprism":7139,"conut":7140,"Ġsoft":7141,"Ġheat":7142,"Ġtwins":7143,"Ġarrow":7144,"Ġcova":7145,"Ġcoconut":7146,"tto":7147,"ardi":7148,"Ġstarbucks":7149,"Ġoutstanding":7150,"quel":7151,"Ġ36":7152,"Ġparts":7153,"Ġminn":7154,"Ġfreeman":7155,"Ġavatar":7156,"Ġmoms":7157,"Ġrestrict":7158,"Ġdear":7159,"Âłc":7160,"Âłgo":7161,"Ġcallum":7162,"Ġ51":7163,"Ġ56":7164,"Ġvince":7165,"Ġvenue":7166,"Ġvelve":7167,"Ġbutler":7168,"Ġlaure":7169,"Ġ99":7170,"Ġpoet":7171,"Ġdrisco":7172,"Ġclark":7173,"Ġcentre":7174,"Ġholds":7175,"izo":7176,"Ġawful":7177,"uph":7178,"Ġemo":7179,"Ġtommy":7180,"Ġ86":7181,"Ġexit":7182,"Ġexam":7183,"Ġdixie":7184,"berts":7185,"Ġkindly":7186,"dol":7187,"Ġimitation":7188,"Ġunderwater":7189,"Ġunderground":7190,"Ġsaf":7191,"Ġfranchise":7192,"Ġpartner":7193,"Ġunit":7194,"105":7195,"iggy":7196,"Ġfilmmaker":7197,"Ġgrace":7198,"Ġsetting":7199,"iece":7200,"2017":7201,"Ġblow":7202,"rooms":7203,"Ġages":7204,"Ġchicks":7205,"Ġminds":7206,"Ġpalms":7207,"Ġloud":7208,"Ġbruss":7209,"Ġcurious":7210,"nection":7211,"Ġbailey":7212,"Ġglor":7213,"merged":7214,"Ġtravis":7215,"132":7216,"Ġsmile":7217,"Ġmonae":7218,"Ġkidnap":7219,"aws":7220,"Ġairports":7221,"Ġzomb":7222,"Ġcustomers":7223,"359":7224,"161":7225,"162":7226,"arters":7227,"Ġscreening":7228,"Ġgolfing":7229,"Ġuniversal":7230,"Ġcomputer":7231,"Ġbeloved":7232,"Ġfunky":7233,"187":7234,"denced":7235,"Ġsuperman":7236,"Ġdarko":7237,"Ġpete":7238,"Ġhappens":7239,"comb":7240,"unders":7241,"Ġcontinues":7242,"ricane":7243,"Ġshuttles":7244,"Ġoptional":7245,"Ġdisorder":7246,"Ġattend":7247,"Ġattrib":7248,"Ġspacey":7249,"Ġcomplex":7250,"228":7251,"Ġfights":7252,"ording":7253,"Ġmaine":7254,"Ġpotential":7255,"Ġschumer":7256,"Ġfloyd":7257,"buried":7258,"Ġaccording":7259,"Ġactivist":7260,"lined":7261,"Ġentire":7262,"Ġvisa":7263,"Ġcolumb":7264,"280":7265,"Ġanton":7266,"Ġwildly":7267,"Ġpremier":7268,"Ġsubmerged":7269,"Ġfetus":7270,"Ġpatience":7271,"Ġtries":7272,"rupted":7273,"Ġtheatres":7274,"ikely":7275,"Ġtrek":7276,"Ġassassins":7277,"Ġfletch":7278,"Ġaccommodate":7279,"Ġhostage":7280,"Ġfrontier":7281,"Ġpictures":7282,"Ġboardwalk":7283,"Ġhappening":7284,"Ġtrapped":7285,"Ġtraffic":7286,"Ġtemple":7287,"brella":7288,"Ġestab":7289,"Ġchilli":7290,"Ġvalue":7291,"Ġvalentine":7292,"Ġcookies":7293,"Ġdevoted":7294,"Ġjessie":7295,"Ġrigatoni":7296,"Ġcharacter":7297,"Ġcrashing":7298,"Ġwaltz":7299,"Ġtongue":7300,"Ġkayaking":7301,"Ġaffair":7302,"Ġcontrol":7303,"service":7304,"Ġchainsmok":7305,"Ġevans":7306,"Ġumbrella":7307,"Ġrobinson":7308,"Ġridley":7309,"Ġmegade":7310,"Ġmaze":7311,"Ġrussell":7312,"Ġmitchell":7313,"Ġimpacts":7314,"Ġstyx":7315,"billy":7316,"Ġteenager":7317,"Ġseaside":7318,"Ġcompartments":7319,"daniel":7320,"Ġchorizo":7321,"Ġtragedy":7322,"Ġcredit":7323,"Ġmaintain":7324,"Ġrevolutionary":7325,"Ġsteam":7326,"Ġalkaline":7327,"Ġevidenced":7328,"Ġalthough":7329,"Ġhealth":7330,"Ġadapt":7331,"Ġneighbors":7332,"graph":7333,"Ġfascinated":7334,"Ġeffect":7335,"Ġunlikely":7336,"Ġgraham":7337,"Ġfinancial":7338,"Ġobservant":7339,"Ġsymphony":7340,"parents":7341,"Ġtucson":7342,"Ġwarehouse":7343,"Ġfrenzy":7344,"Ġanalyze":7345,"Ġgorgeous":7346,"Ġcandidate":7347,"Ġrevenge":7348,"Ġsuddenly":7349,"Ġjamey":7350,"Ġegypt":7351,"Ġvelvet":7352,"Ġbrussels":7353,"Ġattributes":7354,"Ġfletcher":7355,"Ġchainsmokers":7356,"118":7357,"1000":7358,"?\"":7359,"au":7360,"bea":7361,"burn":7362,"bab":7363,"bute":7364,"bled":7365,"cest":7366,"ee":7367,"eing":7368,"fth":7369,"found":7370,"gl":7371,"hab":7372,"iv":7373,"ius":7374,"kis":7375,"kind":7376,"lan":7377,"long":7378,"might":7379,"mary":7380,"miah":7381,"nat":7382,"new":7383,"oid":7384,"oir":7385,"roph":7386,"sby":7387,"uk":7388,"xious":7389,"anger":7390,"erian":7391,"Ġiver":7392,"Ġhay":7393,"Ġhate":7394,"Ġhungry":7395,"Ġsens":7396,"Ġsib":7397,"atory":7398,"atical":7399,"ined":7400,"inable":7401,"Ġmardi":7402,"Ġcc":7403,"Ġcip":7404,"Ġlen":7405,"Ġlum":7406,"Ġpong":7407,"Ġpans":7408,"Ġpure":7409,"Ġpage":7410,"Ġpump":7411,"Ġpaint":7412,"Ġponto":7413,"Ġbien":7414,"Ġbachel":7415,"Ġancest":7416,"Ġtoby":7417,"Ġtone":7418,"Ġgor":7419,"Ġgather":7420,"Ġdat":7421,"Ġdame":7422,"Ġdna":7423,"ening":7424,"encer":7425,"Ġnich":7426,"Ġhood":7427,"Ġisa":7428,"icate":7429,"Ġlit":7430,"leck":7431,"leonardo":7432,"Ġroose":7433,"Ġraven":7434,"Ġhallow":7435,"Ġrese":7436,"Ġrend":7437,"Ġrefer":7438,"Ġreport":7439,"Ġrevol":7440,"Ġrecover":7441,"itas":7442,"ilera":7443,"ilada":7444,"owers":7445,"alist":7446,"Ġneut":7447,"Ġsto":7448,"Ġstated":7449,"Ġstoner":7450,"entious":7451,"Ġsubur":7452,"Ġchip":7453,"Ġchief":7454,"eah":7455,"Ġnov":7456,"Ġeleph":7457,"Ġeluded":7458,"imag":7459,"imore":7460,"Ġevolution":7461,"Ġ250":7462,"Ġkath":7463,"Ġaless":7464,"loy":7465,"estr":7466,"Ġshorter":7467,"Ġuter":7468,"Ġseeking":7469,"allison":7470,"amma":7471,"uty":7472,"Ġletter":7473,"Ġprayer":7474,"Ġpress":7475,"opita":7476,"Ġsolo":7477,"Ġarm":7478,"Ġener":7479,"Ġloy":7480,"Ġspl":7481,"Ġspencer":7482,"Ġcogn":7483,"Ġtracy":7484,"ulous":7485,"quely":7486,"andora":7487,"Ġshowers":7488,"Ġ39":7489,"Ġ3111":7490,"Ġ415":7491,"Ġnewfound":7492,"Ġ2018":7493,"Ġknew":7494,"Ġknack":7495,"Ġbreaks":7496,"Âłare":7497,"Âłto":7498,"Âłbar":7499,"becue":7500,"xton":7501,"Ġmusiq":7502,"Ġpeep":7503,"Ġlaird":7504,"Ġartwork":7505,"acious":7506,"Ġ916":7507,"Ġ926":7508,"Ġparkway":7509,"Ġcliff":7510,"rol":7511,"cohol":7512,"Ġembr":7513,"Ġ81":7514,"Ġ88":7515,"Ġdivisions":7516,"Ġleather":7517,"Ġretreat":7518,"ublic":7519,"illas":7520,"Ġcalient":7521,"Ġtook":7522,"Ġunre":7523,"Ġuncover":7524,"Ġunearth":7525,"Ġunimag":7526,"107":7527,"108":7528,"1049":7529,"igs":7530,"igan":7531,"abi":7532,"Ġspears":7533,"Ġgran":7534,"Ġgras":7535,"ificant":7536,"bride":7537,"irmont":7538,"rait":7539,"udio":7540,"Ġlargest":7541,"Ġchosen":7542,"Ġtheirs":7543,"Ġagents":7544,"ola":7545,"Ġbackground":7546,"Ġ1920":7547,"Ġ1906":7548,"Ġplanned":7549,"person":7550,"Ġdesign":7551,"Ġbuena":7552,"Ġdowney":7553,"138":7554,"1349":7555,"Ġsmash":7556,"Ġsmells":7557,"124":7558,"Ġmostly":7559,"Ġamazons":7560,"Ġthrilling":7561,"Ġkebab":7562,"Ġjanet":7563,"Ġzoe":7564,"Ġzero":7565,"Ġzimmer":7566,"Ġziggy":7567,"Ġspending":7568,"Ġstopover":7569,"Ġuniquely":7570,"Ġbits":7571,"Ġexped":7572,"165":7573,"Ġeddie":7574,"Ġlufth":7575,"Ġlatimore":7576,"Ġdecides":7577,"lands":7578,"Ġdefining":7579,"Ġfoster":7580,"Ġmercen":7581,"Ġharrison":7582,"Ġslamma":7583,"142":7584,"Ġextraord":7585,"Ġcharming":7586,"Ġdauph":7587,"Ġhappiness":7588,"Ġnorm":7589,"Ġgrandview":7590,"Ġpatrol":7591,"Ġjackman":7592,"phone":7593,"Ġindigo":7594,"Ġmountains":7595,"Ġputs":7596,"Ġdislike":7597,"Ġattach":7598,"Ġheaded":7599,"Ġmae":7600,"Ġmcbride":7601,"Ġembark":7602,"Ġchapters":7603,"Ġraised":7604,"Ġinstinct":7605,"velt":7606,"Ġassume":7607,"Ġenter":7608,"Ġcucum":7609,"Ġconspir":7610,"Ġhands":7611,"Ġhandler":7612,"Ġcoltr":7613,"Ġcolors":7614,"Ġcamera":7615,"case":7616,"Ġbritney":7617,"Ġtreehouse":7618,"289":7619,"Ġantiques":7620,"Ġportrait":7621,"retentious":7622,"Ġpolitics":7623,"Ġdiscovered":7624,"Ġpremises":7625,"Ġsleeping":7626,"Ġgives":7627,"Ġhurricane":7628,"Ġcannolis":7629,"290":7630,"Ġrichie":7631,"Ġmaggie":7632,"Ġtribute":7633,"Ġniro":7634,"Ġcocktails":7635,"Ġjamma":7636,"Ġvert":7637,"Ġramones":7638,"Ġhostile":7639,"Ġnatomas":7640,"restrial":7641,"Ġhumor":7642,"Âłthat":7643,"Ġwritten":7644,"Ġcompletely":7645,"Ġcabanas":7646,"iety":7647,"Ġbrian":7648,"Ġmarriot":7649,"Ġ1970":7650,"Ġgroban":7651,"Ġwords":7652,"Ġsoulchild":7653,"Ġtender":7654,"Ġideally":7655,"breaking":7656,"Ġsoldiers":7657,"Ġcommunist":7658,"Ġpromise":7659,"Ġenchilada":7660,"Ġcivilization":7661,"Ġanswers":7662,"Ġlionel":7663,"Ġvalerian":7664,"Ġphysiolog":7665,"Ġpeaceful":7666,"market":7667,"Ġsignificant":7668,"Ġruby":7669,"Ġshared":7670,"Ġpapa":7671,"Ġposner":7672,"Ġfairmont":7673,"Ġoakland":7674,"Ġcombination":7675,"metal":7676,"Ġtreatments":7677,"Ġparameters":7678,"Ġdepressing":7679,"Ġultimately":7680,"Ġunchained":7681,"Ġaffleck":7682,"Ġsamosas":7683,"Ġculture":7684,"Ġplaced":7685,"avia":7686,"Ġjeremiah":7687,"Ġsharona":7688,"Ġawakens":7689,"Ġcranber":7690,"Ġdrums":7691,"Ġapplies":7692,"Ġvengeful":7693,"Ġtropics":7694,"Ġcinelux":7695,"Ġaguilera":7696,"Ġindividually":7697,"Ġhudson":7698,"Ġodds":7699,"Ġzookeeper":7700,"Ġjapanese":7701,"Ġwidow":7702,"Ġtrolls":7703,"Ġreuben":7704,"Ġamorphis":7705,"Ġsodas":7706,"Ġunpretentious":7707,"Ġunconquer":7708,"Ġbelgium":7709,"Ġopportunity":7710,"Ġdumplings":7711,"Ġseapointe":7712,"lava":7713,"Ġbaklava":7714,"eapolis":7715,"Ġemoji":7716,"Ġmegadeth":7717,"Ġadaptation":7718,"Ġcipher":7719,"Ġbienville":7720,"Ġnichol":7721,"Ġroosevelt":7722,"Ġneutral":7723,"Ġelephant":7724,"Ġutero":7725,"Ġcognitive":7726,"Ġ92651":7727,"Ġcaliente":7728,"Ġunearths":7729,"Ġunimaginable":7730,"Ġlufthans":7731,"Ġextraordinary":7732,"Ġdauphine":7733,"Ġconspiracy":7734,"Ġcoltrane":7735,"Ġphysiological":7736,"09":7737,"220":7738,"217":7739,"499":7740,"5000":7741,"760":7742,"87":7743,"app":7744,"bs":7745,"corn":7746,"cÃ©":7747,"cery":7748,"drop":7749,"ega":7750,"fiction":7751,"gre":7752,"gni":7753,"here":7754,"list":7755,"lim":7756,"lific":7757,"lave":7758,"mus":7759,"miles":7760,"nate":7761,"nomin":7762,"ota":7763,"pan":7764,"ply":7765,"rad":7766,"ration":7767,"ti":7768,"tv":7769,"tower":7770,"vine":7771,"war":7772,"will":7773,"wler":7774,"Ã±":7775,"Ġern":7776,"anch":7777,"Ġtn":7778,"Ġtul":7779,"Ġtso":7780,"Ġtab":7781,"Ġtank":7782,"Ġtempt":7783,"isa":7784,"isi":7785,"isy":7786,"Ġther":7787,"Ġthread":7788,"anton":7789,"antom":7790,"Ġay":7791,"Ġath":7792,"Ġaur":7793,"Ġaid":7794,"ista":7795,"Ġira":7796,"Ġidy":7797,"Ġidol":7798,"Ġhend":7799,"Ġhick":7800,"Ġhbo":7801,"Ġhugh":7802,"Ġhwy":7803,"Ġhutton":7804,"Ġoc":7805,"Ġsar":7806,"Ġsic":7807,"Ġwrest":7808,"Ġwinger":7809,"Ġwreck":7810,"Ġwrote":7811,"ats":7812,"ateau":7813,"Ġfed":7814,"Ġment":7815,"Ġmim":7816,"Ġceline":7817,"Ġles":7818,"Ġlakes":7819,"Ġpy":7820,"Ġpond":7821,"Ġpony":7822,"Ġbatch":7823,"else":7824,"ayn":7825,"orgia":7826,"Ġtong":7827,"Ġgay":7828,"Ġgent":7829,"Ġgare":7830,"onic":7831,"Ġdion":7832,"Ġdaring":7833,"Ġdirt":7834,"oms":7835,"Ġnina":7836,"that":7837,"thef":7838,"llen":7839,"llic":7840,"iced":7841,"Ġlim":7842,"Ġwhites":7843,"Ġron":7844,"Ġcandle":7845,"Ġhelen":7846,"Ġmos":7847,"Ġmoves":7848,"Ġhawn":7849,"Ġhabit":7850,"Ġrex":7851,"che":7852,"chair":7853,"christ":7854,"chburg":7855,"aled":7856,"althy":7857,"Ġneg":7858,"Ġneo":7859,"Ġsem":7860,"Ġseizes":7861,"nda":7862,"stell":7863,"inds":7864,"Ġanya":7865,"Ġjp":7866,"Ġjw":7867,"Ġjad":7868,"Ġjag":7869,"Ġjaws":7870,"ounds":7871,"cturn":7872,"eared":7873,"urbed":7874,"Ġfry":7875,"Ġnova":7876,"Ġnocturn":7877,"Ġrobo":7878,"Ġroger":7879,"Ġethan":7880,"Ġkirk":7881,"Ġkatherine":7882,"Ġalcohol":7883,"love":7884,"lost":7885,"irard":7886,"Ġshoo":7887,"Ġshady":7888,"Ġshatt":7889,"Ġsharing":7890,"Ġwillows":7891,"Ġseeming":7892,"ferson":7893,"Ġnightcra":7894,"riate":7895,"ript":7896,"Ġallied":7897,"convention":7898,"Ġprep":7899,"Ġpreach":7900,"ified":7901,"Ġtwa":7902,"Ġargo":7903,"Ġarbor":7904,"Ġarrange":7905,"Ġarctic":7906,"Ġencour":7907,"Ġload":7908,"Ġspit":7909,"Ġspike":7910,"Ġspacious":7911,"feat":7912,"quitz":7913,"quarters":7914,"akopita":7915,"Ġshowed":7916,"Ġenjoying":7917,"Ġ38":7918,"Ġmins":7919,"Ġminions":7920,"Ġminestr":7921,"Ġtelling":7922,"sody":7923,"Ġadjo":7924,"Ġadvan":7925,"Ġbrenda":7926,"Ġmarine":7927,"Ġmarco":7928,"Ġmarsh":7929,"Ġdeb":7930,"Ġdeals":7931,"Ġdeutch":7932,"ssaka":7933,"Ġdetect":7934,"Ġknowledge":7935,"Ġfilled":7936,"Âłe":7937,"Âłk":7938,"Âłon":7939,"Âłone":7940,"Âłyou":7941,"aving":7942,"Ġcaller":7943,"Ġcalling":7944,"Ġconey":7945,"Ġconnection":7946,"Ġwealthy":7947,"Ġvent":7948,"Ġvine":7949,"Ġvaugh":7950,"Ġmuslim":7951,"Ġpean":7952,"Ġmanch":7953,"Ġbarren":7954,"nix":7955,"Ġpose":7956,"Ġdrop":7957,"Ġclim":7958,"Ġclash":7959,"Ġbod":7960,"Ġboat":7961,"Ġboom":7962,"coon":7963,"Ġquart":7964,"Ġquaint":7965,"Ġexorc":7966,"Ġ(\"":7967,"Ġprove":7968,"Ġprolific":7969,"plic":7970,"Ġinterrupted":7971,"atoga":7972,"Ġcara":7973,"Ġcarro":7974,"Ġcarto":7975,"Ġcarnation":7976,"Ġrented":7977,"Ġfitchburg":7978,"azi":7979,"Ġclooney":7980,"Ġunc":7981,"Ġtyler":7982,"Ġjunior":7983,"101":7984,"106":7985,"208":7986,"cles":7987,"Ġblair":7988,"Ġconfirmed":7989,"rah":7990,"osal":7991,"Ġbackdrop":7992,"171":7993,"177":7994,"ouses":7995,"Ġtripp":7996,"Ġoceans":7997,"Ġoutdoors":7998,"Ġbrid":7999,"rillex":8000,"ageous":8001,"Ġmorgan":8002,"Ġscor":8003,"Ġlimited":8004,"2000":8005,"256":8006,"Ġuses":8007,"131":8008,"Ġphantom":8009,"Ġapply":8010,"122":8011,"otel":8012,"Ġpopcorn":8013,"âĢĭ":8014,"Ġskrillex":8015,"Ġlongest":8016,"Ġzz":8017,"Ġappreciated":8018,"Ġworse":8019,"Ġmicroph":8020,"mini":8021,"Ġbabymetal":8022,"168":8023,"Ġbloss":8024,"uggle":8025,"Ġgroundbreaking":8026,"Ġlately":8027,"Ġwaterston":8028,"Ġwaterpark":8029,"Ġsandy":8030,"Ġfoxx":8031,"araji":8032,"Ġeagles":8033,"Ġdisturbed":8034,"194":8035,"Ġharvey":8036,"Ġharrah":8037,"Ġdarkness":8038,"Ġ188":8039,"Ġserkis":8040,"Ġprivacy":8041,"Ġhang":8042,"Ġbayside":8043,"Ġversus":8044,"Ġbatter":8045,"Ġstruggle":8046,"Ġbeaux":8047,"Ġ2346":8048,"Ġdiscon":8049,"Ġsleight":8050,"Ġitaly":8051,"aho":8052,"Ġbillie":8053,"Ġbillionaire":8054,"Ġboyega":8055,"Ġheadquarters":8056,"Ġsteel":8057,"224":8058,"227":8059,"woody":8060,"Ġgeorgia":8061,"Ġchanging":8062,"Ġpossibility":8063,"Ġmccon":8064,"Ġlambert":8065,"Ġmixed":8066,"Ġplanets":8067,"233":8068,"270":8069,"Ġdreamin":8070,"Ġtraining":8071,"Ġtrained":8072,"Ġstreamlined":8073,"Ġfancy":8074,"Ġfaced":8075,"Ġindiana":8076,"Ġfastest":8077,"Ġimpro":8078,"Ġglobal":8079,"Ġservings":8080,"Ġmills":8081,"Ġvoices":8082,"Ġsaved":8083,"Ġsavage":8084,"Ġfreak":8085,"Ġantique":8086,"Ġrobbed":8087,"Ġpanini":8088,"Ġmemory":8089,"Ġsitu":8090,"Ġroyals":8091,"Ġapartment":8092,"Ġwilde":8093,"Ġfairy":8094,"Ġlasagne":8095,"Ġpsycholog":8096,"Ġghirard":8097,"Ġgods":8098,"Ġmatters":8099,"Ġmotiv":8100,"Ġshadows":8101,"ropriate":8102,"Ġjimi":8103,"Ġeventually":8104,"Ġstrongly":8105,"Ġbradley":8106,"Ġhunter":8107,"Ġhuntress":8108,"Ġwheat":8109,"Ġdolls":8110,"Ġduration":8111,"Ġhawk":8112,"Ġspanakopita":8113,"restaurant":8114,"Ġsolve":8115,"Ġsolace":8116,"Ġsnowden":8117,"Ġhenson":8118,"Ġwhitcomb":8119,"Ġgrocery":8120,"Ġstatesman":8121,"Ġbarenaked":8122,"Ġestranged":8123,"Ġcookie":8124,"lounge":8125,"Ġtests":8126,"Ġrule":8127,"Ġshelton":8128,"Ġ34102":8129,"Ġjean":8130,"conditioning":8131,"Ġexperimental":8132,"Ġfaj":8133,"oopi":8134,"Ġconstant":8135,"Ġtreatment":8136,"Ġelectronic":8137,"Ġtahquitz":8138,"Ġgrowing":8139,"Ġstrikes":8140,"course":8141,"Ġhouses":8142,"Ġkimpton":8143,"Ġproducer":8144,"packed":8145,"Ġscarlet":8146,"Ġmontana":8147,"Ġpushes":8148,"Ġjeremy":8149,"Ġviolence":8150,"Ġcranston":8151,"liable":8152,"Ġmazarin":8153,"Ġraccoon":8154,"Ġauto":8155,"Ġvengeance":8156,"Ġreconnaissance":8157,"Ġencounter":8158,"Ġvariety":8159,"Ġsheltered":8160,"Ġgraduate":8161,"Ġmoussaka":8162,"Ġholland":8163,"Ġcartel":8164,"Ġcarpenter":8165,"Ġcinearts":8166,"Ġdevelop":8167,"Ġaccompl":8168,"Ġmedicine":8169,"speed":8170,"Ġpatty":8171,"Ġnarrator":8172,"Ġlosses":8173,"Ġmythic":8174,"Ġprodig":8175,"Ġbuckley":8176,"Ġcrusty":8177,"Ġembarks":8178,"Ġkhalid":8179,"Ġblessthef":8180,"Ġapprox":8181,"poster":8182,"Ġgibson":8183,"Ġassuming":8184,"Ġcyrus":8185,"Ġmathem":8186,"Ġrecogni":8187,"Ġshatter":8188,"Ġminneapolis":8189,"Ġclarkson":8190,"Ġccbc":8191,"Ġlength":8192,"Ġalessia":8193,"Âłbarbecue":8194,"Ġunreliable":8195,"Ġgranite":8196,"Ġattached":8197,"Ġhandlery":8198,"nominated":8199,"Ġernest":8200,"Ġaurora":8201,"Ġidyllic":8202,"Ġhendrix":8203,"Ġsaratoga":8204,"Ġsicario":8205,"Ġmentor":8206,"Ġseemingly":8207,"Ġnightcrawler":8208,"Ġminestrone":8209,"Ġadjoining":8210,"Ġdetective":8211,"Ġcartoon":8212,"Ġmicrophone":8213,"Ġghirardelli":8214,"Ġblessthefall":8215,"-$":8216,"215":8217,"240":8218,"399":8219,"329":8220,"dry":8221,"fun":8222,"hi":8223,"hard":8224,"ker":8225,"kah":8226,"lins":8227,"luck":8228,"mm":8229,"mad":8230,"mission":8231,"ody":8232,"pions":8233,"tale":8234,"uct":8235,"uous":8236,"vels":8237,"wash":8238,"wii":8239,"yrd":8240,"ygen":8241,"zed":8242,"Ġou":8243,"ĠÂ¨":8244,"Ġetc":8245,"Ġtail":8246,"Ġtiny":8247,"ermin":8248,"erba":8249,"asco":8250,"Ġthom":8251,"Ġthund":8252,"antha":8253,"Ġaz":8254,"Ġaura":8255,"Ġille":8256,"used":8257,"usch":8258,"Ġhitch":8259,"Ġhateful":8260,"Ġooh":8261,"Ġya":8262,"Ġyung":8263,"Ġyerba":8264,"Ġsg":8265,"Ġsant":8266,"Ġsni":8267,"Ġwast":8268,"Ġwins":8269,"Ġwicked":8270,"Ġwwii":8271,"atown":8272,"inf":8273,"int":8274,"innon":8275,"Ġfest":8276,"Ġfond":8277,"Ġpor":8278,"Ġpale":8279,"Ġpya":8280,"Ġpanda":8281,"Ġpandora":8282,"Ġbind":8283,"Ġbung":8284,"eled":8285,"elow":8286,"elson":8287,"Ġang":8288,"Ġtoast":8289,"Ġtones":8290,"Ġgere":8291,"Ġgour":8292,"Ġgum":8293,"Ġdick":8294,"Ġdarl":8295,"Ġditch":8296,"Ġdaly":8297,"enjoy":8298,"arri":8299,"Ġni":8300,"Ġnelson":8301,"thia":8302,"thod":8303,"thics":8304,"Ġhook":8305,"kee":8306,"Ġissue":8307,"Ġinj":8308,"Ġinva":8309,"Ġinhab":8310,"Ġrand":8311,"Ġrage":8312,"Ġcandy":8313,"vity":8314,"Ġhaul":8315,"Ġreag":8316,"Ġreign":8317,"Ġmember":8318,"Ġmethod":8319,"omethe":8320,"charl":8321,"ilo":8322,"alibur":8323,"Ġneon":8324,"seth":8325,"Ġseal":8326,"Ġjes":8327,"Ġjum":8328,"Ġyester":8329,"Ġchain":8330,"ctive":8331,"urring":8332,"Ġframe":8333,"Ġfrag":8334,"Ġ150":8335,"imately":8336,"Ġevan":8337,"Ġethics":8338,"Ġkick":8339,"Ġkub":8340,"Ġkore":8341,"Ġalph":8342,"Ġalyson":8343,"iding":8344,"Ġult":8345,"amental":8346,"ellan":8347,"ellin":8348,"ellig":8349,"Ġnightly":8350,"utter":8351,"Ġpromethe":8352,"cone":8353,"Ġprecious":8354,"opa":8355,"Ġample":8356,"Ġcoin":8357,"Ġcolin":8358,"Ġratat":8359,"Ġoutersp":8360,"quis":8361,"Ġ33":8362,"Ġchef":8363,"Ġcheesy":8364,"Ġavenge":8365,"enda":8366,"Ġ76":8367,"Ġcommit":8368,"soci":8369,"ichang":8370,"Ġadjust":8371,"ineers":8372,"Ġupmarket":8373,"Ġnotable":8374,"Ġbreakers":8375,"Âłd":8376,"Âłas":8377,"Âłjust":8378,"Ġ59":8379,"Ġ500":8380,"Ġweight":8381,"Ġwearing":8382,"Ġvows":8383,"bey":8384,"Ġbaron":8385,"acu":8386,"aced":8387,"Ġ950":8388,"Ġ956":8389,"ptic":8390,"Ġpoison":8391,"Ġpotter":8392,"Ġparks":8393,"ryn":8394,"Ġdrunk":8395,"Ġ63":8396,"Ġ66":8397,"Ġ649":8398,"devil":8399,"Ġbose":8400,"Ġboca":8401,"iza":8402,"Ġguer":8403,"ansel":8404,"151":8405,"152":8406,"157":8407,"158":8408,"1500":8409,"Ġlisting":8410,"Ġ82":8411,"Ġexod":8412,"Ġlevels":8413,"Ġretire":8414,"Ġresour":8415,"Ġcorner":8416,"plit":8417,"Ġamenity":8418,"illat":8419,"Ġinterstell":8420,"Ġcarri":8421,"Ġsavior":8422,"agne":8423,"ema":8424,"azar":8425,"Ġclover":8426,"Ġcoffey":8427,"Ġuns":8428,"104":8429,"Ġgray":8430,"Ġgrav":8431,"202":8432,"203":8433,"207":8434,"Ġdirecting":8435,"clellan":8436,"Ġblank":8437,"brad":8438,"Ġburgeon":8439,"Ġcaillat":8440,"orette":8441,"Ġalbany":8442,"oslave":8443,"Ġmilana":8444,"Ġminiature":8445,"olf":8446,"Ġregion":8447,"Ġspecies":8448,"Ġpalmas":8449,"Ġbridges":8450,"Ġbuilt":8451,"ynthia":8452,"Ġbusch":8453,"253":8454,"Ġusa":8455,"Ġexcalibur":8456,"Ġmontage":8457,"Ġpoppy":8458,"Ġzo":8459,"Ġzayn":8460,"Ġworried":8461,"Ġreli":8462,"Ġrelig":8463,"while":8464,"Ġstopped":8465,"Ġbigelow":8466,"Ġpursu":8467,"Ġpursue":8468,"Ġvanilla":8469,"Ġgoldie":8470,"Ġchronic":8471,"liters":8472,"Ġfocus":8473,"Ġcovering":8474,"Ġdistant":8475,"196":8476,"Ġdaft":8477,"Ġdaisy":8478,"Ġmedellin":8479,"comedy":8480,"Ġaboard":8481,"Ġpastram":8482,"Ġrocky":8483,"Ġmounts":8484,"Ġelection":8485,"odon":8486,"Ġbeats":8487,"Ġwicker":8488,"Ġmeaning":8489,"Ġmeanwhile":8490,"Ġveter":8491,"Ġreservoir":8492,"Ġdisplay":8493,"Ġdissoci":8494,"Ġalongside":8495,"Ġpeak":8496,"Ġhardy":8497,"Ġspecials":8498,"Ġschem":8499,"Ġmcclellan":8500,"Ġcreep":8501,"Ġraising":8502,"Ġoctavia":8503,"Ġrealizes":8504,"Ġinstall":8505,"Ġwhirlwind":8506,"Ġmiley":8507,"Ġassigned":8508,"273":8509,"Ġchinatown":8510,"Ġbrownies":8511,"Ġgrilled":8512,"Ġmurdered":8513,"Ġpits":8514,"Ġcolbie":8515,"Ġimprison":8516,"Ġglobes":8517,"Ġsamantha":8518,"Ġledisi":8519,"Âłhave":8520,"Ġfairfield":8521,"Ġpsychic":8522,"Ġdealing":8523,"ficent":8524,"Ġsophie":8525,"Ġtalked":8526,"Ġstudy":8527,"Ġcollabor":8528,"Ġgenerations":8529,"Ġstevens":8530,"Ġmeri":8531,"Ġtrees":8532,"ouchables":8533,"Ġknights":8534,"332":8535,"Ġverge":8536,"Âłsong":8537,"Âłsounds":8538,"Ġintellig":8539,"Ġconditioned":8540,"Ġhawai":8541,"Ġobliter":8542,"Ġmulti":8543,"Ġslowly":8544,"Âłthere":8545,"Ġterrible":8546,"black":8547,"Ġdelightfully":8548,"Ġerror":8549,"Ġbanksy":8550,"Ġopul":8551,"Ġsailor":8552,"Ġmaleficent":8553,"Ġaerof":8554,"Ġhopkins":8555,"Ġcrawling":8556,"Ġgarage":8557,"winning":8558,"Ġformat":8559,"Ġtaio":8560,"Ġbraxton":8561,"Ġbirthright":8562,"reyu":8563,"Ġmillionaire":8564,"Ġfault":8565,"Ġdepends":8566,"Ġdecisions":8567,"Ġshakira":8568,"Ġprotection":8569,"Ġfabric":8570,"Ġgrows":8571,"Ġultimate":8572,"Ġhunnam":8573,"Ġinvestigators":8574,"Ġhousing":8575,"Ġmessage":8576,"Ġevacu":8577,"Ġscientists":8578,"Ġplatforms":8579,"Ġauthors":8580,"Ġviolent":8581,"boards":8582,"Ġdelivery":8583,"Ġmichelle":8584,"Ġmichigan":8585,"Ġsuprem":8586,"Ġsupreme":8587,"Ġepik":8588,"Ġambient":8589,"Ġhomes":8590,"Ġboundaries":8591,"Âłamc":8592,"Ġdoomed":8593,"Ġencounters":8594,"Ġcorporation":8595,"Ġspectac":8596,"harrison":8597,"Ġbetrayed":8598,"Ġteacher":8599,"Ġtowne":8600,"Ġupdated":8601,"Ġdispatch":8602,"Ġbicycling":8603,"Ġemerges":8604,"Ġspawns":8605,"Ġmaiden":8606,"Ġmastodon":8607,"Ġdaredevil":8608,"Ġinspiration":8609,"Ġchandel":8610,"Ġdemons":8611,"Ġhamburgers":8612,"Ġbrokeback":8613,"Ġtraditionally":8614,"Ġcopyright":8615,"Ġrenovated":8616,"Ġmckinnon":8617,"Ġlonely":8618,"Ġdoub":8619,"Ġrisk":8620,"Ġjersey":8621,"Ġchimichang":8622,"Ġbrutal":8623,"Ġsalesman":8624,"Ġalleys":8625,"Ġblowing":8626,"Ġzombies":8627,"Ġbachelorette":8628,"Ġhalloween":8629,"Ġinstincts":8630,"Ġcranberries":8631,"Ġwidowed":8632,"Ġunconquerable":8633,"Ġlufthansa":8634,"Ġwrestles":8635,"Ġencouraged":8636,"Ġadvanced":8637,"Ġvinegar":8638,"Ġcarrots":8639,"Ġscorpions":8640,"Ġmcconaugh":8641,"Ġpsychological":8642,"Ġapproximately":8643,"Ġillegal":8644,"Ġhitchcock":8645,"Ġpyaari":8646,"Ġbindu":8647,"Ġbungal":8648,"Ġgourmet":8649,"Ġinvaders":8650,"Ġreagan":8651,"charlie":8652,"Ġyesterday":8653,"Ġfragile":8654,"Ġprometheus":8655,"Ġouterspace":8656,"Ġ95616":8657,"Ġexodus":8658,"Ġretirement":8659,"Ġinterstellar":8660,"Ġburgeoning":8661,"Ġpastrami":8662,"Ġdissociative":8663,"Ġaeroflot":8664,"//":8665,"113":8666,"114":8667,"225":8668,"93":8669,"://":8670,"bid":8671,"bour":8672,"bull":8673,"bird":8674,"cd":8675,"cast":8676,"cul":8677,"clos":8678,"cynthia":8679,"eer":8680,"ech":8681,"easy":8682,"flo":8683,"face":8684,"fish":8685,"fren":8686,"gom":8687,"good":8688,"home":8689,"hop":8690,"ju":8691,"jan":8692,"mor":8693,"mans":8694,"milla":8695,"pin":8696,"pine":8697,"rant":8698,"ril":8699,"ront":8700,"rating":8701,"sive":8702,"syl":8703,"temp":8704,"ucas":8705,"vous":8706,"wreck":8707,"yatt":8708,"yeah":8709,"Ġtick":8710,"erce":8711,"eries":8712,"erated":8713,"iser":8714,"isaz":8715,"ased":8716,"asion":8717,"ascar":8718,"ouill":8719,"Ġailing":8720,"Ġivy":8721,"Ġign":8722,"Ġhatch":8723,"Ġole":8724,"Ġoli":8725,"Ġyan":8726,"Ġske":8727,"Ġsings":8728,"Ġsins":8729,"Ġsynd":8730,"Ġselling":8731,"atum":8732,"Ġyouth":8733,"rel":8734,"reme":8735,"Ġfel":8736,"Ġmut":8737,"Ġmack":8738,"Ġmap":8739,"Ġmorton":8740,"Ġcities":8741,"Ġcig":8742,"Ġcudi":8743,"Ġcena":8744,"Ġllo":8745,"Ġlaur":8746,"Ġlud":8747,"Ġlinda":8748,"Ġlcd":8749,"Ġpic":8750,"Ġbid":8751,"Ġbitch":8752,"Ġbunch":8753,"Ġannie":8754,"orm":8755,"orman":8756,"Ġtoward":8757,"Ġgoose":8758,"Ġgamb":8759,"Ġdm":8760,"Ġdumb":8761,"arus":8762,"arack":8763,"omar":8764,"Ġnan":8765,"Ġnaked":8766,"thes":8767,"Ġhob":8768,"Ġholo":8769,"oops":8770,"icon":8771,"icia":8772,"Ġliqu":8773,"Ġlived":8774,"Ġlipa":8775,"Ġing":8776,"Ġinvi":8777,"Ġwhis":8778,"Ġwhoopi":8779,"Ġmoz":8780,"Ġrever":8781,"itt":8782,"itude":8783,"ila":8784,"ilight":8785,"ilings":8786,"seeing":8787,"Ġstun":8788,"Ġstol":8789,"Ġstage":8790,"Ġstath":8791,"Ġsey":8792,"Ġseed":8793,"Ġseag":8794,"Ġsevent":8795,"Ġornate":8796,"store":8797,"strong":8798,"Ġdogg":8799,"inder":8800,"Ġsup":8801,"Ġjury":8802,"Ġjep":8803,"Ġgotten":8804,"Ġcher":8805,"Ġchas":8806,"Ġchoo":8807,"Ġchester":8808,"Ġabs":8809,"Ġabba":8810,"ailed":8811,"Ġrocket":8812,"iment":8813,"Ġec":8814,"Ġkorn":8815,"Ġalo":8816,"Ġalpine":8817,"lopes":8818,"locks":8819,"idon":8820,"estra":8821,"Ġsha":8822,"Ġshan":8823,"Ġsham":8824,"Ġua":8825,"amite":8826,"Ġflag":8827,"Ġflash":8828,"utious":8829,"rif":8830,"rigu":8831,"cka":8832,"leash":8833,"Ġprefren":8834,"opic":8835,"opard":8836,"Ġamus":8837,"Ġtwilight":8838,"Ġarbo":8839,"Ġlose":8840,"nton":8841,"Ġsport":8842,"february":8843,"Ġtrade":8844,"Ġouter":8845,"ulu":8846,"Ġshowplace":8847,"Ġshowdown":8848,"Ġ49":8849,"Ġ420":8850,"Ġavoid":8851,"Ġavril":8852,"endar":8853,"Ġwatchtower":8854,"Ġ72":8855,"Ġ74":8856,"Ġbooks":8857,"Ġasc":8858,"Ġcomics":8859,"Ġ2012":8860,"Ġadema":8861,"ineer":8862,"Ġmarion":8863,"Ġupwards":8864,"Ġknows":8865,"Ġfierce":8866,"Âł6":8867,"Âłre":8868,"Âłal":8869,"Âłco":8870,"Âłper":8871,"Âłany":8872,"Âłla":8873,"Âłfrom":8874,"Âłfebruary":8875,"Ġvie":8876,"Ġvienna":8877,"Ġconn":8878,"ortig":8879,"Ġ57":8880,"Ġvic":8881,"Ġvortig":8882,"beth":8883,"Ġmaniac":8884,"Ġlaunch":8885,"Ġlavig":8886,"Ġfear":8887,"Ġdrawn":8888,"Ġ67":8889,"dem":8890,"Ġboise":8891,"roc":8892,"izon":8893,"Ġawake":8894,"Ġguided":8895,"Ġbeaches":8896,"fiance":8897,"Ġexcl":8898,"Ġexot":8899,"Ġdig":8900,"Ġleonardo":8901,"Ġbalance":8902,"Ġcomedian":8903,"plant":8904,"pling":8905,"plar":8906,"304":8907,"cipl":8908,"illaz":8909,"Ġcalendar":8910,"Ġgenius":8911,"Ġcarrie":8912,"Ġsald":8913,"Ġsabr":8914,"agascar":8915,"emies":8916,"Ġuneasy":8917,"Ġunlocks":8918,"Ġunleash":8919,"atta":8920,"abeds":8921,"abatta":8922,"Ġspeech":8923,"Ġconfront":8924,"Ġafghan":8925,"udup":8926,"Ġlarter":8927,"osh":8928,"osaur":8929,"Ġmilks":8930,"Ġeveryday":8931,"Ġ1960":8932,"Ġ1975":8933,"Ġ1990":8934,"176":8935,"Ġspecify":8936,"Ġspecifics":8937,"Ġbrook":8938,"Ġsalazar":8939,"Ġmadagascar":8940,"Ġbuzz":8941,"Ġoffsp":8942,"Ġnah":8943,"Ġcrumb":8944,"Ġcrudup":8945,"athy":8946,"athan":8947,"Ġscam":8948,"Ġscra":8949,"Ġscram":8950,"259":8951,"apes":8952,"Ġappropriate":8953,"126":8954,"1299":8955,"Ġmonarch":8956,"Ġsummary":8957,"Ġsynch":8958,"awa":8959,"Ġthrilled":8960,"Ġcritical":8961,"Ġfirework":8962,"Ġmissions":8963,"Ġfamilies":8964,"Ġdinosaur":8965,"Ġrelies":8966,"why":8967,"when":8968,"actic":8969,"Ġbloom":8970,"Ġeden":8971,"ugal":8972,"Ġluis":8973,"type":8974,"Ġextreme":8975,"Ġfunk":8976,"Ġdistinct":8977,"Ġmercy":8978,"valry":8979,"Ġslice":8980,"Ġthoughts":8981,"Ġsofabeds":8982,"Ġrivalry":8983,"Ġpao":8984,"Ġmainly":8985,"Ġseparated":8986,"Ġhanuk":8987,"Ġcircus":8988,"Ġfurs":8989,"Ġsnoop":8990,"Ġstranger":8991,"Ġfollowed":8992,"Ġranks":8993,"Ġshutter":8994,"Ġkeeping":8995,"Ġmats":8996,"Ġattitude":8997,"Ġhardwood":8998,"fortune":8999,"Ġpacked":9000,"Ġtracks":9001,"Ġfighter":9002,"Ġproposal":9003,"Ġmaud":9004,"Ġaccessible":9005,"Ġsatis":9006,"Ġmcd":9007,"Ġmccar":9008,"Ġflocka":9009,"Ġmighty":9010,"Ġbeastie":9011,"xxx":9012,"237":9013,"Ġmatchbox":9014,"Ġdreamworks":9015,"Ġtrains":9016,"Ġtrainwreck":9017,"Ġbarbarian":9018,"angled":9019,"fold":9020,"Ġidaho":9021,"Ġtiller":9022,"Ġpitbull":9023,"Ġthornton":9024,"Ġcola":9025,"Ġjourn":9026,"Ġcamila":9027,"Ġwoody":9028,"Ġescal":9029,"zzly":9030,"241":9031,"Ġcourtney":9032,"Ġaudioslave":9033,"Ġmemphis":9034,"Ġmachina":9035,"Ġwilder":9036,"resident":9037,"Ġshallows":9038,"Ġdealer":9039,"Ġsubt":9040,"Ġsubway":9041,"Ġsubmar":9042,"Ġboutiques":9043,"Ġcannoli":9044,"imposed":9045,"ronom":9046,"Ġgodz":9047,"Ġsmiths":9048,"apeÃ±":9049,"Ġthurisaz":9050,"Ġcastro":9051,"Ġcatchy":9052,"Ġengage":9053,"Ġengulf":9054,"Ġengaged":9055,"371":9056,"Ġfetch":9057,"Ġdeeply":9058,"Ġincident":9059,"Ġvegetables":9060,"Ġeastern":9061,"Ġmotion":9062,"Ġridgemont":9063,"Ġreading":9064,"Ġcommand":9065,"Ġcategories":9066,"ueled":9067,"Ġatlantic":9068,"Ġciabatta":9069,"Ġimagination":9070,"Ġearthborn":9071,"Ġpitted":9072,"Ġopera":9073,"Ġintrigu":9074,"Ġconsidered":9075,"Ġcapital":9076,"Ġhawke":9077,"Ġdua":9078,"david":9079,"Ġrhett":9080,"Ġstories":9081,"Ġhappened":9082,"explic":9083,"Ġmagician":9084,"Ġtambour":9085,"Ġcabello":9086,"Ġsailors":9087,"Ġaudio":9088,"Ġgrohl":9089,"Ġcrafts":9090,"Ġgarth":9091,"Ġlifts":9092,"Ġstephen":9093,"Ġlingus":9094,"Ġbeginning":9095,"Ġjonah":9096,"Ġguitars":9097,"Ġastor":9098,"Ġastrona":9099,"Ġlemonades":9100,"Ġsurface":9101,"Ġshares":9102,"Ġjessica":9103,"Ġmiso":9104,"Ġceilings":9105,"Ġoppressive":9106,"Ġmirage":9107,"Ġmiranda":9108,"Ġutil":9109,"Ġcombat":9110,"Ġowen":9111,"ĠjalapeÃ±":9112,"Ġrecruiting":9113,"Ġexplore":9114,"Ġincredib":9115,"Ġclearly":9116,"Ġlisbon":9117,"Ġexplain":9118,"Ġrecorded":9119,"Ġwalter":9120,"Ġbiopic":9121,"Ġkayak":9122,"Ġbrickwork":9123,"Ġalexand":9124,"Ġinvestigate":9125,"Ġsexual":9126,"Ġconvenient":9127,"Ġterrorism":9128,"Ġmatthews":9129,"Âłshowing":9130,"Ġmontgom":9131,"Ġanchorman":9132,"Ġreunites":9133,"Ġbraveheart":9134,"Ġlynch":9135,"ĠbeyoncÃ©":9136,"Ġashes":9137,"Ġimmedi":9138,"Ġanthony":9139,"Ġfashionable":9140,"Ġgrizzly":9141,"Ġstyles":9142,"Ġkristen":9143,"Ġpreviously":9144,"Ġexploring":9145,"Ġresponse":9146,"Ġmouth":9147,"Ġcarpenters":9148,"Ġoccupied":9149,"Ġtasked":9150,"Ġorchestra":9151,"www":9152,"remix":9153,"Ġbryson":9154,"Ġhotdog":9155,"Ġhotdogs":9156,"Ġeasier":9157,"Ġdeckard":9158,"Ġ96146":9159,"Ġmonkees":9160,"Ġmonkeys":9161,"Ġamidst":9162,"Ġscenic":9163,"Ġtemplar":9164,"Ġsightseeing":9165,"Ġfreddy":9166,"Ġrenner":9167,"Ġplantation":9168,"Ġchallen":9169,"Ġmarais":9170,"Ġlazarus":9171,"Ġqueue":9172,"Ġassignment":9173,"Ġlanguage":9174,"peter":9175,"Ġfundamental":9176,"Ġmashed":9177,"Ġpunish":9178,"Ġdynamite":9179,"Ġnominee":9180,"Ġnavy":9181,"Ġarrowood":9182,"Ġrestrictions":9183,"Ġcolumbus":9184,"Ġegyptian":9185,"beauty":9186,"natural":9187,"Ġlumineers":9188,"Ġgorillaz":9189,"Ġhoodie":9190,"Ġresearch":9191,"Ġkathryn":9192,"Ġloyal":9193,"Ġembrace":9194,"Ġexpedition":9195,"Ġnormally":9196,"Ġtemptations":9197,"Ġfederal":9198,"Ġmimos":9199,"Ġgareth":9200,"Ġmoscone":9201,"Ġnocturnal":9202,"Ġshattuck":9203,"Ġventura":9204,"nixon":9205,"Ġposeidon":9206,"Ġbodak":9207,"Ġdisconnect":9208,"Ġmathematical":9209,"Ġrecognized":9210,"dryers":9211,"Ġthompson":9212,"Ġsgt":9213,"Ġsniper":9214,"Ġwasteland":9215,"Ġdarling":9216,"Ġinhabited":9217,"Ġjesus":9218,"Ġalpha":9219,"Ġratatouill":9220,"Ġchronicles":9221,"Ġscheme":9222,"Ġinstallment":9223,"Ġintelligence":9224,"Ġopulent":9225,"Ġsupremacy":9226,"morgan":9227,"tempo":9228,"Ġlloyd":9229,"Ġlaura":9230,"Ġstolen":9231,"Ġstatham":9232,"Ġjepsen":9233,"Ġprefrences":9234,"Ġarboles":9235,"Ġvortigern":9236,"Ġlavigne":9237,"Ġexotic":9238,"Ġsabrina":9239,"Ġmilksh":9240,"Ġoffspring":9241,"Ġscrambled":9242,"Ġhanukkah":9243,"Ġsubmarine":9244,"Ġengulfing":9245,"Ġtambourine":9246,"Ġcraftsman":9247,"Ġmontgomery":9248,"Ġratatouille":9249,"'?":9250,",\"":9251,"0800":9252,"245":9253,"439":9254,"599":9255,"63":9256,"82":9257,"].":9258,"aab":9259,"aft":9260,"aughter":9261,"audio":9262,"bum":9263,"block":9264,"bistro":9265,"cat":9266,"cell":9267,"city":9268,"del":9269,"eth":9270,"eath":9271,"fx":9272,"fly":9273,"fare":9274,"french":9275,"fying":9276,"gor":9277,"gate":9278,"gens":9279,"gade":9280,"gulf":9281,"golf":9282,"high":9283,"hony":9284,"horts":9285,"iere":9286,"iot":9287,"jack":9288,"josh":9289,"kon":9290,"kely":9291,"katherine":9292,"lide":9293,"lished":9294,"lily":9295,"mill":9296,"math":9297,"now":9298,"nical":9299,"oa":9300,"oked":9301,"ovan":9302,"powers":9303,"rat":9304,"rne":9305,"sw":9306,"sou":9307,"set":9308,"sand":9309,"sak":9310,"uder":9311,"wa":9312,"wel":9313,"wit":9314,"wide":9315,"yout":9316,"zan":9317,"Ã¡":9318,"Ã³":9319,"Ġur":9320,"Ġess":9321,"anner":9322,"Ġtel":9323,"Ġtight":9324,"Ġtile":9325,"Ġtrench":9326,"Ġtiki":9327,"Ġtube":9328,"Ġtibur":9329,"Ġtaraji":9330,"erts":9331,"asure":9332,"asia":9333,"oux":9334,"anted":9335,"anthony":9336,"Ġagg":9337,"Ġakon":9338,"istol":9339,"Ġil":9340,"Ġire":9341,"asses":9342,"Ġhtt":9343,"Ġhorton":9344,"Ġhmm":9345,"Ġott":9346,"Ġoingo":9347,"Ġyel":9348,"Ġyam":9349,"Ġsedu":9350,"Ġsells":9351,"Ġsza":9352,"Ġwing":9353,"atello":9354,"Ġfool":9355,"Ġferry":9356,"Ġcou":9357,"Ġcong":9358,"Ġcute":9359,"Ġlb":9360,"Ġlach":9361,"Ġlala":9362,"Ġpak":9363,"Ġpig":9364,"Ġpix":9365,"Ġpath":9366,"Ġpuff":9367,"Ġpenny":9368,"Ġpelic":9369,"Ġporter":9370,"Ġpistol":9371,"Ġbing":9372,"Ġbor":9373,"Ġbent":9374,"Ġbree":9375,"Ġbale":9376,"Ġbooth":9377,"Ġbaker":9378,"elia":9379,"ingale":9380,"Ġanast":9381,"orf":9382,"oris":9383,"orne":9384,"Ġga":9385,"Ġgail":9386,"Ġgrip":9387,"Ġgord":9388,"Ġguster":9389,"Ġdim":9390,"Ġdry":9391,"Ġdenn":9392,"Ġdizz":9393,"arm":9394,"arco":9395,"oming":9396,"Ġnc":9397,"Ġner":9398,"Ġnam":9399,"Ġnca":9400,"Ġnba":9401,"Ġniece":9402,"thal":9403,"thouses":9404,"Ġholy":9405,"Ġhoag":9406,"Ġforge":9407,"Ġissu":9408,"ically":9409,"icated":9410,"Ġliam":9411,"Ġlikely":9412,"Ġinqu":9413,"edul":9414,"edelic":9415,"lew":9416,"vette":9417,"Ġrally":9418,"Ġrach":9419,"Ġcanadian":9420,"ldorf":9421,"Ġhelms":9422,"Ġofelia":9423,"Ġhaunt":9424,"Ġrene":9425,"Ġmement":9426,"Ġbegan":9427,"itage":9428,"chi":9429,"check":9430,"Ġthankful":9431,"Ġneph":9432,"Ġstair":9433,"Ġstained":9434,"Ġbyrne":9435,"Ġorson":9436,"Ġdoves":9437,"Ġdodie":9438,"Ġja":9439,"Ġjar":9440,"Ġplun":9441,"Ġplum":9442,"Ġchime":9443,"Ġchiron":9444,"ctuary":9445,"eague":9446,"eazy":9447,"urous":9448,"Ġnofx":9449,"Ġabilities":9450,"Ġsomehow":9451,"Ġros":9452,"Ġroby":9453,"Ġrogan":9454,"Ġroberts":9455,"Ġelton":9456,"Ġelusive":9457,"Ġelisa":9458,"imo":9459,"imstone":9460,"Ġeff":9461,"Ġevid":9462,"Ġkar":9463,"Ġkir":9464,"Ġkren":9465,"Ġkip":9466,"Ġkris":9467,"Ġkroc":9468,"Ġkaab":9469,"Ġalicia":9470,"idy":9471,"Ġgreatly":9472,"eston":9473,"Ġshout":9474,"Ġsheen":9475,"Ġshark":9476,"Ġshama":9477,"Ġshipp":9478,"adas":9479,"vert":9480,"ami":9481,"amy":9482,"Ġflow":9483,"Ġflutter":9484,"Ġnightingale":9485,"rian":9486,"rius":9487,"riot":9488,"Ġprada":9489,"Ġamasses":9490,"Ġsovi":9491,"ifact":9492,"ateral":9493,"geant":9494,"Ġenemies":9495,"Ġlore":9496,"Ġloaded":9497,"Ġspark":9498,"Ġmud":9499,"Ġcosm":9500,"Ġcohorts":9501,"Ġtran":9502,"Ġtrident":9503,"Ġtrilo":9504,"Ġtroops":9505,"Ġstarman":9506,"Ġstarred":9507,"Ġyeap":9508,"essel":9509,"quality":9510,"anded":9511,"terrestrial":9512,"Ġhasn":9513,"Ġparc":9514,"Ġparano":9515,"Ġwatched":9516,"Ġ79":9517,"Ġ789":9518,"Ġadmission":9519,"Ġmarath":9520,"Ġmarquis":9521,"Ġthinks":9522,"Ġdefiance":9523,"Ġdetermin":9524,"Âł5":9525,"Âłl":9526,"Âłan":9527,"Âłst":9528,"Âłcon":9529,"Âłso":9530,"Âłne":9531,"Âłca":9532,"Âłsa":9533,"Âłguardians":9534,"ateur":9535,"Ġconan":9536,"Ġconvers":9537,"Ġvary":9538,"Ġvessel":9539,"Ġnearly":9540,"Ġwells":9541,"acha":9542,"Ġmankind":9543,"Ġlazy":9544,"Ġlauder":9545,"Ġartifact":9546,"acing":9547,"nium":9548,"Ġpoland":9549,"Ġdraft":9550,"Ġcline":9551,"Ġclare":9552,"Ġclip":9553,"Ġbored":9554,"Ġbolton":9555,"Ġboingo":9556,"rob":9557,"road":9558,"robert":9559,"Ġdonovan":9560,"Ġdonatello":9561,"izer":9562,"owns":9563,"Ġbeachside":9564,"153":9565,"Ġemile":9566,"Ġ83":9567,"Ġexile":9568,"Ġdivision":9569,"berger":9570,"Ġlex":9571,"Ġlevy":9572,"Ġleonard":9573,"Ġretired":9574,"itect":9575,"Ġrescue":9576,"Ġrescu":9577,"Ġkindness":9578,"plan":9579,"303":9580,"cia":9581,"504":9582,"505":9583,"Ġsang":9584,"Ġsanity":9585,"Ġsanctuary":9586,"Ġcalm":9587,"Ġcalvin":9588,"Ġhighland":9589,"Ġgenetic":9590,"Ġcarrey":9591,"Ġundercover":9592,"Ġsaunders":9593,"ritic":9594,"Ġfitting":9595,"Ġclothes":9596,"Ġunits":9597,"igrant":9598,"Ġfilter":9599,"Ġinterests":9600,"abase":9601,"Ġgravi":9602,"Ġsimply":9603,"Ġconfident":9604,"Ġconfidence":9605,"2015":9606,"ppard":9607,"Ġflatlin":9608,"ract":9609,"Ġaffect":9610,"Ġparticip":9611,"Ġcoffeehouse":9612,"Ġmilan":9613,"Ġheritage":9614,"gerton":9615,"Ġuntouchables":9616,"olous":9617,"Ġ1910":9618,"Ġ1980":9619,"Ġ1944":9620,"173":9621,"Ġplanes":9622,"Ġregional":9623,"Ġregiment":9624,"Ġproblems":9625,"3000":9626,"Ġswa":9627,"Ġaftermath":9628,"Ġpalmdale":9629,"isserie":9630,"Ġlouder":9631,"Ġbranch":9632,"Ġbrusch":9633,"Ġbrimstone":9634,"Ġinformal":9635,"goon":9636,"Ġredman":9637,"Ġrecre":9638,"Ġbuchan":9639,"Ġlandsc":9640,"Ġglaz":9641,"Ġgloria":9642,"Ġcrout":9643,"Ġmorial":9644,"Ġmorris":9645,"Ġdownload":9646,"Ġbusy":9647,"Ġscale":9648,"apore":9649,"Ġ1500":9650,"133":9651,"Ġphar":9652,"Ġmornings":9653,"Ġoverton":9654,"Ġlotus":9655,"Ġmonstr":9656,"Ġcreate":9657,"Ġcrepes":9658,"Ġcontains":9659,"Ġdeloris":9660,"Ġwaldorf":9661,"Ġziti":9662,"Ġfirehouse":9663,"Ġmissed":9664,"Ġworst":9665,"Ġterra":9666,"Ġfarrell":9667,"356":9668,"icted":9669,"Ġcareers":9670,"Ġbigger":9671,"Ġbites":9672,"Ġexpos":9673,"167":9674,"Ġmoderate":9675,"Ġecono":9676,"Ġlupe":9677,"Ġhulk":9678,"Ġwaterfall":9679,"Ġdecades":9680,"Ġsandler":9681,"shell":9682,"shaped":9683,"Ġfeelings":9684,"Ġfold":9685,"Ġwasher":9686,"Ġeager":9687,"181":9688,"191":9689,"192":9690,"denzel":9691,"Ġharris":9692,"Ġslaughter":9693,"Ġangels":9694,"Ġsecure":9695,"Ġsuperpowers":9696,"Ġriot":9697,"Ġserial":9698,"Ġsergeant":9699,"Ġhamburg":9700,"Ġhappier":9701,"Ġmedical":9702,"Ġdescriptions":9703,"Ġsnake":9704,"Ġpatsy":9705,"Ġpatriot":9706,"Ġpatisserie":9707,"Ġeleven":9708,"Ġhyp":9709,"Ġteams":9710,"Ġcapture":9711,"Ġassisting":9712,"Ġveal":9713,"Ġdispl":9714,"Ġdiscipl":9715,"Ġpirate":9716,"Ġmatr":9717,"Ġbudwe":9718,"Ġpassing":9719,"Ġspacecraft":9720,"Ġheading":9721,"Ġheadstrong":9722,"Ġeggplant":9723,"Ġchancell":9724,"Ġlegs":9725,"Ġbosses":9726,"Ġsooner":9727,"Ġsoonest":9728,"psy":9729,"Ġschedul":9730,"Ġcourtyards":9731,"Ġraid":9732,"Ġreality":9733,"Ġspiderman":9734,"Ġinstant":9735,"Ġaccents":9736,"Ġmattresses":9737,"231":9738,"234":9739,"236":9740,"271":9741,"Ġsonny":9742,"Ġdreaming":9743,"Ġactivity":9744,"Ġentry":9745,"Ġtransit":9746,"Ġtransfer":9747,"Ġselections":9748,"Ġmurders":9749,"Ġides":9750,"Ġpita":9751,"Ġuseful":9752,"Ġlowe":9753,"Ġtitles":9754,"ients":9755,"Ġvoid":9756,"Ġforeign":9757,"Ġdishwash":9758,"281":9759,"287":9760,"Ġchannel":9761,"246":9762,"247":9763,"Ġslope":9764,"Ġportugal":9765,"Âłhas":9766,"Âłhold":9767,"Âłhotel":9768,"Ġmemor":9769,"Ġsits":9770,"Ġroyale":9771,"Ġwildlife":9772,"Ġfairport":9773,"Ġcreedence":9774,"Ġsleepy":9775,"Ġarchitect":9776,"Ġpsychedelic":9777,"261":9778,"Ġhurts":9779,"Ġsacrif":9780,"Ġstyled":9781,"Ġturning":9782,"Ġcastaway":9783,"Ġnicks":9784,"Ġengineer":9785,"Ġlambs":9786,"Ġtriada":9787,"Ġcollusion":9788,"Ġcolleague":9789,"Ġcollateral":9790,"Ġstevenson":9791,"Ġbeneath":9792,"Ġmotor":9793,"Ġexpert":9794,"ikk":9795,"Ġpantry":9796,"Ġclement":9797,"Ġallowed":9798,"Ġramp":9799,"Ġdemarco":9800,"Ġhuntington":9801,"Ġsyfy":9802,"Ġflex":9803,"Ġmassacre":9804,"Ġlawyer":9805,"Ġballs":9806,"Ġintense":9807,"Âłmay":9808,"Ġlearning":9809,"Ġwarmly":9810,"Ġhostiles":9811,"Ġatmospheric":9812,"Ġhawkins":9813,"Ġkraut":9814,"Ġobsc":9815,"Ġobvious":9816,"Ġkissed":9817,"Ġduo":9818,"nectar":9819,"Ġreminder":9820,"Ġhenley":9821,"counting":9822,"looking":9823,"office":9824,"Ġerso":9825,"Ġtamarack":9826,"Ġruston":9827,"Âłwill":9828,"Ġopens":9829,"Ġappear":9830,"Ġknock":9831,"Ġ1977":9832,"Ġ2007":9833,"Ġmanhood":9834,"Ġgarfield":9835,"Ġgarrix":9836,"vania":9837,"Ġreasons":9838,"Ġjonas":9839,"Ġhashbr":9840,"Ġquickly":9841,"Ġspeaking":9842,"Ġastoria":9843,"Ġastronom":9844,"Ġchesney":9845,"Ġvenues":9846,"Ġ94109":9847,"Ġcampus":9848,"Ġpenthouses":9849,"Ġindeed":9850,"Ġtavern":9851,"Ġwolves":9852,"Ġpapaya":9853,"Ġgatsby":9854,"Ġ34103":9855,"Ġbriefcase":9856,"Ġbirthday":9857,"Ġmisery":9858,"Ġjeff":9859,"Ġappetit":9860,"Ġoppos":9861,"Âłfound":9862,"Ġoakridge":9863,"Ġmirac":9864,"Ġaltern":9865,"Ġaltered":9866,"Ġsocials":9867,"Ġswitching":9868,"Ġpuppy":9869,"Ġinches":9870,"Ġadventurous":9871,"Ġexplores":9872,"Ġelectric":9873,"1101":9874,"Ġfabolous":9875,"Ġphilly":9876,"Ġrefle":9877,"Ġultimatum":9878,"Ġthrust":9879,"Ġthrice":9880,"Ġthrone":9881,"Ġideas":9882,"Ġmamma":9883,"Ġcontrovers":9884,"ointed":9885,"Ġhoused":9886,"Ġcultural":9887,"Ġbassnectar":9888,"Ġroutine":9889,"Ġsexes":9890,"Ġchainsaw":9891,"Ġuhm":9892,"Ġauthority":9893,"Ġreunion":9894,"Ġsharks":9895,"Ġawakened":9896,"Ġemotion":9897,"Ġdifficulties":9898,"Ġpuppets":9899,"Ġtoro":9900,"Ġoxygen":9901,"Ġlynn":9902,"Ġinfilt":9903,"Ġrussian":9904,"Ġstewart":9905,"Ġapocalyptic":9906,"Ġappetizer":9907,"Ġbabies":9908,"Ġepiso":9909,"Ġapplic":9910,"Ġimmigrant":9911,"Ġanthem":9912,"Ġtortilla":9913,"Ġbombs":9914,"Ġripley":9915,"Âłbut":9916,"Ġhawthorne":9917,"Ġexplorer":9918,"Ġreconnect":9919,"Ġstripped":9920,"Ġkygo":9921,"Ġtropical":9922,"Ġvarious":9923,"Ġresponders":9924,"Ġcorporate":9925,"ephone":9926,"Ġteenagers":9927,"Ġgraduation":9928,"Ġtarget":9929,"Ġpackage":9930,"Ġnyc":9931,"Ġinfluential":9932,"Ġaguilar":9933,"Ġindividual":9934,"Ġwireless":9935,"Ġprisoner":9936,"Ġdevelops":9937,"ronicity":9938,"Ġintrodu":9939,"zoey":9940,"Ġmobile":9941,"Ġrevealed":9942,"Ġrodeway":9943,"Ġeasily":9944,"Ġprimarily":9945,"Ġ781":9946,"Ġemploy":9947,"Ġcrisis":9948,"Ġcrispy":9949,"Ġcassidy":9950,"Ġcroce":9951,"Ġpennsyl":9952,"Ġgilbert":9953,"Ġninj":9954,"Ġpercentage":9955,"Ġbrentwood":9956,"Ġclaims":9957,"Ġscenes":9958,"Ġhorrible":9959,"Âłmovie":9960,"Ġsurprising":9961,"Ġandrews":9962,"wonder":9963,"Ġwitness":9964,"Ġstrings":9965,"Ġsixt":9966,"Ġexample":9967,"Ġestablish":9968,"Ġsteamed":9969,"graphy":9970,"Ġhayek":9971,"Ġgathering":9972,"Ġdatabase":9973,"Ġlitre":9974,"Ġpressure":9975,"Ġarmada":9976,"Ġsplash":9977,"Ġmercenary":9978,"Ġiraq":9979,"Ġhickory":9980,"Ġleslie":9981,"Ġpyram":9982,"Ġnegro":9983,"Ġjagged":9984,"Ġrobot":9985,"Ġshooting":9986,"Ġmarcos":9987,"Ġvaughan":9988,"Ġexorcist":9989,"Ġuncaged":9990,"Ġoceanside":9991,"Ġbatteries":9992,"Ġaccomplished":9993,"Ġporch":9994,"Ġdrunken":9995,"izabeth":9996,"Ġcarriage":9997,"Ġcloverfield":9998,"Ġreliving":9999,"Ġpursuit":10000,"Ġimprisoned":10001,"Ġevacuated":10002,"Ġspectacular":10003,"Ġchandelier":10004,"Ġmcconaughey":10005,"floor":10006,"Ġhatches":10007,"Ġhobbit":10008,"Ġinvite":10009,"Ġmozart":10010,"Ġstunning":10011,"Ġseventeen":10012,"Ġchasing":10013,"Ġchoosing":10014,"Ġchesterfield":10015,"Âłperform":10016,"Ġviejo":10017,"Ġsaldana":10018,"Ġcrumbling":10019,"Ġsynchronicity":10020,"Ġdinosaurs":10021,"Ġescalante":10022,"Ġgodzilla":10023,"Ġintriguing":10024,"explicit":10025,"Ġincredibly":10026,"Ġalexandria":10027,"Ġimmediately":10028,"youtube":10029,"Ġtelephone":10030,"Ġtiburon":10031,"Ġireland":10032,"Ġlachow":10033,"Ġpakistan":10034,"Ġpelican":10035,"Ġanastasia":10036,"Ġdennis":10037,"Ġdizzy":10038,"Ġncaa":10039,"Ġissues":10040,"Ġrenegade":10041,"Ġmemento":10042,"Ġnephew":10043,"Ġplunge":10044,"Ġrobyn":10045,"Ġevidence":10046,"Ġkrennic":10047,"Ġkaabil":10048,"Ġtrilogy":10049,"Ġmarathon":10050,"Ġdetermined":10051,"Ġconversation":10052,"Ġlauderdale":10053,"Ġrescuing":10054,"Ġgravity":10055,"Ġflatliners":10056,"Ġmonstrous":10057,"Ġslaughterhouse":10058,"Ġchancellor":10059,"Ġastronomer":10060,"Ġepisode":10061,"Ġpennsylvania":10062,"214":10063,"340":10064,"325":10065,"449":10066,"437":10067,"513":10068,"549":10069,"62":10070,"630":10071,"695":10072,"72":10073,"78":10074,"85":10075,"?.":10076,"aid":10077,"bet":10078,"bro":10079,"bria":10080,"cence":10081,"cca":10082,"cett":10083,"drill":10084,"dram":10085,"fueled":10086,"game":10087,"green":10088,"gna":10089,"gio":10090,"hd":10091,"his":10092,"ives":10093,"ika":10094,"iiara":10095,"je":10096,"jude":10097,"jones":10098,"kas":10099,"kate":10100,"kward":10101,"krist":10102,"lb":10103,"laur":10104,"lings":10105,"liam":10106,"lsey":10107,"lucas":10108,"mat":10109,"mble":10110,"nut":10111,"not":10112,"nett":10113,"nuts":10114,"och":10115,"othy":10116,"prin":10117,"piece":10118,"public":10119,"pathy":10120,"ras":10121,"rast":10122,"rich":10123,"rup":10124,"rical":10125,"racy":10126,"ser":10127,"sam":10128,"sink":10129,"sully":10130,"sky":10131,"sdale":10132,"sided":10133,"temporary":10134,"telling":10135,"uh":10136,"ui":10137,"uge":10138,"upt":10139,"vor":10140,"wo":10141,"wan":10142,"yne":10143,"yster":10144,"yani":10145,"zi":10146,"Ã¼":10147,"Ġq":10148,"Ġet":10149,"Ġantic":10150,"anor":10151,"ances":10152,"angel":10153,"angon":10154,"Ġtx":10155,"Ġtir":10156,"Ġtend":10157,"Ġtire":10158,"Ġtips":10159,"Ġtiff":10160,"eri":10161,"erge":10162,"isu":10163,"Ġthirt":10164,"antyne":10165,"Ġaul":10166,"Ġachie":10167,"isto":10168,"isted":10169,"Ġiow":10170,"assion":10171,"assau":10172,"Ġhust":10173,"Ġol":10174,"Ġos":10175,"Ġoates":10176,"Ġolly":10177,"Ġolive":10178,"Ġoyster":10179,"Ġsed":10180,"Ġsid":10181,"Ġsavor":10182,"Ġsade":10183,"Ġwrought":10184,"inson":10185,"influ":10186,"rew":10187,"Ġful":10188,"Ġfum":10189,"Ġfaw":10190,"Ġfanta":10191,"Ġfug":10192,"Ġfift":10193,"Ġmp":10194,"Ġmand":10195,"Ġmort":10196,"Ġmah":10197,"Ġmante":10198,"Ġcn":10199,"Ġcil":10200,"Ġcrib":10201,"Ġtheo":10202,"Ġtheory":10203,"Ġlass":10204,"Ġlent":10205,"Ġloose":10206,"Ġlooked":10207,"Ġlush":10208,"Ġpoo":10209,"Ġpour":10210,"Ġpico":10211,"Ġbust":10212,"Ġbroom":10213,"Ġbern":10214,"Ġborder":10215,"Ġbenny":10216,"Ġbuster":10217,"elet":10218,"esa":10219,"esana":10220,"esha":10221,"escence":10222,"Ġanxious":10223,"Ġtoto":10224,"Ġtowards":10225,"Ġgast":10226,"Ġgrit":10227,"Ġgai":10228,"Ġgross":10229,"Ġgables":10230,"onas":10231,"Ġded":10232,"Ġdash":10233,"Ġduel":10234,"Ġdressed":10235,"Ġdata":10236,"enio":10237,"aris":10238,"arill":10239,"ombed":10240,"Ġnun":10241,"Ġnix":10242,"Ġnelly":10243,"Ġnazi":10244,"Ġnassau":10245,"there":10246,"thew":10247,"thead":10248,"thetic":10249,"Ġthats":10250,"Ġhole":10251,"Ġhopes":10252,"Ġhollow":10253,"keh":10254,"oof":10255,"lls":10256,"Ġforsak":10257,"Ġisol":10258,"Ġonere":10259,"ican":10260,"iculous":10261,"Ġliz":10262,"Ġinse":10263,"edon":10264,"Ġwhop":10265,"lee":10266,"lete":10267,"vement":10268,"Ġlikewise":10269,"Ġwiig":10270,"Ġwilm":10271,"Ġral":10272,"Ġrif":10273,"Ġrale":10274,"Ġraz":10275,"Ġrash":10276,"Ġrida":10277,"Ġraces":10278,"Ġrising":10279,"vian":10280,"vill":10281,"viron":10282,"Ġhelsink":10283,"Ġmole":10284,"Ġmoss":10285,"Ġmocking":10286,"Ġhagg":10287,"Ġhalsey":10288,"Ġrecl":10289,"Ġreef":10290,"Ġrefre":10291,"Ġredem":10292,"Ġbever":10293,"Ġbeard":10294,"ilian":10295,"Ġwithersp":10296,"ales":10297,"alho":10298,"Ġnemes":10299,"Ġnecr":10300,"sec":10301,"Ġstard":10302,"Ġstack":10303,"Ġstairs":10304,"ndown":10305,"styl":10306,"stairs":10307,"Ġdol":10308,"Ġdock":10309,"Ġdope":10310,"entions":10311,"entless":10312,"Ġatleas":10313,"Ġsuey":10314,"Ġsutter":10315,"Ġgoodness":10316,"Ġgoodman":10317,"Ġjas":10318,"Ġjew":10319,"Ġjef":10320,"Ġplots":10321,"Ġgoat":10322,"Ġgotta":10323,"Ġchained":10324,"Ġchateau":10325,"Ġchelse":10326,"eaks":10327,"uries":10328,"urity":10329,"urate":10330,"urian":10331,"Ġfrida":10332,"Ġnoah":10333,"Ġnoxious":10334,"Ġsomewhat":10335,"Ġhide":10336,"Ġhirs":10337,"ailer":10338,"Ġrox":10339,"Ġrocks":10340,"Ġelder":10341,"Ġelem":10342,"Ġelabor":10343,"Ġelizabeth":10344,"imely":10345,"imony":10346,"Ġeco":10347,"Ġefr":10348,"Ġevol":10349,"dern":10350,"dero":10351,"derick":10352,"Ġkm":10353,"Ġken":10354,"Ġkam":10355,"Ġkool":10356,"Ġkos":10357,"Ġkai":10358,"Ġkaylor":10359,"Ġkha":10360,"Ġkicked":10361,"Ġkhan":10362,"Ġkiiara":10363,"Ġkesha":10364,"Ġalf":10365,"Ġaloo":10366,"Ġalberts":10367,"Ġalesana":10368,"Ġpercy":10369,"idance":10370,"idio":10371,"Ġgreens":10372,"iring":10373,"Ġships":10374,"Ġshakes":10375,"adis":10376,"adill":10377,"Ġwillis":10378,"Ġuzi":10379,"verted":10380,"allion":10381,"amind":10382,"amisu":10383,"cemi":10384,"Ġflick":10385,"Ġflume":10386,"riders":10387,"Ġalle":10388,"Ġletting":10389,"Ġpry":10390,"Ġpride":10391,"Ġpract":10392,"Ġpreorder":10393,"Ġamanda":10394,"Ġamateur":10395,"Ġsoil":10396,"Ġsober":10397,"Ġheath":10398,"Ġheels":10399,"Ġheather":10400,"ife":10401,"Ġarnett":10402,"Ġens":10403,"Ġenviron":10404,"Ġlog":10405,"Ġspra":10406,"Ġspeaks":10407,"Ġmuf":10408,"Ġmuni":10409,"Ġmunic":10410,"Ġcoerc":10411,"Ġcohen":10412,"Ġtrou":10413,"Ġtratt":10414,"Ġtrap":10415,"Ġtruff":10416,"Ġstark":10417,"Ġstarters":10418,"Ġoutta":10419,"queen":10420,"queline":10421,"akota":10422,"lyn":10423,"Ġ330":10424,"Ġ346":10425,"terranean":10426,"Ġparade":10427,"Ġ475":10428,"Ġmyers":10429,"Ġava":10430,"endetta":10431,"Ġwelsh":10432,"umed":10433,"Ġwatchful":10434,"Ġasem":10435,"Ġadler":10436,"Ġbreed":10437,"Ġmarx":10438,"Ġmarry":10439,"Ġmarie":10440,"Ġmarlin":10441,"Ġdeicide":10442,"Ġupto":10443,"Ġupris":10444,"Ġupended":10445,"Âł'":10446,"Âłim":10447,"Âłro":10448,"Âłup":10449,"Âł20":10450,"Âł25":10451,"Âł24":10452,"Âłplay":10453,"Âłcal":10454,"Âłmini":10455,"Âłenjoy":10456,"Âłarri":10457,"Âłxxx":10458,"Âłresident":10459,"Âłcounting":10460,"Ġvik":10461,"Ġviva":10462,"Ġvitale":10463,"Ġconci":10464,"Ġconrad":10465,"Ġconverted":10466,"Ġ52":10467,"Ġ54":10468,"Ġnowhere":10469,"Ġvance":10470,"Ġvod":10471,"Ġvadis":10472,"Ġpeele":10473,"Ġmann":10474,"Ġmanor":10475,"Ġlapt":10476,"acris":10477,"Ġfeist":10478,"Ġfees":10479,"Ġpoe":10480,"Ġposs":10481,"Ġpoki":10482,"Ġclues":10483,"Ġcluel":10484,"Ġclutch":10485,"Ġclancy":10486,"acker":10487,"Ġ624":10488,"debra":10489,"Ġholding":10490,"Ġbokeh":10491,"Ġawkward":10492,"Ġguidance":10493,"Ġquo":10494,"Ġquirk":10495,"ought":10496,"aren":10497,"Ġtomb":10498,"Ġlistings":10499,"Ġ87":10500,"fire":10501,"erset":10502,"ionship":10503,"Ġexter":10504,"Ġdigg":10505,"Ġleppard":10506,"Ġwherever":10507,"Ġresume":10508,"Ġreturned":10509,"Ġairpl":10510,"dog":10511,"307":10512,"503":10513,"Ġaddiction":10514,"Ġclassy":10515,"Ġhomey":10516,"Ġinterstate":10517,"Ġcalcul":10518,"Ġgene":10519,"Ġgenere":10520,"Ġcarter":10521,"Ġcarond":10522,"Ġundert":10523,"Ġunderwood":10524,"Ġsau":10525,"Ġsabb":10526,"agata":10527,"Ġfranz":10528,"eeney":10529,"Ġjoey":10530,"Ġjokes":10531,"Ġjoanna":10532,"Ġthroughout":10533,"azilian":10534,"Ġunfold":10535,"abo":10536,"about":10537,"nings":10538,"Ġgrown":10539,"Ġgrave":10540,"Ġsetup":10541,"Ġsimpson":10542,"Ġconfused":10543,"201":10544,"204":10545,"iang":10546,"Ġdirects":10547,"ppers":10548,"Ġbetty":10549,"Ġreviewers":10550,"Ġlarb":10551,"Ġlarger":10552,"Ġburg":10553,"Ġchoir":10554,"Ġcourageous":10555,"Ġsimilarly":10556,"Ġhermit":10557,"Ġlasting":10558,"Ġuntimely":10559,"Ġ199":10560,"Ġ1914":10561,"Ġ1997":10562,"eping":10563,"Ġswan":10564,"Ġsweeney":10565,"Ġstanding":10566,"999":10567,"Ġbests":10568,"Ġlouise":10569,"Ġbrain":10570,"Ġbrains":10571,"Ġbrazilian":10572,"Ġreddy":10573,"Ġsalv":10574,"Ġsalma":10575,"Ġwarren":10576,"ilee":10577,"Ġahi":10578,"opsy":10579,"perville":10580,"Ġrecurring":10581,"Ġdesk":10582,"Ġdeslaur":10583,"Ġbucke":10584,"Ġguestroom":10585,"Ġnavig":10586,"Ġnaperville":10587,"Ġglas":10588,"Ġglam":10589,"Ġglenn":10590,"Ġcrush":10591,"asha":10592,"Ġbuscemi":10593,"Ġscars":10594,"Ġscene":10595,"Ġscript":10596,"Ġgyllen":10597,"252":10598,"Ġsuggests":10599,"apolis":10600,"Ġ127":10601,"Ġsmoked":10602,"Ġbusinessman":10603,"Ġoverp":10604,"Ġovercome":10605,"Ġtravelod":10606,"Ġmonk":10607,"Ġmonkey":10608,"otes":10609,"Ġcreated":10610,"Ġcreative":10611,"Ġcontrast":10612,"Ġsynthetic":10613,"Ġcinematic":10614,"Ġkidding":10615,"âĢĿ":10616,"Ġkeaton":10617,"Ġskin":10618,"Ġhorizon":10619,"ipal":10620,"Ġzh":10621,"Ġzip":10622,"Ġmetric":10623,"497":10624,"Ġdinners":10625,"Ġchildhood":10626,"554":10627,"Ġcasab":10628,"Ġrelentless":10629,"Ġhousekeep":10630,"Ġstopping":10631,"Ġbiggie":10632,"163":10633,"Ġpurge":10634,"cadero":10635,"Ġeditor":10636,"Ġedgerton":10637,"Ġscreens":10638,"Ġperformances":10639,"Ġlukas":10640,"Ġgoldf":10641,"Ġnumbers":10642,"Ġsingapore":10643,"Ġhadn":10644,"Ġcompet":10645,"Ġdrinking":10646,"Ġpulling":10647,"Ġstillberger":10648,"Ġfoes":10649,"Ġbelle":10650,"Ġeamon":10651,"Ġfuneral":10652,"183":10653,"redients":10654,"Ġwarsaw":10655,"Ġharv":10656,"Ġharsh":10657,"Ġremem":10658,"Ġslide":10659,"Ġsliced":10660,"aik":10661,"insale":10662,"Ġearned":10663,"Ġhitmans":10664,"Ġclubs":10665,"Ġbowling":10666,"Ġcharges":10667,"Ġsofter":10668,"Ġserena":10669,"Ġanimal":10670,"Ġanimations":10671,"Ġdescended":10672,"Ġhanna":10673,"Ġrocking":10674,"Ġfurt":10675,"Ġsnl":10676,"Ġsnack":10677,"Ġsneak":10678,"Ġpatrick":10679,"Ġelev":10680,"phones":10681,"Ġstruct":10682,"Ġscotty":10683,"Ġ234":10684,"Ġbarbecu":10685,"Ġdisapp":10686,"Ġpointe":10687,"Ġsurvey":10688,"Ġfallen":10689,"Ġbillboards":10690,"1111":10691,"Ġjuliet":10692,"Ġbonnie":10693,"Ġboneless":10694,"Ġdamn":10695,"Ġdamian":10696,"Ġheadphones":10697,"Ġsteely":10698,"Ġmysteries":10699,"Ġgreenhouse":10700,"Ġcotta":10701,"Ġcotton":10702,"Ġpayphone":10703,"Ġbroderick":10704,"Ġcups":10705,"Ġpleasant":10706,"Ġdane":10707,"Ġdanville":10708,"Ġsunrise":10709,"Ġsunset":10710,"ocracy":10711,"Ġpolish":10712,"Ġwallace":10713,"Ġrealize":10714,"Ġscores":10715,"Ġmurs":10716,"Ġaccurate":10717,"Ġstuffed":10718,"278":10719,"Ġsonic":10720,"Ġfinalize":10721,"Ġturndown":10722,"Ġeyesdown":10723,"Ġentangled":10724,"Ġentombed":10725,"onald":10726,"Ġlakewood":10727,"Ġminifridge":10728,"Ġcharlize":10729,"Ġcharleston":10730,"Ġladybird":10731,"Ġlowriders":10732,"Ġcampton":10733,"Ġcambria":10734,"Ġcamarill":10735,"Ġpadre":10736,"Ġsavages":10737,"Ġheartbreak":10738,"Ġsamson":10739,"Ġsamuel":10740,"Ġkills":10741,"Ġsusan":10742,"Ġsushi":10743,"Ġpartying":10744,"282":10745,"284":10746,"2880":10747,"vised":10748,"248":10749,"Ġsomerset":10750,"Ġhillside":10751,"Ġbuilds":10752,"Ġtechnic":10753,"Ġtechnical":10754,"Ġmachines":10755,"gency":10756,"Ġsleeps":10757,"Ġsilicon":10758,"263":10759,"265":10760,"266":10761,"Ġsubdu":10762,"Ġsubterranean":10763,"Âłtheater":10764,"Ġpresidio":10765,"Ġreceives":10766,"Ġmagoo":10767,"Ġtried":10768,"Ġtrials":10769,"Ġstudents":10770,"Ġgeneration":10771,"Ġbenson":10772,"Ġwebs":10773,"Ġpantera":10774,"Ġjama":10775,"Ġcommission":10776,"ropolis":10777,"Ġfacebook":10778,"Ġvintage":10779,"Ġprovidence":10780,"Ġatlas":10781,"Ġghosts":10782,"joe":10783,"Ġsuspenseful":10784,"haal":10785,"Ġvera":10786,"Ġbrighton":10787,"Ġrapsody":10788,"Ġdemocracy":10789,"Ġinspire":10790,"Ġheroic":10791,"Ġballrooms":10792,"Ġintentions":10793,"Ġconditioner":10794,"Ġjennings":10795,"Ġ404":10796,"Ġmarker":10797,"Ġpint":10798,"Ġnatural":10799,"meg":10800,"Ġspanning":10801,"479":10802,"Ġsnowy":10803,"Ġhummus":10804,"Ġboarding":10805,"Ġlearned":10806,"385":10807,"387":10808,"existence":10809,"Ġeuropa":10810,"Ġcompleted":10811,"Âłwould":10812,"Ġthousands":10813,"Ġopin":10814,"Ġcashew":10815,"trailer":10816,"Ġillness":10817,"Ġfandangon":10818,"Ġclarify":10819,"Ġ1972":10820,"Ġ1979":10821,"Ġidentities":10822,"Ġgrove":10823,"Ġgangster":10824,"Ġ2009":10825,"Ġentertaining":10826,"Ġrainfall":10827,"Ġestate":10828,"Ġannies":10829,"Ġsmurf":10830,"Ġmultiplex":10831,"Ġbiryani":10832,"Ġgovernors":10833,"Ġtruths":10834,"Ġmelfi":10835,"Ġmelody":10836,"Ġspeaker":10837,"Ġastley":10838,"Ġvenice":10839,"Ġ602":10840,"Ġoverlooks":10841,"Ġdefine":10842,"ĠâĢľ":10843,"Ġjeopard":10844,"america":10845,"341":10846,"offerson":10847,"Ġmixt":10848,"Ġdomestic":10849,"Ġbeckinsale":10850,"Ġchamber":10851,"Ġgallo":10852,"Ġgalleries":10853,"Ġdrugs":10854,"Ġrecruit":10855,"Ġexplode":10856,"Ġexplosive":10857,"Ġelectron":10858,"Ġclearwater":10859,"ugged":10860,"Ġfabulous":10861,"Ġpillows":10862,"Ġrecords":10863,"Ġrichardson":10864,"Ġcleaning":10865,"Ġnuts":10866,"Ġrefuge":10867,"Ġmartina":10868,"Âłplease":10869,"jacob":10870,"Ġcontrols":10871,"Ġzootropolis":10872,"Ġindependence":10873,"Ġvocalist":10874,"Ġproduced":10875,"Ġproduction":10876,"Ġdestroying":10877,"Ġridiculous":10878,"Ġexpecting":10879,"Ġexpected":10880,"679":10881,"Ġauthor":10882,"Ġdiced":10883,"Ġreunite":10884,"Ġmegamind":10885,"Ġawakening":10886,"Ġtopping":10887,"Ġdumps":10888,"Ġnicely":10889,"Ġnicole":10890,"Ġinfant":10891,"Ġracial":10892,"Ġrebelution":10893,"Ġsteward":10894,"Ġalliances":10895,"Ġnewsom":10896,"Ġcriminals":10897,"Ġsympathy":10898,"Ġjalapeno":10899,"Ġcitizens":10900,"Ġimmort":10901,"Ġtortillas":10902,"Ġhomeland":10903,"Ġkristofferson":10904,"Ġarcadian":10905,"Ġopryland":10906,"Ġrepublic":10907,"Ġstripper":10908,"Ġdoomsday":10909,"Ġspectre":10910,"Ġprofessional":10911,"harry":10912,"Ġtarzan":10913,"Ġinfluences":10914,"Ġdiplo":10915,"Ġcarrying":10916,"Ġteaches":10917,"Ġfreshly":10918,"Ġtasks":10919,"Ġhudgens":10920,"Ġinvolving":10921,"Ġorchard":10922,"Ġrodri":10923,"Ġkoala":10924,"Ġproduce":10925,"Ġembarcadero":10926,"Ġhonestly":10927,"Ġchampagne":10928,"Ġcelebration":10929,"palomar":10930,"Ġirvine":10931,"Ġchandler":10932,"Ġhamburger":10933,"Ġescaped":10934,"Ġwheelchair":10935,"Ġyummy":10936,"Ġchallenge":10937,"Ġshock":10938,"Ġconvince":10939,"Ġlazer":10940,"Ġblurry":10941,"Ġequalizer":10942,"Ġlanguages":10943,"Ġcouches":10944,"Ġduncan":10945,"Ġsafely":10946,"Ġsafety":10947,"Ġgloriana":10948,"Ġestablished":10949,"Ġeffects":10950,"Ġsibling":10951,"Ġsiblings":10952,"Ġpageant":10953,"Ġancestor":10954,"Ġisaac":10955,"Ġisaiah":10956,"Ġrevolver":10957,"Ġcucumber":10958,"Ġcucumbers":10959,"Ġvertigo":10960,"Ġnicholson":10961,"paneled":10962,"Ġathlete":10963,"Ġcandlewood":10964,"Ġjaden":10965,"Ġprepared":10966,"Ġpreachers":10967,"Ġpeanut":10968,"Ġmanchurian":10969,"Ġclimactic":10970,"Ġbridget":10971,"Ġblossoms":10972,"Ġimproved":10973,"Ġfajitas":10974,"Ġautograph":10975,"Ġdeveloping":10976,"Ġprodigy":10977,"madison":10978,"Ġthunda":10979,"Ġjumbo":10980,"Ġkubo":10981,"Ġcommitted":10982,"Ġveteran":10983,"Ġhawaiian":10984,"Ġobliteration":10985,"Ġchimichanga":10986,"Ġbungalows":10987,"Ġolives":10988,"Ġsyndicate":10989,"Ġcigar":10990,"Ġludacris":10991,"Ġdmc":10992,"Ġingredients":10993,"Ġwhiskey":10994,"Ġseagate":10995,"Ġamusement":10996,"Ġascending":10997,"Âłanything":10998,"Ġexclusive":10999,"Ġdigital":11000,"Ġbrooks":11001,"Ġscrapped":11002,"Ġmcdonald":11003,"Ġjournal":11004,"ĠjalapeÃ±os":11005,"Ġchallenged":11006,"Ġpunisher":11007,"Ġaggressive":11008,"Ġilana":11009,"Ġhttps":11010,"Ġyelp":11011,"Ġyamagata":11012,"Ġgripping":11013,"Ġgordon":11014,"lewis":11015,"Ġrachael":11016,"Ġstairway":11017,"Ġjaanu":11018,"Ġtranqu":11019,"Âłcontemporary":11020,"Ġlexington":11021,"Ġbruschetta":11022,"Ġglazer":11023,"Ġwaterfalls":11024,"Ġdisplaces":11025,"Ġmatrimony":11026,"Ġbudweiser":11027,"Ġscheduled":11028,"Ġsacrifice":11029,"Ġflexible":11030,"Ġobviously":11031,"Ġhashbrowns":11032,"Ġopposite":11033,"Ġcontroversial":11034,"Ġapplication":11035,"Ġemployee":11036,"Ġninjago":11037,"Ġpakistani":11038,"drilling":11039,"drama":11040,"kristen":11041,"matthew":11042,"Ġanticip":11043,"Ġtiramisu":11044,"Ġtiffany":11045,"Ġthirteen":11046,"Ġachievement":11047,"Ġiowa":11048,"Ġsavory":11049,"influenced":11050,"Ġfumes":11051,"Ġfawcett":11052,"Ġfifteen":11053,"Ġmandatory":11054,"Ġmantegna":11055,"Ġcilant":11056,"Ġlentil":11057,"Ġnixon":11058,"Ġforsaken":11059,"Ġonerepublic":11060,"Ġwilmington":11061,"Ġralph":11062,"Ġrashad":11063,"Ġhelsinki":11064,"Ġhaggard":11065,"Ġrefresh":11066,"Ġredemption":11067,"Ġwitherspoon":11068,"Ġnemesis":11069,"Ġatleast":11070,"Ġchelsea":11071,"Ġhirsch":11072,"Ġelaborate":11073,"Ġefron":11074,"Ġkosher":11075,"Ġkhao":11076,"adillac":11077,"Ġheathrow":11078,"Ġenvironment":11079,"Ġsprawling":11080,"Ġmunicipal":11081,"Ġcoerced":11082,"Ġtrattoria":11083,"Ġtruffle":11084,"Ġuprising":11085,"Ġconcierge":11086,"Ġvodka":11087,"Ġlaptop":11088,"Ġclueless":11089,"Ġclutches":11090,"Ġquirky":11091,"Ġairplane":11092,"Ġcarondelet":11093,"Ġsimpsons":11094,"Ġhermitage":11095,"Ġdeslauriers":11096,"Ġbuckethead":11097,"Ġgyllenhaal":11098,"Ġtravelodge":11099,"Ġbarbecued":11100,"Ġcamarillo":11101,"Ġsubdued":11102,"Ġcommissioner":11103,"Ġfandangonow":11104}